{
  "version": "1.0",
  "truncation": null,
  "padding": null,
  "added_tokens": [
    {
      "id": 0,
      "content": "[UNK]",
      "single_word": false,
      "lstrip": false,
      "rstrip": false,
      "normalized": false,
      "special": true
    },
    {
      "id": 1,
      "content": "[CLS]",
      "single_word": false,
      "lstrip": false,
      "rstrip": false,
      "normalized": false,
      "special": true
    },
    {
      "id": 2,
      "content": "[SEP]",
      "single_word": false,
      "lstrip": false,
      "rstrip": false,
      "normalized": false,
      "special": true
    },
    {
      "id": 3,
      "content": "[PAD]",
      "single_word": false,
      "lstrip": false,
      "rstrip": false,
      "normalized": false,
      "special": true
    },
    {
      "id": 4,
      "content": "[MASK]",
      "single_word": false,
      "lstrip": false,
      "rstrip": false,
      "normalized": false,
      "special": true
    }
  ],
  "normalizer": null,
  "pre_tokenizer": {
    "type": "Whitespace"
  },
  "post_processor": null,
  "decoder": null,
  "model": {
    "type": "WordPiece",
    "unk_token": "[UNK]",
    "continuing_subword_prefix": "##",
    "max_input_chars_per_word": 100,
    "vocab": {
      "[UNK]": 0,
      "[CLS]": 1,
      "[SEP]": 2,
      "[PAD]": 3,
      "[MASK]": 4,
      "!": 5,
      "\"": 6,
      "#": 7,
      "$": 8,
      "%": 9,
      "'": 10,
      "(": 11,
      ")": 12,
      "*": 13,
      "+": 14,
      ",": 15,
      "-": 16,
      ".": 17,
      "/": 18,
      "0": 19,
      "1": 20,
      "2": 21,
      "3": 22,
      "4": 23,
      "5": 24,
      "6": 25,
      "7": 26,
      "8": 27,
      "9": 28,
      ":": 29,
      ";": 30,
      "=": 31,
      "?": 32,
      "@": 33,
      "A": 34,
      "B": 35,
      "C": 36,
      "D": 37,
      "E": 38,
      "F": 39,
      "G": 40,
      "H": 41,
      "I": 42,
      "J": 43,
      "K": 44,
      "L": 45,
      "M": 46,
      "N": 47,
      "O": 48,
      "P": 49,
      "Q": 50,
      "R": 51,
      "S": 52,
      "T": 53,
      "U": 54,
      "V": 55,
      "W": 56,
      "X": 57,
      "Y": 58,
      "Z": 59,
      "[": 60,
      "]": 61,
      "_": 62,
      "a": 63,
      "b": 64,
      "c": 65,
      "d": 66,
      "e": 67,
      "f": 68,
      "g": 69,
      "h": 70,
      "i": 71,
      "j": 72,
      "k": 73,
      "l": 74,
      "m": 75,
      "n": 76,
      "o": 77,
      "p": 78,
      "q": 79,
      "r": 80,
      "s": 81,
      "t": 82,
      "u": 83,
      "v": 84,
      "w": 85,
      "x": 86,
      "y": 87,
      "z": 88,
      "{": 89,
      "}": 90,
      "°": 91,
      "Æ": 92,
      "à": 93,
      "â": 94,
      "æ": 95,
      "è": 96,
      "é": 97,
      "ê": 98,
      "ô": 99,
      "ö": 100,
      "﻿": 101,
      "##e": 102,
      "##a": 103,
      "##l": 104,
      "##i": 105,
      "##t": 106,
      "##y": 107,
      "##r": 108,
      "##s": 109,
      "##u": 110,
      "##m": 111,
      "##d": 112,
      "##p": 113,
      "##n": 114,
      "##g": 115,
      "##o": 116,
      "##h": 117,
      "##c": 118,
      "##w": 119,
      "##b": 120,
      "##,": 121,
      "##L": 122,
      "##x": 123,
      "##_": 124,
      "##k": 125,
      "##4": 126,
      "##1": 127,
      "##6": 128,
      "##f": 129,
      "##z": 130,
      "##M": 131,
      "##v": 132,
      "##R": 133,
      "##E": 134,
      "##A": 135,
      "##C": 136,
      "##H": 137,
      "##2": 138,
      "##\"": 139,
      "##O": 140,
      "##J": 141,
      "##T": 142,
      "##D": 143,
      "##8": 144,
      "##3": 145,
      "##é": 146,
      "##P": 147,
      "##S": 148,
      "##I": 149,
      "##B": 150,
      "##7": 151,
      "##5": 152,
      "##U": 153,
      "##j": 154,
      "##ö": 155,
      "##K": 156,
      "##q": 157,
      "##0": 158,
      "##.": 159,
      "##ê": 160,
      "##N": 161,
      "##G": 162,
      "##*": 163,
      "##-": 164,
      "##F": 165,
      "##9": 166,
      "##V": 167,
      "##!": 168,
      "##Y": 169,
      "##â": 170,
      "##Z": 171,
      "##'": 172,
      "##W": 173,
      "##X": 174,
      "##?": 175,
      "##}": 176,
      "##à": 177,
      "##ô": 178,
      "##;": 179,
      "##Q": 180,
      "##)": 181,
      "##[": 182,
      "##è": 183,
      "##/": 184,
      "##æ": 185,
      "##]": 186,
      "##(": 187,
      "##Æ": 188,
      "##$": 189,
      "##:": 190,
      "th": 191,
      "the": 192,
      "##er": 193,
      "##in": 194,
      "##en": 195,
      "##ed": 196,
      "##on": 197,
      "##at": 198,
      "##ou": 199,
      "##ar": 200,
      "##an": 201,
      "##es": 202,
      "of": 203,
      "##ing": 204,
      "##or": 205,
      "##ll": 206,
      "an": 207,
      "to": 208,
      "##it": 209,
      "##is": 210,
      "in": 211,
      "##as": 212,
      "##re": 213,
      "##ic": 214,
      "##ly": 215,
      "##le": 216,
      "and": 217,
      "##om": 218,
      "be": 219,
      "##ct": 220,
      "##ion": 221,
      "##th": 222,
      "##ow": 223,
      "##st": 224,
      "##gh": 225,
      "##ent": 226,
      "##ur": 227,
      "##ad": 228,
      "##ut": 229,
      "it": 230,
      "re": 231,
      "##ce": 232,
      "##id": 233,
      "on": 234,
      "##ve": 235,
      "wh": 236,
      "##ld": 237,
      "##se": 238,
      "##al": 239,
      "as": 240,
      "##ot": 241,
      "##ain": 242,
      "that": 243,
      "Th": 244,
      "##ir": 245,
      "##ver": 246,
      "##ro": 247,
      "##ri": 248,
      "at": 249,
      "##et": 250,
      "##ch": 251,
      "##ith": 252,
      "##ect": 253,
      "##im": 254,
      "##ould": 255,
      "##ght": 256,
      "for": 257,
      "he": 258,
      "st": 259,
      "was": 260,
      "with": 261,
      "##ap": 262,
      "##ay": 263,
      "##ere": 264,
      "##nd": 265,
      "is": 266,
      "sh": 267,
      "##ter": 268,
      "The": 269,
      "##all": 270,
      "##ess": 271,
      "##ight": 272,
      "by": 273,
      "##tain": 274,
      "##ave": 275,
      "##ul": 276,
      "ex": 277,
      "con": 278,
      "##est": 279,
      "!\"": 280,
      "not": 281,
      "you": 282,
      "##ble": 283,
      "##ore": 284,
      "we": 285,
      "su": 286,
      "##oon": 287,
      "##il": 288,
      "se": 289,
      "his": 290,
      "##ican": 291,
      "had": 292,
      "or": 293,
      "##arb": 294,
      "##ation": 295,
      "##ject": 296,
      "##arbican": 297,
      "##ich": 298,
      "Barbican": 299,
      "##el": 300,
      "##un": 301,
      ",\"": 302,
      "##ast": 303,
      "Ar": 304,
      "they": 305,
      "##ak": 306,
      "##am": 307,
      "##dan": 308,
      "ne": 309,
      "##ers": 310,
      "Ardan": 311,
      "all": 312,
      "##ill": 313,
      "##ous": 314,
      "de": 315,
      "##ol": 316,
      "##rom": 317,
      "##os": 318,
      "Moon": 319,
      "##um": 320,
      "their": 321,
      "dis": 322,
      "Pro": 323,
      "##ile": 324,
      "##ther": 325,
      "com": 326,
      "##if": 327,
      "##ck": 328,
      "from": 329,
      "##ra": 330,
      "##us": 331,
      "##ds": 332,
      "no": 333,
      "have": 334,
      "Project": 335,
      ".\"": 336,
      "them": 337,
      "##ate": 338,
      "but": 339,
      "##ity": 340,
      "##ant": 341,
      "##ust": 342,
      "##ge": 343,
      "al": 344,
      "##ough": 345,
      "could": 346,
      "this": 347,
      "##pp": 348,
      "pro": 349,
      "so": 350,
      "sp": 351,
      "our": 352,
      "##ound": 353,
      "##ven": 354,
      "##oo": 355,
      "en": 356,
      "--": 357,
      "##our": 358,
      "were": 359,
      "##ome": 360,
      "fe": 361,
      "li": 362,
      "##art": 363,
      "##ace": 364,
      "which": 365,
      "##and": 366,
      "would": 367,
      "##em": 368,
      "Projectile": 369,
      "its": 370,
      "tr": 371,
      "than": 372,
      "?\"": 373,
      "##sel": 374,
      "ab": 375,
      "##oun": 376,
      "sa": 377,
      "##reat": 378,
      "can": 379,
      "##out": 380,
      "wor": 381,
      "Cap": 382,
      "ob": 383,
      "ever": 384,
      "qu": 385,
      "##oll": 386,
      "Captain": 387,
      "more": 388,
      "##pl": 389,
      "##ive": 390,
      "##ke": 391,
      "##ong": 392,
      "me": 393,
      "##end": 394,
      "##ions": 395,
      "##able": 396,
      "her": 397,
      "##ard": 398,
      "##arth": 399,
      "##ost": 400,
      "##cc": 401,
      "been": 402,
      "are": 403,
      "##ab": 404,
      "##qu": 405,
      "un": 406,
      "Wh": 407,
      "ch": 408,
      "##fore": 409,
      "##ence": 410,
      "Earth": 411,
      "##ure": 412,
      "tim": 413,
      "now": 414,
      "there": 415,
      "##pt": 416,
      "ver": 417,
      "##itt": 418,
      "us": 419,
      "##op": 420,
      "one": 421,
      "great": 422,
      "gl": 423,
      "##act": 424,
      "##ried": 425,
      "sur": 426,
      "##ally": 427,
      "comp": 428,
      "##ull": 429,
      "##ind": 430,
      "like": 431,
      "##ach": 432,
      "##ose": 433,
      "##ort": 434,
      "##ite": 435,
      "out": 436,
      "some": 437,
      "pl": 438,
      "po": 439,
      "##ved": 440,
      "##are": 441,
      "##thing": 442,
      "im": 443,
      "very": 444,
      "##ist": 445,
      "It": 446,
      "##ser": 447,
      "##ci": 448,
      "int": 449,
      "only": 450,
      "even": 451,
      "any": 452,
      "ar": 453,
      "le": 454,
      "up": 455,
      "said": 456,
      "do": 457,
      "him": 458,
      "pr": 459,
      "##ell": 460,
      "##av": 461,
      "##ked": 462,
      "##ance": 463,
      "##int": 464,
      "what": 465,
      "##ie": 466,
      "per": 467,
      "if": 468,
      "cried": 469,
      "time": 470,
      "app": 471,
      "##ber": 472,
      "##ass": 473,
      "But": 474,
      "##ig": 475,
      "##ish": 476,
      "##now": 477,
      "##ated": 478,
      "fri": 479,
      "##ear": 480,
      "about": 481,
      "bo": 482,
      "cont": 483,
      "##ittle": 484,
      "obser": 485,
      "##ire": 486,
      "##ible": 487,
      "##self": 488,
      "little": 489,
      "##ph": 490,
      "who": 491,
      "##per": 492,
      "##icholl": 493,
      "##ied": 494,
      "see": 495,
      "Nicholl": 496,
      "must": 497,
      "##ond": 498,
      "ag": 499,
      "##ag": 500,
      "##ide": 501,
      "In": 502,
      "dist": 503,
      "pre": 504,
      "##ine": 505,
      "##unar": 506,
      "tw": 507,
      "##cl": 508,
      "##de": 509,
      "such": 510,
      "##iles": 511,
      "surf": 512,
      "other": 513,
      "fl": 514,
      "long": 515,
      "point": 516,
      "surface": 517,
      "bl": 518,
      "every": 519,
      "##ock": 520,
      "##ary": 521,
      "when": 522,
      "##ays": 523,
      "##ake": 524,
      "man": 525,
      "inter": 526,
      "##ath": 527,
      "##oss": 528,
      "##urn": 529,
      "att": 530,
      "still": 531,
      "miles": 532,
      "gr": 533,
      "cr": 534,
      "know": 535,
      "##ree": 536,
      "##ction": 537,
      "##ame": 538,
      "ad": 539,
      "my": 540,
      "##cul": 541,
      "trave": 542,
      "##ily": 543,
      "##ru": 544,
      "##ves": 545,
      "thr": 546,
      "##ff": 547,
      "##ations": 548,
      "how": 549,
      "travell": 550,
      "ey": 551,
      "should": 552,
      "your": 553,
      "##pr": 554,
      "##ountain": 555,
      "part": 556,
      "und": 557,
      "##ark": 558,
      "over": 559,
      "res": 560,
      "##ful": 561,
      "cl": 562,
      "##one": 563,
      "into": 564,
      "fir": 565,
      "light": 566,
      "##ans": 567,
      "travellers": 568,
      "##ertain": 569,
      "What": 570,
      "##ac": 571,
      "##au": 572,
      "these": 573,
      "##uch": 574,
      "##ater": 575,
      "##ards": 576,
      "lunar": 577,
      "most": 578,
      "##ty": 579,
      "too": 580,
      "acc": 581,
      "##ious": 582,
      "off": 583,
      "never": 584,
      "disc": 585,
      "##ep": 586,
      "rem": 587,
      "sl": 588,
      "##ment": 589,
      "##oc": 590,
      "reg": 591,
      "They": 592,
      "mo": 593,
      "mountain": 594,
      "before": 595,
      "##ies": 596,
      "##ood": 597,
      "mom": 598,
      "##ever": 599,
      "##ack": 600,
      "##less": 601,
      "##esc": 602,
      "moment": 603,
      "##ron": 604,
      "ter": 605,
      "##ely": 606,
      "being": 607,
      "work": 608,
      "No": 609,
      "##ered": 610,
      "under": 611,
      "last": 612,
      "much": 613,
      "poss": 614,
      "##ens": 615,
      "##ently": 616,
      "cons": 617,
      "##iff": 618,
      "pres": 619,
      "co": 620,
      "##led": 621,
      "near": 622,
      "few": 623,
      "has": 624,
      "bec": 625,
      "inst": 626,
      "##ink": 627,
      "through": 628,
      "Sun": 629,
      "say": 630,
      "loo": 631,
      "will": 632,
      "asked": 633,
      "##ling": 634,
      "two": 635,
      "day": 636,
      "##ne": 637,
      "##ness": 638,
      "##ving": 639,
      "first": 640,
      "br": 641,
      "##een": 642,
      "##igh": 643,
      "##00": 644,
      "##own": 645,
      "repl": 646,
      "##ub": 647,
      "##az": 648,
      "##ying": 649,
      "##ense": 650,
      "##ully": 651,
      "far": 652,
      "##fter": 653,
      "rep": 654,
      "form": 655,
      "##phere": 656,
      "soon": 657,
      "##iz": 658,
      "##vid": 659,
      "##ends": 660,
      "##ating": 661,
      "read": 662,
      "str": 663,
      "enough": 664,
      "He": 665,
      "certain": 666,
      "hour": 667,
      "nor": 668,
      "though": 669,
      "##ount": 670,
      "dire": 671,
      "##ning": 672,
      "##ature": 673,
      "This": 674,
      "present": 675,
      "diff": 676,
      "##icul": 677,
      "sec": 678,
      "cal": 679,
      "pe": 680,
      "##ang": 681,
      "replied": 682,
      "hard": 683,
      "##wards": 684,
      "##ical": 685,
      "##ade": 686,
      "##uten": 687,
      "eas": 688,
      "##und": 689,
      "##ced": 690,
      "where": 691,
      "##ip": 692,
      "##man": 693,
      "##wn": 694,
      "##ord": 695,
      "##selves": 696,
      "contin": 697,
      "Fr": 698,
      "TH": 699,
      "##cid": 700,
      "observed": 701,
      "may": 702,
      "##ail": 703,
      "##atter": 704,
      "bet": 705,
      "vel": 706,
      "ext": 707,
      "well": 708,
      "veloc": 709,
      "cour": 710,
      "then": 711,
      "##ably": 712,
      "friends": 713,
      "velocity": 714,
      "We": 715,
      "min": 716,
      "##ise": 717,
      "ref": 718,
      "##ific": 719,
      "again": 720,
      "after": 721,
      "therefore": 722,
      "##pect": 723,
      "##og": 724,
      "##berg": 725,
      "course": 726,
      "fall": 727,
      "##orm": 728,
      "##itu": 729,
      "just": 730,
      "##ry": 731,
      "##sw": 732,
      "##atch": 733,
      "beg": 734,
      "she": 735,
      "perf": 736,
      "##utenberg": 737,
      "_M": 738,
      "night": 739,
      "right": 740,
      "##rib": 741,
      "quest": 742,
      "##aving": 743,
      "hardly": 744,
      "##mos": 745,
      "##ces": 746,
      "##ston": 747,
      "##aking": 748,
      "himself": 749,
      "eyes": 750,
      "You": 751,
      "sm": 752,
      "##dd": 753,
      "those": 754,
      "##ase": 755,
      "##read": 756,
      "##ice": 757,
      "once": 758,
      "atmos": 759,
      "##eter": 760,
      "Mar": 761,
      "##ft": 762,
      "##ick": 763,
      "high": 764,
      "##age": 765,
      "##ings": 766,
      "##ows": 767,
      "imp": 768,
      "Gutenberg": 769,
      "care": 770,
      "occ": 771,
      "##ory": 772,
      "without": 773,
      "nothing": 774,
      "St": 775,
      "made": 776,
      "answ": 777,
      "reach": 778,
      "start": 779,
      "compan": 780,
      "imm": 781,
      "THE": 782,
      "air": 783,
      "don": 784,
      "##ting": 785,
      "##ought": 786,
      "shall": 787,
      "friend": 788,
      "attra": 789,
      "consid": 790,
      "atmosphere": 791,
      "fact": 792,
      "sc": 793,
      "##lect": 794,
      "sub": 795,
      "around": 796,
      "calcul": 797,
      "continu": 798,
      "aw": 799,
      "ph": 800,
      "##oub": 801,
      "##alf": 802,
      "ke": 803,
      "##red": 804,
      "##app": 805,
      "--\"": 806,
      "feet": 807,
      "quite": 808,
      "##ished": 809,
      "Marston": 810,
      "get": 811,
      "##ib": 812,
      "##ower": 813,
      "##imp": 814,
      "distance": 815,
      "At": 816,
      "go": 817,
      "##oy": 818,
      "##other": 819,
      "##ench": 820,
      "appear": 821,
      "men": 822,
      "side": 823,
      "turn": 824,
      "##fully": 825,
      "think": 826,
      "##ars": 827,
      "##ors": 828,
      "however": 829,
      "cent": 830,
      "di": 831,
      "dark": 832,
      "half": 833,
      "##king": 834,
      "##tern": 835,
      "abs": 836,
      "mountains": 837,
      "minut": 838,
      "end": 839,
      "##so": 840,
      "##ott": 841,
      "dep": 842,
      "##press": 843,
      "slight": 844,
      "direct": 845,
      "might": 846,
      "##ue": 847,
      "##der": 848,
      "##ains": 849,
      "There": 850,
      "spe": 851,
      "least": 852,
      "perfect": 853,
      "own": 854,
      "same": 855,
      "towards": 856,
      "inf": 857,
      "rec": 858,
      "themselves": 859,
      "French": 860,
      "did": 861,
      "em": 862,
      "water": 863,
      "three": 864,
      "##reak": 865,
      "decid": 866,
      "##ope": 867,
      "question": 868,
      "companions": 869,
      "bri": 870,
      "good": 871,
      "lif": 872,
      "##let": 873,
      "##ither": 874,
      "##rupt": 875,
      "am": 876,
      "##air": 877,
      "##ud": 878,
      "##ually": 879,
      "##ange": 880,
      "inv": 881,
      "seen": 882,
      "decided": 883,
      "How": 884,
      "ast": 885,
      "cur": 886,
      "des": 887,
      "thous": 888,
      "##ason": 889,
      "##aph": 890,
      "exce": 891,
      "new": 892,
      "##ately": 893,
      "To": 894,
      "cle": 895,
      "la": 896,
      "##otion": 897,
      "##imed": 898,
      "head": 899,
      "exact": 900,
      "##cient": 901,
      "##ronom": 902,
      "possible": 903,
      "minutes": 904,
      "Se": 905,
      "call": 906,
      "down": 907,
      "take": 908,
      "##iet": 909,
      "##most": 910,
      "##ER": 911,
      "That": 912,
      "##ign": 913,
      "##ause": 914,
      "##dden": 915,
      "If": 916,
      "gi": 917,
      "having": 918,
      "pass": 919,
      "##ands": 920,
      "##ited": 921,
      "inc": 922,
      "excl": 923,
      "bod": 924,
      "##oubt": 925,
      "act": 926,
      "fur": 927,
      "foll": 928,
      "matter": 929,
      "old": 930,
      "##od": 931,
      "##owed": 932,
      "sudden": 933,
      "second": 934,
      "sol": 935,
      "##ms": 936,
      "##ared": 937,
      "##ition": 938,
      "heat": 939,
      "##apid": 940,
      "observ": 941,
      "easily": 942,
      "ide": 943,
      "sou": 944,
      "way": 945,
      "##wh": 946,
      "##ined": 947,
      "##isible": 948,
      "alt": 949,
      "glass": 950,
      "make": 951,
      "rapid": 952,
      "wond": 953,
      "yet": 954,
      "##vel": 955,
      "supp": 956,
      "prob": 957,
      "eye": 958,
      "hours": 959,
      "continued": 960,
      "thousand": 961,
      "And": 962,
      "##res": 963,
      "##raph": 964,
      "##over": 965,
      "##arly": 966,
      "object": 967,
      "whole": 968,
      "consider": 969,
      "eff": 970,
      "less": 971,
      "op": 972,
      "tem": 973,
      "tell": 974,
      "##ix": 975,
      "##ged": 976,
      "##ways": 977,
      "##ween": 978,
      "##ene": 979,
      "##ened": 980,
      "##edi": 981,
      "##ash": 982,
      "##ents": 983,
      "reason": 984,
      "seem": 985,
      "also": 986,
      "always": 987,
      "times": 988,
      "##itude": 989,
      "det": 990,
      "each": 991,
      "tm": 992,
      "##a_": 993,
      "##ict": 994,
      "comm": 995,
      "space": 996,
      "complet": 997,
      "adv": 998,
      "Well": 999,
      "vol": 1000,
      "wind": 1001,
      "bel": 1002,
      "##ides": 1003,
      "##ets": 1004,
      "##aps": 1005,
      "##ility": 1006,
      "##atell": 1007,
      "world": 1008,
      "means": 1009,
      "##undred": 1010,
      "##ready": 1011,
      "idea": 1012,
      "here": 1013,
      "hundred": 1014,
      "rest": 1015,
      "sw": 1016,
      "wr": 1017,
      "##ener": 1018,
      "##ult": 1019,
      "exc": 1020,
      "already": 1021,
      "left": 1022,
      "##ather": 1023,
      "regard": 1024,
      "north": 1025,
      "between": 1026,
      "000": 1027,
      "back": 1028,
      "evid": 1029,
      "found": 1030,
      "par": 1031,
      "##ual": 1032,
      "##mit": 1033,
      "another": 1034,
      "ret": 1035,
      "##vers": 1036,
      "shad": 1037,
      "almost": 1038,
      "mean": 1039,
      "##avor": 1040,
      "flo": 1041,
      "instant": 1042,
      "reply": 1043,
      "certainly": 1044,
      "differ": 1045,
      "away": 1046,
      "Not": 1047,
      "_S": 1048,
      "cir": 1049,
      "desc": 1050,
      "ro": 1051,
      "scient": 1052,
      "vast": 1053,
      "##ial": 1054,
      "##rest": 1055,
      "##du": 1056,
      "##hab": 1057,
      "##iss": 1058,
      "##owing": 1059,
      "ste": 1060,
      "become": 1061,
      "answered": 1062,
      "doubt": 1063,
      "full": 1064,
      "kind": 1065,
      "let": 1066,
      "motion": 1067,
      "nature": 1068,
      "simp": 1069,
      "##aimed": 1070,
      "##ild": 1071,
      "##mer": 1072,
      "##fast": 1073,
      "##roach": 1074,
      "##elen": 1075,
      "##aken": 1076,
      "##gether": 1077,
      "char": 1078,
      "black": 1079,
      "interrupt": 1080,
      "attraction": 1081,
      "suddenly": 1082,
      "As": 1083,
      "mor": 1084,
      "##ian": 1085,
      "##ral": 1086,
      "##zling": 1087,
      "##--": 1088,
      "quiet": 1089,
      "many": 1090,
      "_Mare": 1091,
      "subject": 1092,
      "car": 1093,
      "done": 1094,
      "hand": 1095,
      "##up": 1096,
      "##ks": 1097,
      "##atis": 1098,
      "##ative": 1099,
      "##ures": 1100,
      "itself": 1101,
      "exist": 1102,
      "dear": 1103,
      "##osed": 1104,
      "##us_": 1105,
      "looked": 1106,
      "began": 1107,
      "Frenchman": 1108,
      "wonder": 1109,
      "##atellite": 1110,
      "An": 1111,
      "Selen": 1112,
      "bott": 1113,
      "four": 1114,
      "hum": 1115,
      "vi": 1116,
      "year": 1117,
      "##ten": 1118,
      "##old": 1119,
      "##he": 1120,
      "thing": 1121,
      "##adi": 1122,
      "Then": 1123,
      "##elesc": 1124,
      "carefully": 1125,
      "life": 1126,
      "astronom": 1127,
      "##restri": 1128,
      "_C": 1129,
      "count": 1130,
      "power": 1131,
      "##aut": 1132,
      "why": 1133,
      "disp": 1134,
      "called": 1135,
      "Cl": 1136,
      "Yes": 1137,
      "able": 1138,
      "rays": 1139,
      "sk": 1140,
      "set": 1141,
      "six": 1142,
      "##ys": 1143,
      "##sc": 1144,
      "##rem": 1145,
      "expl": 1146,
      "##amp": 1147,
      "##olut": 1148,
      "approach": 1149,
      "terrestri": 1150,
      "exclaimed": 1151,
      "favor": 1152,
      "sil": 1153,
      "##ted": 1154,
      "conf": 1155,
      "difficul": 1156,
      "keep": 1157,
      "slightest": 1158,
      "probably": 1159,
      "temper": 1160,
      "For": 1161,
      "days": 1162,
      "elect": 1163,
      "give": 1164,
      "jour": 1165,
      "ser": 1166,
      "##cis": 1167,
      "##ates": 1168,
      "##aters": 1169,
      "inhab": 1170,
      "##ident": 1171,
      "##tered": 1172,
      "deg": 1173,
      "exactly": 1174,
      "further": 1175,
      "terrestrial": 1176,
      "mid": 1177,
      "##ex": 1178,
      "##aring": 1179,
      "##ann": 1180,
      "##ths": 1181,
      "##ured": 1182,
      "##ement": 1183,
      "greater": 1184,
      "nearly": 1185,
      "##ney": 1186,
      "rapidly": 1187,
      "completely": 1188,
      "cor": 1189,
      "cop": 1190,
      "equ": 1191,
      "ill": 1192,
      "radi": 1193,
      "vo": 1194,
      "##cess": 1195,
      "thought": 1196,
      "ind": 1197,
      "##rew": 1198,
      "##ury": 1199,
      "##uring": 1200,
      "rel": 1201,
      "##sequ": 1202,
      "Why": 1203,
      "both": 1204,
      "morning": 1205,
      "Be": 1206,
      "case": 1207,
      "ple": 1208,
      "rather": 1209,
      "sound": 1210,
      "telesc": 1211,
      "##ier": 1212,
      "##gen": 1213,
      "##ove": 1214,
      "##ogether": 1215,
      "thir": 1216,
      "##ering": 1217,
      "##ons": 1218,
      "##stand": 1219,
      "##ular": 1220,
      "somewh": 1221,
      "crater": 1222,
      "altogether": 1223,
      "regarding": 1224,
      "journey": 1225,
      "On": 1226,
      "ac": 1227,
      "find": 1228,
      "gas": 1229,
      "gra": 1230,
      "ten": 1231,
      "ut": 1232,
      "##fact": 1233,
      "##arp": 1234,
      "##ites": 1235,
      "##enty": 1236,
      "sum": 1237,
      "order": 1238,
      "##um_": 1239,
      "##umin": 1240,
      "##thern": 1241,
      "come": 1242,
      "##que": 1243,
      "clock": 1244,
      "##pected": 1245,
      "centre": 1246,
      "bright": 1247,
      "quietly": 1248,
      "Club": 1249,
      "Bel": 1250,
      "His": 1251,
      "Let": 1252,
      "daz": 1253,
      "num": 1254,
      "vie": 1255,
      "##ew": 1256,
      "##ob": 1257,
      "##ON": 1258,
      "often": 1259,
      "##ingu": 1260,
      "##ret": 1261,
      "ass": 1262,
      "express": 1263,
      "##elt": 1264,
      "che": 1265,
      "##cious": 1266,
      "anything": 1267,
      "add": 1268,
      "peak": 1269,
      "immedi": 1270,
      "either": 1271,
      "fam": 1272,
      "gener": 1273,
      "met": 1274,
      "##les": 1275,
      "##oom": 1276,
      "##cy": 1277,
      "##ingly": 1278,
      "ins": 1279,
      "rece": 1280,
      "##cean": 1281,
      "##alt": 1282,
      "##tering": 1283,
      "##ief": 1284,
      "longer": 1285,
      "discover": 1286,
      "##ribut": 1287,
      "small": 1288,
      "clear": 1289,
      "evidently": 1290,
      "dazzling": 1291,
      "view": 1292,
      "By": 1293,
      "Lunar": 1294,
      "lay": 1295,
      "line": 1296,
      "opp": 1297,
      "tra": 1298,
      "want": 1299,
      "##ric": 1300,
      "##can": 1301,
      "##oud": 1302,
      "##ici": 1303,
      "whose": 1304,
      "heart": 1305,
      "weight": 1306,
      "##atever": 1307,
      "prof": 1308,
      "spl": 1309,
      "##ook": 1310,
      "##ccess": 1311,
      "appar": 1312,
      "everything": 1313,
      "terri": 1314,
      "body": 1315,
      "interrupted": 1316,
      "All": 1317,
      "Ch": 1318,
      "Now": 1319,
      "_A": 1320,
      "break": 1321,
      "port": 1322,
      "rock": 1323,
      "tal": 1324,
      "taken": 1325,
      "west": 1326,
      "##ior": 1327,
      "##ps": 1328,
      "##ng": 1329,
      "##inary": 1330,
      "##ont": 1331,
      "##ouble": 1332,
      "whatever": 1333,
      "hear": 1334,
      "heard": 1335,
      "within": 1336,
      "##ape": 1337,
      "pret": 1338,
      "interest": 1339,
      "works": 1340,
      "occas": 1341,
      "##ibly": 1342,
      "absolut": 1343,
      "law": 1344,
      "bottom": 1345,
      "human": 1346,
      "temperature": 1347,
      "bol": 1348,
      "felt": 1349,
      "lying": 1350,
      "pos": 1351,
      "##get": 1352,
      "##ese": 1353,
      "##asure": 1354,
      "##ically": 1355,
      "##omen": 1356,
      "consequ": 1357,
      "suff": 1358,
      "success": 1359,
      "sever": 1360,
      "place": 1361,
      "prev": 1362,
      "took": 1363,
      "move": 1364,
      "##ubl": 1365,
      "decidedly": 1366,
      "inhabit": 1367,
      "Belfast": 1368,
      "famous": 1369,
      "OF": 1370,
      "dim": 1371,
      "gaz": 1372,
      "mag": 1373,
      "put": 1374,
      "sing": 1375,
      "sign": 1376,
      "satis": 1377,
      "tri": 1378,
      "##br": 1379,
      "##arn": 1380,
      "##aris": 1381,
      "##ised": 1382,
      "##rees": 1383,
      "short": 1384,
      "##essed": 1385,
      "sun": 1386,
      "necess": 1387,
      "project": 1388,
      "surpr": 1389,
      "contr": 1390,
      "account": 1391,
      "remark": 1392,
      "##ments": 1393,
      "readily": 1394,
      "Therefore": 1395,
      "perfectly": 1396,
      "actually": 1397,
      "Bl": 1398,
      "De": 1399,
      "best": 1400,
      "cra": 1401,
      "fire": 1402,
      "fully": 1403,
      "lost": 1404,
      "map": 1405,
      "ring": 1406,
      "##ael": 1407,
      "##OR": 1408,
      "##arm": 1409,
      "real": 1410,
      "state": 1411,
      "conc": 1412,
      "##ants": 1413,
      "produ": 1414,
      "spot": 1415,
      "##ended": 1416,
      "plains": 1417,
      "grand": 1418,
      "craters": 1419,
      "cold": 1420,
      "diam": 1421,
      "observations": 1422,
      "effect": 1423,
      "return": 1424,
      "terrible": 1425,
      "Do": 1426,
      "Mich": 1427,
      "Un": 1428,
      "bu": 1429,
      "face": 1430,
      "free": 1431,
      "land": 1432,
      "##AR": 1433,
      "##TE": 1434,
      "##IN": 1435,
      "##rect": 1436,
      "##omp": 1437,
      "##cho": 1438,
      "##umb": 1439,
      "##ract": 1440,
      "saw": 1441,
      "worth": 1442,
      "##ortun": 1443,
      "particul": 1444,
      "moving": 1445,
      "understand": 1446,
      "strong": 1447,
      "##ording": 1448,
      "against": 1449,
      "going": 1450,
      "appeared": 1451,
      "turned": 1452,
      "south": 1453,
      "shadow": 1454,
      "different": 1455,
      "viol": 1456,
      "Oh": 1457,
      "Of": 1458,
      "del": 1459,
      "during": 1460,
      "lau": 1461,
      "pur": 1462,
      "sy": 1463,
      "squ": 1464,
      "##ia": 1465,
      "##ss": 1466,
      "##haps": 1467,
      "##xt": 1468,
      "##eng": 1469,
      "##thers": 1470,
      "##ceed": 1471,
      "hel": 1472,
      "height": 1473,
      "stru": 1474,
      "##tained": 1475,
      "orb": 1476,
      "dead": 1477,
      "##uss": 1478,
      "##ush": 1479,
      "prop": 1480,
      "fell": 1481,
      "cann": 1482,
      "poor": 1483,
      "prep": 1484,
      "known": 1485,
      "slow": 1486,
      "##ize": 1487,
      "direction": 1488,
      "window": 1489,
      "circ": 1490,
      "years": 1491,
      "somewhat": 1492,
      "Michael": 1493,
      "Amer": 1494,
      "col": 1495,
      "five": 1496,
      "others": 1497,
      "use": 1498,
      "##ians": 1499,
      "##AP": 1500,
      "##ern": 1501,
      "anim": 1502,
      "inde": 1503,
      "requ": 1504,
      "while": 1505,
      "These": 1506,
      "##ired": 1507,
      "ord": 1508,
      "feel": 1509,
      "plan": 1510,
      "peri": 1511,
      "better": 1512,
      "##ograph": 1513,
      "immense": 1514,
      "solar": 1515,
      "describ": 1516,
      "astronomers": 1517,
      "voice": 1518,
      "splend": 1519,
      "suffici": 1520,
      "several": 1521,
      "magn": 1522,
      "_P": 1523,
      "bene": 1524,
      "dra": 1525,
      "east": 1526,
      "fin": 1527,
      "fast": 1528,
      "red": 1529,
      "visible": 1530,
      "##cing": 1531,
      "##ening": 1532,
      "##enomen": 1533,
      "##ream": 1534,
      "##utral": 1535,
      "really": 1536,
      "##als": 1537,
      "##ained": 1538,
      "hem": 1539,
      "streak": 1540,
      "shock": 1541,
      "##akes": 1542,
      "next": 1543,
      "neutral": 1544,
      "deep": 1545,
      "something": 1546,
      "plain": 1547,
      "look": 1548,
      "##ormous": 1549,
      "phenomen": 1550,
      "kept": 1551,
      "summit": 1552,
      "immediately": 1553,
      "##ublic": 1554,
      "diameter": 1555,
      "laugh": 1556,
      "Even": 1557,
      "Pres": 1558,
      "hor": 1559,
      "sens": 1560,
      "satellite": 1561,
      "wall": 1562,
      "##men": 1563,
      "##gg": 1564,
      "##vity": 1565,
      "##OU": 1566,
      "##TER": 1567,
      "##ins": 1568,
      "##ination": 1569,
      "##lli": 1570,
      "##its": 1571,
      "##ities": 1572,
      "##idge": 1573,
      "##ross": 1574,
      "disapp": 1575,
      "##cks": 1576,
      "enormous": 1577,
      "word": 1578,
      "words": 1579,
      "quick": 1580,
      "glit": 1581,
      "##cience": 1582,
      "does": 1583,
      "adm": 1584,
      "looking": 1585,
      "strange": 1586,
      "extrem": 1587,
      "attract": 1588,
      "##ternal": 1589,
      "infl": 1590,
      "invisible": 1591,
      "passed": 1592,
      "seemed": 1593,
      "volcan": 1594,
      "floor": 1595,
      "scientific": 1596,
      "existence": 1597,
      "electron": 1598,
      "degrees": 1599,
      "pretty": 1600,
      "occasion": 1601,
      "Ever": 1602,
      "ball": 1603,
      "bull": 1604,
      "cap": 1605,
      "fif": 1606,
      "hy": 1607,
      "making": 1608,
      "watch": 1609,
      "##sp": 1610,
      "##mber": 1611,
      "##hann": 1612,
      "##II": 1613,
      "##ines": 1614,
      "##ony": 1615,
      "##onds": 1616,
      "##esides": 1617,
      "##entle": 1618,
      "reve": 1619,
      "sharp": 1620,
      "exp": 1621,
      "const": 1622,
      "##used": 1623,
      "##usque": 1624,
      "unt": 1625,
      "##ople": 1626,
      "arg": 1627,
      "distingu": 1628,
      "##aces": 1629,
      "cool": 1630,
      "because": 1631,
      "ready": 1632,
      "reflect": 1633,
      "begin": 1634,
      "occup": 1635,
      "calculated": 1636,
      "depths": 1637,
      "directly": 1638,
      "given": 1639,
      "detail": 1640,
      "_Susque": 1641,
      "Selenites": 1642,
      "sky": 1643,
      "satisfact": 1644,
      "hemis": 1645,
      "President": 1646,
      "_Susquehann": 1647,
      "came": 1648,
      "catch": 1649,
      "dang": 1650,
      "el": 1651,
      "esc": 1652,
      "hot": 1653,
      "hands": 1654,
      "lar": 1655,
      "low": 1656,
      "list": 1657,
      "main": 1658,
      "sight": 1659,
      "##ele": 1660,
      "##ah": 1661,
      "##iar": 1662,
      "##gr": 1663,
      "##co": 1664,
      "##LL": 1665,
      "##AN": 1666,
      "##atur": 1667,
      "##ances": 1668,
      "ann": 1669,
      "##cept": 1670,
      "##rig": 1671,
      "exper": 1672,
      "##ume": 1673,
      "##antic": 1674,
      "##ustr": 1675,
      "##empt": 1676,
      "##ists": 1677,
      "arri": 1678,
      "twenty": 1679,
      "##vided": 1680,
      "seconds": 1681,
      "exceed": 1682,
      "wonderful": 1683,
      "necessary": 1684,
      "##ength": 1685,
      "electronic": 1686,
      "_Susquehanna_": 1687,
      "CH": 1688,
      "Col": 1689,
      "Eng": 1690,
      "aff": 1691,
      "bur": 1692,
      "bus": 1693,
      "gave": 1694,
      "lat": 1695,
      "mon": 1696,
      "ox": 1697,
      "ru": 1698,
      "taking": 1699,
      "ve": 1700,
      "##ead": 1701,
      "##of": 1702,
      "##bed": 1703,
      "##TI": 1704,
      "##ince": 1705,
      "##ention": 1706,
      "##imore": 1707,
      "fort": 1708,
      "stri": 1709,
      "##osing": 1710,
      "enter": 1711,
      "trans": 1712,
      "trouble": 1713,
      "usual": 1714,
      "intell": 1715,
      "grad": 1716,
      "result": 1717,
      "falling": 1718,
      "reached": 1719,
      "darkness": 1720,
      "except": 1721,
      "Sea": 1722,
      "excit": 1723,
      "simple": 1724,
      "##altimore": 1725,
      "help": 1726,
      "##APTER": 1727,
      "beneath": 1728,
      "disappear": 1729,
      "CHAPTER": 1730,
      "10": 1731,
      "With": 1732,
      "_T": 1733,
      "gu": 1734,
      "gentle": 1735,
      "hope": 1736,
      "mill": 1737,
      "ris": 1738,
      "var": 1739,
      "went": 1740,
      "wild": 1741,
      "##iver": 1742,
      "##ived": 1743,
      "##rum": 1744,
      "##oot": 1745,
      "##iter": 1746,
      "##aint": 1747,
      "conv": 1748,
      "sure": 1749,
      "org": 1750,
      "##ung": 1751,
      "##ounds": 1752,
      "##ounter": 1753,
      "saf": 1754,
      "##ending": 1755,
      "perhaps": 1756,
      "distribut": 1757,
      "respect": 1758,
      "presented": 1759,
      "bodies": 1760,
      "##velop": 1761,
      "open": 1762,
      "motionless": 1763,
      "favorable": 1764,
      "difficult": 1765,
      "copy": 1766,
      "telescope": 1767,
      "portion": 1768,
      "Dece": 1769,
      "slowly": 1770,
      "indeed": 1771,
      "sufficient": 1772,
      "streaks": 1773,
      "influ": 1774,
      "until": 1775,
      ".]": 1776,
      "18": 1777,
      "Baltimore": 1778,
      "Found": 1779,
      "Our": 1780,
      "So": 1781,
      "breat": 1782,
      "burn": 1783,
      "est": 1784,
      "ecl": 1785,
      "mind": 1786,
      "tried": 1787,
      "##ler": 1788,
      "##iv": 1789,
      "##ygen": 1790,
      "##side": 1791,
      "##ES": 1792,
      "##EN": 1793,
      "things": 1794,
      "##ics": 1795,
      "##thus": 1796,
      "##urra": 1797,
      "##rim": 1798,
      "star": 1799,
      "stand": 1800,
      "Their": 1801,
      "expected": 1802,
      "##illed": 1803,
      "##pped": 1804,
      "enthus": 1805,
      "##itting": 1806,
      "glob": 1807,
      "intense": 1808,
      "seeing": 1809,
      "blaz": 1810,
      "close": 1811,
      "regular": 1812,
      "Nothing": 1813,
      "brought": 1814,
      "##ized": 1815,
      "pecul": 1816,
      "getting": 1817,
      "observation": 1818,
      "charact": 1819,
      "country": 1820,
      "approaching": 1821,
      "gravity": 1822,
      "peaks": 1823,
      "circum": 1824,
      "bullet": 1825,
      "reveal": 1826,
      "hemisphere": 1827,
      "December": 1828,
      "Foundation": 1829,
      "eclip": 1830,
      "##urrah": 1831,
      "enthusi": 1832,
      "Gun": 1833,
      "New": 1834,
      "pen": 1835,
      "prom": 1836,
      "rend": 1837,
      "sent": 1838,
      "##aven": 1839,
      "##sh": 1840,
      "##sb": 1841,
      "##ple": 1842,
      "##ED": 1843,
      "##ND": 1844,
      "##itch": 1845,
      "##itable": 1846,
      "incl": 1847,
      "##ased": 1848,
      "##ection": 1849,
      "exam": 1850,
      "cond": 1851,
      "seven": 1852,
      "need": 1853,
      "##ously": 1854,
      "true": 1855,
      "##ability": 1856,
      "##opes": 1857,
      "imag": 1858,
      "arr": 1859,
      "ago": 1860,
      "prec": 1861,
      "##acific": 1862,
      "terms": 1863,
      "answer": 1864,
      "started": 1865,
      "brilli": 1866,
      "following": 1867,
      "##ashed": 1868,
      "simply": 1869,
      "illumin": 1870,
      "number": 1871,
      "absolutely": 1872,
      "posit": 1873,
      "single": 1874,
      "Every": 1875,
      "argum": 1876,
      "beginning": 1877,
      "danger": 1878,
      "##ustration": 1879,
      "oxygen": 1880,
      "globe": 1881,
      "peculiar": 1882,
      "15": 1883,
      "Ill": 1884,
      "San": 1885,
      "cut": 1886,
      "counter": 1887,
      "fr": 1888,
      "mass": 1889,
      "name": 1890,
      "ocean": 1891,
      "past": 1892,
      "public": 1893,
      "##ale": 1894,
      "##ts": 1895,
      "##teen": 1896,
      "##mb": 1897,
      "##night": 1898,
      "##ole": 1899,
      "##oth": 1900,
      "##ward": 1901,
      "##vis": 1902,
      "##AL": 1903,
      "##TH": 1904,
      "##ero": 1905,
      "##inion": 1906,
      "##ati": 1907,
      "##ank": 1908,
      "##asm": 1909,
      "##aster": 1910,
      "beh": 1911,
      "##iment": 1912,
      "forever": 1913,
      "show": 1914,
      "##allel": 1915,
      "concl": 1916,
      "sea": 1917,
      "dev": 1918,
      "##umed": 1919,
      "eng": 1920,
      "##emb": 1921,
      "unc": 1922,
      "upon": 1923,
      "##ield": 1924,
      "##ishing": 1925,
      "agre": 1926,
      "distant": 1927,
      "blind": 1928,
      "attempt": 1929,
      "myself": 1930,
      "##iously": 1931,
      "regions": 1932,
      "nearer": 1933,
      "became": 1934,
      "instrum": 1935,
      "people": 1936,
      "directions": 1937,
      "##uded": 1938,
      "curve": 1939,
      "glasses": 1940,
      "detect": 1941,
      "below": 1942,
      "##atively": 1943,
      "powerful": 1944,
      "dispatch": 1945,
      "silence": 1946,
      "equal": 1947,
      "movement": 1948,
      "struck": 1949,
      "American": 1950,
      "period": 1951,
      "character": 1952,
      "brilliant": 1953,
      "positive": 1954,
      "Illustration": 1955,
      "20": 1956,
      "Besides": 1957,
      "Had": 1958,
      "Is": 1959,
      "Mr": 1960,
      "Pacific": 1961,
      "Satellite": 1962,
      "_N": 1963,
      "dr": 1964,
      "daring": 1965,
      "eight": 1966,
      "gun": 1967,
      "kne": 1968,
      "lim": 1969,
      "lab": 1970,
      "oper": 1971,
      "orig": 1972,
      "post": 1973,
      "pie": 1974,
      "path": 1975,
      "rate": 1976,
      "till": 1977,
      "##e_": 1978,
      "##li": 1979,
      "##ton": 1980,
      "##ner": 1981,
      "##AC": 1982,
      "##ery": 1983,
      "##iness": 1984,
      "##ences": 1985,
      "##att": 1986,
      "whe": 1987,
      "##right": 1988,
      "force": 1989,
      "stars": 1990,
      "seas": 1991,
      "neither": 1992,
      "ourselves": 1993,
      "##ounded": 1994,
      "##arts": 1995,
      "trying": 1996,
      "greatest": 1997,
      "glimp": 1998,
      "outside": 1999,
      "##ruct": 2000,
      "according": 2001,
      "instance": 2002,
      "##ibility": 2003,
      "opinion": 2004,
      "belie": 2005,
      "difference": 2006,
      "difficulty": 2007,
      "##cisely": 2008,
      "mete": 2009,
      "profound": 2010,
      "bolide": 2011,
      "square": 2012,
      "cannot": 2013,
      "ordinary": 2014,
      "glittering": 2015,
      "large": 2016,
      "gradually": 2017,
      "origin": 2018,
      "16": 2019,
      "12": 2020,
      "Certain": 2021,
      "Don": 2022,
      "Hurrah": 2023,
      "_d": 2024,
      "dri": 2025,
      "dest": 2026,
      "ears": 2027,
      "gig": 2028,
      "natur": 2029,
      "rid": 2030,
      "situ": 2031,
      "tone": 2032,
      "win": 2033,
      "##ax": 2034,
      "##lish": 2035,
      "##iad": 2036,
      "##yond": 2037,
      "##ken": 2038,
      "##IS": 2039,
      "thick": 2040,
      "##inci": 2041,
      "##atus": 2042,
      "##stem": 2043,
      "white": 2044,
      "asc": 2045,
      "asser": 2046,
      "##ified": 2047,
      "spo": 2048,
      "surr": 2049,
      "evening": 2050,
      "princi": 2051,
      "boys": 2052,
      "points": 2053,
      "interior": 2054,
      "discuss": 2055,
      "remind": 2056,
      "##ledge": 2057,
      "saying": 2058,
      "formed": 2059,
      "##izing": 2060,
      "easy": 2061,
      "import": 2062,
      "States": 2063,
      "considered": 2064,
      "empl": 2065,
      "incre": 2066,
      "objects": 2067,
      "parallel": 2068,
      "correct": 2069,
      "##oomsb": 2070,
      "consequence": 2071,
      "contrary": 2072,
      "Bloomsb": 2073,
      "worthy": 2074,
      "system": 2075,
      "orbit": 2076,
      "phenomenon": 2077,
      "exceedingly": 2078,
      "burst": 2079,
      "excitement": 2080,
      "circumst": 2081,
      "Certainly": 2082,
      "Bloomsbury": 2083,
      "Nor": 2084,
      "_m": 2085,
      "_H": 2086,
      "_B": 2087,
      "coll": 2088,
      "deter": 2089,
      "got": 2090,
      "hast": 2091,
      "jo": 2092,
      "lower": 2093,
      "length": 2094,
      "mut": 2095,
      "pu": 2096,
      "run": 2097,
      "round": 2098,
      "sides": 2099,
      "vis": 2100,
      "##eak": 2101,
      "##son": 2102,
      "##par": 2103,
      "##arr": 2104,
      "##arter": 2105,
      "##orn": 2106,
      "init": 2107,
      "##ster": 2108,
      "##ented": 2109,
      "stra": 2110,
      "shape": 2111,
      "##essor": 2112,
      "external": 2113,
      "##iling": 2114,
      "##ump": 2115,
      "comb": 2116,
      "proble": 2117,
      "provided": 2118,
      "meet": 2119,
      "learn": 2120,
      "press": 2121,
      "possibly": 2122,
      "absor": 2123,
      "followed": 2124,
      "effort": 2125,
      "##iction": 2126,
      "advent": 2127,
      "advant": 2128,
      "swe": 2129,
      "wrong": 2130,
      "floating": 2131,
      "scientists": 2132,
      "steam": 2133,
      "added": 2134,
      "general": 2135,
      "##umbiad": 2136,
      "particular": 2137,
      "details": 2138,
      "latitude": 2139,
      "breath": 2140,
      "knew": 2141,
      "determ": 2142,
      ";\"": 2143,
      "Did": 2144,
      "Here": 2145,
      "Qu": 2146,
      "Su": 2147,
      "action": 2148,
      "cause": 2149,
      "happ": 2150,
      "iron": 2151,
      "joy": 2152,
      "mer": 2153,
      "pers": 2154,
      "pair": 2155,
      "ramp": 2156,
      "sense": 2157,
      "vent": 2158,
      "##light": 2159,
      "##te": 2160,
      "##ress": 2161,
      "##uth": 2162,
      "##hil": 2163,
      "##bing": 2164,
      "theory": 2165,
      "##orious": 2166,
      "##itions": 2167,
      "##reh": 2168,
      "##reen": 2169,
      "##ompl": 2170,
      "beyond": 2171,
      "##road": 2172,
      "forth": 2173,
      "showed": 2174,
      "conce": 2175,
      "##eless": 2176,
      "def": 2177,
      "##ify": 2178,
      "enc": 2179,
      "enj": 2180,
      "##ember": 2181,
      "When": 2182,
      "vert": 2183,
      "##itted": 2184,
      "glare": 2185,
      "glance": 2186,
      "comparis": 2187,
      "plate": 2188,
      "pole": 2189,
      "Its": 2190,
      "fright": 2191,
      "##ages": 2192,
      "##cular": 2193,
      "possess": 2194,
      "cover": 2195,
      "becom": 2196,
      "instead": 2197,
      "northern": 2198,
      "questions": 2199,
      "highly": 2200,
      "imposs": 2201,
      "occur": 2202,
      "Still": 2203,
      "southern": 2204,
      "altitude": 2205,
      "excited": 2206,
      "midnight": 2207,
      "opportun": 2208,
      "rockets": 2209,
      "talk": 2210,
      "inhabitants": 2211,
      "surprise": 2212,
      "produced": 2213,
      "United": 2214,
      "##ING": 2215,
      "magnific": 2216,
      "capable": 2217,
      "Columbiad": 2218,
      "fortun": 2219,
      "agreement": 2220,
      "glimpse": 2221,
      "assert": 2222,
      "initial": 2223,
      "ramparts": 2224,
      "30": 2225,
      "After": 2226,
      "Br": 2227,
      "Can": 2228,
      "Cam": 2229,
      "Hill": 2230,
      "Long": 2231,
      "Mountain": 2232,
      "One": 2233,
      "bound": 2234,
      "earth": 2235,
      "faint": 2236,
      "latter": 2237,
      "loud": 2238,
      "mere": 2239,
      "mile": 2240,
      "pull": 2241,
      "rise": 2242,
      "trem": 2243,
      "tele": 2244,
      "vain": 2245,
      "yards": 2246,
      "##ey": 2247,
      "##ror": 2248,
      "##gs": 2249,
      "##here": 2250,
      "thus": 2251,
      "##erable": 2252,
      "##outh": 2253,
      "##ouse": 2254,
      "##estern": 2255,
      "##ork": 2256,
      "ang": 2257,
      "##lying": 2258,
      "##omet": 2259,
      "rev": 2260,
      "##ote": 2261,
      "forget": 2262,
      "heaven": 2263,
      "shot": 2264,
      "super": 2265,
      "death": 2266,
      "##usion": 2267,
      "along": 2268,
      "##ounding": 2269,
      "lies": 2270,
      "unless": 2271,
      "Where": 2272,
      "change": 2273,
      "outl": 2274,
      "precisely": 2275,
      "partic": 2276,
      "firm": 2277,
      "##aught": 2278,
      "mod": 2279,
      "report": 2280,
      "Fran": 2281,
      "extra": 2282,
      "careful": 2283,
      "starting": 2284,
      "##oyed": 2285,
      "turning": 2286,
      "recover": 2287,
      "laid": 2288,
      "solid": 2289,
      "##ashing": 2290,
      "commun": 2291,
      "telescopes": 2292,
      "thirty": 2293,
      "dimin": 2294,
      "##bridge": 2295,
      "buoy": 2296,
      "##ceeded": 2297,
      "intellig": 2298,
      "disappeared": 2299,
      "influence": 2300,
      "counteract": 2301,
      "Supp": 2302,
      "opportunity": 2303,
      "Cambridge": 2304,
      "13": 2305,
      "Con": 2306,
      "Rock": 2307,
      "TO": 2308,
      "_L": 2309,
      "_v": 2310,
      "bit": 2311,
      "bro": 2312,
      "cast": 2313,
      "city": 2314,
      "den": 2315,
      "due": 2316,
      "ed": 2317,
      "fate": 2318,
      "ha": 2319,
      "hold": 2320,
      "loc": 2321,
      "miss": 2322,
      "nam": 2323,
      "pounds": 2324,
      "pitch": 2325,
      "rig": 2326,
      "##ius": 2327,
      "##ycho": 2328,
      "##ran": 2329,
      "##gl": 2330,
      "##ging": 2331,
      "##oes": 2332,
      "##LE": 2333,
      "##RE": 2334,
      "##ert": 2335,
      "##ator": 2336,
      "##oura": 2337,
      "##arch": 2338,
      "##leep": 2339,
      "bear": 2340,
      "##urers": 2341,
      "##ime": 2342,
      "##ests": 2343,
      "notic": 2344,
      "suc": 2345,
      "allow": 2346,
      "develop": 2347,
      "compl": 2348,
      "alive": 2349,
      "alone": 2350,
      "##ounced": 2351,
      "glorious": 2352,
      "compar": 2353,
      "art": 2354,
      "contem": 2355,
      "intern": 2356,
      "attention": 2357,
      "grou": 2358,
      "##prise": 2359,
      "accompl": 2360,
      "undert": 2361,
      "former": 2362,
      "strict": 2363,
      "calm": 2364,
      "refle": 2365,
      "calculation": 2366,
      "desp": 2367,
      "giving": 2368,
      "seems": 2369,
      "volume": 2370,
      "steep": 2371,
      "charge": 2372,
      "##autil": 2373,
      "serious": 2374,
      "##cisco": 2375,
      "pleasure": 2376,
      "third": 2377,
      "apparatus": 2378,
      "laws": 2379,
      "##ompan": 2380,
      "planet": 2381,
      "splendid": 2382,
      "walls": 2383,
      "fifty": 2384,
      "escap": 2385,
      "veget": 2386,
      "_Tycho": 2387,
      "whether": 2388,
      "meteor": 2389,
      "gigantic": 2390,
      "circumstances": 2391,
      "puz": 2392,
      "straight": 2393,
      "pressure": 2394,
      "adventurers": 2395,
      "comparison": 2396,
      "magnificent": 2397,
      "Francisco": 2398,
      "17": 2399,
      "Al": 2400,
      "Ex": 2401,
      "Full": 2402,
      "Ma": 2403,
      "Mid": 2404,
      "Nautil": 2405,
      "Science": 2406,
      "ack": 2407,
      "ca": 2408,
      "dro": 2409,
      "fa": 2410,
      "fig": 2411,
      "fail": 2412,
      "later": 2413,
      "pow": 2414,
      "pap": 2415,
      "sim": 2416,
      "send": 2417,
      "sink": 2418,
      "##ee": 2419,
      "##aw": 2420,
      "##ivers": 2421,
      "##ium_": 2422,
      "##use": 2423,
      "##gn": 2424,
      "##graph": 2425,
      "##gged": 2426,
      "##oint": 2427,
      "##cil": 2428,
      "##bra": 2429,
      "##bod": 2430,
      "##fer": 2431,
      "##fessor": 2432,
      "##inite": 2433,
      "##enced": 2434,
      "##atory": 2435,
      "##ores": 2436,
      "##iting": 2437,
      "##is_": 2438,
      "##ometer": 2439,
      "##irm": 2440,
      "forces": 2441,
      "##aying": 2442,
      "ship": 2443,
      "##ulf": 2444,
      "convers": 2445,
      "##ola": 2446,
      "##umph": 2447,
      "Professor": 2448,
      "##antly": 2449,
      "proved": 2450,
      "proper": 2451,
      "spect": 2452,
      "fear": 2453,
      "##seless": 2454,
      "above": 2455,
      "quarter": 2456,
      "##endous": 2457,
      "herself": 2458,
      "Who": 2459,
      "##ption": 2460,
      "likely": 2461,
      "##isted": 2462,
      "arms": 2463,
      "##ava": 2464,
      "agree": 2465,
      "offic": 2466,
      "remain": 2467,
      "remember": 2468,
      "brain": 2469,
      "brave": 2470,
      "reader": 2471,
      "##order": 2472,
      "##ailroad": 2473,
      "smile": 2474,
      "higher": 2475,
      "reaching": 2476,
      "calculate": 2477,
      "calculations": 2478,
      "depth": 2479,
      "See": 2480,
      "suppose": 2481,
      "shadows": 2482,
      "instantly": 2483,
      "##iana": 2484,
      "carried": 2485,
      "##head": 2486,
      "degree": 2487,
      "midst": 2488,
      "smaller": 2489,
      "breakfast": 2490,
      "talking": 2491,
      "prevent": 2492,
      "triumph": 2493,
      "projectile": 2494,
      "surprised": 2495,
      "remarkable": 2496,
      "violent": 2497,
      "proport": 2498,
      "fellow": 2499,
      "prepared": 2500,
      "animal": 2501,
      "required": 2502,
      "occasionally": 2503,
      "else": 2504,
      "experiment": 2505,
      "English": 2506,
      "enterprise": 2507,
      "gentlemen": 2508,
      "believe": 2509,
      "important": 2510,
      "problem": 2511,
      "Mountains": 2512,
      "tremendous": 2513,
      "communic": 2514,
      "contempl": 2515,
      "reflection": 2516,
      "Nautilus": 2517,
      "acknow": 2518,
      "conversation": 2519,
      ".,": 2520,
      "25": 2521,
      "Diana": 2522,
      "Great": 2523,
      "Ob": 2524,
      "Was": 2525,
      "_O": 2526,
      "ap": 2527,
      "bar": 2528,
      "bre": 2529,
      "base": 2530,
      "caught": 2531,
      "fan": 2532,
      "fut": 2533,
      "furn": 2534,
      "ir": 2535,
      "lumin": 2536,
      "lava": 2537,
      "mach": 2538,
      "mort": 2539,
      "nine": 2540,
      "pract": 2541,
      "size": 2542,
      "since": 2543,
      "ves": 2544,
      "val": 2545,
      "vac": 2546,
      "##ec": 2547,
      "##aid": 2548,
      "##ald": 2549,
      "##go": 2550,
      "##cause": 2551,
      "##ST": 2552,
      "##ITE": 2553,
      "##**": 2554,
      "##ining": 2555,
      "##inct": 2556,
      "##ency": 2557,
      "##ats": 2558,
      "##arked": 2559,
      "##es_": 2560,
      "incid": 2561,
      "##icense": 2562,
      "##entric": 2563,
      "##adem": 2564,
      "heav": 2565,
      "sto": 2566,
      "##ula": 2567,
      "##ules": 2568,
      "##ested": 2569,
      "##estig": 2570,
      "##iled": 2571,
      "##ilst": 2572,
      "##astic": 2573,
      "Arch": 2574,
      "##iful": 2575,
      "ours": 2576,
      "ent": 2577,
      "obst": 2578,
      "meth": 2579,
      "unex": 2580,
      "chronom": 2581,
      "gloom": 2582,
      "perm": 2583,
      "boy": 2584,
      "##aged": 2585,
      "crow": 2586,
      "myster": 2587,
      "resemb": 2588,
      "##ensions": 2589,
      "##ownson": 2590,
      "##anged": 2591,
      "##ordinary": 2592,
      "##ormation": 2593,
      "perform": 2594,
      "speaking": 2595,
      "among": 2596,
      "However": 2597,
      "excell": 2598,
      "heads": 2599,
      "Sec": 2600,
      "electric": 2601,
      "Because": 2602,
      "numer": 2603,
      "expression": 2604,
      "generally": 2605,
      "absolute": 2606,
      "particularly": 2607,
      "color": 2608,
      "finally": 2609,
      "redu": 2610,
      "laughed": 2611,
      "horiz": 2612,
      "quickly": 2613,
      "extremely": 2614,
      "attractions": 2615,
      "distinguish": 2616,
      "revealed": 2617,
      "render": 2618,
      "##ship": 2619,
      "arrange": 2620,
      "positively": 2621,
      "situation": 2622,
      "winter": 2623,
      "learned": 2624,
      "Brownson": 2625,
      "extraordinary": 2626,
      "Suppose": 2627,
      "names": 2628,
      "internal": 2629,
      "group": 2630,
      "despair": 2631,
      "##body": 2632,
      "vessel": 2633,
      "vacu": 2634,
      "),": 2635,
      "From": 2636,
      "Have": 2637,
      "Liter": 2638,
      "My": 2639,
      "Peak": 2640,
      "Re": 2641,
      "Such": 2642,
      "Your": 2643,
      "_c": 2644,
      "creat": 2645,
      "doll": 2646,
      "eB": 2647,
      "ele": 2648,
      "ether": 2649,
      "fun": 2650,
      "foot": 2651,
      "hon": 2652,
      "log": 2653,
      "lands": 2654,
      "lof": 2655,
      "maps": 2656,
      "pure": 2657,
      "vall": 2658,
      "wit": 2659,
      "wid": 2660,
      "warm": 2661,
      "##lor": 2662,
      "##iest": 2663,
      "##ses": 2664,
      "##dle": 2665,
      "##o_": 2666,
      "##oved": 2667,
      "##hood": 2668,
      "##fort": 2669,
      "##RO": 2670,
      "##SE": 2671,
      "##IC": 2672,
      "##UN": 2673,
      "##GH": 2674,
      "##inced": 2675,
      "##edler": 2676,
      "##ouch": 2677,
      "##orable": 2678,
      "inch": 2679,
      "##ices": 2680,
      "beaut": 2681,
      "whir": 2682,
      "##riv": 2683,
      "##ety": 2684,
      "##char": 2685,
      "forg": 2686,
      "forty": 2687,
      "##apor": 2688,
      "##taining": 2689,
      "##ularly": 2690,
      "sel": 2691,
      "separ": 2692,
      "##ament": 2693,
      "depress": 2694,
      "##osity": 2695,
      "##osop": 2696,
      "displ": 2697,
      "dischar": 2698,
      "##iform": 2699,
      "soft": 2700,
      "spr": 2701,
      "live": 2702,
      "##emat": 2703,
      "worse": 2704,
      "measure": 2705,
      "unf": 2706,
      "uniform": 2707,
      "##opern": 2708,
      "leave": 2709,
      "prot": 2710,
      "##elled": 2711,
      "##perb": 2712,
      "##ager": 2713,
      "##agraph": 2714,
      "##cles": 2715,
      "interp": 2716,
      "##athemat": 2717,
      "cry": 2718,
      "throw": 2719,
      "##pres": 2720,
      "##acle": 2721,
      "access": 2722,
      "conscious": 2723,
      "formation": 2724,
      "eastern": 2725,
      "continents": 2726,
      "##ogn": 2727,
      "thinking": 2728,
      "diver": 2729,
      "investig": 2730,
      "follow": 2731,
      "##where": 2732,
      "supply": 2733,
      "##resh": 2734,
      "considerably": 2735,
      "reasons": 2736,
      "parab": 2737,
      "paragraph": 2738,
      "retard": 2739,
      "circular": 2740,
      "room": 2741,
      "##ission": 2742,
      "Selenite": 2743,
      "astronomer": 2744,
      "silent": 2745,
      "confid": 2746,
      "accept": 2747,
      "utter": 2748,
      "position": 2749,
      "gazing": 2750,
      "trip": 2751,
      "##ushed": 2752,
      "splendor": 2753,
      "admir": 2754,
      "volcanic": 2755,
      "balloon": 2756,
      "listen": 2757,
      "arrived": 2758,
      "business": 2759,
      "millions": 2760,
      "convinced": 2761,
      "copyright": 2762,
      "eclipse": 2763,
      "enthusiasm": 2764,
      "condition": 2765,
      "natural": 2766,
      "sweet": 2767,
      "vertical": 2768,
      "##ourage": 2769,
      "comparatively": 2770,
      "luminous": 2771,
      "Archive": 2772,
      "unexpected": 2773,
      "mysterious": 2774,
      "excellent": 2775,
      "##shipman": 2776,
      "vacuum": 2777,
      "Literary": 2778,
      "lofty": 2779,
      "witness": 2780,
      "##osoph": 2781,
      "##opernic": 2782,
      "11": 2783,
      "AR": 2784,
      "Cor": 2785,
      "Come": 2786,
      "FOR": 2787,
      "Good": 2788,
      "Gulf": 2789,
      "Her": 2790,
      "Lie": 2791,
      "Sh": 2792,
      "Some": 2793,
      "Tow": 2794,
      "York": 2795,
      "_E": 2796,
      "_V": 2797,
      "dream": 2798,
      "flying": 2799,
      "gone": 2800,
      "grew": 2801,
      "ho": 2802,
      "house": 2803,
      "ice": 2804,
      "jump": 2805,
      "lad": 2806,
      "lose": 2807,
      "mis": 2808,
      "mist": 2809,
      "pol": 2810,
      "prim": 2811,
      "useless": 2812,
      "western": 2813,
      "zero": 2814,
      "##aim": 2815,
      "##yr": 2816,
      "##rm": 2817,
      "##uck": 2818,
      "##ming": 2819,
      "##pend": 2820,
      "##way": 2821,
      "##bor": 2822,
      "##LD": 2823,
      "##vo": 2824,
      "##val": 2825,
      "##IM": 2826,
      "##IR": 2827,
      "therm": 2828,
      "##ored": 2829,
      "tot": 2830,
      "inex": 2831,
      "##reet": 2832,
      "##ctor": 2833,
      "##ute": 2834,
      "repres": 2835,
      "whis": 2836,
      "ask": 2837,
      "Though": 2838,
      "##rop": 2839,
      "##ected": 2840,
      "stream": 2841,
      "##ayed": 2842,
      "cone": 2843,
      "contained": 2844,
      "notice": 2845,
      "dem": 2846,
      "comet": 2847,
      "##ifying": 2848,
      "spite": 2849,
      "spark": 2850,
      "sphere": 2851,
      "enab": 2852,
      "living": 2853,
      "sav": 2854,
      "meant": 2855,
      "une": 2856,
      "chains": 2857,
      "child": 2858,
      "impress": 2859,
      "level": 2860,
      "bold": 2861,
      "distur": 2862,
      "##ineer": 2863,
      "twel": 2864,
      "longitude": 2865,
      "pointed": 2866,
      "manner": 2867,
      "crust": 2868,
      "##ruction": 2869,
      "undoubt": 2870,
      "resumed": 2871,
      "accur": 2872,
      "remained": 2873,
      "moved": 2874,
      "##escent": 2875,
      "beings": 2876,
      "coast": 2877,
      "##utenant": 2878,
      "impro": 2879,
      "Stony": 2880,
      "donations": 2881,
      "phil": 2882,
      "mighty": 2883,
      "speak": 2884,
      "specul": 2885,
      "recogn": 2886,
      "consideration": 2887,
      "_Copernic": 2888,
      "explan": 2889,
      "radiating": 2890,
      "relief": 2891,
      "Beer": 2892,
      "pleas": 2893,
      "across": 2894,
      "cheer": 2895,
      "received": 2896,
      "oppos": 2897,
      "apparently": 2898,
      "cracks": 2899,
      "##ortunately": 2900,
      "purp": 2901,
      "describe": 2902,
      "drawn": 2903,
      "##rossed": 2904,
      "hyperb": 2905,
      "watching": 2906,
      "distinguished": 2907,
      "satisfactory": 2908,
      "##TION": 2909,
      "million": 2910,
      "blazing": 2911,
      "imagine": 2912,
      "precaut": 2913,
      "illuminated": 2914,
      "argument": 2915,
      "friction": 2916,
      "##othes": 2917,
      "behind": 2918,
      "instrument": 2919,
      "piece": 2920,
      "original": 2921,
      "covered": 2922,
      "impossible": 2923,
      "telegraph": 2924,
      "_v_": 2925,
      "Maedler": 2926,
      "Midshipman": 2927,
      "powder": 2928,
      "chronometer": 2929,
      "Lieutenant": 2930,
      "Towards": 2931,
      "thermometer": 2932,
      "undoubted": 2933,
      "40": 2934,
      "AND": 2935,
      "Cal": 2936,
      "Ha": 2937,
      "IN": 2938,
      "Ind": 2939,
      "Imb": 2940,
      "Jules": 2941,
      "MO": 2942,
      "Man": 2943,
      "Mur": 2944,
      "Ne": 2945,
      "_n": 2946,
      "ax": 2947,
      "ce": 2948,
      "courage": 2949,
      "der": 2950,
      "dom": 2951,
      "die": 2952,
      "ec": 2953,
      "ear": 2954,
      "early": 2955,
      "fat": 2956,
      "faces": 2957,
      "gen": 2958,
      "ll": 2959,
      "losing": 2960,
      "mel": 2961,
      "makes": 2962,
      "ra": 2963,
      "race": 2964,
      "sand": 2965,
      "touch": 2966,
      "wa": 2967,
      "wide": 2968,
      "##land": 2969,
      "##i_": 2970,
      "##ius_": 2971,
      "##y_": 2972,
      "##ren": 2973,
      "##des": 2974,
      "##pothes": 2975,
      "##wise": 2976,
      "##know": 2977,
      "##EM": 2978,
      "##ones": 2979,
      "##atures": 2980,
      "##orter": 2981,
      "anx": 2982,
      "top": 2983,
      "##itation": 2984,
      "##itatis": 2985,
      "##ison": 2986,
      "##rill": 2987,
      "##rium_": 2988,
      "##ched": 2989,
      "##imes": 2990,
      "held": 2991,
      "shell": 2992,
      "shores": 2993,
      "young": 2994,
      "search": 2995,
      "##els": 2996,
      "##ams": 2997,
      "neigh": 2998,
      "comfort": 2999,
      "##usted": 3000,
      "alarm": 3001,
      "prov": 3002,
      "##ooks": 3003,
      "fee": 3004,
      "train": 3005,
      "sail": 3006,
      "unw": 3007,
      "chief": 3008,
      "lead": 3009,
      "perpend": 3010,
      "appl": 3011,
      "##phy": 3012,
      "flat": 3013,
      "knows": 3014,
      "admit": 3015,
      "##oney": 3016,
      "possessed": 3017,
      "##ensity": 3018,
      "##angu": 3019,
      "afterwards": 3020,
      "fallen": 3021,
      "THEY": 3022,
      "appears": 3023,
      "appearance": 3024,
      "central": 3025,
      "depart": 3026,
      "infinite": 3027,
      "desir": 3028,
      "clearly": 3029,
      "##iety": 3030,
      "considerable": 3031,
      "complete": 3032,
      "windows": 3033,
      "road": 3034,
      "vivid": 3035,
      "uttered": 3036,
      "receive": 3037,
      "discovery": 3038,
      "trace": 3039,
      "hearts": 3040,
      "Chief": 3041,
      "interesting": 3042,
      "gaze": 3043,
      "crack": 3044,
      "effects": 3045,
      "delight": 3046,
      "cannon": 3047,
      "extreme": 3048,
      "satisfaction": 3049,
      "experi": 3050,
      "guess": 3051,
      "various": 3052,
      "safely": 3053,
      "estab": 3054,
      "standing": 3055,
      "arguments": 3056,
      "##visions": 3057,
      "_New": 3058,
      "spoke": 3059,
      "advantage": 3060,
      "Rocky": 3061,
      "accomplished": 3062,
      "strictly": 3063,
      "vegetation": 3064,
      "_Tycho_": 3065,
      "puzzling": 3066,
      "proportion": 3067,
      "acknowledge": 3068,
      "Obser": 3069,
      "future": 3070,
      "mortal": 3071,
      "practical": 3072,
      "incident": 3073,
      "numerous": 3074,
      "reduced": 3075,
      "arrangement": 3076,
      "witnessed": 3077,
      "twelve": 3078,
      "philosoph": 3079,
      "_Copernicus_": 3080,
      "purpose": 3081,
      "Imbrium_": 3082,
      "Murphy": 3083,
      "##itatis_": 3084,
      "neighbor": 3085,
      "perpendicul": 3086,
      "***": 3087,
      "24": 3088,
      "35": 3089,
      "50": 3090,
      ":/": 3091,
      "CO": 3092,
      "Could": 3093,
      "Look": 3094,
      "License": 3095,
      "Me": 3096,
      "Mac": 3097,
      "Mont": 3098,
      "ON": 3099,
      "Ocean": 3100,
      "Per": 3101,
      "Phil": 3102,
      "Rep": 3103,
      "Sch": 3104,
      "XX": 3105,
      "_D": 3106,
      "bed": 3107,
      "book": 3108,
      "double": 3109,
      "earn": 3110,
      "fo": 3111,
      "fle": 3112,
      "filled": 3113,
      "gro": 3114,
      "ht": 3115,
      "kn": 3116,
      "killed": 3117,
      "loss": 3118,
      "mem": 3119,
      "medi": 3120,
      "pan": 3121,
      "pay": 3122,
      "paid": 3123,
      "priv": 3124,
      "rough": 3125,
      "rub": 3126,
      "s_": 3127,
      "snow": 3128,
      "science": 3129,
      "somet": 3130,
      "sleep": 3131,
      "table": 3132,
      "tint": 3133,
      "van": 3134,
      "##eci": 3135,
      "##tps": 3136,
      "##su": 3137,
      "##s_": 3138,
      "##ufact": 3139,
      "##pen": 3140,
      "##ger": 3141,
      "##come": 3142,
      "##well": 3143,
      "##bs": 3144,
      "##bo": 3145,
      "##x_": 3146,
      "##AT": 3147,
      "##IT": 3148,
      "##VER": 3149,
      "thou": 3150,
      "##erved": 3151,
      "##inds": 3152,
      "##ouds": 3153,
      "##anc": 3154,
      "##anced": 3155,
      "##anks": 3156,
      "together": 3157,
      "##asy": 3158,
      "##icated": 3159,
      "##omm": 3160,
      "##urd": 3161,
      "##ution": 3162,
      "##aining": 3163,
      "stop": 3164,
      "storm": 3165,
      "stud": 3166,
      "shows": 3167,
      "weigh": 3168,
      "##el_": 3169,
      "##amber": 3170,
      "allowed": 3171,
      "##illing": 3172,
      "dec": 3173,
      "##olog": 3174,
      "##umber": 3175,
      "coming": 3176,
      "##raction": 3177,
      "##gebra": 3178,
      "##pper": 3179,
      "proof": 3180,
      "spir": 3181,
      "feature": 3182,
      "features": 3183,
      "try": 3184,
      "tradem": 3185,
      "worst": 3186,
      "obli": 3187,
      "##ables": 3188,
      "unin": 3189,
      "##ptical": 3190,
      "##ittee": 3191,
      "compared": 3192,
      "dog": 3193,
      "##aves": 3194,
      "board": 3195,
      "##pher": 3196,
      "##ocks": 3197,
      "manufact": 3198,
      "attach": 3199,
      "grave": 3200,
      "crescent": 3201,
      "yours": 3202,
      "party": 3203,
      "lights": 3204,
      "working": 3205,
      "repe": 3206,
      "formula": 3207,
      "extingu": 3208,
      "refer": 3209,
      "nights": 3210,
      "highest": 3211,
      "scale": 3212,
      "##apped": 3213,
      "spec": 3214,
      "speed": 3215,
      "record": 3216,
      "##uding": 3217,
      "curves": 3218,
      "gives": 3219,
      "incess": 3220,
      "probability": 3221,
      "evident": 3222,
      "roared": 3223,
      "carry": 3224,
      "somewhere": 3225,
      "addition": 3226,
      "immediate": 3227,
      "discovered": 3228,
      "_Ar": 3229,
      "rocks": 3230,
      "humanity": 3231,
      "successful": 3232,
      "gazed": 3233,
      "##ORE": 3234,
      "strugg": 3235,
      "colors": 3236,
      "require": 3237,
      "feeling": 3238,
      "##ographic": 3239,
      "described": 3240,
      "phenomena": 3241,
      "quicker": 3242,
      "volcano": 3243,
      "fifteen": 3244,
      "hypothes": 3245,
      "escape": 3246,
      "maintained": 3247,
      "Engineer": 3248,
      "month": 3249,
      "strike": 3250,
      "striking": 3251,
      "starry": 3252,
      "pencil": 3253,
      "examined": 3254,
      "##eroid": 3255,
      "blinding": 3256,
      "instruments": 3257,
      "labors": 3258,
      "discussion": 3259,
      "employed": 3260,
      "hastily": 3261,
      "visit": 3262,
      "absorbed": 3263,
      "efforts": 3264,
      "person": 3265,
      "##uthor": 3266,
      "broken": 3267,
      "pitchy": 3268,
      "succeeded": 3269,
      "escaped": 3270,
      "method": 3271,
      "crowd": 3272,
      "horizon": 3273,
      "dollars": 3274,
      "valley": 3275,
      "width": 3276,
      "Correct": 3277,
      "prime": 3278,
      "enabled": 3279,
      "explanation": 3280,
      "opposite": 3281,
      "MOON": 3282,
      "##known": 3283,
      "provide": 3284,
      "neighborhood": 3285,
      "perpendicular": 3286,
      "://": 3287,
      "earnest": 3288,
      "https": 3289,
      "medium": 3290,
      "sometimes": 3291,
      "trademark": 3292,
      "400": 3293,
      "AN": 3294,
      "Acc": 3295,
      "Cont": 3296,
      "Comm": 3297,
      "Dear": 3298,
      "Fri": 3299,
      "Gener": 3300,
      "Im": 3301,
      "Nub": 3302,
      "Or": 3303,
      "Pl": 3304,
      "Paris": 3305,
      "Sp": 3306,
      "She": 3307,
      "South": 3308,
      "Would": 3309,
      "Washing": 3310,
      "_r": 3311,
      "aston": 3312,
      "author": 3313,
      "bir": 3314,
      "border": 3315,
      "crossed": 3316,
      "et": 3317,
      "foc": 3318,
      "hes": 3319,
      "hung": 3320,
      "id": 3321,
      "ign": 3322,
      "jud": 3323,
      "lot": 3324,
      "mark": 3325,
      "master": 3326,
      "noon": 3327,
      "none": 3328,
      "pal": 3329,
      "rush": 3330,
      "sought": 3331,
      "tear": 3332,
      "wand": 3333,
      "wish": 3334,
      "waters": 3335,
      "##ek": 3336,
      "##ef": 3337,
      "##af": 3338,
      "##ls": 3339,
      "##iosity": 3340,
      "##ye": 3341,
      "##rent": 3342,
      "##ug": 3343,
      "##min": 3344,
      "##cer": 3345,
      "##wild": 3346,
      "##by": 3347,
      "##LU": 3348,
      "##fied": 3349,
      "##vatory": 3350,
      "##AS": 3351,
      "##CH": 3352,
      "##CT": 3353,
      "##IGH": 3354,
      "thro": 3355,
      "##inent": 3356,
      "##onic": 3357,
      "##atic": 3358,
      "##anch": 3359,
      "##anim": 3360,
      "##anqu": 3361,
      "##orks": 3362,
      "told": 3363,
      "inj": 3364,
      "##as_": 3365,
      "##asing": 3366,
      "##ica": 3367,
      "##icable": 3368,
      "bewild": 3369,
      "##urg": 3370,
      "##add": 3371,
      "##adel": 3372,
      "##iding": 3373,
      "##ality": 3374,
      "asso": 3375,
      "##etary": 3376,
      "##chan": 3377,
      "stock": 3378,
      "stood": 3379,
      "shut": 3380,
      "shap": 3381,
      "shif": 3382,
      "shout": 3383,
      "conn": 3384,
      "notes": 3385,
      "wel": 3386,
      "weak": 3387,
      "deck": 3388,
      "##ols": 3389,
      "##olic": 3390,
      "##osion": 3391,
      "##iforn": 3392,
      "##rag": 3393,
      "##ity_": 3394,
      "##ustri": 3395,
      "altern": 3396,
      "sof": 3397,
      "sole": 3398,
      "envelop": 3399,
      "lie": 3400,
      "quant": 3401,
      "meas": 3402,
      "unknown": 3403,
      "unanim": 3404,
      "Which": 3405,
      "used": 3406,
      "glory": 3407,
      "places": 3408,
      "image": 3409,
      "##asses": 3410,
      "contact": 3411,
      "observer": 3412,
      "ages": 3413,
      "prefer": 3414,
      "flash": 3415,
      "flashed": 3416,
      "grow": 3417,
      "thrown": 3418,
      "yourself": 3419,
      "resist": 3420,
      "moments": 3421,
      "possibility": 3422,
      "nearest": 3423,
      "bring": 3424,
      "sooner": 3425,
      "##under": 3426,
      "##attered": 3427,
      "##itudes": 3428,
      "smother": 3429,
      "startling": 3430,
      "screw": 3431,
      "continually": 3432,
      "aware": 3433,
      "phr": 3434,
      "phys": 3435,
      "##oubled": 3436,
      "absurd": 3437,
      "information": 3438,
      "didn": 3439,
      "curious": 3440,
      "curiosity": 3441,
      "desire": 3442,
      "furr": 3443,
      "common": 3444,
      "swall": 3445,
      "descent": 3446,
      "blackness": 3447,
      "##---": 3448,
      "##upiter": 3449,
      "Another": 3450,
      "counten": 3451,
      "explosion": 3452,
      "approached": 3453,
      "silver": 3454,
      "inhabited": 3455,
      "Only": 3456,
      "acqu": 3457,
      "utmost": 3458,
      "##arpath": 3459,
      "##retary": 3460,
      "inside": 3461,
      "recei": 3462,
      "apparent": 3463,
      "_Al": 3464,
      "interested": 3465,
      "bolts": 3466,
      "consequently": 3467,
      "dimensions": 3468,
      "contrad": 3469,
      "concuss": 3470,
      "spots": 3471,
      "freez": 3472,
      "violence": 3473,
      "America": 3474,
      "planets": 3475,
      "senses": 3476,
      "##speci": 3477,
      "reflecting": 3478,
      "occupied": 3479,
      "busy": 3480,
      "rugged": 3481,
      "intellect": 3482,
      "rising": 3483,
      "convince": 3484,
      "organ": 3485,
      "safe": 3486,
      "burned": 3487,
      "blazed": 3488,
      "including": 3489,
      "illumination": 3490,
      "masses": 3491,
      "concluded": 3492,
      "labor": 3493,
      "operation": 3494,
      "ascertain": 3495,
      "surrounded": 3496,
      "principle": 3497,
      "increasing": 3498,
      "running": 3499,
      "meeting": 3500,
      "determined": 3501,
      "plateau": 3502,
      "frightful": 3503,
      "becomes": 3504,
      "becoming": 3505,
      "fortunate": 3506,
      "assertion": 3507,
      "heavenly": 3508,
      "superior": 3509,
      "noticed": 3510,
      "undertaken": 3511,
      "fearful": 3512,
      "communication": 3513,
      "permission": 3514,
      "Secretary": 3515,
      "landsc": 3516,
      "beautiful": 3517,
      "self": 3518,
      "interposed": 3519,
      "Californ": 3520,
      "axis": 3521,
      "departure": 3522,
      "Observatory": 3523,
      "Nubium_": 3524,
      "Washington": 3525,
      "focus": 3526,
      "ignor": 3527,
      "associ": 3528,
      "concussion": 3529,
      "##specially": 3530,
      "!!": 3531,
      "!--": 3532,
      "Ah": 3533,
      "Bet": 3534,
      "Compan": 3535,
      "En": 3536,
      "Fah": 3537,
      "Flor": 3538,
      "Having": 3539,
      "Jove": 3540,
      "Lond": 3541,
      "Lake": 3542,
      "Mor": 3543,
      "Mount": 3544,
      "NO": 3545,
      "Right": 3546,
      "Railroad": 3547,
      "Ser": 3548,
      "XV": 3549,
      "_s": 3550,
      "_h": 3551,
      "_w": 3552,
      "_f": 3553,
      "_R": 3554,
      "_x_": 3555,
      "ahead": 3556,
      "carb": 3557,
      "cord": 3558,
      "din": 3559,
      "dut": 3560,
      "dam": 3561,
      "dust": 3562,
      "er": 3563,
      "ev": 3564,
      "eat": 3565,
      "ell": 3566,
      "erupt": 3567,
      "eager": 3568,
      "especially": 3569,
      "fre": 3570,
      "fair": 3571,
      "fier": 3572,
      "field": 3573,
      "fresh": 3574,
      "ge": 3575,
      "gle": 3576,
      "gest": 3577,
      "gently": 3578,
      "hur": 3579,
      "harb": 3580,
      "harm": 3581,
      "lo": 3582,
      "lately": 3583,
      "lamp": 3584,
      "love": 3585,
      "ma": 3586,
      "mar": 3587,
      "mouth": 3588,
      "mathemat": 3589,
      "money": 3590,
      "nin": 3591,
      "nons": 3592,
      "pain": 3593,
      "pict": 3594,
      "pale": 3595,
      "rose": 3596,
      "rang": 3597,
      "sn": 3598,
      "sor": 3599,
      "sake": 3600,
      "tre": 3601,
      "tons": 3602,
      "vapor": 3603,
      "ww": 3604,
      "yield": 3605,
      "yaw": 3606,
      "zen": 3607,
      "##eg": 3608,
      "##lands": 3609,
      "##iation": 3610,
      "##ium": 3611,
      "##ipp": 3612,
      "##ike": 3613,
      "##ring": 3614,
      "##ught": 3615,
      "##ude": 3616,
      "##mn": 3617,
      "##ped": 3618,
      "##ges": 3619,
      "##ods": 3620,
      "##ha": 3621,
      "##wed": 3622,
      "##burg": 3623,
      "##kins": 3624,
      "##fic": 3625,
      "##EL": 3626,
      "##ATE": 3627,
      "##ITH": 3628,
      "##?\"": 3629,
      "thin": 3630,
      "##er_": 3631,
      "##on_": 3632,
      "##oned": 3633,
      "##oncer": 3634,
      "##aturn": 3635,
      "##ane": 3636,
      "##esh": 3637,
      "##oric": 3638,
      "ant": 3639,
      "ancient": 3640,
      "##ising": 3641,
      "inn": 3642,
      "ingen": 3643,
      "##asc": 3644,
      "##asms": 3645,
      "##ico": 3646,
      "bef": 3647,
      "##ida": 3648,
      "##idly": 3649,
      "whilst": 3650,
      "##ldom": 3651,
      "##aled": 3652,
      "##alog": 3653,
      "##vern": 3654,
      "##ching": 3655,
      "stout": 3656,
      "story": 3657,
      "stret": 3658,
      "showing": 3659,
      "shoot": 3660,
      "##alled": 3661,
      "##alling": 3662,
      "##ulting": 3663,
      "note": 3664,
      "sust": 3665,
      "sugg": 3666,
      "susp": 3667,
      "seldom": 3668,
      "##unged": 3669,
      "##unte": 3670,
      "##amed": 3671,
      "alluded": 3672,
      "##ills": 3673,
      "##olving": 3674,
      "##oses": 3675,
      "##osition": 3676,
      "comets": 3677,
      "noise": 3678,
      "##anted": 3679,
      "spent": 3680,
      "encl": 3681,
      "lips": 3682,
      "truth": 3683,
      "abo": 3684,
      "##ouncing": 3685,
      "worked": 3686,
      "heroes": 3687,
      "##ccentric": 3688,
      "chann": 3689,
      "plenty": 3690,
      "##cial": 3691,
      "intended": 3692,
      "upwards": 3693,
      "pron": 3694,
      "prison": 3695,
      "perce": 3696,
      "observers": 3697,
      "##phia": 3698,
      "twice": 3699,
      "otherwise": 3700,
      "blast": 3701,
      "attended": 3702,
      "knowledge": 3703,
      "clouds": 3704,
      "##acy": 3705,
      "##aced": 3706,
      "accompan": 3707,
      "remarked": 3708,
      "regret": 3709,
      "mole": 3710,
      "lasted": 3711,
      "presence": 3712,
      "repose": 3713,
      "forming": 3714,
      "##ization": 3715,
      "strength": 3716,
      "secret": 3717,
      "extent": 3718,
      "refund": 3719,
      "scene": 3720,
      "phot": 3721,
      "minute": 3722,
      "endless": 3723,
      "asteroid": 3724,
      "incon": 3725,
      "follows": 3726,
      "opened": 3727,
      "temp": 3728,
      "commenced": 3729,
      "hundreds": 3730,
      "meaning": 3731,
      "##habitable": 3732,
      "stead": 3733,
      "wonderfully": 3734,
      "humor": 3735,
      "_Carpath": 3736,
      "confident": 3737,
      "keeping": 3738,
      "copies": 3739,
      "Before": 3740,
      "##onscious": 3741,
      "finding": 3742,
      "assumed": 3743,
      "check": 3744,
      "track": 3745,
      "traces": 3746,
      "occasions": 3747,
      "prevail": 3748,
      "inhabitable": 3749,
      "Blanc": 3750,
      "violently": 3751,
      "fellows": 3752,
      "prepare": 3753,
      "##ians_": 3754,
      "animals": 3755,
      "summits": 3756,
      "horror": 3757,
      "sensations": 3758,
      "##III": 3759,
      "construct": 3760,
      "cooling": 3761,
      "maintain": 3762,
      "announced": 3763,
      "arrival": 3764,
      "wildly": 3765,
      "distributing": 3766,
      "burning": 3767,
      "estim": 3768,
      "prompt": 3769,
      "precise": 3770,
      "behold": 3771,
      "##embers": 3772,
      "posted": 3773,
      "##attle": 3774,
      "surrounding": 3775,
      "princip": 3776,
      "reminded": 3777,
      "increased": 3778,
      "North": 3779,
      "hasty": 3780,
      "muttered": 3781,
      "advantages": 3782,
      "happy": 3783,
      "##rehend": 3784,
      "defect": 3785,
      "outline": 3786,
      "particle": 3787,
      "diminished": 3788,
      "edge": 3789,
      "Algebra": 3790,
      "figures": 3791,
      "paper": 3792,
      "sinking": 3793,
      "##ald_": 3794,
      "stopped": 3795,
      "gloomy": 3796,
      "forgot": 3797,
      "unfortunately": 3798,
      "consciousness": 3799,
      "meantime": 3800,
      "disturbed": 3801,
      "accuracy": 3802,
      "pleasant": 3803,
      "precautions": 3804,
      "Julesburg": 3805,
      "comfortable": 3806,
      "desirous": 3807,
      "Philadel": 3808,
      "vanished": 3809,
      "uninhabitable": 3810,
      "extinguished": 3811,
      "General": 3812,
      "etc": 3813,
      "sofa": 3814,
      "quantity": 3815,
      "measured": 3816,
      "countenance": 3817,
      "California": 3818,
      "associated": 3819,
      "Florida": 3820,
      "London": 3821,
      "ellip": 3822,
      "sorry": 3823,
      "www": 3824,
      "zenith": 3825,
      "shooting": 3826,
      "Philadelphia": 3827,
      ",--": 3828,
      "500": 3829,
      "Cr": 3830,
      "El": 3831,
      "Fir": 3832,
      "Humb": 3833,
      "IT": 3834,
      "Just": 3835,
      "Mex": 3836,
      "Nect": 3837,
      "Near": 3838,
      "Point": 3839,
      "Sw": 3840,
      "Section": 3841,
      "SATE": 3842,
      "Telesc": 3843,
      "Very": 3844,
      "Wil": 3845,
      "Yet": 3846,
      "_e": 3847,
      "_p": 3848,
      "_I": 3849,
      "_F": 3850,
      "aid": 3851,
      "aimed": 3852,
      "besides": 3853,
      "coo": 3854,
      "cost": 3855,
      "dre": 3856,
      "dense": 3857,
      "dry": 3858,
      "dread": 3859,
      "eternal": 3860,
      "fro": 3861,
      "fish": 3862,
      "grim": 3863,
      "green": 3864,
      "home": 3865,
      "hole": 3866,
      "icy": 3867,
      "keen": 3868,
      "lu": 3869,
      "lit": 3870,
      "lines": 3871,
      "langu": 3872,
      "mus": 3873,
      "mention": 3874,
      "nice": 3875,
      "pop": 3876,
      "page": 3877,
      "pati": 3878,
      "pgl": 3879,
      "rot": 3880,
      "roll": 3881,
      "railroad": 3882,
      "says": 3883,
      "scho": 3884,
      "sending": 3885,
      "tax": 3886,
      "vers": 3887,
      "yes": 3888,
      "yell": 3889,
      "##ige": 3890,
      "##yth": 3891,
      "##rated": 3892,
      "##sed": 3893,
      "##uv": 3894,
      "##udd": 3895,
      "##mar": 3896,
      "##dra": 3897,
      "##po": 3898,
      "##pet": 3899,
      "##na": 3900,
      "##gy": 3901,
      "##gan": 3902,
      "##how": 3903,
      "##wing": 3904,
      "##works": 3905,
      "##faster": 3906,
      "##zen": 3907,
      "##zled": 3908,
      "##EW": 3909,
      "##AB": 3910,
      "##ATION": 3911,
      "##IB": 3912,
      "##UT": 3913,
      "thrill": 3914,
      "##erv": 3915,
      "##inus": 3916,
      "##inently": 3917,
      "##inery": 3918,
      "##arum_": 3919,
      "##anke": 3920,
      "##anetary": 3921,
      "##inging": 3922,
      "##ordan": 3923,
      "##ories": 3924,
      "##llarum_": 3925,
      "##ism": 3926,
      "##ask": 3927,
      "bell": 3928,
      "beams": 3929,
      "##urm": 3930,
      "rever": 3931,
      "revel": 3932,
      "##ceans": 3933,
      "##cellarum_": 3934,
      "##idian": 3935,
      "##otive": 3936,
      "##rived": 3937,
      "##ription": 3938,
      "##ould_": 3939,
      "fore": 3940,
      "stre": 3941,
      "station": 3942,
      "##apse": 3943,
      "islands": 3944,
      "shr": 3945,
      "conject": 3946,
      "weary": 3947,
      "##ils": 3948,
      "##ilar": 3949,
      "##jected": 3950,
      "##elfaster": 3951,
      "Around": 3952,
      "decl": 3953,
      "##oles": 3954,
      "##umerable": 3955,
      "Procellarum_": 3956,
      "##ilege": 3957,
      "comes": 3958,
      "##ust_": 3959,
      "proceed": 3960,
      "proceeded": 3961,
      "spy": 3962,
      "spread": 3963,
      "##veni": 3964,
      "##ooth": 3965,
      "enable": 3966,
      "entering": 3967,
      "liqu": 3968,
      "abund": 3969,
      "sailing": 3970,
      "##plend": 3971,
      "meal": 3972,
      "mechan": 3973,
      "uns": 3974,
      "chang": 3975,
      "chasms": 3976,
      "##pty": 3977,
      "using": 3978,
      "usually": 3979,
      "comprehend": 3980,
      "##arewell": 3981,
      "imper": 3982,
      "##istic": 3983,
      "##istribut": 3984,
      "intensity": 3985,
      "anyhow": 3986,
      "arm": 3987,
      "arch": 3988,
      "doing": 3989,
      "##ellar": 3990,
      "##ieved": 3991,
      "perple": 3992,
      "##pered": 3993,
      "flag": 3994,
      "blessed": 3995,
      "grat": 3996,
      "parts": 3997,
      "resp": 3998,
      "cliff": 3999,
      "closed": 4000,
      "cloud": 4001,
      "fires": 4002,
      "lightning": 4003,
      "disconcer": 4004,
      "regularly": 4005,
      "underst": 4006,
      "##inkled": 4007,
      "brains": 4008,
      "##owned": 4009,
      "farther": 4010,
      "refract": 4011,
      "##ification": 4012,
      "companion": 4013,
      "facts": 4014,
      "screen": 4015,
      "subst": 4016,
      "continue": 4017,
      "##apping": 4018,
      "ende": 4019,
      "emotion": 4020,
      "empty": 4021,
      "lifted": 4022,
      "design": 4023,
      "thousands": 4024,
      "news": 4025,
      "support": 4026,
      "considering": 4027,
      "volunte": 4028,
      "restless": 4029,
      "writing": 4030,
      "_Sinus": 4031,
      "##duce": 4032,
      "letter": 4033,
      "interruption": 4034,
      "Any": 4035,
      "bottle": 4036,
      "##oldt": 4037,
      "disput": 4038,
      "disposed": 4039,
      "sett": 4040,
      "##olution": 4041,
      "confirm": 4042,
      "keeps": 4043,
      "equator": 4044,
      "illustri": 4045,
      "radiation": 4046,
      "void": 4047,
      "##sequently": 4048,
      "pleased": 4049,
      "sounding": 4050,
      "##standing": 4051,
      "gracious": 4052,
      "summer": 4053,
      "brighter": 4054,
      "brightness": 4055,
      "assured": 4056,
      "assume": 4057,
      "cheers": 4058,
      "##ceanus": 4059,
      "Lunarians": 4060,
      "Chair": 4061,
      "putting": 4062,
      "signal": 4063,
      "remarks": 4064,
      "Does": 4065,
      "Doctor": 4066,
      "Union": 4067,
      "freely": 4068,
      "##TEN": 4069,
      "describing": 4070,
      "fastened": 4071,
      "glittered": 4072,
      "##ines_": 4073,
      "reflected": 4074,
      "occupying": 4075,
      "##gress": 4076,
      "##LLITE": 4077,
      "months": 4078,
      "exception": 4079,
      "gentleman": 4080,
      "variety": 4081,
      "distribution": 4082,
      "respective": 4083,
      "186": 4084,
      "intensely": 4085,
      "inclined": 4086,
      "Everything": 4087,
      "##vision": 4088,
      "engaged": 4089,
      "unconscious": 4090,
      "blindly": 4091,
      "operations": 4092,
      "pieces": 4093,
      "naturally": 4094,
      "employ": 4095,
      "_Belfaster": 4096,
      "Queen": 4097,
      "joyous": 4098,
      "meridian": 4099,
      "venture": 4100,
      "enjoy": 4101,
      "enjoyed": 4102,
      "boundless": 4103,
      "intelligence": 4104,
      "Consequently": 4105,
      "locom": 4106,
      "dropped": 4107,
      "papers": 4108,
      "spectacle": 4109,
      "officers": 4110,
      "_Oceanus": 4111,
      "apart": 4112,
      "fancy": 4113,
      "machinery": 4114,
      "heavy": 4115,
      "eBooks": 4116,
      "honorable": 4117,
      "lively": 4118,
      "confidently": 4119,
      "jumping": 4120,
      "represent": 4121,
      "savage": 4122,
      "hyperbola": 4123,
      "undoubtedly": 4124,
      "domain": 4125,
      "unwilling": 4126,
      "Perhaps": 4127,
      "Republic": 4128,
      "Schm": 4129,
      "privilege": 4130,
      "spirits": 4131,
      "specific": 4132,
      "recorded": 4133,
      "additional": 4134,
      "hypothesis": 4135,
      "Committee": 4136,
      "Friend": 4137,
      "_r_": 4138,
      "ident": 4139,
      "Morgan": 4140,
      "Seren": 4141,
      "maj": 4142,
      "pictures": 4143,
      "yawning": 4144,
      "innumerable": 4145,
      "enclosed": 4146,
      "pronounced": 4147,
      "photograph": 4148,
      "_Carpathians_": 4149,
      "First": 4150,
      "Humboldt": 4151,
      "SATELLITE": 4152,
      "Telescope": 4153,
      "pglaf": 4154,
      "perplex": 4155,
      "illustrious": 4156,
      "_Belfasters_": 4157,
      "14": 4158,
      "21": 4159,
      "27": 4160,
      "200": 4161,
      "45": 4162,
      "Ac": 4163,
      "AS": 4164,
      "Bay": 4165,
      "Bra": 4166,
      "Co": 4167,
      "CLU": 4168,
      "DA": 4169,
      "Dire": 4170,
      "Eye": 4171,
      "Far": 4172,
      "Five": 4173,
      "Gr": 4174,
      "Gal": 4175,
      "Ho": 4176,
      "Hum": 4177,
      "Jupiter": 4178,
      "La": 4179,
      "Like": 4180,
      "OR": 4181,
      "Old": 4182,
      "Over": 4183,
      "River": 4184,
      "SP": 4185,
      "Ter": 4186,
      "Too": 4187,
      "Tran": 4188,
      "Were": 4189,
      "WITH": 4190,
      "XI": 4191,
      "YOU": 4192,
      "Yanke": 4193,
      "_l": 4194,
      "_g": 4195,
      "_un": 4196,
      "_per": 4197,
      "aer": 4198,
      "acid": 4199,
      "aud": 4200,
      "ble": 4201,
      "bore": 4202,
      "bare": 4203,
      "battle": 4204,
      "cre": 4205,
      "cab": 4206,
      "cott": 4207,
      "da": 4208,
      "dig": 4209,
      "elli": 4210,
      "fing": 4211,
      "fit": 4212,
      "fine": 4213,
      "fund": 4214,
      "fog": 4215,
      "gutenberg": 4216,
      "haz": 4217,
      "hair": 4218,
      "holes": 4219,
      "late": 4220,
      "lung": 4221,
      "moon": 4222,
      "mater": 4223,
      "match": 4224,
      "net": 4225,
      "narr": 4226,
      "od": 4227,
      "osc": 4228,
      "optical": 4229,
      "oceans": 4230,
      "pat": 4231,
      "pot": 4232,
      "rene": 4233,
      "river": 4234,
      "sour": 4235,
      "satell": 4236,
      "tail": 4237,
      "takes": 4238,
      "ur": 4239,
      "upper": 4240,
      "vig": 4241,
      "voc": 4242,
      "won": 4243,
      "war": 4244,
      "wings": 4245,
      "##ev": 4246,
      "##eur": 4247,
      "##east": 4248,
      "##aved": 4249,
      "##aff": 4250,
      "##long": 4251,
      "##line": 4252,
      "##ivid": 4253,
      "##rous": 4254,
      "##rying": 4255,
      "##ues": 4256,
      "##uct": 4257,
      "##uine": 4258,
      "##nines_": 4259,
      "##oying": 4260,
      "##cury": 4261,
      "##with": 4262,
      "##west": 4263,
      "##bbing": 4264,
      "##ky": 4265,
      "##kes": 4266,
      "##for": 4267,
      "##fect": 4268,
      "##form": 4269,
      "##EP": 4270,
      "##DAN": 4271,
      "##ID": 4272,
      "##IF": 4273,
      "##UR": 4274,
      "thor": 4275,
      "threw": 4276,
      "##eral": 4277,
      "##enet": 4278,
      "##ators": 4279,
      "##ara": 4280,
      "##ancho": 4281,
      "##inge": 4282,
      "##orge": 4283,
      "##oris_": 4284,
      "analog": 4285,
      "##itated": 4286,
      "##itating": 4287,
      "##ister": 4288,
      "##isite": 4289,
      "##istered": 4290,
      "##ases": 4291,
      "##rel": 4292,
      "##reci": 4293,
      "##oms": 4294,
      "bearing": 4295,
      "##ades": 4296,
      "##ading": 4297,
      "##celer": 4298,
      "##idt": 4299,
      "aspect": 4300,
      "asking": 4301,
      "asleep": 4302,
      "##oted": 4303,
      "##ird": 4304,
      "##iring": 4305,
      "##rier": 4306,
      "##eteen": 4307,
      "forests": 4308,
      "withdra": 4309,
      "##aper": 4310,
      "shri": 4311,
      "shine": 4312,
      "shade": 4313,
      "##uls": 4314,
      "##ulous": 4315,
      "##ulate": 4316,
      "##ulated": 4317,
      "expect": 4318,
      "examp": 4319,
      "exec": 4320,
      "cones": 4321,
      "conver": 4322,
      "conical": 4323,
      "containing": 4324,
      "weather": 4325,
      "seizing": 4326,
      "hist": 4327,
      "##elion": 4328,
      "##ama": 4329,
      "##illi": 4330,
      "##illet": 4331,
      "##uming": 4332,
      "##ileo": 4333,
      "##usc": 4334,
      "##uses": 4335,
      "##ustion": 4336,
      "##oughly": 4337,
      "spaces": 4338,
      "##oose": 4339,
      "##ountered": 4340,
      "obedi": 4341,
      "##plic": 4342,
      "##planetary": 4343,
      "##quill": 4344,
      "unus": 4345,
      "unable": 4346,
      "Whilst": 4347,
      "chain": 4348,
      "##itten": 4349,
      "surp": 4350,
      "compr": 4351,
      "comply": 4352,
      "compens": 4353,
      "play": 4354,
      "played": 4355,
      "plunged": 4356,
      "dogs": 4357,
      "box": 4358,
      "contract": 4359,
      "observe": 4360,
      "observing": 4361,
      "##onder": 4362,
      "##aging": 4363,
      "Inst": 4364,
      "distinct": 4365,
      "precious": 4366,
      "flour": 4367,
      "pointing": 4368,
      "blood": 4369,
      "blocks": 4370,
      "interplanetary": 4371,
      "grant": 4372,
      "grounds": 4373,
      "adj": 4374,
      "throwing": 4375,
      "travelling": 4376,
      "partitions": 4377,
      "resulting": 4378,
      "resplend": 4379,
      "class": 4380,
      "accident": 4381,
      "accordan": 4382,
      "offered": 4383,
      "office": 4384,
      "remains": 4385,
      "region": 4386,
      "##lessly": 4387,
      "##escrib": 4388,
      "##ensible": 4389,
      "##iffer": 4390,
      "bridge": 4391,
      "branch": 4392,
      "replace": 4393,
      "##viding": 4394,
      "reading": 4395,
      "Hevel": 4396,
      "betr": 4397,
      "refraction": 4398,
      "##ifications": 4399,
      "begun": 4400,
      "_Mapp": 4401,
      "smooth": 4402,
      "Mars": 4403,
      "impati": 4404,
      "startled": 4405,
      "gold": 4406,
      "century": 4407,
      "absence": 4408,
      "##otted": 4409,
      "depos": 4410,
      "recon": 4411,
      "amid": 4412,
      "newsp": 4413,
      "cleared": 4414,
      "giant": 4415,
      "incomp": 4416,
      "acting": 4417,
      "soul": 4418,
      "rapidity": 4419,
      "wonders": 4420,
      "reasonable": 4421,
      "advanced": 4422,
      "switch": 4423,
      "wrote": 4424,
      "written": 4425,
      "##versed": 4426,
      "fourth": 4427,
      "##heit": 4428,
      "explain": 4429,
      "confined": 4430,
      "##cision": 4431,
      "middle": 4432,
      "##ext": 4433,
      "radius": 4434,
      "individ": 4435,
      "indescrib": 4436,
      "relatively": 4437,
      "relieved": 4438,
      "please": 4439,
      "thirteen": 4440,
      "acceler": 4441,
      "expressive": 4442,
      "inspect": 4443,
      "layers": 4444,
      "_Apen": 4445,
      "consequences": 4446,
      "previous": 4447,
      "singular": 4448,
      "signs": 4449,
      "##aris_": 4450,
      "sunlight": 4451,
      "projected": 4452,
      "contrast": 4453,
      "fireworks": 4454,
      "reality": 4455,
      "concentric": 4456,
      "produce": 4457,
      "grandeur": 4458,
      "strongly": 4459,
      "delic": 4460,
      "pursu": 4461,
      "squared": 4462,
      "heights": 4463,
      "prepar": 4464,
      "orders": 4465,
      "sufficiently": 4466,
      "draw": 4467,
      "deeply": 4468,
      "laughing": 4469,
      "sensible": 4470,
      "attractive": 4471,
      "volcanoes": 4472,
      "exposed": 4473,
      "constant": 4474,
      "construction": 4475,
      "larger": 4476,
      "##ahs": 4477,
      "announcing": 4478,
      "affirm": 4479,
      "monot": 4480,
      "wildest": 4481,
      "surely": 4482,
      "closely": 4483,
      "eclipses": 4484,
      "enthusiastic": 4485,
      "examine": 4486,
      "imagination": 4487,
      "##atio": 4488,
      "showers": 4489,
      "conclusion": 4490,
      "conclude": 4491,
      "deviation": 4492,
      "devoted": 4493,
      "engine": 4494,
      "detected": 4495,
      "Americans": 4496,
      "164": 4497,
      "_d_": 4498,
      "drily": 4499,
      "ridges": 4500,
      "situated": 4501,
      "_m_": 4502,
      "combustion": 4503,
      "absorbing": 4504,
      "steamer": 4505,
      "determine": 4506,
      "conceive": 4507,
      "encountered": 4508,
      "possession": 4509,
      "fortunately": 4510,
      "pulling": 4511,
      "revolution": 4512,
      "particip": 4513,
      "firmly": 4514,
      "buoys": 4515,
      "intelligent": 4516,
      "counteracting": 4517,
      "deny": 4518,
      "haul": 4519,
      "missing": 4520,
      "rigidly": 4521,
      "noticing": 4522,
      "succeed": 4523,
      "developed": 4524,
      "development": 4525,
      "complain": 4526,
      "meteoric": 4527,
      "caused": 4528,
      "fault": 4529,
      "figure": 4530,
      "##ointed": 4531,
      "triumphantly": 4532,
      "250": 4533,
      "breast": 4534,
      "breaking": 4535,
      "furnace": 4536,
      "irre": 4537,
      "machine": 4538,
      "creatures": 4539,
      "eBook": 4540,
      "logical": 4541,
      "depression": 4542,
      "discharge": 4543,
      "springs": 4544,
      "cryst": 4545,
      "parabolic": 4546,
      "confidence": 4547,
      "ARDAN": 4548,
      "total": 4549,
      "totally": 4550,
      "children": 4551,
      "improve": 4552,
      "recognize": 4553,
      "ecst": 4554,
      "fatal": 4555,
      "genuine": 4556,
      "melancho": 4557,
      "establ": 4558,
      "354": 4559,
      "_Do": 4560,
      "knock": 4561,
      "rubbing": 4562,
      "##board": 4563,
      "obliqu": 4564,
      "repeated": 4565,
      "incessant": 4566,
      "According": 4567,
      "judge": 4568,
      "injury": 4569,
      "welcome": 4570,
      "solemn": 4571,
      "unanimously": 4572,
      "screws": 4573,
      "phrase": 4574,
      "swallowed": 4575,
      "contradict": 4576,
      "Company_": 4577,
      "carbonic": 4578,
      "duty": 4579,
      "eagerly": 4580,
      "geolog": 4581,
      "gleam": 4582,
      "gesticul": 4583,
      "harbor": 4584,
      "mathematical": 4585,
      "nonsense": 4586,
      "ranges": 4587,
      "ingenious": 4588,
      "abode": 4589,
      "secrets": 4590,
      "steadily": 4591,
      "ellipse": 4592,
      "Mexico": 4593,
      "language": 4594,
      "##marine": 4595,
      "liquid": 4596,
      "changing": 4597,
      "cliffs": 4598,
      "disconcerted": 4599,
      "understood": 4600,
      "endeavor": 4601,
      "Schmidt": 4602,
      "CLUB": 4603,
      "Galileo": 4604,
      "Tranquill": 4605,
      "cotton": 4606,
      "lungs": 4607,
      "material": 4608,
      "satellites": 4609,
      "vigor": 4610,
      "##withstanding": 4611,
      "thoroughly": 4612,
      "example": 4613,
      "obedience": 4614,
      "accordance": 4615,
      "individual": 4616,
      "_Apennines_": 4617,
      "melancholy": 4618,
      ").": 4619,
      "100": 4620,
      "28": 4621,
      "300": 4622,
      "46": 4623,
      "Ad": 4624,
      "Ap": 4625,
      "AT": 4626,
      "Ath": 4627,
      "BE": 4628,
      "Cle": 4629,
      "Creat": 4630,
      "Che": 4631,
      "CON": 4632,
      "DIS": 4633,
      "ES": 4634,
      "EB": 4635,
      "Gree": 4636,
      "HE": 4637,
      "HO": 4638,
      "Him": 4639,
      "Hers": 4640,
      "Hard": 4641,
      "Hang": 4642,
      "Ir": 4643,
      "IM": 4644,
      "IS": 4645,
      "Jo": 4646,
      "Lat": 4647,
      "List": 4648,
      "LUN": 4649,
      "May": 4650,
      "Most": 4651,
      "Miss": 4652,
      "Mathemat": 4653,
      "Never": 4654,
      "Nasm": 4655,
      "Pe": 4656,
      "PO": 4657,
      "Pou": 4658,
      "Pre": 4659,
      "Put": 4660,
      "Pet": 4661,
      "PRO": 4662,
      "Sc": 4663,
      "SE": 4664,
      "Sir": 4665,
      "Sier": 4666,
      "Saturn": 4667,
      "Ten": 4668,
      "WAS": 4669,
      "_t": 4670,
      "_y": 4671,
      "_J": 4672,
      "_th": 4673,
      "avo": 4674,
      "bor": 4675,
      "bad": 4676,
      "bows": 4677,
      "bits": 4678,
      "banks": 4679,
      "cat": 4680,
      "cri": 4681,
      "cand": 4682,
      "cav": 4683,
      "cup": 4684,
      "crew": 4685,
      "cities": 4686,
      "cele": 4687,
      "doub": 4688,
      "dashed": 4689,
      "egg": 4690,
      "eccentric": 4691,
      "fal": 4692,
      "fant": 4693,
      "fond": 4694,
      "fron": 4695,
      "fix": 4696,
      "fold": 4697,
      "frag": 4698,
      "farewell": 4699,
      "gh": 4700,
      "gre": 4701,
      "gain": 4702,
      "gained": 4703,
      "gorge": 4704,
      "hall": 4705,
      "holl": 4706,
      "hence": 4707,
      "hills": 4708,
      "led": 4709,
      "lens": 4710,
      "mir": 4711,
      "mine": 4712,
      "mix": 4713,
      "mult": 4714,
      "marked": 4715,
      "nic": 4716,
      "nation": 4717,
      "piles": 4718,
      "publ": 4719,
      "rain": 4720,
      "rim": 4721,
      "rail": 4722,
      "rings": 4723,
      "ridge": 4724,
      "ratio": 4725,
      "sir": 4726,
      "site": 4727,
      "te": 4728,
      "ty": 4729,
      "treat": 4730,
      "tong": 4731,
      "tones": 4732,
      "wre": 4733,
      "wip": 4734,
      "##eper": 4735,
      "##eks": 4736,
      "##acles": 4737,
      "##lim": 4738,
      "##lance": 4739,
      "##lantic": 4740,
      "##iable": 4741,
      "##iance": 4742,
      "##ture": 4743,
      "##yn": 4744,
      "##rick": 4745,
      "##rors": 4746,
      "##spect": 4747,
      "##sue": 4748,
      "##uc": 4749,
      "##uge": 4750,
      "##uable": 4751,
      "##uff": 4752,
      "##met": 4753,
      "##day": 4754,
      "##pe": 4755,
      "##ned": 4756,
      "##ners": 4757,
      "##gent": 4758,
      "##hip": 4759,
      "##work": 4760,
      "##bers": 4761,
      "##LIT": 4762,
      "##xim": 4763,
      "##fra": 4764,
      "##formation": 4765,
      "##fel_": 4766,
      "##zy": 4767,
      "##z_": 4768,
      "##vent": 4769,
      "##RAN": 4770,
      "##AD": 4771,
      "##CO": 4772,
      "##OO": 4773,
      "##57": 4774,
      "##ULL": 4775,
      "##VE": 4776,
      "##QU": 4777,
      "thy": 4778,
      "##erves": 4779,
      "##erfel_": 4780,
      "##inity": 4781,
      "##eding": 4782,
      "##onom": 4783,
      "##onel": 4784,
      "##atically": 4785,
      "##ou_": 4786,
      "##arily": 4787,
      "##ancing": 4788,
      "##orary": 4789,
      "##orily": 4790,
      "##lly": 4791,
      "##lling": 4792,
      "town": 4793,
      "##isc": 4794,
      "##ises": 4795,
      "##ision": 4796,
      "inev": 4797,
      "##icci": 4798,
      "##omer": 4799,
      "##omed": 4800,
      "##oman": 4801,
      "##stellar": 4802,
      "##entrated": 4803,
      "reversed": 4804,
      "##cely": 4805,
      "##ceiv": 4806,
      "##id_": 4807,
      "onward": 4808,
      "##vey": 4809,
      "whence": 4810,
      "whist": 4811,
      "##alay": 4812,
      "ash": 4813,
      "##ot_": 4814,
      "Those": 4815,
      "Three": 4816,
      "##irt": 4817,
      "##rol": 4818,
      "##roy": 4819,
      "##rogen": 4820,
      "##chel": 4821,
      "##immer": 4822,
      "foresh": 4823,
      "stun": 4824,
      "step": 4825,
      "stared": 4826,
      "states": 4827,
      "street": 4828,
      "shake": 4829,
      "shru": 4830,
      "shaking": 4831,
      "exha": 4832,
      "congr": 4833,
      "notwithstanding": 4834,
      "weird": 4835,
      "seat": 4836,
      "season": 4837,
      "##unt": 4838,
      "##astle": 4839,
      "##astically": 4840,
      "##ille": 4841,
      "deal": 4842,
      "deeper": 4843,
      "##oli": 4844,
      "##umps": 4845,
      "dism": 4846,
      "disg": 4847,
      "discl": 4848,
      "disorder": 4849,
      "##rable": 4850,
      "provisions": 4851,
      "progress": 4852,
      "provision": 4853,
      "ener": 4854,
      "-----": 4855,
      "feas": 4856,
      "libr": 4857,
      "##arted": 4858,
      "trap": 4859,
      "tranqu": 4860,
      "abrupt": 4861,
      "abys": 4862,
      "saved": 4863,
      "obl": 4864,
      "obtain": 4865,
      "obtained": 4866,
      "quitting": 4867,
      "quitted": 4868,
      "##pled": 4869,
      "##ively": 4870,
      "unre": 4871,
      "chamber": 4872,
      "glad": 4873,
      "glist": 4874,
      "##inder": 4875,
      "plough": 4876,
      "plates": 4877,
      "placed": 4878,
      "##cip": 4879,
      "##cies": 4880,
      "##ciety": 4881,
      "anyone": 4882,
      "leg": 4883,
      "leaving": 4884,
      "leaves": 4885,
      "proud": 4886,
      "##avius_": 4887,
      "##ieu": 4888,
      "permit": 4889,
      "appreci": 4890,
      "##assed": 4891,
      "boat": 4892,
      "##phe": 4893,
      "##ago": 4894,
      "Information": 4895,
      "flu": 4896,
      "blow": 4897,
      "whenever": 4898,
      "gray": 4899,
      "ground": 4900,
      "crushed": 4901,
      "knowing": 4902,
      "shoulders": 4903,
      "yourselves": 4904,
      "##prit": 4905,
      "##acr": 4906,
      "accents": 4907,
      "slumber": 4908,
      "moves": 4909,
      "moder": 4910,
      "term": 4911,
      "brink": 4912,
      "brakes": 4913,
      "reporter": 4914,
      "formations": 4915,
      "Hey": 4916,
      "presenting": 4917,
      "##angled": 4918,
      "easier": 4919,
      "continent": 4920,
      "THIS": 4921,
      "##ailable": 4922,
      "extend": 4923,
      "extended": 4924,
      "extending": 4925,
      "extinct": 4926,
      "minus": 4927,
      "minds": 4928,
      "##ribed": 4929,
      "##readth": 4930,
      "atmospher": 4931,
      "##icking": 4932,
      "impenet": 4933,
      "Stars": 4934,
      "scream": 4935,
      "submarine": 4936,
      "Atlantic": 4937,
      "##orses": 4938,
      "centri": 4939,
      "divided": 4940,
      "divisions": 4941,
      "##otten": 4942,
      "deprived": 4943,
      "directing": 4944,
      "infer": 4945,
      "infall": 4946,
      "recoll": 4947,
      "recording": 4948,
      "embra": 4949,
      "eminently": 4950,
      "amount": 4951,
      "astounding": 4952,
      "current": 4953,
      "passing": 4954,
      "passage": 4955,
      "exclam": 4956,
      "exclaim": 4957,
      "active": 4958,
      "older": 4959,
      "secondly": 4960,
      "solution": 4961,
      "supposed": 4962,
      "supposing": 4963,
      "##ene_": 4964,
      "belong": 4965,
      "beloved": 4966,
      "##apsed": 4967,
      "restr": 4968,
      "rested": 4969,
      "write": 4970,
      "excess": 4971,
      "evidence": 4972,
      "description": 4973,
      "roar": 4974,
      "roast": 4975,
      "scientist": 4976,
      "##duced": 4977,
      "##issipp": 4978,
      "doubts": 4979,
      "letting": 4980,
      "subjected": 4981,
      "carrying": 4982,
      "existed": 4983,
      "existing": 4984,
      "Selenographic": 4985,
      "bottles": 4986,
      "viv": 4987,
      "_Cl": 4988,
      "setting": 4989,
      "explains": 4990,
      "explained": 4991,
      "serv": 4992,
      "serene": 4993,
      "seriously": 4994,
      "corp": 4995,
      "equally": 4996,
      "radiant": 4997,
      "voices": 4998,
      "indul": 4999,
      "indicated": 5000,
      "indiffer": 5001,
      "sounded": 5002,
      "grav": 5003,
      "##retty": 5004,
      "assist": 5005,
      "cheering": 5006,
      "address": 5007,
      "clearer": 5008,
      "viewed": 5009,
      "laying": 5010,
      "wanted": 5011,
      "heartily": 5012,
      "bolides": 5013,
      "OFF": 5014,
      "concern": 5015,
      "concentrated": 5016,
      "producing": 5017,
      "grandest": 5018,
      "returning": 5019,
      "build": 5020,
      "landed": 5021,
      "delay": 5022,
      "sym": 5023,
      "animated": 5024,
      "feelings": 5025,
      "dragged": 5026,
      "draught": 5027,
      "plainly": 5028,
      "##OUND": 5029,
      "attracting": 5030,
      "occasional": 5031,
      "expense": 5032,
      "cooled": 5033,
      "satisfactorily": 5034,
      "lowest": 5035,
      "##ground": 5036,
      "##cox": 5037,
      "annular": 5038,
      "Colonel": 5039,
      "latest": 5040,
      "ruins": 5041,
      "entertain": 5042,
      "transc": 5043,
      "results": 5044,
      "guard": 5045,
      "risk": 5046,
      "distribute": 5047,
      "distributed": 5048,
      "breathe": 5049,
      "##ENSE": 5050,
      "regularity": 5051,
      "eclipsed": 5052,
      "enthusiastically": 5053,
      "rendered": 5054,
      "sentiment": 5055,
      "conditions": 5056,
      "dangerous": 5057,
      "uncertain": 5058,
      "characteristic": 5059,
      "drink": 5060,
      "limbs": 5061,
      "##like": 5062,
      "##ton_": 5063,
      "meteors": 5064,
      "destination": 5065,
      "destroy": 5066,
      "thickness": 5067,
      "spoken": 5068,
      "correctly": 5069,
      "_must_": 5070,
      "_Her": 5071,
      "_Barbican": 5072,
      "collection": 5073,
      "collision": 5074,
      "vision": 5075,
      "combined": 5076,
      "breathing": 5077,
      "happened": 5078,
      "##rehensible": 5079,
      "conceived": 5080,
      "vertically": 5081,
      "frightened": 5082,
      "telegr": 5083,
      "angry": 5084,
      "outlines": 5085,
      "modify": 5086,
      "solidly": 5087,
      "13th": 5088,
      "_Le": 5089,
      "broke": 5090,
      "##REE": 5091,
      "artic": 5092,
      "puzzled": 5093,
      "cavern": 5094,
      "faith": 5095,
      "failure": 5096,
      "simpl": 5097,
      "similar": 5098,
      "contemplated": 5099,
      "irr": 5100,
      "obstruct": 5101,
      "obstacle": 5102,
      "resembled": 5103,
      "performed": 5104,
      "elev": 5105,
      "forgotten": 5106,
      "separating": 5107,
      "display": 5108,
      "displaying": 5109,
      "discharged": 5110,
      "protect": 5111,
      "investigations": 5112,
      "parabola": 5113,
      "retarding": 5114,
      "Herald_": 5115,
      "Shall": 5116,
      "ladder": 5117,
      "miserable": 5118,
      "misty": 5119,
      "represented": 5120,
      "whispered": 5121,
      "streams": 5122,
      "demand": 5123,
      "sparkling": 5124,
      "Neither": 5125,
      "ceiling": 5126,
      "econom": 5127,
      "genial": 5128,
      "raised": 5129,
      "##renheit": 5130,
      "anxiously": 5131,
      "cracking": 5132,
      "delighted": 5133,
      "experience": 5134,
      "establish": 5135,
      "_Newton_": 5136,
      "study": 5137,
      "manufactured": 5138,
      "attached": 5139,
      "hesitation": 5140,
      "wandering": 5141,
      "##IGHT": 5142,
      "shapeless": 5143,
      "growled": 5144,
      "smothering": 5145,
      "furrows": 5146,
      "receipt": 5147,
      "freezing": 5148,
      "landscape": 5149,
      "!!\"": 5150,
      "Better": 5151,
      "Enough": 5152,
      "Fahrenheit": 5153,
      "fields": 5154,
      "nineteen": 5155,
      "befall": 5156,
      "suggested": 5157,
      "inconceiv": 5158,
      "constructed": 5159,
      "promptly": 5160,
      "Nectaris_": 5161,
      "Wilcox": 5162,
      "dreadful": 5163,
      "lucid": 5164,
      "popular": 5165,
      "patience": 5166,
      "school": 5167,
      "streets": 5168,
      "conjecture": 5169,
      "proceeding": 5170,
      "volunteers": 5171,
      "settled": 5172,
      "locomotive": 5173,
      "Serenitatis_": 5174,
      "majest": 5175,
      "Bravo": 5176,
      "Yankee": 5177,
      "odor": 5178,
      "oscill": 5179,
      "renewed": 5180,
      "unusual": 5181,
      "Hevelius": 5182,
      "_Mappa": 5183,
      "deposited": 5184,
      "indescribable": 5185,
      "inspection": 5186,
      "crystal": 5187,
      "established": 5188,
      "_Doerfel_": 5189,
      "geological": 5190,
      "Athens": 5191,
      "Himalay": 5192,
      "Herschel": 5193,
      "Mississipp": 5194,
      "Mathematics": 5195,
      "Pouillet": 5196,
      "Petit": 5197,
      "_you_": 5198,
      "bowsprit": 5199,
      "celebr": 5200,
      "false": 5201,
      "fantastic": 5202,
      "published": 5203,
      "tongue": 5204,
      "wrecks": 5205,
      "##venteen": 5206,
      "inevitable": 5207,
      "congrat": 5208,
      "atmospheric": 5209,
      "impenetrable": 5210,
      "embracing": 5211,
      "Selenographica_": 5212,
      "indifference": 5213,
      "concerned": 5214,
      "Himalayahs": 5215,
      "Mississippi": 5216,
      "..": 5217,
      ".'": 5218,
      ".)": 5219,
      ".--": 5220,
      "19": 5221,
      "1st": 5222,
      "22": 5223,
      "23": 5224,
      "42": 5225,
      "48": 5226,
      "5th": 5227,
      "75": 5228,
      "70": 5229,
      "80": 5230,
      "97": 5231,
      "90": 5232,
      "Ab": 5233,
      "Ast": 5234,
      "ALL": 5235,
      "Bro": 5236,
      "Barb": 5237,
      "BAR": 5238,
      "BAL": 5239,
      "Cis": 5240,
      "Cent": 5241,
      "Er": 5242,
      "Es": 5243,
      "Eur": 5244,
      "Fou": 5245,
      "Four": 5246,
      "Father": 5247,
      "Frig": 5248,
      "Foot": 5249,
      "FRO": 5250,
      "FIR": 5251,
      "Gi": 5252,
      "GU": 5253,
      "Gate": 5254,
      "Give": 5255,
      "Gold": 5256,
      "Green": 5257,
      "GUN": 5258,
      "Hon": 5259,
      "Hence": 5260,
      "High": 5261,
      "Hope": 5262,
      "HAL": 5263,
      "HIGH": 5264,
      "Jack": 5265,
      "Ke": 5266,
      "King": 5267,
      "Mt": 5268,
      "Mad": 5269,
      "More": 5270,
      "Mother": 5271,
      "Mah": 5272,
      "NE": 5273,
      "Night": 5274,
      "Nav": 5275,
      "Natur": 5276,
      "Next": 5277,
      "OB": 5278,
      "Open": 5279,
      "Pr": 5280,
      "Ph": 5281,
      "Pen": 5282,
      "QU": 5283,
      "Rain": 5284,
      "Read": 5285,
      "Ricci": 5286,
      "ST": 5287,
      "Say": 5288,
      "Sol": 5289,
      "Salt": 5290,
      "Tw": 5291,
      "Und": 5292,
      "VI": 5293,
      "Ven": 5294,
      "Wor": 5295,
      "Will": 5296,
      "WOR": 5297,
      "WAR": 5298,
      "WIN": 5299,
      "_G": 5300,
      "_W": 5301,
      "_can": 5302,
      "_sh": 5303,
      "_is_": 5304,
      "aver": 5305,
      "age": 5306,
      "bes": 5307,
      "bal": 5308,
      "bree": 5309,
      "bones": 5310,
      "cou": 5311,
      "cel": 5312,
      "cock": 5313,
      "cult": 5314,
      "ded": 5315,
      "died": 5316,
      "dying": 5317,
      "drew": 5318,
      "dotted": 5319,
      "eb": 5320,
      "epo": 5321,
      "ejected": 5322,
      "fight": 5323,
      "fath": 5324,
      "fac": 5325,
      "fiss": 5326,
      "fasc": 5327,
      "gall": 5328,
      "gase": 5329,
      "greet": 5330,
      "hat": 5331,
      "hit": 5332,
      "ham": 5333,
      "hous": 5334,
      "host": 5335,
      "hab": 5336,
      "hens": 5337,
      "hang": 5338,
      "hurrah": 5339,
      "hiding": 5340,
      "horses": 5341,
      "jar": 5342,
      "king": 5343,
      "kinds": 5344,
      "lect": 5345,
      "lust": 5346,
      "lake": 5347,
      "loom": 5348,
      "lashed": 5349,
      "license": 5350,
      "luck": 5351,
      "lapse": 5352,
      "mic": 5353,
      "mol": 5354,
      "members": 5355,
      "murm": 5356,
      "nit": 5357,
      "nail": 5358,
      "noses": 5359,
      "pit": 5360,
      "pun": 5361,
      "pity": 5362,
      "pack": 5363,
      "paying": 5364,
      "piled": 5365,
      "rh": 5366,
      "ran": 5367,
      "rul": 5368,
      "roo": 5369,
      "rout": 5370,
      "rare": 5371,
      "ratt": 5372,
      "rivers": 5373,
      "sat": 5374,
      "sit": 5375,
      "sal": 5376,
      "sne": 5377,
      "sang": 5378,
      "tight": 5379,
      "tast": 5380,
      "tend": 5381,
      "tub": 5382,
      "tired": 5383,
      "trop": 5384,
      "tables": 5385,
      "task": 5386,
      "vest": 5387,
      "vary": 5388,
      "wal": 5389,
      "waving": 5390,
      "women": 5391,
      "waves": 5392,
      "woman": 5393,
      "##ether": 5394,
      "##eys": 5395,
      "##aus": 5396,
      "##acc": 5397,
      "##ault": 5398,
      "##acious": 5399,
      "##lied": 5400,
      "##lime": 5401,
      "##ially": 5402,
      "##ia_": 5403,
      "##ipped": 5404,
      "##tly": 5405,
      "##tna": 5406,
      "##yle": 5407,
      "##row": 5408,
      "##rence": 5409,
      "##rade": 5410,
      "##ressed": 5411,
      "##sing": 5412,
      "##ux": 5413,
      "##uly": 5414,
      "##uber": 5415,
      "##med": 5416,
      "##mates": 5417,
      "##den": 5418,
      "##ding": 5419,
      "##dom": 5420,
      "##pers": 5421,
      "##pond": 5422,
      "##ns": 5423,
      "##noon": 5424,
      "##nell": 5425,
      "##note": 5426,
      "##opp": 5427,
      "##oke": 5428,
      "##opt": 5429,
      "##oves": 5430,
      "##hile": 5431,
      "##hole": 5432,
      "##helion": 5433,
      "##ciful": 5434,
      "##bon": 5435,
      "##bly": 5436,
      "##bably": 5437,
      "##LY": 5438,
      "##LIM": 5439,
      "##60": 5440,
      "##finite": 5441,
      "##ze": 5442,
      "##MORE": 5443,
      "##ELL": 5444,
      "##ECT": 5445,
      "##AK": 5446,
      "##AG": 5447,
      "##CE": 5448,
      "##CAP": 5449,
      "##HER": 5450,
      "##JECT": 5451,
      "##TLE": 5452,
      "##PED": 5453,
      "##SER": 5454,
      "##IED": 5455,
      "##BER": 5456,
      "##BIC": 5457,
      "##NI": 5458,
      "threat": 5459,
      "thread": 5460,
      "##erve": 5461,
      "##erne": 5462,
      "##erning": 5463,
      "##ercury": 5464,
      "##inc": 5465,
      "##inst": 5466,
      "##inence": 5467,
      "##eness": 5468,
      "##ingled": 5469,
      "##orama": 5470,
      "##lled": 5471,
      "toler": 5472,
      "tools": 5473,
      "##ital": 5474,
      "##itate": 5475,
      "##itute": 5476,
      "##isk": 5477,
      "inver": 5478,
      "inqu": 5479,
      "induce": 5480,
      "inmates": 5481,
      "##ication": 5482,
      "##leg": 5483,
      "##omin": 5484,
      "##omach": 5485,
      "beat": 5486,
      "beating": 5487,
      "beef": 5488,
      "##owers": 5489,
      "##struct": 5490,
      "##urt": 5491,
      "##uted": 5492,
      "##utation": 5493,
      "reel": 5494,
      "reck": 5495,
      "retained": 5496,
      "##idable": 5497,
      "##idence": 5498,
      "online": 5499,
      "##vex": 5500,
      "##vember": 5501,
      "##se_": 5502,
      "##semb": 5503,
      "##al_": 5504,
      "##alth": 5505,
      "##alent": 5506,
      "##alcul": 5507,
      "##ots": 5508,
      "##otions": 5509,
      "Thom": 5510,
      "Thunder": 5511,
      "##ires": 5512,
      "##rily": 5513,
      "##etic": 5514,
      "##ches": 5515,
      "##ections": 5516,
      "##imb": 5517,
      "forci": 5518,
      "forward": 5519,
      "heap": 5520,
      "health": 5521,
      "stir": 5522,
      "store": 5523,
      "stone": 5524,
      "stern": 5525,
      "status": 5526,
      "style": 5527,
      "stomach": 5528,
      "waste": 5529,
      "##apt": 5530,
      "##apes": 5531,
      "isn": 5532,
      "isol": 5533,
      "shore": 5534,
      "share": 5535,
      "shiver": 5536,
      "shorter": 5537,
      "shattered": 5538,
      "##terday": 5539,
      "##allic": 5540,
      "bye": 5541,
      "exqu": 5542,
      "exert": 5543,
      "convex": 5544,
      "##estial": 5545,
      "wear": 5546,
      "week": 5547,
      "weeks": 5548,
      "##ilt": 5549,
      "##il_": 5550,
      "select": 5551,
      "##unction": 5552,
      "##akened": 5553,
      "neg": 5554,
      "neat": 5555,
      "##illa": 5556,
      "decision": 5557,
      "##olas": 5558,
      "##olite": 5559,
      "##olved": 5560,
      "##osp": 5561,
      "##umes": 5562,
      "Probably": 5563,
      "comical": 5564,
      "noble": 5565,
      "nodd": 5566,
      "novel": 5567,
      "butt": 5568,
      "##anting": 5569,
      "##pping": 5570,
      "prove": 5571,
      "proving": 5572,
      "process": 5573,
      "providing": 5574,
      "prospect": 5575,
      "proxim": 5576,
      "##oods": 5577,
      "ench": 5578,
      "envel": 5579,
      "entered": 5580,
      "--?\"": 5581,
      "fees": 5582,
      "liked": 5583,
      "##artyr": 5584,
      "##ander": 5585,
      "##ems": 5586,
      "##emis": 5587,
      "thanks": 5588,
      "obsc": 5589,
      "quit": 5590,
      "quality": 5591,
      "##ples": 5592,
      "unp": 5593,
      "unb": 5594,
      "univers": 5595,
      "While": 5596,
      "Whether": 5597,
      "chill": 5598,
      "chance": 5599,
      "chick": 5600,
      "chair": 5601,
      "chlor": 5602,
      "##urely": 5603,
      "nowhere": 5604,
      "##ptured": 5605,
      "comput": 5606,
      "compare": 5607,
      "anybody": 5608,
      "anywhere": 5609,
      "legs": 5610,
      "uphe": 5611,
      "doom": 5612,
      "dozen": 5613,
      "##ieth": 5614,
      "##ieve": 5615,
      "appro": 5616,
      "appreh": 5617,
      "appointed": 5618,
      "##ishment": 5619,
      "boats": 5620,
      "##phinst": 5621,
      "##perate": 5622,
      "agony": 5623,
      "precip": 5624,
      "fling": 5625,
      "flame": 5626,
      "flashing": 5627,
      "flapping": 5628,
      "blame": 5629,
      "manage": 5630,
      "managed": 5631,
      "manhole": 5632,
      "interse": 5633,
      "interstellar": 5634,
      "attend": 5635,
      "adopt": 5636,
      "##rue": 5637,
      "##ffin": 5638,
      "overwh": 5639,
      "overcome": 5640,
      "overboard": 5641,
      "reserved": 5642,
      "clap": 5643,
      "clay": 5644,
      "clos": 5645,
      "clust": 5646,
      "intox": 5647,
      "fired": 5648,
      "removed": 5649,
      "reminds": 5650,
      "remembers": 5651,
      "##escence": 5652,
      "termin": 5653,
      "November": 5654,
      "##enses": 5655,
      "##ension": 5656,
      "consol": 5657,
      "consult": 5658,
      "preserve": 5659,
      "coal": 5660,
      "coffin": 5661,
      "##ledged": 5662,
      "nearing": 5663,
      "loose": 5664,
      "looks": 5665,
      "brisk": 5666,
      "##own_": 5667,
      "format": 5668,
      "readers": 5669,
      "strang": 5670,
      "certainty": 5671,
      "##ountable": 5672,
      "diffused": 5673,
      "caloric": 5674,
      "##ordingly": 5675,
      "THAT": 5676,
      "mineral": 5677,
      "refused": 5678,
      "refuse": 5679,
      "refresh": 5680,
      "refuge": 5681,
      "afternoon": 5682,
      "justify": 5683,
      "##swer": 5684,
      "smart": 5685,
      "smiling": 5686,
      "##icks": 5687,
      "##icker": 5688,
      "company": 5689,
      "immob": 5690,
      "donate": 5691,
      "scar": 5692,
      "scor": 5693,
      "sublime": 5694,
      "calculating": 5695,
      "awhile": 5696,
      "awakened": 5697,
      "goes": 5698,
      "##arsh": 5699,
      "centres": 5700,
      "diving": 5701,
      "endured": 5702,
      "##pressible": 5703,
      "special": 5704,
      "owner": 5705,
      "emb": 5706,
      "emer": 5707,
      "lift": 5708,
      "lifting": 5709,
      "##leton": 5710,
      "amused": 5711,
      "inval": 5712,
      "invented": 5713,
      "involving": 5714,
      "curtly": 5715,
      "desol": 5716,
      "clearing": 5717,
      "laun": 5718,
      "Seas": 5719,
      "##igned": 5720,
      "passes": 5721,
      "incor": 5722,
      "incred": 5723,
      "incont": 5724,
      "actual": 5725,
      "matters": 5726,
      "observatory": 5727,
      "ideas": 5728,
      "supper": 5729,
      "supplied": 5730,
      "##respond": 5731,
      "command": 5732,
      "commence": 5733,
      "advis": 5734,
      "restored": 5735,
      "wrapped": 5736,
      "northeast": 5737,
      "background": 5738,
      "float": 5739,
      "instantane": 5740,
      "circul": 5741,
      "circles": 5742,
      "steel": 5743,
      "kindly": 5744,
      "counted": 5745,
      "counting": 5746,
      "dispute": 5747,
      "skin": 5748,
      "sixteen": 5749,
      "explaining": 5750,
      "favored": 5751,
      "favorite": 5752,
      "confounded": 5753,
      "##anned": 5754,
      "corusc": 5755,
      "copied": 5756,
      "copying": 5757,
      "radii": 5758,
      "radiated": 5759,
      "thoughts": 5760,
      "relished": 5761,
      "Once": 5762,
      "tenths": 5763,
      "##ites_": 5764,
      "assuming": 5765,
      "expressed": 5766,
      "metallic": 5767,
      "insist": 5768,
      "insisted": 5769,
      "reception": 5770,
      "wants": 5771,
      "professor": 5772,
      "terrific": 5773,
      "portions": 5774,
      "talked": 5775,
      "##ps_": 5776,
      "##ontal": 5777,
      "succession": 5778,
      "successive": 5779,
      "inhabitability": 5780,
      "dimmer": 5781,
      "singularly": 5782,
      "signals": 5783,
      "satisfied": 5784,
      "sunk": 5785,
      "projections": 5786,
      "Black": 5787,
      "craw": 5788,
      "ringing": 5789,
      "realized": 5790,
      "buff": 5791,
      "built": 5792,
      "landing": 5793,
      "##ART": 5794,
      "understanding": 5795,
      "southwest": 5796,
      "propose": 5797,
      "proposed": 5798,
      "circle": 5799,
      "indefinite": 5800,
      "plane": 5801,
      "periods": 5802,
      "##ography": 5803,
      "##ographical": 5804,
      "magnifying": 5805,
      "final": 5806,
      "finest": 5807,
      "redoubled": 5808,
      "horse": 5809,
      "##OUGH": 5810,
      "##insula": 5811,
      "admired": 5812,
      "admitting": 5813,
      "strangely": 5814,
      "balls": 5815,
      "expenses": 5816,
      "occupy": 5817,
      "occupants": 5818,
      "hemispher": 5819,
      "catching": 5820,
      "dangers": 5821,
      "lowered": 5822,
      "arrive": 5823,
      "afford": 5824,
      "affected": 5825,
      "ruptured": 5826,
      "##TIMORE": 5827,
      "exciting": 5828,
      "Without": 5829,
      "risen": 5830,
      "rises": 5831,
      "respects": 5832,
      "difficulties": 5833,
      "influences": 5834,
      "##ENT": 5835,
      "revealing": 5836,
      "penet": 5837,
      "prominence": 5838,
      "rendering": 5839,
      "examination": 5840,
      "condens": 5841,
      "arrow": 5842,
      "arranged": 5843,
      "150": 5844,
      "namely": 5845,
      "agreed": 5846,
      "drun": 5847,
      "dressed": 5848,
      "drowned": 5849,
      "limit": 5850,
      "posts": 5851,
      "##ACK": 5852,
      "believing": 5853,
      "profoundest": 5854,
      "driving": 5855,
      "destruction": 5856,
      "discussed": 5857,
      "importance": 5858,
      "systems": 5859,
      "circumstance": 5860,
      "_Has": 5861,
      "problems": 5862,
      "Quarter": 5863,
      "joyful": 5864,
      "pairs": 5865,
      "ventured": 5866,
      "conceal": 5867,
      "possessing": 5868,
      "impossibility": 5869,
      "occurred": 5870,
      "occurrence": 5871,
      "Hills": 5872,
      "faintest": 5873,
      "merely": 5874,
      "revolving": 5875,
      "firmament": 5876,
      "modified": 5877,
      "recovered": 5878,
      "recovering": 5879,
      "solidity": 5880,
      "diminish": 5881,
      "casting": 5882,
      "editions": 5883,
      "holder": 5884,
      "located": 5885,
      "missed": 5886,
      "compliance": 5887,
      "undertaking": 5888,
      "formerly": 5889,
      "vegetable": 5890,
      "facul": 5891,
      "officer": 5892,
      "official": 5893,
      "proportions": 5894,
      "contemplate": 5895,
      "acknowledged": 5896,
      "furnished": 5897,
      "valid": 5898,
      "##STR": 5899,
      "methods": 5900,
      "permitted": 5901,
      "resembling": 5902,
      "performing": 5903,
      "horizontal": 5904,
      "_con": 5905,
      "inches": 5906,
      "whirl": 5907,
      "selen": 5908,
      "##amental": 5909,
      "depressed": 5910,
      "measurements": 5911,
      "utterly": 5912,
      "admiration": 5913,
      "AROUND": 5914,
      "_Vive": 5915,
      "dreamed": 5916,
      "polished": 5917,
      "whispers": 5918,
      "unequ": 5919,
      "impression": 5920,
      "disturb": 5921,
      "speculation": 5922,
      "speculations": 5923,
      "recognized": 5924,
      "cheerful": 5925,
      "precaution": 5926,
      "telegraphic": 5927,
      "Indians": 5928,
      "Many": 5929,
      "_not_": 5930,
      "_nil_": 5931,
      "derrick": 5932,
      "touching": 5933,
      "wait": 5934,
      "anxiety": 5935,
      "applicable": 5936,
      "infinitely": 5937,
      "experienced": 5938,
      "guesses": 5939,
      "philosophers": 5940,
      "240": 5941,
      "COLD": 5942,
      "XXI": 5943,
      "beds": 5944,
      "flew": 5945,
      "memory": 5946,
      "panorama": 5947,
      "##boat": 5948,
      "##VERS": 5949,
      "##ambert": 5950,
      "oblique": 5951,
      "dogm": 5952,
      "manufacture": 5953,
      "gravely": 5954,
      "incessantly": 5955,
      "struggling": 5956,
      "requirements": 5957,
      "personal": 5958,
      "ANY": 5959,
      "Continent": 5960,
      "astonishment": 5961,
      "authorities": 5962,
      "birds": 5963,
      "hunger": 5964,
      "rushing": 5965,
      "tearing": 5966,
      "throbbing": 5967,
      "##anquet": 5968,
      "bewildered": 5969,
      "##added": 5970,
      "shifting": 5971,
      "shouted": 5972,
      "enveloping": 5973,
      "flashes": 5974,
      "resistance": 5975,
      "smothered": 5976,
      "physical": 5977,
      "silvery": 5978,
      "intellectual": 5979,
      "organization": 5980,
      "landscapes": 5981,
      "ignorant": 5982,
      "dinner": 5983,
      "damage": 5984,
      "evapor": 5985,
      "eruptions": 5986,
      "fairly": 5987,
      "treasure": 5988,
      "yielded": 5989,
      "yielding": 5990,
      "suspended": 5991,
      "channel": 5992,
      "perceive": 5993,
      "perceived": 5994,
      "accompanied": 5995,
      "estimation": 5996,
      "principal": 5997,
      "principally": 5998,
      "Elphinst": 5999,
      "coolly": 6000,
      "drear": 6001,
      "grimly": 6002,
      "rotation": 6003,
      "yesterday": 6004,
      "##ATIONS": 6005,
      "##IBLE": 6006,
      "##venient": 6007,
      "mechanically": 6008,
      "letters": 6009,
      "confirmed": 6010,
      "##TENBER": 6011,
      "identical": 6012,
      "Academ": 6013,
      "Director": 6014,
      "Humor": 6015,
      "_unity_": 6016,
      "barely": 6017,
      "creation": 6018,
      "elliptical": 6019,
      "fundamental": 6020,
      "narrow": 6021,
      "potash": 6022,
      "urged": 6023,
      "withdrawn": 6024,
      "shrie": 6025,
      "history": 6026,
      "##illikins": 6027,
      "comprised": 6028,
      "compensation": 6029,
      "flourishing": 6030,
      "adjust": 6031,
      "newspaper": 6032,
      "incomprehensible": 6033,
      "switched": 6034,
      "delicious": 6035,
      "pursued": 6036,
      "16457": 6037,
      "participated": 6038,
      "irrepressible": 6039,
      "ecstasy": 6040,
      "Tranquillitatis_": 6041,
      "Creator": 6042,
      "Listen": 6043,
      "LUNAR": 6044,
      "Nasmyth": 6045,
      "People": 6046,
      "Precisely": 6047,
      "PROJECT": 6048,
      "_the": 6049,
      "borne": 6050,
      "front": 6051,
      "fragments": 6052,
      "gorgeous": 6053,
      "multi": 6054,
      "type": 6055,
      "whistling": 6056,
      "ashy": 6057,
      "foreshort": 6058,
      "exhausted": 6059,
      "disclaim": 6060,
      "feasibility": 6061,
      "glistening": 6062,
      "inferior": 6063,
      "exclamation": 6064,
      "_Clavius_": 6065,
      "_Barbicanites_": 6066,
      "telegram": 6067,
      "faithful": 6068,
      "...": 6069,
      "BARBIC": 6070,
      "BALTIMORE": 6071,
      "Cisco": 6072,
      "Europe": 6073,
      "Fourier": 6074,
      "Frigoris_": 6075,
      "Footnote": 6076,
      "FROM": 6077,
      "FIRST": 6078,
      "GUTENBER": 6079,
      "Golden": 6080,
      "HALF": 6081,
      "Mahomet": 6082,
      "OBSER": 6083,
      "Riccioli": 6084,
      "Venus": 6085,
      "WARRAN": 6086,
      "beside": 6087,
      "couple": 6088,
      "celestial": 6089,
      "epoch": 6090,
      "gaseous": 6091,
      "greeted": 6092,
      "houses": 6093,
      "molten": 6094,
      "ruler": 6095,
      "route": 6096,
      "tropical": 6097,
      "vestige": 6098,
      "exquisite": 6099,
      "proximity": 6100,
      "envelope": 6101,
      "overwhel": 6102,
      "immobility": 6103,
      "hemispheres": 6104,
      "Elphinstone": 6105,
      "BARBICAN": 6106,
      "GUTENBERG": 6107,
      "!)": 6108,
      "',": 6109,
      "''": 6110,
      "(--": 6111,
      ".}": 6112,
      ".[": 6113,
      "29": 6114,
      "37": 6115,
      "360": 6116,
      "6th": 6117,
      "81": 6118,
      "Am": 6119,
      "Ag": 6120,
      "AG": 6121,
      "Air": 6122,
      "Aust": 6123,
      "App": 6124,
      "Bear": 6125,
      "Boss": 6126,
      "BRE": 6127,
      "Cur": 6128,
      "Call": 6129,
      "Cable": 6130,
      "Cass": 6131,
      "Cons": 6132,
      "COU": 6133,
      "Dr": 6134,
      "DI": 6135,
      "Den": 6136,
      "Des": 6137,
      "Day": 6138,
      "Dant": 6139,
      "Die": 6140,
      "Down": 6141,
      "EAR": 6142,
      "END": 6143,
      "EVER": 6144,
      "Fin": 6145,
      "Fur": 6146,
      "Fort": 6147,
      "Fire": 6148,
      "Fair": 6149,
      "Field": 6150,
      "FULL": 6151,
      "Gl": 6152,
      "Ger": 6153,
      "Gentle": 6154,
      "Hu": 6155,
      "Hand": 6156,
      "Half": 6157,
      "House": 6158,
      "Homer": 6159,
      "Hemis": 6160,
      "Jud": 6161,
      "Low": 6162,
      "Lun": 6163,
      "Last": 6164,
      "Lif": 6165,
      "Loo": 6166,
      "Little": 6167,
      "Lord": 6168,
      "LIC": 6169,
      "LIM": 6170,
      "Min": 6171,
      "Mon": 6172,
      "MAR": 6173,
      "MAC": 6174,
      "MORE": 6175,
      "Ni": 6176,
      "Nay": 6177,
      "None": 6178,
      "Nature": 6179,
      "Out": 6180,
      "Other": 6181,
      "OLD": 6182,
      "Owing": 6183,
      "OUT": 6184,
      "Po": 6185,
      "PI": 6186,
      "PU": 6187,
      "Pol": 6188,
      "Pull": 6189,
      "Poss": 6190,
      "Pretty": 6191,
      "Rome": 6192,
      "Roy": 6193,
      "Sl": 6194,
      "Sm": 6195,
      "Sou": 6196,
      "Sor": 6197,
      "Sub": 6198,
      "Simp": 6199,
      "SOU": 6200,
      "Saint": 6201,
      "Ty": 6202,
      "TR": 6203,
      "Tit": 6204,
      "Tal": 6205,
      "Tamp": 6206,
      "Tele": 6207,
      "True": 6208,
      "Up": 6209,
      "UT": 6210,
      "Ves": 6211,
      "Vice": 6212,
      "Verne": 6213,
      "Wa": 6214,
      "WH": 6215,
      "Wat": 6216,
      "War": 6217,
      "Western": 6218,
      "Wonder": 6219,
      "_U": 6220,
      "_K": 6221,
      "_Y": 6222,
      "_à": 6223,
      "_Q": 6224,
      "_ap": 6225,
      "av": 6226,
      "aye": 6227,
      "afra": 6228,
      "bou": 6229,
      "bas": 6230,
      "bow": 6231,
      "bent": 6232,
      "bid": 6233,
      "bay": 6234,
      "bul": 6235,
      "bab": 6236,
      "big": 6237,
      "bag": 6238,
      "bath": 6239,
      "bark": 6240,
      "barr": 6241,
      "born": 6242,
      "books": 6243,
      "breadth": 6244,
      "banquet": 6245,
      "cad": 6246,
      "cul": 6247,
      "cook": 6248,
      "cocks": 6249,
      "cinder": 6250,
      "dus": 6251,
      "dome": 6252,
      "dried": 6253,
      "dull": 6254,
      "dign": 6255,
      "density": 6256,
      "eman": 6257,
      "echo": 6258,
      "fly": 6259,
      "fain": 6260,
      "food": 6261,
      "faster": 6262,
      "ga": 6263,
      "gir": 6264,
      "gri": 6265,
      "gib": 6266,
      "gulf": 6267,
      "goose": 6268,
      "hop": 6269,
      "hide": 6270,
      "hove": 6271,
      "halt": 6272,
      "hank": 6273,
      "honey": 6274,
      "jag": 6275,
      "jack": 6276,
      "kill": 6277,
      "link": 6278,
      "mad": 6279,
      "mess": 6280,
      "mil": 6281,
      "mott": 6282,
      "matt": 6283,
      "mingled": 6284,
      "martyr": 6285,
      "nav": 6286,
      "native": 6287,
      "nerv": 6288,
      "ore": 6289,
      "owing": 6290,
      "pin": 6291,
      "pall": 6292,
      "pound": 6293,
      "pig": 6294,
      "pup": 6295,
      "pier": 6296,
      "pomp": 6297,
      "pushed": 6298,
      "pyr": 6299,
      "rom": 6300,
      "ray": 6301,
      "ram": 6302,
      "rav": 6303,
      "ride": 6304,
      "rage": 6305,
      "rib": 6306,
      "roy": 6307,
      "rank": 6308,
      "rules": 6309,
      "sen": 6310,
      "sle": 6311,
      "sad": 6312,
      "save": 6313,
      "sul": 6314,
      "sigh": 6315,
      "salt": 6316,
      "sitting": 6317,
      "sized": 6318,
      "sank": 6319,
      "sangu": 6320,
      "ton": 6321,
      "tor": 6322,
      "tap": 6323,
      "test": 6324,
      "trees": 6325,
      "tee": 6326,
      "ul": 6327,
      "vic": 6328,
      "wave": 6329,
      "wire": 6330,
      "wine": 6331,
      "wake": 6332,
      "warr": 6333,
      "wager": 6334,
      "wires": 6335,
      "yelled": 6336,
      "##eat": 6337,
      "##eff": 6338,
      "##aci": 6339,
      "##acul": 6340,
      "##awn": 6341,
      "##lat": 6342,
      "##lers": 6343,
      "##lass": 6344,
      "##lier": 6345,
      "##iven": 6346,
      "##iations": 6347,
      "##iac": 6348,
      "##ihil": 6349,
      "##ihood": 6350,
      "##ties": 6351,
      "##tole": 6352,
      "##ym": 6353,
      "##yen": 6354,
      "##rat": 6355,
      "##ras": 6356,
      "##rate": 6357,
      "##rough": 6358,
      "##rist": 6359,
      "##sidence": 6360,
      "##uing": 6361,
      "##uis": 6362,
      "##my": 6363,
      "##more": 6364,
      "##dig": 6365,
      "##pes": 6366,
      "##pow": 6367,
      "##pable": 6368,
      "##port": 6369,
      "##pie": 6370,
      "##path": 6371,
      "##power": 6372,
      "##piring": 6373,
      "##no": 6374,
      "##nit": 6375,
      "##nap": 6376,
      "##gar": 6377,
      "##gil": 6378,
      "##oe": 6379,
      "##oic": 6380,
      "##och": 6381,
      "##oil": 6382,
      "##oked": 6383,
      "##hn": 6384,
      "##hist": 6385,
      "##hib": 6386,
      "##cuse": 6387,
      "##comed": 6388,
      "##bal": 6389,
      "##bling": 6390,
      "##bows": 6391,
      "##boy": 6392,
      "##buff": 6393,
      "##kal": 6394,
      "##kel": 6395,
      "##41": 6396,
      "##fy": 6397,
      "##fug": 6398,
      "##zing": 6399,
      "##zach": 6400,
      "##ME": 6401,
      "##MAG": 6402,
      "##vable": 6403,
      "##vals": 6404,
      "##RY": 6405,
      "##AY": 6406,
      "##CON": 6407,
      "##HI": 6408,
      "##HING": 6409,
      "##OS": 6410,
      "##TR": 6411,
      "##ém": 6412,
      "##PS": 6413,
      "##ILIT": 6414,
      "##UC": 6415,
      "##GEN": 6416,
      "##VID": 6417,
      "theat": 6418,
      "##erated": 6419,
      "##ina": 6420,
      "##ini": 6421,
      "##inations": 6422,
      "##ena": 6423,
      "##enes": 6424,
      "##enes_": 6425,
      "##edily": 6426,
      "##ona": 6427,
      "##onious": 6428,
      "##ata": 6429,
      "##atics": 6430,
      "##aries": 6431,
      "##anes": 6432,
      "##aning": 6433,
      "##inged": 6434,
      "##oral": 6435,
      "##oret": 6436,
      "##orated": 6437,
      "##orations": 6438,
      "##llous": 6439,
      "##llian": 6440,
      "anch": 6441,
      "toast": 6442,
      "##itous": 6443,
      "##itary": 6444,
      "##iset": 6445,
      "##isel": 6446,
      "##isium_": 6447,
      "##isby": 6448,
      "inert": 6449,
      "##asp": 6450,
      "##icked": 6451,
      "##icip": 6452,
      "##icism": 6453,
      "##le_": 6454,
      "##omn": 6455,
      "##theless": 6456,
      "##thenes_": 6457,
      "##ential": 6458,
      "##urb": 6459,
      "##urity": 6460,
      "##ad_": 6461,
      "##utonic": 6462,
      "rej": 6463,
      "retain": 6464,
      "reapp": 6465,
      "##ider": 6466,
      "##idal": 6467,
      "##idium_": 6468,
      "ones": 6469,
      "##vellous": 6470,
      "whom": 6471,
      "##alty": 6472,
      "##alizing": 6473,
      "asper": 6474,
      "aside": 6475,
      "assemb": 6476,
      "##oting": 6477,
      "##ainted": 6478,
      "Thank": 6479,
      "Through": 6480,
      "##irs": 6481,
      "##irty": 6482,
      "##roar": 6483,
      "##roeter": 6484,
      "##rolling": 6485,
      "##rophe": 6486,
      "##ript": 6487,
      "attain": 6488,
      "##etu": 6489,
      "##eters": 6490,
      "##eties": 6491,
      "##chi": 6492,
      "##chimed": 6493,
      "##chief": 6494,
      "##imum": 6495,
      "##imming": 6496,
      "forced": 6497,
      "forec": 6498,
      "heaving": 6499,
      "hearing": 6500,
      "stay": 6501,
      "stif": 6502,
      "stoo": 6503,
      "stage": 6504,
      "stored": 6505,
      "##apter": 6506,
      "##ay_": 6507,
      "##ndall": 6508,
      "issu": 6509,
      "shak": 6510,
      "shaken": 6511,
      "shudd": 6512,
      "##terior": 6513,
      "##allation": 6514,
      "##alley": 6515,
      "##ulas": 6516,
      "##ulation": 6517,
      "##ulating": 6518,
      "exer": 6519,
      "exterior": 6520,
      "contain": 6521,
      "concept": 6522,
      "convenient": 6523,
      "##estion": 6524,
      "##estably": 6525,
      "noted": 6526,
      "web": 6527,
      "suit": 6528,
      "suitable": 6529,
      "##ilarly": 6530,
      "##ilities": 6531,
      "seated": 6532,
      "sealed": 6533,
      "seventeen": 6534,
      "orange": 6535,
      "##ational": 6536,
      "##une": 6537,
      "##astly": 6538,
      "##astrophe": 6539,
      "Arago": 6540,
      "##akers": 6541,
      "##amm": 6542,
      "##aming": 6543,
      "##ambers": 6544,
      "neb": 6545,
      "allowing": 6546,
      "##illity": 6547,
      "deb": 6548,
      "decept": 6549,
      "##olis": 6550,
      "##olve": 6551,
      "##rometer": 6552,
      "##osm": 6553,
      "##osph": 6554,
      "##osthenes_": 6555,
      "##umption": 6556,
      "##umulated": 6557,
      "##umns": 6558,
      "disag": 6559,
      "##ife_": 6560,
      "##race": 6561,
      "##racks": 6562,
      "nois": 6563,
      "nobody": 6564,
      "##antage": 6565,
      "##gee": 6566,
      "alumin": 6567,
      "alkal": 6568,
      "couldn": 6569,
      "prolong": 6570,
      "prodig": 6571,
      "soil": 6572,
      "sph": 6573,
      "enlight": 6574,
      "##ourse": 6575,
      "feast": 6576,
      "feather": 6577,
      "liable": 6578,
      "lived": 6579,
      "lives": 6580,
      "liability": 6581,
      "likel": 6582,
      "troubled": 6583,
      "aband": 6584,
      "canine": 6585,
      "obtaining": 6586,
      "##olly": 6587,
      "##pless": 6588,
      "##plied": 6589,
      "##plicable": 6590,
      "meat": 6591,
      "##endent": 6592,
      "##ardon": 6593,
      "##arthly": 6594,
      "##quently": 6595,
      "unass": 6596,
      "unru": 6597,
      "united": 6598,
      "univer": 6599,
      "unacc": 6600,
      "cher": 6601,
      "chimed": 6602,
      "chasm": 6603,
      "charts": 6604,
      "changed": 6605,
      "choose": 6606,
      "chapter": 6607,
      "chambers": 6608,
      "thereby": 6609,
      "##ptic": 6610,
      "user": 6611,
      "glowing": 6612,
      "glimmer": 6613,
      "##action": 6614,
      "surv": 6615,
      "survey": 6616,
      "complying": 6617,
      "compelled": 6618,
      "compels": 6619,
      "##indled": 6620,
      "##ach_": 6621,
      "##ortment": 6622,
      "plat": 6623,
      "planted": 6624,
      "plutonic": 6625,
      "poet": 6626,
      "pock": 6627,
      "##isture": 6628,
      "##istarch": 6629,
      "arid": 6630,
      "arrest": 6631,
      "upright": 6632,
      "uproar": 6633,
      "door": 6634,
      "pred": 6635,
      "pray": 6636,
      "print": 6637,
      "##intill": 6638,
      "whatso": 6639,
      "apply": 6640,
      "appalling": 6641,
      "##assing": 6642,
      "##iged": 6643,
      "##igation": 6644,
      "##igrade": 6645,
      "contents": 6646,
      "contribut": 6647,
      "contriv": 6648,
      "##irect": 6649,
      "##phur": 6650,
      "agency": 6651,
      "##agn": 6652,
      "##ague": 6653,
      "##agara": 6654,
      "prehist": 6655,
      "flut": 6656,
      "flight": 6657,
      "flood": 6658,
      "flakes": 6659,
      "flung": 6660,
      "flatt": 6661,
      "flesh": 6662,
      "blown": 6663,
      "blistered": 6664,
      "everywhere": 6665,
      "intervals": 6666,
      "attitudes": 6667,
      "grass": 6668,
      "growing": 6669,
      "cred": 6670,
      "crit": 6671,
      "crashing": 6672,
      "crests": 6673,
      "##reeable": 6674,
      "advers": 6675,
      "myth": 6676,
      "myst": 6677,
      "##cules": 6678,
      "travel": 6679,
      "throng": 6680,
      "##ffled": 6681,
      "howl": 6682,
      "howling": 6683,
      "##prison": 6684,
      "partly": 6685,
      "parties": 6686,
      "partially": 6687,
      "resour": 6688,
      "resolut": 6689,
      "claimed": 6690,
      "clapping": 6691,
      "lighting": 6692,
      "##acing": 6693,
      "##acity": 6694,
      "##ater_": 6695,
      "accumulated": 6696,
      "offer": 6697,
      "##eping": 6698,
      "remed": 6699,
      "slang": 6700,
      "slopes": 6701,
      "slipped": 6702,
      "##menting": 6703,
      "mother": 6704,
      "movable": 6705,
      "moisture": 6706,
      "terrib": 6707,
      "##ensive": 6708,
      "conscience": 6709,
      "coated": 6710,
      "copper": 6711,
      "fewer": 6712,
      "##inkage": 6713,
      "brings": 6714,
      "strick": 6715,
      "Heaven": 6716,
      "certain_": 6717,
      "presents": 6718,
      "secure": 6719,
      "peering": 6720,
      "##angent": 6721,
      "whereas": 6722,
      "##ipment": 6723,
      "##orders": 6724,
      "France": 6725,
      "Frisby": 6726,
      "extends": 6727,
      "extensive": 6728,
      "Web": 6729,
      "justice": 6730,
      "sheets": 6731,
      "_Mont": 6732,
      "_Mille": 6733,
      "##ddess": 6734,
      "##reading": 6735,
      "imparted": 6736,
      "impetu": 6737,
      "Stri": 6738,
      "Stop": 6739,
      "Street": 6740,
      "answers": 6741,
      "answering": 6742,
      "donke": 6743,
      "scr": 6744,
      "scenes": 6745,
      "scintill": 6746,
      "subsc": 6747,
      "subsidence": 6748,
      "phleg": 6749,
      "phosph": 6750,
      "##ibr": 6751,
      "##ibnit": 6752,
      "gods": 6753,
      "govern": 6754,
      "goddess": 6755,
      "centigrade": 6756,
      "divers": 6757,
      "darker": 6758,
      "darkest": 6759,
      "##ternally": 6760,
      "absent": 6761,
      "depends": 6762,
      "##pressibly": 6763,
      "spee": 6764,
      "speck": 6765,
      "infern": 6766,
      "recoil": 6767,
      "eminent": 6768,
      "watery": 6769,
      "brillian": 6770,
      "amuse": 6771,
      "invent": 6772,
      "astounded": 6773,
      "desert": 6774,
      "deserved": 6775,
      "desperate": 6776,
      "newly": 6777,
      "downwards": 6778,
      "##ERN": 6779,
      "##ignation": 6780,
      "passions": 6781,
      "incalcul": 6782,
      "exclus": 6783,
      "furious": 6784,
      "solic": 6785,
      "solve": 6786,
      "souls": 6787,
      "glassy": 6788,
      "wondrous": 6789,
      "suppress": 6790,
      "probable": 6791,
      "##resist": 6792,
      "efful": 6793,
      "opening": 6794,
      "detach": 6795,
      "committee": 6796,
      "advised": 6797,
      "volumes": 6798,
      "windlass": 6799,
      "resting": 6800,
      "swore": 6801,
      "wrinkled": 6802,
      "excuse": 6803,
      "_Saturn": 6804,
      "descend": 6805,
      "roaring": 6806,
      "##duc": 6807,
      "steer": 6808,
      "simpleton": 6809,
      "charged": 6810,
      "charming": 6811,
      "morrow": 6812,
      "subjects": 6813,
      "##atisfact": 6814,
      "exists": 6815,
      "wondering": 6816,
      "Answer": 6817,
      "Annap": 6818,
      "astronomy": 6819,
      "countless": 6820,
      "powerless": 6821,
      "dispense": 6822,
      "sket": 6823,
      "sixth": 6824,
      "tempered": 6825,
      "served": 6826,
      "series": 6827,
      "serving": 6828,
      "corners": 6829,
      "correspond": 6830,
      "equiv": 6831,
      "equipment": 6832,
      "illusion": 6833,
      "soundless": 6834,
      "##gency": 6835,
      "grace": 6836,
      "tenth": 6837,
      "uttering": 6838,
      "Clubmen": 6839,
      "assure": 6840,
      "expressly": 6841,
      "expressions": 6842,
      "discovering": 6843,
      "viewing": 6844,
      "oppon": 6845,
      "##icient": 6846,
      "hearty": 6847,
      "splitting": 6848,
      "Christ": 6849,
      "hearers": 6850,
      "bottomless": 6851,
      "severe": 6852,
      "previously": 6853,
      "movements": 6854,
      "signalling": 6855,
      "trill": 6856,
      "shortly": 6857,
      "sunken": 6858,
      "necessity": 6859,
      "necessarily": 6860,
      "crazy": 6861,
      "realize": 6862,
      "concerning": 6863,
      "grandly": 6864,
      "Doing": 6865,
      "Unless": 6866,
      "Univers": 6867,
      "deliver": 6868,
      "purest": 6869,
      "purity": 6870,
      "pursue": 6871,
      "syll": 6872,
      "helpless": 6873,
      "##ushing": 6874,
      "propri": 6875,
      "proposition": 6876,
      "preparing": 6877,
      "columns": 6878,
      "useful": 6879,
      "animation": 6880,
      "perihelion": 6881,
      "magnetic": 6882,
      "_Pic": 6883,
      "_Plat": 6884,
      "_Ptole": 6885,
      "finish": 6886,
      "fasten": 6887,
      "redistribut": 6888,
      "streaked": 6889,
      "neutralize": 6890,
      "sensation": 6891,
      "sensibly": 6892,
      "walled": 6893,
      "##gging": 6894,
      "##OUR": 6895,
      "admitted": 6896,
      "extremity": 6897,
      "attracted": 6898,
      "inflated": 6899,
      "Everest": 6900,
      "ballast": 6901,
      "capric": 6902,
      "watched": 6903,
      "sharply": 6904,
      "arguing": 6905,
      "coolness": 6906,
      "reflector": 6907,
      "elastic": 6908,
      "hotel": 6909,
      "listened": 6910,
      "mainly": 6911,
      "annihil": 6912,
      "##ceptible": 6913,
      "affect": 6914,
      "buried": 6915,
      "rudd": 6916,
      "##TIVE": 6917,
      "strikes": 6918,
      "transition": 6919,
      "transpar": 6920,
      "transport": 6921,
      "gradual": 6922,
      "disappearance": 6923,
      "_The": 6924,
      "guests": 6925,
      "varied": 6926,
      "variations": 6927,
      "conviction": 6928,
      "respectable": 6929,
      "respectfully": 6930,
      "influenced": 6931,
      "Society": 6932,
      "##ivil": 6933,
      "##ivated": 6934,
      "##ivative": 6935,
      "##ESS": 6936,
      "blaze": 6937,
      "Newton": 6938,
      "sentence": 6939,
      "included": 6940,
      "examining": 6941,
      "imagined": 6942,
      "peculiarities": 6943,
      "cutting": 6944,
      "##othed": 6945,
      "##wardly": 6946,
      "devote": 6947,
      "engrossed": 6948,
      "attempted": 6949,
      "equality": 6950,
      "20th": 6951,
      "_Ne": 6952,
      "eighteen": 6953,
      "gunpow": 6954,
      "limb": 6955,
      "limits": 6956,
      "limitation": 6957,
      "operating": 6958,
      "pathless": 6959,
      "##ACE": 6960,
      "##ACT": 6961,
      "glimpses": 6962,
      "profoundly": 6963,
      "_did_": 6964,
      "_down_": 6965,
      "driven": 6966,
      "destined": 6967,
      "winds": 6968,
      "ascent": 6969,
      "principles": 6970,
      "reminding": 6971,
      "employing": 6972,
      "increase": 6973,
      "parallelism": 6974,
      "bursting": 6975,
      "Norway": 6976,
      "join": 6977,
      "joke": 6978,
      "joined": 6979,
      "joining": 6980,
      "muttering": 6981,
      "combination": 6982,
      "steamboat": 6983,
      "determination": 6984,
      "Didn": 6985,
      "happiness": 6986,
      "persisted": 6987,
      "##light_": 6988,
      "##resses": 6989,
      "defined": 6990,
      "encounter": 6991,
      "enjoying": 6992,
      "fortune": 6993,
      "30th": 6994,
      "pulled": 6995,
      "angle": 6996,
      "angles": 6997,
      "superfic": 6998,
      "deathlike": 6999,
      "Whereas": 7000,
      "outlined": 7001,
      "particles": 7002,
      "modification": 7003,
      "reported": 7004,
      "recovery": 7005,
      "diminishing": 7006,
      "Supposing": 7007,
      "1300": 7008,
      "Connell": 7009,
      "_Lambert": 7010,
      "_vice": 7011,
      "denied": 7012,
      "mission": 7013,
      "rigor": 7014,
      "##ouraged": 7015,
      "comparative": 7016,
      "articul": 7017,
      "accomplish": 7018,
      "calmly": 7019,
      "calmness": 7020,
      "steeped": 7021,
      "escaping": 7022,
      "Except": 7023,
      "Excuse": 7024,
      "drop": 7025,
      "drops": 7026,
      "powers": 7027,
      "##gnault": 7028,
      "ships": 7029,
      "property": 7030,
      "spectators": 7031,
      "spectacles": 7032,
      "bravely": 7033,
      "triumphal": 7034,
      "elsewhere": 7035,
      "communicate": 7036,
      "contemplation": 7037,
      "fancies": 7038,
      "fanciful": 7039,
      "futile": 7040,
      "furnish": 7041,
      "irresist": 7042,
      "valve": 7043,
      "value": 7044,
      "##STON": 7045,
      "##ITED": 7046,
      "incidents": 7047,
      "heaviest": 7048,
      "stoicism": 7049,
      "entr": 7050,
      "entity": 7051,
      "resemblance": 7052,
      "performance": 7053,
      "Secchi": 7054,
      "arrangements": 7055,
      "_could_": 7056,
      "creating": 7057,
      "dollar": 7058,
      "eleven": 7059,
      "function": 7060,
      "honest": 7061,
      "purely": 7062,
      "valleys": 7063,
      "warmest": 7064,
      "whirled": 7065,
      "whirling": 7066,
      "separate": 7067,
      "separated": 7068,
      "depressions": 7069,
      "softly": 7070,
      "spring": 7071,
      "diverging": 7072,
      "paragraphs": 7073,
      "retarded": 7074,
      "accepted": 7075,
      "admiringly": 7076,
      "listeners": 7077,
      "Should": 7078,
      "Something": 7079,
      "_Erat": 7080,
      "hoax": 7081,
      "jumped": 7082,
      "ladies": 7083,
      "polar": 7084,
      "##yrene": 7085,
      "##ucky": 7086,
      "inexplicable": 7087,
      "inexpressibly": 7088,
      "demon": 7089,
      "sparkled": 7090,
      "uneasy": 7091,
      "impressed": 7092,
      "impressions": 7093,
      "accurate": 7094,
      "coasts": 7095,
      "improved": 7096,
      "speculative": 7097,
      "reliefs": 7098,
      "pleases": 7099,
      "cheerfully": 7100,
      "cease": 7101,
      "derivative": 7102,
      "earlier": 7103,
      "melted": 7104,
      "raising": 7105,
      "sandy": 7106,
      "waiting": 7107,
      "##EMED": 7108,
      "topographical": 7109,
      "alarming": 7110,
      "sailors": 7111,
      "leading": 7112,
      "desires": 7113,
      "vividly": 7114,
      "philosophy": 7115,
      "Schroeter": 7116,
      "fleet": 7117,
      "fleck": 7118,
      "groans": 7119,
      "panes": 7120,
      "payments": 7121,
      "roughly": 7122,
      "snowy": 7123,
      "tablets": 7124,
      "tints": 7125,
      "weighs": 7126,
      "decomp": 7127,
      "reference": 7128,
      "_Arzach": 7129,
      "_Archimed": 7130,
      "_Aristarch": 7131,
      "struggle": 7132,
      "hypotheses": 7133,
      "earnestly": 7134,
      "Imp": 7135,
      "Plain": 7136,
      "Speak": 7137,
      "Spillikins": 7138,
      "astonished": 7139,
      "authority": 7140,
      "birth": 7141,
      "palace": 7142,
      "throat": 7143,
      "bewildering": 7144,
      "shift": 7145,
      "shouting": 7146,
      "connection": 7147,
      "connected": 7148,
      "welcomed": 7149,
      "alternative": 7150,
      "enveloped": 7151,
      "unanimous": 7152,
      "physics": 7153,
      "furrowed": 7154,
      "acquainted": 7155,
      "receives": 7156,
      "freeze": 7157,
      "organized": 7158,
      "ascertained": 7159,
      "ignorance": 7160,
      "!--\"": 7161,
      "Between": 7162,
      "Fahr": 7163,
      "_some": 7164,
      "_had_": 7165,
      "_was_": 7166,
      "err": 7167,
      "events": 7168,
      "eaten": 7169,
      "eruption": 7170,
      "freer": 7171,
      "frequently": 7172,
      "fiery": 7173,
      "fiercely": 7174,
      "loft": 7175,
      "lovely": 7176,
      "marvellous": 7177,
      "painted": 7178,
      "anticip": 7179,
      "stretched": 7180,
      "stretching": 7181,
      "sustained": 7182,
      "sustaining": 7183,
      "##ccentricity_": 7184,
      "channels": 7185,
      "prisoners": 7186,
      "blasting": 7187,
      "accompany": 7188,
      "moleh": 7189,
      "molecules": 7190,
      "asteroids": 7191,
      "tempers": 7192,
      "temporary": 7193,
      "prevailed": 7194,
      "estimated": 7195,
      "beholding": 7196,
      "defective": 7197,
      ",--\"": 7198,
      "Crisium_": 7199,
      "Nearly": 7200,
      "Swall": 7201,
      "_eccentricity_": 7202,
      "aided": 7203,
      "dreary": 7204,
      "frozen": 7205,
      "muscular": 7206,
      "versa_": 7207,
      "yellow": 7208,
      "##igee_": 7209,
      "##uvre": 7210,
      "##uvius": 7211,
      "##petal": 7212,
      "##ABLE": 7213,
      "thrilled": 7214,
      "thrilling": 7215,
      "##urmountable": 7216,
      "shroud": 7217,
      "shrinkage": 7218,
      "abundant": 7219,
      "abundance": 7220,
      "mechanical": 7221,
      "unsatisfact": 7222,
      "armor": 7223,
      "gratify": 7224,
      "respons": 7225,
      "refracted": 7226,
      "substance": 7227,
      "substances": 7228,
      "designate": 7229,
      "exceptional": 7230,
      "picturesque": 7231,
      "perplexity": 7232,
      "450": 7233,
      "DAMAG": 7234,
      "SPACE": 7235,
      "_g_": 7236,
      "_perigee_": 7237,
      "aerolite": 7238,
      "bleeding": 7239,
      "cabin": 7240,
      "daily": 7241,
      "finger": 7242,
      "fingers": 7243,
      "hazy": 7244,
      "network": 7245,
      "patron": 7246,
      "warning": 7247,
      "analogous": 7248,
      "execution": 7249,
      "Instead": 7250,
      "replacement": 7251,
      "betraying": 7252,
      "impatient": 7253,
      "amidst": 7254,
      "preparations": 7255,
      "monoton": 7256,
      "monotony": 7257,
      "hauling": 7258,
      "improvement": 7259,
      "knocked": 7260,
      "obliquity": 7261,
      "obliquely": 7262,
      "gesticulating": 7263,
      "endeavored": 7264,
      "endeavoring": 7265,
      "vigorously": 7266,
      "Apoll": 7267,
      "Cheyen": 7268,
      "ESQ": 7269,
      "EBook": 7270,
      "Greece": 7271,
      "Hardly": 7272,
      "Iridium_": 7273,
      "IMP": 7274,
      "John": 7275,
      "Scot": 7276,
      "SECON": 7277,
      "Sirius": 7278,
      "Sierras": 7279,
      "_Jupiter": 7280,
      "avoid": 7281,
      "cries": 7282,
      "cavities": 7283,
      "fixed": 7284,
      "ghastly": 7285,
      "greedily": 7286,
      "hollow": 7287,
      "hencefor": 7288,
      "mirror": 7289,
      "mixture": 7290,
      "rails": 7291,
      "treated": 7292,
      "wiping": 7293,
      "##limat": 7294,
      "##ucle": 7295,
      "shrugging": 7296,
      "disgusted": 7297,
      "energy": 7298,
      "-----)": 7299,
      "library": 7300,
      "tranquillity": 7301,
      "abysses": 7302,
      "obliged": 7303,
      "appreciable": 7304,
      "modern": 7305,
      "centrifug": 7306,
      "recollections": 7307,
      "exclaiming": 7308,
      "belonging": 7309,
      "excessive": 7310,
      "roasting": 7311,
      "services": 7312,
      "assistance": 7313,
      "building": 7314,
      "sympath": 7315,
      "draughts": 7316,
      "_Herald_": 7317,
      "_Leibnit": 7318,
      "articles": 7319,
      "cavernous": 7320,
      "economy": 7321,
      "nineteenth": 7322,
      "inconceivable": 7323,
      "schoolboy": 7324,
      "majestic": 7325,
      "celebrated": 7326,
      "congratulate": 7327,
      "About": 7328,
      "Esq": 7329,
      "Navy": 7330,
      "Naturally": 7331,
      "Twenty": 7332,
      "Under": 7333,
      "World": 7334,
      "_should_": 7335,
      "average": 7336,
      "balance": 7337,
      "fathoms": 7338,
      "facility": 7339,
      "fissures": 7340,
      "gallant": 7341,
      "hammer": 7342,
      "kingdom": 7343,
      "looming": 7344,
      "nitrogen": 7345,
      "roof": 7346,
      "rattling": 7347,
      "tender": 7348,
      "tube": 7349,
      "varying": 7350,
      "##bonne": 7351,
      "##HERE": 7352,
      "inquir": 7353,
      "Thomson": 7354,
      "healthy": 7355,
      "isolated": 7356,
      "selected": 7357,
      "obscurity": 7358,
      "chickens": 7359,
      "chlorate": 7360,
      "intersection": 7361,
      "consulted": 7362,
      "refreshment": 7363,
      "invaluable": 7364,
      "launch": 7365,
      "advisable": 7366,
      "instantaneous": 7367,
      "buffers": 7368,
      "indefinitely": 7369,
      "drunk": 7370,
      "_conj": 7371,
      "selenographic": 7372,
      "unequalled": 7373,
      "Academy": 7374,
      "Humorum_": 7375,
      "shrieked": 7376,
      "(-----": 7377,
      "Cassini": 7378,
      "COULD": 7379,
      "Diego": 7380,
      "EARTH": 7381,
      "EVERY": 7382,
      "Finally": 7383,
      "Further": 7384,
      "German": 7385,
      "Gentlemen": 7386,
      "Hemisphere": 7387,
      "Life": 7388,
      "Looking": 7389,
      "LICENSE": 7390,
      "LIMITED": 7391,
      "MARSTON": 7392,
      "Niagara": 7393,
      "Possibly": 7394,
      "Sorbonne": 7395,
      "Simply": 7396,
      "SOUTH": 7397,
      "Tyndall": 7398,
      "Tampa": 7399,
      "Telegraph": 7400,
      "Vesuvius": 7401,
      "Wait": 7402,
      "Watkins": 7403,
      "Wonderful": 7404,
      "_Uran": 7405,
      "_Qu": 7406,
      "_apo": 7407,
      "afraid": 7408,
      "gibber": 7409,
      "jagged": 7410,
      "links": 7411,
      "nervous": 7412,
      "pyram": 7413,
      "romantic": 7414,
      "ravines": 7415,
      "senseless": 7416,
      "sulphur": 7417,
      "sanguine": 7418,
      "teeth": 7419,
      "warrant": 7420,
      "##iveness": 7421,
      "##iacal": 7422,
      "##hibition": 7423,
      "##ILITY": 7424,
      "asperity": 7425,
      "forecastle": 7426,
      "shaky": 7427,
      "disagreeable": 7428,
      "aluminium": 7429,
      "alkali": 7430,
      "likelihood": 7431,
      "unassailable": 7432,
      "unruffled": 7433,
      "universe": 7434,
      "arrested": 7435,
      "whatsoever": 7436,
      "contrivance": 7437,
      "prehistoric": 7438,
      "flattened": 7439,
      "adversary": 7440,
      "terribly": 7441,
      "stricken": 7442,
      "phlegm": 7443,
      "infernal": 7444,
      "brilliancy": 7445,
      "incalculable": 7446,
      "Annapolis": 7447,
      "equivalent": 7448,
      "University": 7449,
      "_Plato_": 7450,
      "_Ptolem": 7451,
      "annihilated": 7452,
      "transparency": 7453,
      "gunpowder": 7454,
      "_Lambert_": 7455,
      "_Eratosthenes_": 7456,
      "_Arzachel_": 7457,
      "_Archimedes_": 7458,
      "_Aristarchus_": 7459,
      "unsatisfactory": 7460,
      "Cheyenne": 7461,
      "SECOND": 7462,
      "centrifugal": 7463,
      "_Leibnitz_": 7464,
      "!'": 7465,
      "!}": 7466,
      "\"--": 7467,
      ")(": 7468,
      ",'": 7469,
      "26": 7470,
      "2nd": 7471,
      "32": 7472,
      "38": 7473,
      "33": 7474,
      "43": 7475,
      "54": 7476,
      "57": 7477,
      "55": 7478,
      "59": 7479,
      "62": 7480,
      "65": 7481,
      "60": 7482,
      "600": 7483,
      "76": 7484,
      "87": 7485,
      "89": 7486,
      "900": 7487,
      ":--": 7488,
      "?'": 7489,
      "??\"": 7490,
      "Af": 7491,
      "Are": 7492,
      "Add": 7493,
      "Aug": 7494,
      "Afra": 7495,
      "AQU": 7496,
      "Bu": 7497,
      "BO": 7498,
      "Bon": 7499,
      "Bal": 7500,
      "Ball": 7501,
      "Bill": 7502,
      "Band": 7503,
      "Burn": 7504,
      "Bac": 7505,
      "Bless": 7506,
      "Bern": 7507,
      "Broad": 7508,
      "BIR": 7509,
      "BAT": 7510,
      "BACK": 7511,
      "Ca": 7512,
      "Cy": 7513,
      "CR": 7514,
      "Car": 7515,
      "Cut": 7516,
      "City": 7517,
      "Cop": 7518,
      "Care": 7519,
      "Cult": 7520,
      "Cold": 7521,
      "COR": 7522,
      "Comp": 7523,
      "Cross": 7524,
      "CEN": 7525,
      "CAT": 7526,
      "Cimmer": 7527,
      "Castle": 7528,
      "Days": 7529,
      "Desc": 7530,
      "During": 7531,
      "Dew": 7532,
      "DON": 7533,
      "DRO": 7534,
      "DEM": 7535,
      "Distribut": 7536,
      "DID": 7537,
      "Eu": 7538,
      "Em": 7539,
      "EN": 7540,
      "EY": 7541,
      "EX": 7542,
      "Eight": 7543,
      "Each": 7544,
      "Eternal": 7545,
      "Ester": 7546,
      "Easy": 7547,
      "EITH": 7548,
      "Egy": 7549,
      "Etna": 7550,
      "FL": 7551,
      "FE": 7552,
      "Face": 7553,
      "FAR": 7554,
      "FAN": 7555,
      "FIS": 7556,
      "Fert": 7557,
      "Fec": 7558,
      "Fortunately": 7559,
      "Falling": 7560,
      "Farewell": 7561,
      "FIF": 7562,
      "FREE": 7563,
      "FIGHT": 7564,
      "FACT": 7565,
      "Go": 7566,
      "GR": 7567,
      "GA": 7568,
      "GO": 7569,
      "Gö": 7570,
      "Gru": 7571,
      "God": 7572,
      "GIR": 7573,
      "GAS": 7574,
      "GLIM": 7575,
      "Hot": 7576,
      "Hun": 7577,
      "Hart": 7578,
      "Hell": 7579,
      "Hire": 7580,
      "HER": 7581,
      "Helen": 7582,
      "Hold": 7583,
      "HIS": 7584,
      "HUN": 7585,
      "HIM": 7586,
      "HEM": 7587,
      "HEL": 7588,
      "HULL": 7589,
      "HOUR": 7590,
      "II": 7591,
      "IV": 7592,
      "IX": 7593,
      "Iron": 7594,
      "III": 7595,
      "ILL": 7596,
      "IND": 7597,
      "Jap": 7598,
      "Jul": 7599,
      "Jard": 7600,
      "Jose": 7601,
      "Kent": 7602,
      "Kal": 7603,
      "Know": 7604,
      "Kane": 7605,
      "Lo": 7606,
      "LI": 7607,
      "Lou": 7608,
      "Lill": 7609,
      "Land": 7610,
      "Lock": 7611,
      "Lob": 7612,
      "LAN": 7613,
      "Lec": 7614,
      "LIT": 7615,
      "LIF": 7616,
      "Mo": 7617,
      "MY": 7618,
      "Men": 7619,
      "Map": 7620,
      "Mess": 7621,
      "Mil": 7622,
      "Mab": 7623,
      "Mort": 7624,
      "Mary": 7625,
      "Mob": 7626,
      "MOU": 7627,
      "MEN": 7628,
      "MAK": 7629,
      "Mercury": 7630,
      "Mater_": 7631,
      "Nap": 7632,
      "NEW": 7633,
      "NIGHT": 7634,
      "OX": 7635,
      "PA": 7636,
      "PG": 7637,
      "Par": 7638,
      "Pan": 7639,
      "Ple": 7640,
      "Prom": 7641,
      "Port": 7642,
      "Peter": 7643,
      "PAC": 7644,
      "PRE": 7645,
      "Pasc": 7646,
      "PHI": 7647,
      "Pardon": 7648,
      "RE": 7649,
      "Red": 7650,
      "Res": 7651,
      "Ros": 7652,
      "Rue": 7653,
      "Rains": 7654,
      "Raph": 7655,
      "Rod": 7656,
      "Rapid": 7657,
      "Rivers": 7658,
      "REP": 7659,
      "Roris_": 7660,
      "SO": 7661,
      "SU": 7662,
      "Sur": 7663,
      "Spr": 7664,
      "Scient": 7665,
      "Sons": 7666,
      "Sacr": 7667,
      "Surely": 7668,
      "Somn": 7669,
      "Te": 7670,
      "Ta": 7671,
      "Tr": 7672,
      "TY": 7673,
      "Tem": 7674,
      "Tell": 7675,
      "TIM": 7676,
      "TUR": 7677,
      "TAK": 7678,
      "Ull": 7679,
      "Use": 7680,
      "Uran": 7681,
      "UNI": 7682,
      "Van": 7683,
      "Vir": 7684,
      "Vol": 7685,
      "VII": 7686,
      "VIII": 7687,
      "West": 7688,
      "Want": 7689,
      "WING": 7690,
      "Works": 7691,
      "XII": 7692,
      "XIII": 7693,
      "Yak": 7694,
      "Youn": 7695,
      "Year": 7696,
      "_in": 7697,
      "_se": 7698,
      "_ch": 7699,
      "_ab": 7700,
      "_are": 7701,
      "_up": 7702,
      "_sc": 7703,
      "_night": 7704,
      "_par": 7705,
      "_y_": 7706,
      "_opp": 7707,
      "ach": 7708,
      "aim": 7709,
      "aus": 7710,
      "aven": 7711,
      "aqu": 7712,
      "ade": 7713,
      "avid": 7714,
      "aval": 7715,
      "aching": 7716,
      "ber": 7717,
      "bon": 7718,
      "barb": 7719,
      "bill": 7720,
      "bos": 7721,
      "bust": 7722,
      "bout": 7723,
      "bite": 7724,
      "bays": 7725,
      "batter": 7726,
      "bowed": 7727,
      "bann": 7728,
      "based": 7729,
      "banged": 7730,
      "borders": 7731,
      "cy": 7732,
      "cit": 7733,
      "cate": 7734,
      "coun": 7735,
      "cig": 7736,
      "cens": 7737,
      "cub": 7738,
      "caving": 7739,
      "cars": 7740,
      "caut": 7741,
      "capped": 7742,
      "cases": 7743,
      "cyn": 7744,
      "civil": 7745,
      "dur": 7746,
      "dil": 7747,
      "date": 7748,
      "dare": 7749,
      "dated": 7750,
      "dash": 7751,
      "dict": 7752,
      "darn": 7753,
      "diction": 7754,
      "dwell": 7755,
      "doubled": 7756,
      "eh": 7757,
      "eating": 7758,
      "educ": 7759,
      "fed": 7760,
      "fil": 7761,
      "file": 7762,
      "fra": 7763,
      "files": 7764,
      "fountain": 7765,
      "fade": 7766,
      "fash": 7767,
      "fishing": 7768,
      "ferv": 7769,
      "fading": 7770,
      "gn": 7771,
      "gim": 7772,
      "gard": 7773,
      "gear": 7774,
      "game": 7775,
      "hing": 7776,
      "hill": 7777,
      "hus": 7778,
      "hull": 7779,
      "hail": 7780,
      "hue": 7781,
      "hook": 7782,
      "haven": 7783,
      "hanged": 7784,
      "hilar": 7785,
      "harsh": 7786,
      "idle": 7787,
      "ju": 7788,
      "jot": 7789,
      "jet": 7790,
      "jew": 7791,
      "job": 7792,
      "jumps": 7793,
      "junction": 7794,
      "killing": 7795,
      "lur": 7796,
      "lone": 7797,
      "lakes": 7798,
      "lustr": 7799,
      "mê": 7800,
      "mas": 7801,
      "mail": 7802,
      "mud": 7803,
      "melt": 7804,
      "max": 7805,
      "marr": 7806,
      "member": 7807,
      "march": 7808,
      "madd": 7809,
      "motive": 7810,
      "motions": 7811,
      "marsh": 7812,
      "makers": 7813,
      "non": 7814,
      "nut": 7815,
      "nest": 7816,
      "nerves": 7817,
      "nucle": 7818,
      "oy": 7819,
      "oh": 7820,
      "oven": 7821,
      "odd": 7822,
      "omin": 7823,
      "omn": 7824,
      "owed": 7825,
      "pg": 7826,
      "ped": 7827,
      "pet": 7828,
      "pave": 7829,
      "pill": 7830,
      "pra": 7831,
      "pine": 7832,
      "pang": 7833,
      "pip": 7834,
      "pitted": 7835,
      "puls": 7836,
      "panting": 7837,
      "padded": 7838,
      "ren": 7839,
      "rich": 7840,
      "rive": 7841,
      "rip": 7842,
      "rue": 7843,
      "rates": 7844,
      "rushed": 7845,
      "rills": 7846,
      "raging": 7847,
      "sed": 7848,
      "san": 7849,
      "sore": 7850,
      "song": 7851,
      "siz": 7852,
      "sets": 7853,
      "satur": 7854,
      "section": 7855,
      "sister": 7856,
      "t_": 7857,
      "tar": 7858,
      "tall": 7859,
      "tore": 7860,
      "tant": 7861,
      "tree": 7862,
      "tests": 7863,
      "tested": 7864,
      "tinge": 7865,
      "tension": 7866,
      "tune": 7867,
      "tangent": 7868,
      "vom": 7869,
      "vap": 7870,
      "vill": 7871,
      "vine": 7872,
      "vex": 7873,
      "vital": 7874,
      "vague": 7875,
      "vibr": 7876,
      "wis": 7877,
      "wore": 7878,
      "wag": 7879,
      "wood": 7880,
      "wished": 7881,
      "wishing": 7882,
      "woods": 7883,
      "wadded": 7884,
      "waning": 7885,
      "wicked": 7886,
      "yard": 7887,
      "yawn": 7888,
      "°,": 7889,
      "Ætna": 7890,
      "##eed": 7891,
      "##ean": 7892,
      "##ees": 7893,
      "##eal": 7894,
      "##epl": 7895,
      "##eged": 7896,
      "##aited": 7897,
      "##access": 7898,
      "##lo": 7899,
      "##lar": 7900,
      "##lest": 7901,
      "##ien": 7902,
      "##ience": 7903,
      "##iber": 7904,
      "##ives": 7905,
      "##iably": 7906,
      "##ivity": 7907,
      "##ivided": 7908,
      "##tar": 7909,
      "##tes": 7910,
      "##tle": 7911,
      "##tible": 7912,
      "##tures": 7913,
      "##tric": 7914,
      "##yer": 7915,
      "##ygh": 7916,
      "##yards": 7917,
      "##yons": 7918,
      "##rs": 7919,
      "##rican": 7920,
      "##ram": 7921,
      "##rical": 7922,
      "##rman": 7923,
      "##rents": 7924,
      "##rapt": 7925,
      "##sk": 7926,
      "##ued": 7927,
      "##uds": 7928,
      "##uity": 7929,
      "##uish": 7930,
      "##uys": 7931,
      "##ugs": 7932,
      "##uygh": 7933,
      "##mi": 7934,
      "##mw": 7935,
      "##mas": 7936,
      "##mous": 7937,
      "##mist": 7938,
      "##mans": 7939,
      "##mount": 7940,
      "##mination": 7941,
      "##mitting": 7942,
      "##me_": 7943,
      "##dy": 7944,
      "##dp": 7945,
      "##ded": 7946,
      "##dated": 7947,
      "##dign": 7948,
      "##drogen": 7949,
      "##ping": 7950,
      "##pests": 7951,
      "##pices": 7952,
      "##ny": 7953,
      "##nian": 7954,
      "##nony": 7955,
      "##gu": 7956,
      "##gel": 7957,
      "##gant": 7958,
      "##gence": 7959,
      "##gled": 7960,
      "##gory": 7961,
      "##gian": 7962,
      "##gral": 7963,
      "##gularly": 7964,
      "##ox": 7965,
      "##oice": 7966,
      "##oidable": 7967,
      "##hed": 7968,
      "##hand": 7969,
      "##hort": 7970,
      "##haz": 7971,
      "##hold": 7972,
      "##hosp": 7973,
      "##hrman": 7974,
      "##con": 7975,
      "##cosm": 7976,
      "##cracks": 7977,
      "##we": 7978,
      "##went": 7979,
      "##wal": 7980,
      "##wich": 7981,
      "##western": 7982,
      "##winds": 7983,
      "##ban": 7984,
      "##ball": 7985,
      "##bog": 7986,
      "##bbed": 7987,
      "##bdign": 7988,
      "##LA": 7989,
      "##LS": 7990,
      "##LV": 7991,
      "##LING": 7992,
      "##kay": 7993,
      "##kindled": 7994,
      "##16": 7995,
      "##12": 7996,
      "##fit": 7997,
      "##found": 7998,
      "##fortunately": 7999,
      "##furt": 8000,
      "##MP": 8001,
      "##MS": 8002,
      "##MF": 8003,
      "##MSE": 8004,
      "##MENSE": 8005,
      "##vas": 8006,
      "##vad": 8007,
      "##vation": 8008,
      "##vard": 8009,
      "##vice": 8010,
      "##venty": 8011,
      "##vians": 8012,
      "##vantage": 8013,
      "##RAL": 8014,
      "##ELD": 8015,
      "##AIN": 8016,
      "##ATH": 8017,
      "##AST": 8018,
      "##CY": 8019,
      "##CII": 8020,
      "##21": 8021,
      "##OSE": 8022,
      "##TY": 8023,
      "##TING": 8024,
      "##TABLE": 8025,
      "##TAIN": 8026,
      "##DS": 8027,
      "##DY": 8028,
      "##ée": 8029,
      "##én": 8030,
      "##PES": 8031,
      "##PPED": 8032,
      "##PHERE": 8033,
      "##SIBLE": 8034,
      "##ILL": 8035,
      "##IAC": 8036,
      "##IELD": 8037,
      "##BL": 8038,
      "##UTE": 8039,
      "##UCT": 8040,
      "##USTR": 8041,
      "##ju": 8042,
      "##jor": 8043,
      "##Nicholl": 8044,
      "##NELL": 8045,
      "##NTAIN": 8046,
      "##GRY": 8047,
      "##VIS": 8048,
      "##VATIONS": 8049,
      "##!\"": 8050,
      "##YS": 8051,
      "##YGEN": 8052,
      "##ZE": 8053,
      "##ZZ": 8054,
      "##ZED": 8055,
      "##WN": 8056,
      "thund": 8057,
      "thunder": 8058,
      "theories": 8059,
      "##erra": 8060,
      "##erment": 8061,
      "##eries": 8062,
      "##ervo": 8063,
      "##iny": 8064,
      "##in_": 8065,
      "##inter": 8066,
      "##inction": 8067,
      "##inating": 8068,
      "##ina_": 8069,
      "##en_": 8070,
      "##endan": 8071,
      "##enate": 8072,
      "##enus_": 8073,
      "##enzy": 8074,
      "##edless": 8075,
      "##edition": 8076,
      "##editer": 8077,
      "##edding": 8078,
      "##onaut": 8079,
      "##onse_": 8080,
      "##at_": 8081,
      "##atus_": 8082,
      "##oul": 8083,
      "##arf": 8084,
      "##ares": 8085,
      "##arrel": 8086,
      "##anic": 8087,
      "##anite": 8088,
      "##anese": 8089,
      "##ancial": 8090,
      "##esar": 8091,
      "##oring": 8092,
      "##orth": 8093,
      "##orad": 8094,
      "##ority": 8095,
      "##orand": 8096,
      "##orde": 8097,
      "tow": 8098,
      "tomb": 8099,
      "##itor": 8100,
      "##itic": 8101,
      "##itut": 8102,
      "##itect": 8103,
      "##iteness": 8104,
      "##isp": 8105,
      "ink": 8106,
      "inau": 8107,
      "insc": 8108,
      "inability": 8109,
      "inatt": 8110,
      "induced": 8111,
      "inopp": 8112,
      "inaccess": 8113,
      "inhosp": 8114,
      "##asus_": 8115,
      "##asiness": 8116,
      "##asped": 8117,
      "##reens": 8118,
      "##reced": 8119,
      "##icate": 8120,
      "##icating": 8121,
      "##icting": 8122,
      "##lys": 8123,
      "##lex": 8124,
      "##lement": 8125,
      "##omfort": 8126,
      "bee": 8127,
      "beet": 8128,
      "beast": 8129,
      "behe": 8130,
      "beats": 8131,
      "beaming": 8132,
      "##ctic": 8133,
      "##ctions": 8134,
      "##ctors": 8135,
      "##ion_": 8136,
      "##ionth": 8137,
      "##thest": 8138,
      "##thought": 8139,
      "##owly": 8140,
      "##owling": 8141,
      "##sters": 8142,
      "##steak": 8143,
      "##entiously": 8144,
      "##urate": 8145,
      "##urable": 8146,
      "##urance": 8147,
      "##urier": 8148,
      "##urbed": 8149,
      "##ads": 8150,
      "##aded": 8151,
      "##adle": 8152,
      "##adow": 8153,
      "##advantage": 8154,
      "##utive": 8155,
      "##utable": 8156,
      "##utted": 8157,
      "item": 8158,
      "rely": 8159,
      "rect": 8160,
      "reign": 8161,
      "reward": 8162,
      "revis": 8163,
      "rejected": 8164,
      "rebuff": 8165,
      "reaction": 8166,
      "##ceived": 8167,
      "##idity": 8168,
      "##idated": 8169,
      "##idden": 8170,
      "##veig": 8171,
      "whim": 8172,
      "whither": 8173,
      "whining": 8174,
      "wholly": 8175,
      "##set": 8176,
      "##sever": 8177,
      "##alus": 8178,
      "##aloo": 8179,
      "##alpable": 8180,
      "Thy": 8181,
      "Thous": 8182,
      "Things": 8183,
      "Thanks": 8184,
      "Thirty": 8185,
      "##irc": 8186,
      "##iration": 8187,
      "##irie": 8188,
      "##irious": 8189,
      "##verish": 8190,
      "##rodu": 8191,
      "##rooves": 8192,
      "##rocosm": 8193,
      "##ril": 8194,
      "##ries": 8195,
      "##riment": 8196,
      "##riage": 8197,
      "##eta": 8198,
      "##ithuys": 8199,
      "##ecting": 8200,
      "##imo": 8201,
      "##im_": 8202,
      "##imate": 8203,
      "##ghter": 8204,
      "forest": 8205,
      "forem": 8206,
      "forwards": 8207,
      "heave": 8208,
      "heating": 8209,
      "heeding": 8210,
      "heedless": 8211,
      "stat": 8212,
      "stro": 8213,
      "stim": 8214,
      "stere": 8215,
      "stiff": 8216,
      "stair": 8217,
      "stately": 8218,
      "stands": 8219,
      "stup": 8220,
      "stamp": 8221,
      "stony": 8222,
      "stump": 8223,
      "staff": 8224,
      "sticks": 8225,
      "stagn": 8226,
      "wasting": 8227,
      "washed": 8228,
      "withstand": 8229,
      "##apers": 8230,
      "##appl": 8231,
      "##apuis": 8232,
      "##ere_": 8233,
      "##ereal": 8234,
      "issue": 8235,
      "shone": 8236,
      "shower": 8237,
      "shared": 8238,
      "shrew": 8239,
      "shining": 8240,
      "shedding": 8241,
      "Them": 8242,
      "##essing": 8243,
      "##essors": 8244,
      "##uler_": 8245,
      "exempt": 8246,
      "exhil": 8247,
      "exuber": 8248,
      "externally": 8249,
      "exhibition": 8250,
      "conj": 8251,
      "conund": 8252,
      "##estro": 8253,
      "##estions": 8254,
      "notion": 8255,
      "##blem": 8256,
      "sugar": 8257,
      "##iless": 8258,
      "##ilate": 8259,
      "##iliar": 8260,
      "sees": 8261,
      "semb": 8262,
      "semi": 8263,
      "seventy": 8264,
      "hiss": 8265,
      "hissing": 8266,
      "##icance": 8267,
      "orth": 8268,
      "##eled": 8269,
      "##unct": 8270,
      "##unge": 8271,
      "##unted": 8272,
      "##une_": 8273,
      "##astrous": 8274,
      "Arab": 8275,
      "##aked": 8276,
      "##amb": 8277,
      "##ames": 8278,
      "necks": 8279,
      "##ers_": 8280,
      "allows": 8281,
      "alleged": 8282,
      "##illery": 8283,
      "deem": 8284,
      "depl": 8285,
      "dearly": 8286,
      "##olves": 8287,
      "##ola_": 8288,
      "##olerable": 8289,
      "##osal": 8290,
      "Moon_": 8291,
      "##umble": 8292,
      "##umbr": 8293,
      "##umerated": 8294,
      "theirs": 8295,
      "dish": 8296,
      "disqu": 8297,
      "disrupt": 8298,
      "disadvantage": 8299,
      "disastrous": 8300,
      "Proof": 8301,
      "Produce": 8302,
      "Produced": 8303,
      "commenting": 8304,
      "##ift": 8305,
      "##ifer": 8306,
      "##ificance": 8307,
      "##ckets": 8308,
      "##raz": 8309,
      "##usions": 8310,
      "nose": 8311,
      "##ateful": 8312,
      "##ustic": 8313,
      "##ustible": 8314,
      "##ustry": 8315,
      "##ustomed": 8316,
      "alman": 8317,
      "alike": 8318,
      "proves": 8319,
      "sold": 8320,
      "soci": 8321,
      "society": 8322,
      "sockets": 8323,
      "span": 8324,
      "spend": 8325,
      "spare": 8326,
      "spangled": 8327,
      "spider": 8328,
      "env": 8329,
      "enlar": 8330,
      "enrapt": 8331,
      "enkindled": 8332,
      "enumerated": 8333,
      "---": 8334,
      "----": 8335,
      "##ourn": 8336,
      "feared": 8337,
      "femin": 8338,
      "feverish": 8339,
      "liber": 8340,
      "##artes": 8341,
      "##anding": 8342,
      "##andered": 8343,
      "##emble": 8344,
      "tray": 8345,
      "trust": 8346,
      "trains": 8347,
      "trump": 8348,
      "trusted": 8349,
      "truly": 8350,
      "##selene_": 8351,
      "ably": 8352,
      "abused": 8353,
      "saving": 8354,
      "cane": 8355,
      "canvas": 8356,
      "##outurier": 8357,
      "worn": 8358,
      "wormw": 8359,
      "Cape": 8360,
      "obey": 8361,
      "quad": 8362,
      "quack": 8363,
      "quits": 8364,
      "quiver": 8365,
      "quarrel": 8366,
      "##pler": 8367,
      "##ongated": 8368,
      "meets": 8369,
      "meadow": 8370,
      "##arded": 8371,
      "##arding": 8372,
      "##oston": 8373,
      "##cca": 8374,
      "area": 8375,
      "##abaloo": 8376,
      "##question": 8377,
      "unl": 8378,
      "unh": 8379,
      "union": 8380,
      "unav": 8381,
      "unself": 8382,
      "unne": 8383,
      "unmit": 8384,
      "unsc": 8385,
      "unaid": 8386,
      "unlike": 8387,
      "unrolling": 8388,
      "unmist": 8389,
      "unquestion": 8390,
      "Wharf": 8391,
      "chest": 8392,
      "chant": 8393,
      "chart": 8394,
      "champ": 8395,
      "chances": 8396,
      "chilled": 8397,
      "##ptot": 8398,
      "##ptians": 8399,
      "##ptune_": 8400,
      "verd": 8401,
      "verge": 8402,
      "verify": 8403,
      "veracious": 8404,
      "##ophil": 8405,
      "glow": 8406,
      "glaring": 8407,
      "glancing": 8408,
      "glaci": 8409,
      "##actly": 8410,
      "surve": 8411,
      "compos": 8412,
      "compass": 8413,
      "compiled": 8414,
      "compasses": 8415,
      "likewise": 8416,
      "##ite_": 8417,
      "plum": 8418,
      "plant": 8419,
      "plumb": 8420,
      "plung": 8421,
      "plaus": 8422,
      "plugs": 8423,
      "plunge": 8424,
      "imitate": 8425,
      "imprison": 8426,
      "##istingu": 8427,
      "##istics": 8428,
      "##isturbed": 8429,
      "intently": 8430,
      "intolerable": 8431,
      "ard": 8432,
      "leis": 8433,
      "lever": 8434,
      "leag": 8435,
      "lease": 8436,
      "levity": 8437,
      "pride": 8438,
      "pressed": 8439,
      "##elling": 8440,
      "##ellation": 8441,
      "##ellig": 8442,
      "##avi": 8443,
      "##aval": 8444,
      "##asso": 8445,
      "##igated": 8446,
      "##igning": 8447,
      "##isher": 8448,
      "##earch": 8449,
      "bother": 8450,
      "boiling": 8451,
      "bobbing": 8452,
      "conting": 8453,
      "content": 8454,
      "contrived": 8455,
      "control": 8456,
      "##irely": 8457,
      "##phic": 8458,
      "##phatically": 8459,
      "##phonse_": 8460,
      "##pert": 8461,
      "aged": 8462,
      "aggl": 8463,
      "##agr": 8464,
      "##agine": 8465,
      "##agne": 8466,
      "##agians": 8467,
      "Int": 8468,
      "Inte": 8469,
      "distract": 8470,
      "prem": 8471,
      "precision": 8472,
      "##ine_": 8473,
      "##clid": 8474,
      "surfaces": 8475,
      "fled": 8476,
      "flow": 8477,
      "flatter": 8478,
      "flowing": 8479,
      "flushed": 8480,
      "flattered": 8481,
      "flinging": 8482,
      "flowers": 8483,
      "longest": 8484,
      "block": 8485,
      "blows": 8486,
      "blank": 8487,
      "blunder": 8488,
      "bluish": 8489,
      "everyone": 8490,
      "everybody": 8491,
      "managing": 8492,
      "manners": 8493,
      "interfer": 8494,
      "##ossible": 8495,
      "attent": 8496,
      "attribut": 8497,
      "attending": 8498,
      "attested": 8499,
      "grain": 8500,
      "grains": 8501,
      "granted": 8502,
      "granite": 8503,
      "grappl": 8504,
      "crying": 8505,
      "crowned": 8506,
      "adieu": 8507,
      "##culus": 8508,
      "thrott": 8509,
      "shoulder": 8510,
      "partake": 8511,
      "undef": 8512,
      "undivided": 8513,
      "undisturbed": 8514,
      "oversp": 8515,
      "overpower": 8516,
      "resc": 8517,
      "respected": 8518,
      "resounding": 8519,
      "resisted": 8520,
      "resuming": 8521,
      "resusc": 8522,
      "resolved": 8523,
      "resignation": 8524,
      "resemble": 8525,
      "research": 8526,
      "##fulness": 8527,
      "clim": 8528,
      "clench": 8529,
      "claim": 8530,
      "climb": 8531,
      "clothed": 8532,
      "firing": 8533,
      "lightened": 8534,
      "##acs": 8535,
      "##acus": 8536,
      "##acock": 8537,
      "##aclys": 8538,
      "##aux": 8539,
      "##augh": 8540,
      "accent": 8541,
      "accordingly": 8542,
      "acclimat": 8543,
      "offering": 8544,
      "discern": 8545,
      "remo": 8546,
      "remove": 8547,
      "slumb": 8548,
      "slaught": 8549,
      "##ment_": 8550,
      "regards": 8551,
      "registered": 8552,
      "regulating": 8553,
      "mode": 8554,
      "beforehand": 8555,
      "momentary": 8556,
      "terra": 8557,
      "terror": 8558,
      "Nobody": 8559,
      "undergo": 8560,
      "underwent": 8561,
      "##ens_": 8562,
      "##ensical": 8563,
      "consist": 8564,
      "conscient": 8565,
      "console": 8566,
      "consisted": 8567,
      "consulting": 8568,
      "consumption": 8569,
      "preserved": 8570,
      "coals": 8571,
      "coinc": 8572,
      "coeff": 8573,
      "nearness": 8574,
      "instruct": 8575,
      "installation": 8576,
      "##inkling": 8577,
      "willing": 8578,
      "willingly": 8579,
      "##new": 8580,
      "##neys": 8581,
      "##vingly": 8582,
      "brand": 8583,
      "brass": 8584,
      "brows": 8585,
      "replaced": 8586,
      "##azement": 8587,
      "repast": 8588,
      "repair": 8589,
      "forms": 8590,
      "formats": 8591,
      "formidable": 8592,
      "readable": 8593,
      "strat": 8594,
      "strain": 8595,
      "Heat": 8596,
      "##iculous": 8597,
      "calf": 8598,
      "pea": 8599,
      "peace": 8600,
      "peacock": 8601,
      "##unditatis_": 8602,
      "##ips": 8603,
      "##iput": 8604,
      "##ipel": 8605,
      "Frank": 8606,
      "THAN": 8607,
      "bets": 8608,
      "extract": 8609,
      "extinction": 8610,
      "coursing": 8611,
      "friendship": 8612,
      "##ogs": 8613,
      "sheep": 8614,
      "_Mount": 8615,
      "_Mars": 8616,
      "_Mercury": 8617,
      "_Mém": 8618,
      "_Moret": 8619,
      "##ribe": 8620,
      "smiles": 8621,
      "smiled": 8622,
      "smoked": 8623,
      "##fted": 8624,
      "##fting": 8625,
      "##ftly": 8626,
      "imposed": 8627,
      "impuls": 8628,
      "impalpable": 8629,
      "State": 8630,
      "starts": 8631,
      "immers": 8632,
      "immutable": 8633,
      "THEIR": 8634,
      "THEMSE": 8635,
      "airs": 8636,
      "shallow": 8637,
      "considers": 8638,
      "scaph": 8639,
      "scener": 8640,
      "scattered": 8641,
      "scanned": 8642,
      "submit": 8643,
      "continuous": 8644,
      "awaited": 8645,
      "phase": 8646,
      "phases": 8647,
      "##appy": 8648,
      "gets": 8649,
      "##ibilities": 8650,
      "Att": 8651,
      "appearing": 8652,
      "appearances": 8653,
      "sidewal": 8654,
      "turns": 8655,
      "dial": 8656,
      "division": 8657,
      "dividing": 8658,
      "ends": 8659,
      "ended": 8660,
      "ending": 8661,
      "endure": 8662,
      "endurable": 8663,
      "deputation": 8664,
      "deportment": 8665,
      "specks": 8666,
      "perfection": 8667,
      "owns": 8668,
      "infused": 8669,
      "infinity": 8670,
      "recalled": 8671,
      "recourse": 8672,
      "email": 8673,
      "emotions": 8674,
      "emphatically": 8675,
      "questioning": 8676,
      "brim": 8677,
      "lifet": 8678,
      "lifeless": 8679,
      "##lete": 8680,
      "ample": 8681,
      "amazement": 8682,
      "##air_": 8683,
      "invar": 8684,
      "invention": 8685,
      "involved": 8686,
      "curving": 8687,
      "currents": 8688,
      "deser": 8689,
      "desult": 8690,
      "desired": 8691,
      "deserves": 8692,
      "##asonable": 8693,
      "cleaved": 8694,
      "heading": 8695,
      "headlong": 8696,
      "exactness": 8697,
      "##ronomy": 8698,
      "Seventeen": 8699,
      "calling": 8700,
      "##ignificance": 8701,
      "gild": 8702,
      "giants": 8703,
      "passion": 8704,
      "passeng": 8705,
      "incand": 8706,
      "excluded": 8707,
      "acted": 8708,
      "actors": 8709,
      "activity": 8710,
      "fury": 8711,
      "furthest": 8712,
      "##oded": 8713,
      "##mson": 8714,
      "rapids": 8715,
      "suppressed": 8716,
      "objected": 8717,
      "objection": 8718,
      "objections": 8719,
      "lesson": 8720,
      "telling": 8721,
      "reasoning": 8722,
      "reasonably": 8723,
      "deton": 8724,
      "##ictions": 8725,
      "commer": 8726,
      "commotion": 8727,
      "commod": 8728,
      "committing": 8729,
      "committed": 8730,
      "completed": 8731,
      "advance": 8732,
      "advice": 8733,
      "advancing": 8734,
      "belief": 8735,
      "worlds": 8736,
      "swear": 8737,
      "swamp": 8738,
      "swarm": 8739,
      "swung": 8740,
      "swaying": 8741,
      "excused": 8742,
      "regarded": 8743,
      "regardless": 8744,
      "backed": 8745,
      "backwards": 8746,
      "founded": 8747,
      "foundations": 8748,
      "parad": 8749,
      "reticul": 8750,
      "retired": 8751,
      "shaded": 8752,
      "shades": 8753,
      "shading": 8754,
      "replying": 8755,
      "_Sol": 8756,
      "_Sacr": 8757,
      "_Short": 8758,
      "descending": 8759,
      "##issible": 8760,
      "##issimo": 8761,
      "doubtful": 8762,
      "doubtless": 8763,
      "blackest": 8764,
      "blackened": 8765,
      "interrupting": 8766,
      "Asia": 8767,
      "##ralia": 8768,
      "careless": 8769,
      "cargo": 8770,
      "handy": 8771,
      "handing": 8772,
      "##ures_": 8773,
      "Angl": 8774,
      "Angel": 8775,
      "Selenitic": 8776,
      "humming": 8777,
      "##adiation": 8778,
      "##restrial": 8779,
      "_Camp": 8780,
      "_Curt": 8781,
      "dispel": 8782,
      "disposal": 8783,
      "Close": 8784,
      "Cloud": 8785,
      "skies": 8786,
      "skins": 8787,
      "skirt": 8788,
      "skimming": 8789,
      "sixty": 8790,
      "exploring": 8791,
      "exploded": 8792,
      "silently": 8793,
      "confessed": 8794,
      "confused": 8795,
      "confusion": 8796,
      "temperament": 8797,
      "journ": 8798,
      "##exas": 8799,
      "corn": 8800,
      "equation": 8801,
      "ills": 8802,
      "illustr": 8803,
      "radiate": 8804,
      "radiance": 8805,
      "##cessary": 8806,
      "thoughtful": 8807,
      "industri": 8808,
      "indirect": 8809,
      "industry": 8810,
      "##rewed": 8811,
      "relation": 8812,
      "relative": 8813,
      "reliable": 8814,
      "Being": 8815,
      "Beyond": 8816,
      "soundings": 8817,
      "##genial": 8818,
      "##ovement_": 8819,
      "thirst": 8820,
      "Online": 8821,
      "utens": 8822,
      "summ": 8823,
      "brightest": 8824,
      "Below": 8825,
      "numbers": 8826,
      "##ONIAC": 8827,
      "oftenest": 8828,
      "expressing": 8829,
      "checks": 8830,
      "familiar": 8831,
      "generated": 8832,
      "generations": 8833,
      "metal": 8834,
      "##cynian": 8835,
      "insens": 8836,
      "inspected": 8837,
      "inspiring": 8838,
      "insurmountable": 8839,
      "insignificance": 8840,
      "recept": 8841,
      "##alties": 8842,
      "clearness": 8843,
      "oppose": 8844,
      "opposed": 8845,
      "trail": 8846,
      "traced": 8847,
      "trails": 8848,
      "##canus_": 8849,
      "##icians": 8850,
      "profile": 8851,
      "profund": 8852,
      "professors": 8853,
      "Change": 8854,
      "China": 8855,
      "Chapuis": 8856,
      "_Ast": 8857,
      "breaks": 8858,
      "breakers": 8859,
      "rocket": 8860,
      "westwardly": 8861,
      "pretending": 8862,
      "interests": 8863,
      "suffer": 8864,
      "suffered": 8865,
      "successfully": 8866,
      "severely": 8867,
      "prevented": 8868,
      "inhabits": 8869,
      "dimly": 8870,
      "signalled": 8871,
      "satisfy": 8872,
      "sunset": 8873,
      "surprising": 8874,
      "remarkably": 8875,
      "Defect": 8876,
      "crags": 8877,
      "fireball": 8878,
      "##ORTABLE": 8879,
      "realm": 8880,
      "realms": 8881,
      "realizing": 8882,
      "concur": 8883,
      "concav": 8884,
      "product": 8885,
      "production": 8886,
      "colder": 8887,
      "diamond": 8888,
      "effected": 8889,
      "effecting": 8890,
      "Unfortunately": 8891,
      "##ARD": 8892,
      "##ARY": 8893,
      "##TEEN": 8894,
      "##INT": 8895,
      "##INARY": 8896,
      "##umbling": 8897,
      "##ortune": 8898,
      "strongest": 8899,
      "southward": 8900,
      "shadowy": 8901,
      "differential": 8902,
      "deliber": 8903,
      "delirious": 8904,
      "laughter": 8905,
      "purifying": 8906,
      "symb": 8907,
      "synony": 8908,
      "squall": 8909,
      "##ceedingly": 8910,
      "helm": 8911,
      "orbs": 8912,
      "orbits": 8913,
      "deaden": 8914,
      "deadlight": 8915,
      "propound": 8916,
      "circus": 8917,
      "circuses": 8918,
      "requisite": 8919,
      "requiring": 8920,
      "ordin": 8921,
      "perigee": 8922,
      "##ographers": 8923,
      "describes": 8924,
      "splendors": 8925,
      "magnitude": 8926,
      "magnified": 8927,
      "_Pro": 8928,
      "_Purb": 8929,
      "_Pyrene": 8930,
      "_Palus": 8931,
      "benefit": 8932,
      "finished": 8933,
      "financial": 8934,
      "fastening": 8935,
      "##OUP": 8936,
      "disappointed": 8937,
      "admire": 8938,
      "electronically": 8939,
      "bullets": 8940,
      "captain": 8941,
      "fifth": 8942,
      "hydrogen": 8943,
      "watchers": 8944,
      "reveals": 8945,
      "sharpest": 8946,
      "expend": 8947,
      "expedition": 8948,
      "expanding": 8949,
      "constantly": 8950,
      "constitut": 8951,
      "argue": 8952,
      "distinguishing": 8953,
      "reflections": 8954,
      "reflectors": 8955,
      "occupies": 8956,
      "detailed": 8957,
      "detailing": 8958,
      "elapse": 8959,
      "elapsed": 8960,
      "elongated": 8961,
      "listens": 8962,
      "listening": 8963,
      "listlessly": 8964,
      "maintaining": 8965,
      "sighted": 8966,
      "sighting": 8967,
      "##ANA": 8968,
      "annals": 8969,
      "##rigible": 8970,
      "exceeding": 8971,
      "Colorad": 8972,
      "affair": 8973,
      "affection": 8974,
      "affright": 8975,
      "busily": 8976,
      "latitudes": 8977,
      "monster": 8978,
      "ruin": 8979,
      "veil": 8980,
      "##TIES": 8981,
      "fortifications": 8982,
      "entertaining": 8983,
      "transmit": 8984,
      "transfer": 8985,
      "transform": 8986,
      "helped": 8987,
      "_Terra": 8988,
      "guide": 8989,
      "guessed": 8990,
      "hopeful": 8991,
      "wilder": 8992,
      "##aintance": 8993,
      "organs": 8994,
      "safest": 8995,
      "safety": 8996,
      "openings": 8997,
      "188": 8998,
      "18th": 8999,
      "Softly": 9000,
      "burns": 9001,
      "burner": 9002,
      "##ESTION": 9003,
      "##rimony": 9004,
      "##rimald": 9005,
      "standard": 9006,
      "characters": 9007,
      "countryman": 9008,
      "peninsula": 9009,
      "promised": 9010,
      "prominently": 9011,
      "promoting": 9012,
      "sentences": 9013,
      "sententiously": 9014,
      "##sby": 9015,
      "##EDUCT": 9016,
      "inclination": 9017,
      "seventh": 9018,
      "needless": 9019,
      "imaginations": 9020,
      "precinct": 9021,
      "numberless": 9022,
      "Everybody": 9023,
      "peculiarity": 9024,
      "1500": 9025,
      "counterbal": 9026,
      "fringe": 9027,
      "frenzy": 9028,
      "frames": 9029,
      "##viser": 9030,
      "##ALOO": 9031,
      "##atives": 9032,
      "behalf": 9033,
      "engra": 9034,
      "engineer": 9035,
      "uncomfort": 9036,
      "attempts": 9037,
      "attempting": 9038,
      "dispatched": 9039,
      "Isn": 9040,
      "drank": 9041,
      "eightieth": 9042,
      "guns": 9043,
      "limited": 9044,
      "opera": 9045,
      "paths": 9046,
      "##ACH": 9047,
      "wheel": 9048,
      "wheels": 9049,
      "believed": 9050,
      "originator": 9051,
      "166": 9052,
      "1600": 9053,
      "Donations": 9054,
      "_day_": 9055,
      "driver": 9056,
      "ridiculous": 9057,
      "##ISPHERE": 9058,
      "ascend": 9059,
      "ascribed": 9060,
      "asserted": 9061,
      "spoiled": 9062,
      "surround": 9063,
      "_movement_": 9064,
      "_Huygh": 9065,
      "_Baltimore": 9066,
      "collapsed": 9067,
      "collecting": 9068,
      "joint": 9069,
      "jokes": 9070,
      "mutter": 9071,
      "mutually": 9072,
      "visited": 9073,
      "straw": 9074,
      "combine": 9075,
      "meetings": 9076,
      "pressing": 9077,
      "absorbs": 9078,
      "adventures": 9079,
      "swept": 9080,
      "sweeping": 9081,
      "breathless": 9082,
      "Quicker": 9083,
      "Questions": 9084,
      "joyfully": 9085,
      "merry": 9086,
      "mercury": 9087,
      "merriment": 9088,
      "persist": 9089,
      "ventilate": 9090,
      "##ression": 9091,
      "encomp": 9092,
      "encouraged": 9093,
      "Whenever": 9094,
      "comparisons": 9095,
      "plateaus": 9096,
      "impossibilities": 9097,
      "occurs": 9098,
      "Columbiads": 9099,
      "assertions": 9100,
      "boundaries": 9101,
      "faintly": 9102,
      "tremor": 9103,
      "vainly": 9104,
      "angular": 9105,
      "angrily": 9106,
      "revised": 9107,
      "heavens": 9108,
      "superl": 9109,
      "models": 9110,
      "modifications": 9111,
      "community": 9112,
      "diminution": 9113,
      "intelligently": 9114,
      "counteraction": 9115,
      "Const": 9116,
      "Confound": 9117,
      "_Lacus": 9118,
      "bitter": 9119,
      "denying": 9120,
      "edged": 9121,
      "locations": 9122,
      "locality": 9123,
      "named": 9124,
      "rigid": 9125,
      "rigged": 9126,
      "##ranean": 9127,
      "##LEEP": 9128,
      "##RECT": 9129,
      "bearings": 9130,
      "complicated": 9131,
      "artillery": 9132,
      "internally": 9133,
      "groups": 9134,
      "accomplishing": 9135,
      "undertook": 9136,
      "thirdly": 9137,
      "planetary": 9138,
      "splendidly": 9139,
      "escapes": 9140,
      "17th": 9141,
      "Alas": 9142,
      "Alps_": 9143,
      "Expl": 9144,
      "Exactly": 9145,
      "Exceedingly": 9146,
      "Major": 9147,
      "caustic": 9148,
      "failed": 9149,
      "lateral": 9150,
      "laterally": 9151,
      "similarly": 9152,
      "##oreseen": 9153,
      "spectre": 9154,
      "quarters": 9155,
      "agreeable": 9156,
      "remaining": 9157,
      "remembered": 9158,
[...]
