{
  "version": "1.0",
  "truncation": null,
  "padding": null,
  "added_tokens": [
    {
      "id": 0,
      "content": "[UNK]",
      "single_word": false,
      "lstrip": false,
      "rstrip": false,
      "normalized": false,
      "special": true
    },
    {
      "id": 1,
      "content": "[CLS]",
      "single_word": false,
      "lstrip": false,
      "rstrip": false,
      "normalized": false,
      "special": true
    },
    {
      "id": 2,
      "content": "[SEP]",
      "single_word": false,
      "lstrip": false,
      "rstrip": false,
      "normalized": false,
      "special": true
    },
    {
      "id": 3,
      "content": "[PAD]",
      "single_word": false,
      "lstrip": false,
      "rstrip": false,
      "normalized": false,
      "special": true
    },
    {
      "id": 4,
      "content": "[MASK]",
      "single_word": false,
      "lstrip": false,
      "rstrip": false,
      "normalized": false,
      "special": true
    }
  ],
  "normalizer": null,
  "pre_tokenizer": {
    "type": "Whitespace"
  },
  "post_processor": null,
  "decoder": null,
  "model": {
    "type": "BPE",
    "dropout": null,
    "unk_token": "[UNK]",
    "continuing_subword_prefix": null,
    "end_of_word_suffix": null,
    "fuse_unk": false,
    "vocab": {
      "[UNK]": 0,
      "[CLS]": 1,
      "[SEP]": 2,
      "[PAD]": 3,
      "[MASK]": 4,
      "!": 5,
      "\"": 6,
      "#": 7,
      "$": 8,
      "%": 9,
      "'": 10,
      "(": 11,
      ")": 12,
      "*": 13,
      "+": 14,
      ",": 15,
      "-": 16,
      ".": 17,
      "/": 18,
      "0": 19,
      "1": 20,
      "2": 21,
      "3": 22,
      "4": 23,
      "5": 24,
      "6": 25,
      "7": 26,
      "8": 27,
      "9": 28,
      ":": 29,
      ";": 30,
      "=": 31,
      "?": 32,
      "@": 33,
      "A": 34,
      "B": 35,
      "C": 36,
      "D": 37,
      "E": 38,
      "F": 39,
      "G": 40,
      "H": 41,
      "I": 42,
      "J": 43,
      "K": 44,
      "L": 45,
      "M": 46,
      "N": 47,
      "O": 48,
      "P": 49,
      "Q": 50,
      "R": 51,
      "S": 52,
      "T": 53,
      "U": 54,
      "V": 55,
      "W": 56,
      "X": 57,
      "Y": 58,
      "Z": 59,
      "[": 60,
      "]": 61,
      "_": 62,
      "a": 63,
      "b": 64,
      "c": 65,
      "d": 66,
      "e": 67,
      "f": 68,
      "g": 69,
      "h": 70,
      "i": 71,
      "j": 72,
      "k": 73,
      "l": 74,
      "m": 75,
      "n": 76,
      "o": 77,
      "p": 78,
      "q": 79,
      "r": 80,
      "s": 81,
      "t": 82,
      "u": 83,
      "v": 84,
      "w": 85,
      "x": 86,
      "y": 87,
      "z": 88,
      "{": 89,
      "}": 90,
      "°": 91,
      "Æ": 92,
      "à": 93,
      "â": 94,
      "æ": 95,
      "è": 96,
      "é": 97,
      "ê": 98,
      "ô": 99,
      "ö": 100,
      "﻿": 101,
      "th": 102,
      "the": 103,
      "in": 104,
      "re": 105,
      "an": 106,
      "on": 107,
      "er": 108,
      "at": 109,
      "ou": 110,
      "en": 111,
      "ed": 112,
      "st": 113,
      "ar": 114,
      "of": 115,
      "ing": 116,
      "or": 117,
      "it": 118,
      "ll": 119,
      "is": 120,
      "to": 121,
      "as": 122,
      "le": 123,
      "ic": 124,
      "and": 125,
      "he": 126,
      "ly": 127,
      "se": 128,
      "be": 129,
      "es": 130,
      "om": 131,
      "ct": 132,
      "ion": 133,
      "ha": 134,
      "no": 135,
      "al": 136,
      "ve": 137,
      "gh": 138,
      "ent": 139,
      "id": 140,
      "ce": 141,
      "we": 142,
      "ver": 143,
      "ro": 144,
      "ld": 145,
      "ut": 146,
      "wh": 147,
      "ri": 148,
      "ra": 149,
      "im": 150,
      "ch": 151,
      "un": 152,
      "all": 153,
      "that": 154,
      "ir": 155,
      "su": 156,
      "ain": 157,
      "wi": 158,
      "li": 159,
      "for": 160,
      "ect": 161,
      "ould": 162,
      "de": 163,
      "ght": 164,
      "ow": 165,
      "ab": 166,
      "mo": 167,
      "our": 168,
      "was": 169,
      "with": 170,
      "The": 171,
      "con": 172,
      "ap": 173,
      "et": 174,
      "ex": 175,
      "ay": 176,
      "his": 177,
      "by": 178,
      "ter": 179,
      "lo": 180,
      "di": 181,
      "po": 182,
      "are": 183,
      "oun": 184,
      "not": 185,
      "tain": 186,
      "had": 187,
      "!\"": 188,
      "so": 189,
      "us": 190,
      "ile": 191,
      "ast": 192,
      "ne": 193,
      "ad": 194,
      "ther": 195,
      "ican": 196,
      "ur": 197,
      "arb": 198,
      "me": 199,
      "ation": 200,
      "qu": 201,
      "ul": 202,
      "ject": 203,
      "Barb": 204,
      "Barbican": 205,
      "com": 206,
      "ke": 207,
      "out": 208,
      "ss": 209,
      "dan": 210,
      "fe": 211,
      ",\"": 212,
      "ich": 213,
      "Ar": 214,
      "te": 215,
      "they": 216,
      "sh": 217,
      "you": 218,
      "Mo": 219,
      "ac": 220,
      "sp": 221,
      "Ardan": 222,
      "rom": 223,
      "Moon": 224,
      "ous": 225,
      "their": 226,
      "fa": 227,
      "now": 228,
      "pre": 229,
      "roject": 230,
      "but": 231,
      "red": 232,
      "end": 233,
      "very": 234,
      "ag": 235,
      "per": 236,
      "fo": 237,
      "ate": 238,
      "from": 239,
      "ard": 240,
      "have": 241,
      "them": 242,
      "ers": 243,
      "Project": 244,
      "um": 245,
      ".\"": 246,
      "sa": 247,
      "co": 248,
      "if": 249,
      "one": 250,
      "ity": 251,
      "il": 252,
      "--": 253,
      "ant": 254,
      "ill": 255,
      "ust": 256,
      "could": 257,
      "pl": 258,
      "pro": 259,
      "ough": 260,
      "this": 261,
      "pe": 262,
      "its": 263,
      "tra": 264,
      "up": 265,
      "bo": 266,
      "can": 267,
      "ven": 268,
      "ight": 269,
      "art": 270,
      "ound": 271,
      "able": 272,
      "ge": 273,
      "gre": 274,
      "were": 275,
      "which": 276,
      "would": 277,
      "?\"": 278,
      "here": 279,
      "Projectile": 280,
      "wor": 281,
      "ble": 282,
      "der": 283,
      "than": 284,
      "ak": 285,
      "lf": 286,
      "fore": 287,
      "am": 288,
      "ob": 289,
      "Cap": 290,
      "ure": 291,
      "thing": 292,
      "more": 293,
      "Captain": 294,
      "her": 295,
      "ess": 296,
      "ive": 297,
      "ions": 298,
      "ong": 299,
      "any": 300,
      "tim": 301,
      "dis": 302,
      "arth": 303,
      "ck": 304,
      "been": 305,
      "ind": 306,
      "ser": 307,
      "ome": 308,
      "ide": 309,
      "cri": 310,
      "Earth": 311,
      "la": 312,
      "sur": 313,
      "there": 314,
      "ite": 315,
      "other": 316,
      "int": 317,
      "ho": 318,
      "light": 319,
      "like": 320,
      "what": 321,
      "see": 322,
      "itt": 323,
      "comp": 324,
      "ull": 325,
      "do": 326,
      "gl": 327,
      "some": 328,
      "ally": 329,
      "est": 330,
      "ach": 331,
      "ved": 332,
      "Wh": 333,
      "great": 334,
      "ence": 335,
      "who": 336,
      "It": 337,
      "even": 338,
      "less": 339,
      "only": 340,
      "ol": 341,
      "ci": 342,
      "ked": 343,
      "said": 344,
      "him": 345,
      "ren": 346,
      "ans": 347,
      "man": 348,
      "act": 349,
      "ance": 350,
      "most": 351,
      "face": 352,
      "time": 353,
      "cried": 354,
      "ving": 355,
      "ated": 356,
      "go": 357,
      "But": 358,
      "ber": 359,
      "el": 360,
      "fri": 361,
      "self": 362,
      "mile": 363,
      "ig": 364,
      "oll": 365,
      "about": 366,
      "ittle": 367,
      "way": 368,
      "rep": 369,
      "str": 370,
      "ort": 371,
      "obser": 372,
      "In": 373,
      "ph": 374,
      "od": 375,
      "bl": 376,
      "ca": 377,
      "little": 378,
      "must": 379,
      "ish": 380,
      "ist": 381,
      "ible": 382,
      "ment": 383,
      "tr": 384,
      "Nich": 385,
      "pt": 386,
      "part": 387,
      "dist": 388,
      "Nicholl": 389,
      "know": 390,
      "ine": 391,
      "No": 392,
      "long": 393,
      "point": 394,
      "ves": 395,
      "ey": 396,
      "unar": 397,
      "friend": 398,
      "ma": 399,
      "ff": 400,
      "such": 401,
      "surface": 402,
      "every": 403,
      "my": 404,
      "00": 405,
      "day": 406,
      "ary": 407,
      "when": 408,
      "full": 409,
      "ree": 410,
      "miles": 411,
      "op": 412,
      "still": 413,
      "urn": 414,
      "tw": 415,
      "vell": 416,
      "Th": 417,
      "ok": 418,
      "read": 419,
      "We": 420,
      "ass": 421,
      "form": 422,
      "ever": 423,
      "ations": 424,
      "should": 425,
      "travell": 426,
      "ction": 427,
      "rest": 428,
      "your": 429,
      "ertain": 430,
      "right": 431,
      "own": 432,
      "ountain": 433,
      "men": 434,
      "over": 435,
      "pos": 436,
      "gra": 437,
      "ie": 438,
      "sent": 439,
      "into": 440,
      "ful": 441,
      "sha": 442,
      "ty": 443,
      "ark": 444,
      "travellers": 445,
      "pr": 446,
      "these": 447,
      "inter": 448,
      "What": 449,
      "fir": 450,
      "mom": 451,
      "cc": 452,
      "uch": 453,
      "ater": 454,
      "ards": 455,
      "lunar": 456,
      "work": 457,
      "des": 458,
      "under": 459,
      "never": 460,
      "ep": 461,
      "side": 462,
      "off": 463,
      "cont": 464,
      "rough": 465,
      "They": 466,
      "He": 467,
      "cul": 468,
      "mountain": 469,
      "use": 470,
      "before": 471,
      "reg": 472,
      "rem": 473,
      "moment": 474,
      "fl": 475,
      "sid": 476,
      "say": 477,
      "ature": 478,
      "being": 479,
      "will": 480,
      "cr": 481,
      "last": 482,
      "velo": 483,
      "imp": 484,
      "much": 485,
      "ars": 486,
      "cl": 487,
      "cent": 488,
      "certain": 489,
      "ten": 490,
      "ted": 491,
      "where": 492,
      "has": 493,
      "ious": 494,
      "min": 495,
      "ink": 496,
      "sel": 497,
      "few": 498,
      "ack": 499,
      "Sun": 500,
      "TH": 501,
      "air": 502,
      "coun": 503,
      "through": 504,
      "present": 505,
      "gr": 506,
      "nor": 507,
      "rect": 508,
      "les": 509,
      "ace": 510,
      "med": 511,
      "ise": 512,
      "asked": 513,
      "cond": 514,
      "two": 515,
      "cal": 516,
      "ting": 517,
      "vis": 518,
      "poss": 519,
      "sol": 520,
      "cor": 521,
      "get": 522,
      "ta": 523,
      "lied": 524,
      "first": 525,
      "ness": 526,
      "ating": 527,
      "row": 528,
      "ily": 529,
      "ared": 530,
      "city": 531,
      "far": 532,
      "night": 533,
      "turn": 534,
      "fact": 535,
      "fter": 536,
      "tion": 537,
      "ste": 538,
      "ently": 539,
      "fully": 540,
      "though": 541,
      "enough": 542,
      "well": 543,
      "soon": 544,
      "br": 545,
      "hour": 546,
      "exc": 547,
      "ning": 548,
      "vid": 549,
      "arly": 550,
      "appe": 551,
      "This": 552,
      "ron": 553,
      "icul": 554,
      "come": 555,
      "iz": 556,
      "she": 557,
      "then": 558,
      "uten": 559,
      "replied": 560,
      "cre": 561,
      "igh": 562,
      "wards": 563,
      "ical": 564,
      "ses": 565,
      "An": 566,
      "ced": 567,
      "den": 568,
      "hard": 569,
      "ling": 570,
      "fall": 571,
      "too": 572,
      "ice": 573,
      "contin": 574,
      "led": 575,
      "ose": 576,
      "llow": 577,
      "ext": 578,
      "tem": 579,
      "eas": 580,
      "ys": 581,
      "selves": 582,
      "cid": 583,
      "cour": 584,
      "par": 585,
      "observed": 586,
      "low": 587,
      "may": 588,
      "und": 589,
      "ath": 590,
      "ies": 591,
      "just": 592,
      "new": 593,
      "sphere": 594,
      "plain": 595,
      "velocity": 596,
      "course": 597,
      "bit": 598,
      "ably": 599,
      "qui": 600,
      "again": 601,
      "disc": 602,
      "after": 603,
      "ref": 604,
      "quest": 605,
      "therefore": 606,
      "berg": 607,
      "friends": 608,
      "bet": 609,
      "mat": 610,
      "second": 611,
      "beg": 612,
      "du": 613,
      "don": 614,
      "ms": 615,
      "sci": 616,
      "itu": 617,
      "wever": 618,
      "THE": 619,
      "utenberg": 620,
      "clo": 621,
      "hardly": 622,
      "Be": 623,
      "ces": 624,
      "care": 625,
      "fect": 626,
      "gen": 627,
      "ific": 628,
      "himself": 629,
      "eyes": 630,
      "You": 631,
      "ps": 632,
      "those": 633,
      "once": 634,
      "atmo": 635,
      "ase": 636,
      "tell": 637,
      "press": 638,
      "age": 639,
      "vo": 640,
      "ens": 641,
      "_M": 642,
      "how": 643,
      "ston": 644,
      "lect": 645,
      "ick": 646,
      "--\"": 647,
      "ready": 648,
      "calcul": 649,
      "Gutenberg": 650,
      "occ": 651,
      "vi": 652,
      "reach": 653,
      "nothing": 654,
      "without": 655,
      "made": 656,
      "hand": 657,
      "tak": 658,
      "inst": 659,
      "atch": 660,
      "ought": 661,
      "start": 662,
      "ory": 663,
      "compan": 664,
      "port": 665,
      "attra": 666,
      "continu": 667,
      "atmosphere": 668,
      "around": 669,
      "possible": 670,
      "Mar": 671,
      "az": 672,
      "lt": 673,
      "head": 674,
      "quite": 675,
      "shall": 676,
      "ang": 677,
      "feet": 678,
      "ished": 679,
      "Marston": 680,
      "bre": 681,
      "distance": 682,
      "At": 683,
      "St": 684,
      "cle": 685,
      "mer": 686,
      "mis": 687,
      "vent": 688,
      "vol": 689,
      "ying": 690,
      "res": 691,
      "ense": 692,
      "half": 693,
      "direct": 694,
      "spe": 695,
      "think": 696,
      "sub": 697,
      "exp": 698,
      "however": 699,
      "gi": 700,
      "high": 701,
      "ud": 702,
      "eter": 703,
      "perfect": 704,
      "rench": 705,
      "mountains": 706,
      "minut": 707,
      "did": 708,
      "might": 709,
      "ple": 710,
      "slight": 711,
      "dif": 712,
      "sho": 713,
      "French": 714,
      "na": 715,
      "ub": 716,
      "least": 717,
      "There": 718,
      "question": 719,
      "To": 720,
      "cess": 721,
      "dark": 722,
      "old": 723,
      "water": 724,
      "ange": 725,
      "towards": 726,
      "themselves": 727,
      "same": 728,
      "cap": 729,
      "dou": 730,
      "ye": 731,
      "three": 732,
      "ors": 733,
      "seen": 734,
      "decid": 735,
      "companions": 736,
      "call": 737,
      "down": 738,
      "ither": 739,
      "pow": 740,
      "stand": 741,
      "ousand": 742,
      "good": 743,
      "Se": 744,
      "fi": 745,
      "mous": 746,
      "fort": 747,
      "decided": 748,
      "pp": 749,
      "won": 750,
      "thousand": 751,
      "att": 752,
      "ason": 753,
      "exce": 754,
      "ately": 755,
      "cur": 756,
      "ft": 757,
      "imed": 758,
      "char": 759,
      "exact": 760,
      "feren": 761,
      "take": 762,
      "minutes": 763,
      "If": 764,
      "che": 765,
      "land": 766,
      "pass": 767,
      "rup": 768,
      "look": 769,
      "stru": 770,
      "That": 771,
      "dden": 772,
      "sou": 773,
      "stre": 774,
      "having": 775,
      "dy": 776,
      "mor": 777,
      "ins": 778,
      "heat": 779,
      "west": 780,
      "sudden": 781,
      "follow": 782,
      "cop": 783,
      "observ": 784,
      "ronom": 785,
      "matter": 786,
      "TE": 787,
      "fur": 788,
      "ged": 789,
      "ring": 790,
      "tri": 791,
      "wind": 792,
      "let": 793,
      "motion": 794,
      "easily": 795,
      "cu": 796,
      "ib": 797,
      "nal": 798,
      "sing": 799,
      "idly": 800,
      "rap": 801,
      "consid": 802,
      "prob": 803,
      "cause": 804,
      "ave": 805,
      "found": 806,
      "ue": 807,
      "yet": 808,
      "ected": 809,
      "show": 810,
      "comple": 811,
      "eye": 812,
      "make": 813,
      "000": 814,
      "visible": 815,
      "hours": 816,
      "And": 817,
      "continued": 818,
      "bra": 819,
      "fin": 820,
      "flo": 821,
      "reason": 822,
      "ition": 823,
      "word": 824,
      "object": 825,
      "whole": 826,
      "ways": 827,
      "differen": 828,
      "consider": 829,
      "kind": 830,
      "ord": 831,
      "also": 832,
      "always": 833,
      "ween": 834,
      "wered": 835,
      "space": 836,
      "times": 837,
      "itude": 838,
      "each": 839,
      "jo": 840,
      "si": 841,
      "tm": 842,
      "ash": 843,
      "ip": 844,
      "shad": 845,
      "lying": 846,
      "vers": 847,
      "dep": 848,
      "pose": 849,
      "means": 850,
      "peri": 851,
      "atell": 852,
      "ility": 853,
      "world": 854,
      "idea": 855,
      "Well": 856,
      "undred": 857,
      "complete": 858,
      "away": 859,
      "cir": 860,
      "em": 861,
      "hundred": 862,
      "ry": 863,
      "simp": 864,
      "order": 865,
      "ited": 866,
      "left": 867,
      "already": 868,
      "regard": 869,
      "between": 870,
      "scient": 871,
      "doub": 872,
      "How": 873,
      "Ne": 874,
      "evid": 875,
      "ial": 876,
      "mit": 877,
      "sm": 878,
      "spo": 879,
      "vast": 880,
      "another": 881,
      "habit": 882,
      "almost": 883,
      "appro": 884,
      "mean": 885,
      "aks": 886,
      "answered": 887,
      "elen": 888,
      "Not": 889,
      "certainly": 890,
      "instant": 891,
      "back": 892,
      "lat": 893,
      "mid": 894,
      "nature": 895,
      "oked": 896,
      "aring": 897,
      "become": 898,
      "ute": 899,
      "life": 900,
      "ets": 901,
      "interrup": 902,
      "quiet": 903,
      "bur": 904,
      "car": 905,
      "line": 906,
      "pu": 907,
      "toge": 908,
      "lie": 909,
      "spect": 910,
      "body": 911,
      "laimed": 912,
      "reply": 913,
      "attraction": 914,
      "suddenly": 915,
      "together": 916,
      "_S": 917,
      "bed": 918,
      "many": 919,
      "ton": 920,
      "zling": 921,
      "inhabit": 922,
      "set": 923,
      "aking": 924,
      "north": 925,
      "medi": 926,
      "_Mare": 927,
      "subject": 928,
      "called": 929,
      "power": 930,
      "doubt": 931,
      "ON": 932,
      "done": 933,
      "king": 934,
      "mber": 935,
      "ric": 936,
      "atis": 937,
      "ened": 938,
      "itself": 939,
      "sum": 940,
      "dear": 941,
      "app": 942,
      "exist": 943,
      "looked": 944,
      "diff": 945,
      "us_": 946,
      "plan": 947,
      "black": 948,
      "appeared": 949,
      "began": 950,
      "Frenchman": 951,
      "wonder": 952,
      "shadow": 953,
      "atellite": 954,
      "Selen": 955,
      "four": 956,
      "fast": 957,
      "hum": 958,
      "sk": 959,
      "astronom": 960,
      "add": 961,
      "bot": 962,
      "cks": 963,
      "came": 964,
      "Then": 965,
      "restri": 966,
      "carefully": 967,
      "As": 968,
      "sil": 969,
      "why": 970,
      "AN": 971,
      "Yes": 972,
      "_C": 973,
      "adi": 974,
      "jour": 975,
      "map": 976,
      "num": 977,
      "sion": 978,
      "tal": 979,
      "vor": 980,
      "resu": 981,
      "ents": 982,
      "radi": 983,
      "rays": 984,
      "terrestri": 985,
      "exclaimed": 986,
      "six": 987,
      "AR": 988,
      "De": 989,
      "For": 990,
      "IN": 991,
      "ied": 992,
      "ral": 993,
      "anc": 994,
      "ering": 995,
      "often": 996,
      "ings": 997,
      "hel": 998,
      "sure": 999,
      "keep": 1000,
      "spl": 1001,
      "cord": 1002,
      "temper": 1003,
      "taken": 1004,
      "slightest": 1005,
      "probably": 1006,
      "approach": 1007,
      "difficul": 1008,
      "elect": 1009,
      "give": 1010,
      "met": 1011,
      "thought": 1012,
      "ern": 1013,
      "aters": 1014,
      "que": 1015,
      "ign": 1016,
      "days": 1017,
      "exactly": 1018,
      "further": 1019,
      "terrestrial": 1020,
      "Cl": 1021,
      "lay": 1022,
      "mon": 1023,
      "ths": 1024,
      "ined": 1025,
      "reme": 1026,
      "oud": 1027,
      "eng": 1028,
      "asses": 1029,
      "degre": 1030,
      "ney": 1031,
      "nearly": 1032,
      "greater": 1033,
      "graph": 1034,
      "works": 1035,
      "rapidly": 1036,
      "completely": 1037,
      "east": 1038,
      "put": 1039,
      "sound": 1040,
      "sto": 1041,
      "sequ": 1042,
      "allow": 1043,
      "express": 1044,
      "favor": 1045,
      "place": 1046,
      "both": 1047,
      "lfast": 1048,
      "Why": 1049,
      "Belfast": 1050,
      "morning": 1051,
      "window": 1052,
      "Do": 1053,
      "case": 1054,
      "ec": 1055,
      "equ": 1056,
      "gas": 1057,
      "ith": 1058,
      "vie": 1059,
      "wr": 1060,
      "thir": 1061,
      "ene": 1062,
      "altogether": 1063,
      "rather": 1064,
      "sup": 1065,
      "near": 1066,
      "ular": 1067,
      "tered": 1068,
      "teles": 1069,
      "known": 1070,
      "crater": 1071,
      "count": 1072,
      "regarding": 1073,
      "adily": 1074,
      "journey": 1075,
      "On": 1076,
      "bri": 1077,
      "bright": 1078,
      "eff": 1079,
      "find": 1080,
      "ian": 1081,
      "ris": 1082,
      "thus": 1083,
      "eral": 1084,
      "ates": 1085,
      "ites": 1086,
      "tom": 1087,
      "cho": 1088,
      "terri": 1089,
      "thern": 1090,
      "um_": 1091,
      "umin": 1092,
      "ively": 1093,
      "centre": 1094,
      "appear": 1095,
      "clock": 1096,
      "quietly": 1097,
      "Club": 1098,
      "CH": 1099,
      "His": 1100,
      "Let": 1101,
      "OR": 1102,
      "cra": 1103,
      "daz": 1104,
      "tly": 1105,
      "val": 1106,
      "anim": 1107,
      "immedi": 1108,
      "move": 1109,
      "uring": 1110,
      "anything": 1111,
      "glass": 1112,
      "actu": 1113,
      "view": 1114,
      "au": 1115,
      "bu": 1116,
      "dra": 1117,
      "either": 1118,
      "ger": 1119,
      "glo": 1120,
      "round": 1121,
      "usu": 1122,
      "inte": 1123,
      "rece": 1124,
      "ingly": 1125,
      "hea": 1126,
      "enty": 1127,
      "cean": 1128,
      "pret": 1129,
      "disco": 1130,
      "longer": 1131,
      "solute": 1132,
      "plains": 1133,
      "evidently": 1134,
      "small": 1135,
      "interrupted": 1136,
      "dazzling": 1137,
      "By": 1138,
      "Lunar": 1139,
      "Pre": 1140,
      "ped": 1141,
      "satis": 1142,
      "want": 1143,
      "reco": 1144,
      "arp": 1145,
      "took": 1146,
      "ici": 1147,
      "heart": 1148,
      "weight": 1149,
      "short": 1150,
      "atever": 1151,
      "law": 1152,
      "whose": 1153,
      "everything": 1154,
      "prof": 1155,
      "descri": 1156,
      "human": 1157,
      "splend": 1158,
      "All": 1159,
      "Now": 1160,
      "Un": 1161,
      "cha": 1162,
      "mag": 1163,
      "ore": 1164,
      "inary": 1165,
      "heard": 1166,
      "whatever": 1167,
      "ribut": 1168,
      "absolute": 1169,
      "within": 1170,
      "used": 1171,
      "necess": 1172,
      "ssed": 1173,
      "occas": 1174,
      "portion": 1175,
      "expected": 1176,
      "bottom": 1177,
      "temperature": 1178,
      "interest": 1179,
      "En": 1180,
      "hor": 1181,
      "real": 1182,
      "ond": 1183,
      "ically": 1184,
      "omen": 1185,
      "while": 1186,
      "suff": 1187,
      "succ": 1188,
      "consequ": 1189,
      "felt": 1190,
      "account": 1191,
      "famous": 1192,
      "ended": 1193,
      "agree": 1194,
      "produ": 1195,
      "lau": 1196,
      "posed": 1197,
      "decidedly": 1198,
      "success": 1199,
      "LI": 1200,
      "OF": 1201,
      "aw": 1202,
      "dim": 1203,
      "gaz": 1204,
      "project": 1205,
      "sy": 1206,
      "sun": 1207,
      "ts": 1208,
      "readily": 1209,
      "asure": 1210,
      "list": 1211,
      "surpr": 1212,
      "compar": 1213,
      "going": 1214,
      "ments": 1215,
      "try": 1216,
      "understand": 1217,
      "remark": 1218,
      "rown": 1219,
      "break": 1220,
      "perfectly": 1221,
      "Therefore": 1222,
      "ordinary": 1223,
      "actually": 1224,
      "oper": 1225,
      "pen": 1226,
      "sc": 1227,
      "sw": 1228,
      "ured": 1229,
      "reve": 1230,
      "return": 1231,
      "state": 1232,
      "hear": 1233,
      "best": 1234,
      "hael": 1235,
      "wild": 1236,
      "moving": 1237,
      "lost": 1238,
      "diam": 1239,
      "cold": 1240,
      "ants": 1241,
      "worth": 1242,
      "craters": 1243,
      "grand": 1244,
      "possib": 1245,
      "tail": 1246,
      "fire": 1247,
      "observations": 1248,
      "New": 1249,
      "terrible": 1250,
      "Mic": 1251,
      "Of": 1252,
      "cy": 1253,
      "free": 1254,
      "gent": 1255,
      "han": 1256,
      "lar": 1257,
      "ru": 1258,
      "squ": 1259,
      "slow": 1260,
      "lli": 1261,
      "sever": 1262,
      "dire": 1263,
      "arer": 1264,
      "tained": 1265,
      "ush": 1266,
      "adv": 1267,
      "saw": 1268,
      "particul": 1269,
      "remain": 1270,
      "turned": 1271,
      "against": 1272,
      "viol": 1273,
      "clear": 1274,
      "different": 1275,
      "suffici": 1276,
      "Amer": 1277,
      "II": 1278,
      "OU": 1279,
      "Oh": 1280,
      "during": 1281,
      "sed": 1282,
      "vity": 1283,
      "inde": 1284,
      "org": 1285,
      "height": 1286,
      "haps": 1287,
      "ceed": 1288,
      "immen": 1289,
      "dead": 1290,
      "poor": 1291,
      "cope": 1292,
      "bol": 1293,
      "somewhat": 1294,
      "got": 1295,
      "years": 1296,
      "passed": 1297,
      "circ": 1298,
      "effect": 1299,
      "laugh": 1300,
      "Michael": 1301,
      "direction": 1302,
      "AP": 1303,
      "ER": 1304,
      "aut": 1305,
      "bull": 1306,
      "five": 1307,
      "gu": 1308,
      "hy": 1309,
      "phere": 1310,
      "va": 1311,
      "ison": 1312,
      "oms": 1313,
      "unt": 1314,
      "abo": 1315,
      "These": 1316,
      "tering": 1317,
      "comm": 1318,
      "feel": 1319,
      "antic": 1320,
      "others": 1321,
      "strong": 1322,
      "strange": 1323,
      "solar": 1324,
      "better": 1325,
      "voice": 1326,
      "misphere": 1327,
      "south": 1328,
      "astronomers": 1329,
      "usual": 1330,
      "pretty": 1331,
      "magn": 1332,
      "several": 1333,
      "immense": 1334,
      "Con": 1335,
      "ball": 1336,
      "bene": 1337,
      "cise": 1338,
      "ia": 1339,
      "next": 1340,
      "pri": 1341,
      "pair": 1342,
      "sight": 1343,
      "really": 1344,
      "ann": 1345,
      "enomen": 1346,
      "ingu": 1347,
      "ities": 1348,
      "alt": 1349,
      "ides": 1350,
      "utral": 1351,
      "deep": 1352,
      "dies": 1353,
      "neutral": 1354,
      "kept": 1355,
      "ship": 1356,
      "disp": 1357,
      "something": 1358,
      "phenomen": 1359,
      "blic": 1360,
      "trou": 1361,
      "distingu": 1362,
      "flu": 1363,
      "sident": 1364,
      "presented": 1365,
      "ize": 1366,
      "taking": 1367,
      "directly": 1368,
      "immediately": 1369,
      "diameter": 1370,
      "EN": 1371,
      "ES": 1372,
      "Even": 1373,
      "_P": 1374,
      "bla": 1375,
      "ered": 1376,
      "mind": 1377,
      "ook": 1378,
      "satellite": 1379,
      "wall": 1380,
      "invisible": 1381,
      "ank": 1382,
      "enor": 1383,
      "idge": 1384,
      "road": 1385,
      "conf": 1386,
      "exam": 1387,
      "quick": 1388,
      "col": 1389,
      "seemed": 1390,
      "does": 1391,
      "glit": 1392,
      "answ": 1393,
      "open": 1394,
      "posse": 1395,
      "attract": 1396,
      "volcan": 1397,
      "shock": 1398,
      "fortun": 1399,
      "looking": 1400,
      "TER": 1401,
      "floor": 1402,
      "words": 1403,
      "scientific": 1404,
      "existence": 1405,
      "electron": 1406,
      "degrees": 1407,
      "President": 1408,
      "necessary": 1409,
      "occasion": 1410,
      "enormous": 1411,
      "Bal": 1412,
      "TI": 1413,
      "bus": 1414,
      "dre": 1415,
      "fif": 1416,
      "ior": 1417,
      "making": 1418,
      "ox": 1419,
      "sense": 1420,
      "vin": 1421,
      "ances": 1422,
      "star": 1423,
      "arg": 1424,
      "arm": 1425,
      "arri": 1426,
      "hemisphere": 1427,
      "because": 1428,
      "vered": 1429,
      "detail": 1430,
      "usque": 1431,
      "aces": 1432,
      "cool": 1433,
      "ures": 1434,
      "distribut": 1435,
      "ople": 1436,
      "reflect": 1437,
      "begin": 1438,
      "calculated": 1439,
      "occup": 1440,
      "given": 1441,
      "na_": 1442,
      "depths": 1443,
      "_Susque": 1444,
      "Selenites": 1445,
      "sky": 1446,
      "_Susquehan": 1447,
      "catch": 1448,
      "ef": 1449,
      "mi": 1450,
      "main": 1451,
      "nat": 1452,
      "ot": 1453,
      "pa": 1454,
      "son": 1455,
      "sor": 1456,
      "var": 1457,
      "went": 1458,
      "watch": 1459,
      "yed": 1460,
      "intell": 1461,
      "cept": 1462,
      "rock": 1463,
      "conc": 1464,
      "ages": 1465,
      "ists": 1466,
      "twenty": 1467,
      "formed": 1468,
      "formation": 1469,
      "vided": 1470,
      "seconds": 1471,
      "Sea": 1472,
      "exceed": 1473,
      "simple": 1474,
      "wonderful": 1475,
      "help": 1476,
      "trouble": 1477,
      "electronic": 1478,
      "_Susquehanna_": 1479,
      "18": 1480,
      "50": 1481,
      "Col": 1482,
      "Ma": 1483,
      "_A": 1484,
      "gs": 1485,
      "gave": 1486,
      "ler": 1487,
      "ner": 1488,
      "reat": 1489,
      "requi": 1490,
      "stri": 1491,
      "ict": 1492,
      "escap": 1493,
      "rious": 1494,
      "aren": 1495,
      "sharp": 1496,
      "ending": 1497,
      "ago": 1498,
      "atest": 1499,
      "ustr": 1500,
      "timore": 1501,
      "hold": 1502,
      "hope": 1503,
      "sides": 1504,
      "falling": 1505,
      "close": 1506,
      "reached": 1507,
      "hands": 1508,
      "darkness": 1509,
      "except": 1510,
      "difference": 1511,
      "period": 1512,
      "result": 1513,
      "cording": 1514,
      "favorable": 1515,
      "brilli": 1516,
      "CHAP": 1517,
      "reveal": 1518,
      "sufficient": 1519,
      "beneath": 1520,
      "Baltimore": 1521,
      "CHAPTER": 1522,
      "10": 1523,
      "AL": 1524,
      "Ho": 1525,
      "Ro": 1526,
      "With": 1527,
      "bing": 1528,
      "fer": 1529,
      "mar": 1530,
      "mill": 1531,
      "ned": 1532,
      "pur": 1533,
      "scre": 1534,
      "sign": 1535,
      "ines": 1536,
      "influ": 1537,
      "respect": 1538,
      "ery": 1539,
      "stra": 1540,
      "arr": 1541,
      "iter": 1542,
      "ised": 1543,
      "liar": 1544,
      "det": 1545,
      "log": 1546,
      "precise": 1547,
      "perhaps": 1548,
      "ument": 1549,
      "play": 1550,
      "bodies": 1551,
      "intense": 1552,
      "parts": 1553,
      "posit": 1554,
      "gradu": 1555,
      "ief": 1556,
      "counter": 1557,
      "getting": 1558,
      "extreme": 1559,
      "streaks": 1560,
      "copy": 1561,
      "observation": 1562,
      "motionless": 1563,
      "spot": 1564,
      "Dece": 1565,
      "difficult": 1566,
      "equal": 1567,
      "telescope": 1568,
      "draw": 1569,
      "gentle": 1570,
      "slowly": 1571,
      "indeed": 1572,
      "until": 1573,
      "**": 1574,
      ".]": 1575,
      "ED": 1576,
      "Every": 1577,
      "Found": 1578,
      "Our": 1579,
      "burn": 1580,
      "cing": 1581,
      "ear": 1582,
      "gn": 1583,
      "ier": 1584,
      "ived": 1585,
      "ians": 1586,
      "ken": 1587,
      "non": 1588,
      "pie": 1589,
      "run": 1590,
      "ygen": 1591,
      "enthus": 1592,
      "sted": 1593,
      "hes": 1594,
      "rah": 1595,
      "ract": 1596,
      "unity": 1597,
      "Their": 1598,
      "ety": 1599,
      "exter": 1600,
      "urrah": 1601,
      "pres": 1602,
      "illed": 1603,
      "pecu": 1604,
      "peaks": 1605,
      "ounds": 1606,
      "things": 1607,
      "seeing": 1608,
      "itting": 1609,
      "true": 1610,
      "Nothing": 1611,
      "gravity": 1612,
      "shape": 1613,
      "regular": 1614,
      "remind": 1615,
      "clud": 1616,
      "country": 1617,
      "brought": 1618,
      "tempt": 1619,
      "charact": 1620,
      "tried": 1621,
      "approaching": 1622,
      "ecli": 1623,
      "movement": 1624,
      "globe": 1625,
      "circum": 1626,
      "bullet": 1627,
      "blaz": 1628,
      "December": 1629,
      "Foundation": 1630,
      "enthusi": 1631,
      "12": 1632,
      "16": 1633,
      "Gun": 1634,
      "IS": 1635,
      "Pro": 1636,
      "cut": 1637,
      "dri": 1638,
      "lim": 1639,
      "ping": 1640,
      "pit": 1641,
      "prom": 1642,
      "path": 1643,
      "rid": 1644,
      "rate": 1645,
      "wa": 1646,
      "ination": 1647,
      "ero": 1648,
      "ati": 1649,
      "ening": 1650,
      "ased": 1651,
      "assu": 1652,
      "ics": 1653,
      "seas": 1654,
      "seven": 1655,
      "belie": 1656,
      "ram": 1657,
      "imag": 1658,
      "force": 1659,
      "dest": 1660,
      "ability": 1661,
      "conce": 1662,
      "consci": 1663,
      "convin": 1664,
      "terms": 1665,
      "need": 1666,
      "danger": 1667,
      "fellow": 1668,
      "acific": 1669,
      "prep": 1670,
      "umb": 1671,
      "illumin": 1672,
      "hot": 1673,
      "glasses": 1674,
      "action": 1675,
      "knowled": 1676,
      "position": 1677,
      "stead": 1678,
      "bridge": 1679,
      "ized": 1680,
      "easy": 1681,
      "started": 1682,
      "venture": 1683,
      "struck": 1684,
      "following": 1685,
      "single": 1686,
      "ashed": 1687,
      "simply": 1688,
      "added": 1689,
      "number": 1690,
      "animal": 1691,
      "absolutely": 1692,
      "American": 1693,
      "answer": 1694,
      "oxygen": 1695,
      "beginning": 1696,
      "ustration": 1697,
      "peculiar": 1698,
      "20": 1699,
      "Ch": 1700,
      "Fr": 1701,
      "Ha": 1702,
      "Is": 1703,
      "Ill": 1704,
      "So": 1705,
      "San": 1706,
      "_T": 1707,
      "aff": 1708,
      "ging": 1709,
      "ocean": 1710,
      "past": 1711,
      "sens": 1712,
      "whe": 1713,
      "ward": 1714,
      "inion": 1715,
      "instr": 1716,
      "ret": 1717,
      "attempt": 1718,
      "lear": 1719,
      "sea": 1720,
      "sem": 1721,
      "below": 1722,
      "became": 1723,
      "hast": 1724,
      "vel": 1725,
      "vert": 1726,
      "rig": 1727,
      "iment": 1728,
      "contra": 1729,
      "nearer": 1730,
      "ult": 1731,
      "teen": 1732,
      "ously": 1733,
      "safe": 1734,
      "iled": 1735,
      "iling": 1736,
      "plate": 1737,
      "people": 1738,
      "upon": 1739,
      "boys": 1740,
      "forever": 1741,
      "blind": 1742,
      "ishing": 1743,
      "distant": 1744,
      "myself": 1745,
      "regions": 1746,
      "correct": 1747,
      "parall": 1748,
      "gener": 1749,
      "directions": 1750,
      "name": 1751,
      "curve": 1752,
      "charge": 1753,
      "public": 1754,
      "powerful": 1755,
      "summit": 1756,
      "planet": 1757,
      "silence": 1758,
      "dispatch": 1759,
      "brilliant": 1760,
      "character": 1761,
      "Illustration": 1762,
      "Bes": 1763,
      "Blo": 1764,
      "Don": 1765,
      "Had": 1766,
      "Mr": 1767,
      "Pacific": 1768,
      "Satellite": 1769,
      "ah": 1770,
      "daring": 1771,
      "eight": 1772,
      "gun": 1773,
      "ire": 1774,
      "s_": 1775,
      "swe": 1776,
      "situ": 1777,
      "till": 1778,
      "iness": 1779,
      "stars": 1780,
      "orig": 1781,
      "is_": 1782,
      "wel": 1783,
      "ution": 1784,
      "uni": 1785,
      "ection": 1786,
      "ourselves": 1787,
      "ount": 1788,
      "neither": 1789,
      "outside": 1790,
      "according": 1791,
      "preh": 1792,
      "uments": 1793,
      "cannot": 1794,
      "greatest": 1795,
      "serious": 1796,
      "glimp": 1797,
      "trary": 1798,
      "trying": 1799,
      "opinion": 1800,
      "ield": 1801,
      "excite": 1802,
      "instance": 1803,
      "lands": 1804,
      "emp": 1805,
      "bury": 1806,
      "apparen": 1807,
      "numer": 1808,
      "difficulty": 1809,
      "mete": 1810,
      "large": 1811,
      "square": 1812,
      "advant": 1813,
      "bolide": 1814,
      "confid": 1815,
      "glittering": 1816,
      "gradually": 1817,
      "parallel": 1818,
      "Besides": 1819,
      "origin": 1820,
      "15": 1821,
      "AC": 1822,
      "Com": 1823,
      "Certain": 1824,
      "Hurrah": 1825,
      "Im": 1826,
      "Nor": 1827,
      "RE": 1828,
      "ax": 1829,
      "bor": 1830,
      "bound": 1831,
      "earth": 1832,
      "ears": 1833,
      "fain": 1834,
      "gig": 1835,
      "iad": 1836,
      "lab": 1837,
      "leng": 1838,
      "mut": 1839,
      "mark": 1840,
      "os": 1841,
      "ran": 1842,
      "tone": 1843,
      "ught": 1844,
      "thick": 1845,
      "inci": 1846,
      "incre": 1847,
      "relie": 1848,
      "atus": 1849,
      "stop": 1850,
      "orbit": 1851,
      "isco": 1852,
      "asser": 1853,
      "enter": 1854,
      "white": 1855,
      "ried": 1856,
      "ched": 1857,
      "iron": 1858,
      "forth": 1859,
      "del": 1860,
      "conside": 1861,
      "contrary": 1862,
      "compl": 1863,
      "feature": 1864,
      "bold": 1865,
      "evening": 1866,
      "fright": 1867,
      "points": 1868,
      "opport": 1869,
      "princi": 1870,
      "interior": 1871,
      "firm": 1872,
      "saying": 1873,
      "import": 1874,
      "discus": 1875,
      "States": 1876,
      "pped": 1877,
      "attent": 1878,
      "struct": 1879,
      "objects": 1880,
      "burst": 1881,
      "satisfact": 1882,
      "consequence": 1883,
      "syste": 1884,
      "worthy": 1885,
      "omsbury": 1886,
      "phenomenon": 1887,
      "exceedingly": 1888,
      "circumst": 1889,
      "Bloomsbury": 1890,
      "excitement": 1891,
      "emplo": 1892,
      "Certainly": 1893,
      "considered": 1894,
      "30": 1895,
      "Re": 1896,
      "ST": 1897,
      "cast": 1898,
      "knew": 1899,
      "nam": 1900,
      "yards": 1901,
      "throw": 1902,
      "theory": 1903,
      "init": 1904,
      "ences": 1905,
      "ster": 1906,
      "arter": 1907,
      "iting": 1908,
      "ask": 1909,
      "happ": 1910,
      "vest": 1911,
      "chi": 1912,
      "change": 1913,
      "deter": 1914,
      "absor": 1915,
      "extra": 1916,
      "meet": 1917,
      "comb": 1918,
      "coming": 1919,
      "coll": 1920,
      "proble": 1921,
      "provided": 1922,
      "peak": 1923,
      "akes": 1924,
      "essor": 1925,
      "surround": 1926,
      "trans": 1927,
      "flat": 1928,
      "steam": 1929,
      "izing": 1930,
      "lower": 1931,
      "general": 1932,
      "capable": 1933,
      "followed": 1934,
      "floating": 1935,
      "scientists": 1936,
      "latitude": 1937,
      "wrong": 1938,
      "possibly": 1939,
      "particular": 1940,
      "details": 1941,
      "effort": 1942,
      "external": 1943,
      "eclip": 1944,
      "conscious": 1945,
      "umbiad": 1946,
      "knowledge": 1947,
      "length": 1948,
      ";\"": 1949,
      "Did": 1950,
      "Pe": 1951,
      "Pr": 1952,
      "SE": 1953,
      "Sci": 1954,
      "bar": 1955,
      "blo": 1956,
      "cou": 1957,
      "ks": 1958,
      "nic": 1959,
      "ood": 1960,
      "ograph": 1961,
      "rs": 1962,
      "rise": 1963,
      "smo": 1964,
      "yond": 1965,
      "instead": 1966,
      "ony": 1967,
      "enjo": 1968,
      "orious": 1969,
      "itions": 1970,
      "lled": 1971,
      "ication": 1972,
      "beyond": 1973,
      "lies": 1974,
      "pole": 1975,
      "prevent": 1976,
      "proved": 1977,
      "itted": 1978,
      "glare": 1979,
      "glance": 1980,
      "When": 1981,
      "Its": 1982,
      "render": 1983,
      "bled": 1984,
      "pointed": 1985,
      "Here": 1986,
      "cular": 1987,
      "northern": 1988,
      "excited": 1989,
      "questions": 1990,
      "occur": 1991,
      "Still": 1992,
      "highly": 1993,
      "shot": 1994,
      "southern": 1995,
      "showed": 1996,
      "midnight": 1997,
      "inhabitants": 1998,
      "talk": 1999,
      "ING": 2000,
      "United": 2001,
      "agreement": 2002,
      "produced": 2003,
      "surprise": 2004,
      "comparison": 2005,
      "magnific": 2006,
      "altitude": 2007,
      "possess": 2008,
      "intellig": 2009,
      "rockets": 2010,
      "Columbiad": 2011,
      "ramparts": 2012,
      "glimpse": 2013,
      "initial": 2014,
      "13": 2015,
      "After": 2016,
      "Can": 2017,
      "Cam": 2018,
      "Hill": 2019,
      "LE": 2020,
      "Long": 2021,
      "Mountain": 2022,
      "One": 2023,
      "Ocean": 2024,
      "Sup": 2025,
      "UN": 2026,
      "Where": 2027,
      "a_": 2028,
      "bro": 2029,
      "dro": 2030,
      "ele": 2031,
      "fre": 2032,
      "ilo": 2033,
      "loud": 2034,
      "ming": 2035,
      "pull": 2036,
      "ror": 2037,
      "sl": 2038,
      "sof": 2039,
      "trem": 2040,
      "ual": 2041,
      "ume": 2042,
      "vain": 2043,
      "ycho": 2044,
      "ince": 2045,
      "rel": 2046,
      "outh": 2047,
      "ouse": 2048,
      "llar": 2049,
      "asm": 2050,
      "omet": 2051,
      "along": 2052,
      "vely": 2053,
      "ross": 2054,
      "utter": 2055,
      "rage": 2056,
      "chan": 2057,
      "unless": 2058,
      "supp": 2059,
      "death": 2060,
      "appar": 2061,
      "usion": 2062,
      "mere": 2063,
      "Arch": 2064,
      "test": 2065,
      "tele": 2066,
      "disappeared": 2067,
      "laid": 2068,
      "report": 2069,
      "partic": 2070,
      "turning": 2071,
      "cident": 2072,
      "careful": 2073,
      "starting": 2074,
      "year": 2075,
      "standing": 2076,
      "copes": 2077,
      "ashing": 2078,
      "latter": 2079,
      "allowed": 2080,
      "third": 2081,
      "thirty": 2082,
      "telescopes": 2083,
      "buo": 2084,
      "heaven": 2085,
      "discover": 2086,
      "profound": 2087,
      "dimin": 2088,
      "ceeded": 2089,
      "influence": 2090,
      "precisely": 2091,
      "opportunity": 2092,
      "attention": 2093,
      "Cambridge": 2094,
      "40": 2095,
      "Book": 2096,
      "Naut": 2097,
      "Po": 2098,
      "TO": 2099,
      "Who": 2100,
      "_L": 2101,
      "_v": 2102,
      "fate": 2103,
      "gged": 2104,
      "lof": 2105,
      "pure": 2106,
      "pounds": 2107,
      "send": 2108,
      "ww": 2109,
      "thor": 2110,
      "resem": 2111,
      "ative": 2112,
      "leep": 2113,
      "alone": 2114,
      "alive": 2115,
      "veget": 2116,
      "ime": 2117,
      "alley": 2118,
      "suc": 2119,
      "forget": 2120,
      "develo": 2121,
      "moved": 2122,
      "contem": 2123,
      "exper": 2124,
      "ounced": 2125,
      "notic": 2126,
      "adm": 2127,
      "adventure": 2128,
      "ury": 2129,
      "comes": 2130,
      "access": 2131,
      "accompl": 2132,
      "proper": 2133,
      "board": 2134,
      "gest": 2135,
      "ams": 2136,
      "likely": 2137,
      "seems": 2138,
      "glorious": 2139,
      "ption": 2140,
      "former": 2141,
      "prise": 2142,
      "grou": 2143,
      "calm": 2144,
      "steep": 2145,
      "refle": 2146,
      "due": 2147,
      "calculation": 2148,
      "volume": 2149,
      "giving": 2150,
      "pleasure": 2151,
      "See": 2152,
      "puz": 2153,
      "inhabitable": 2154,
      "ancisco": 2155,
      "laws": 2156,
      "Engl": 2157,
      "projectile": 2158,
      "organ": 2159,
      "above": 2160,
      "walls": 2161,
      "volcano": 2162,
      "fortunately": 2163,
      "fifty": 2164,
      "Rock": 2165,
      "straight": 2166,
      "detect": 2167,
      "drawn": 2168,
      "pressure": 2169,
      "Francisco": 2170,
      "_Tycho": 2171,
      "whether": 2172,
      "meteor": 2173,
      "gigantic": 2174,
      "circumstances": 2175,
      "magnificent": 2176,
      "apparatus": 2177,
      "Nautil": 2178,
      "adventurers": 2179,
      "17": 2180,
      "AS": 2181,
      "AT": 2182,
      "Al": 2183,
      "CO": 2184,
      "Ex": 2185,
      "Full": 2186,
      "FOR": 2187,
      "Ju": 2188,
      "La": 2189,
      "Mid": 2190,
      "Was": 2191,
      "crow": 2192,
      "dom": 2193,
      "een": 2194,
      "fig": 2195,
      "hil": 2196,
      "ium_": 2197,
      "ls": 2198,
      "later": 2199,
      "mort": 2200,
      "pap": 2201,
      "smile": 2202,
      "sink": 2203,
      "tre": 2204,
      "table": 2205,
      "vac": 2206,
      "wit": 2207,
      "winter": 2208,
      "zen": 2209,
      "ert": 2210,
      "ator": 2211,
      "atory": 2212,
      "atively": 2213,
      "arch": 2214,
      "arms": 2215,
      "ofessor": 2216,
      "orb": 2217,
      "forces": 2218,
      "ours": 2219,
      "convers": 2220,
      "explain": 2221,
      "quarter": 2222,
      "ulf": 2223,
      "fear": 2224,
      "preci": 2225,
      "ends": 2226,
      "endous": 2227,
      "aged": 2228,
      "ilroad": 2229,
      "boy": 2230,
      "amed": 2231,
      "herself": 2232,
      "lights": 2233,
      "else": 2234,
      "phy": 2235,
      "reader": 2236,
      "offic": 2237,
      "iously": 2238,
      "void": 2239,
      "calculate": 2240,
      "calculations": 2241,
      "reaching": 2242,
      "heads": 2243,
      "mission": 2244,
      "higher": 2245,
      "powder": 2246,
      "ches": 2247,
      "trium": 2248,
      "ibly": 2249,
      "rapid": 2250,
      "brain": 2251,
      "finite": 2252,
      "depth": 2253,
      "instantly": 2254,
      "midst": 2255,
      "carried": 2256,
      "shadows": 2257,
      "talking": 2258,
      "degree": 2259,
      "stood": 2260,
      "suppose": 2261,
      "appearance": 2262,
      "cracks": 2263,
      "smaller": 2264,
      "surprised": 2265,
      "remarkable": 2266,
      "breakfast": 2267,
      "violent": 2268,
      "laughed": 2269,
      "commun": 2270,
      "occasionally": 2271,
      "required": 2272,
      "counteract": 2273,
      "gentlemen": 2274,
      "pitch": 2275,
      "believe": 2276,
      "prepared": 2277,
      "enterprise": 2278,
      "important": 2279,
      "satisfactory": 2280,
      "problem": 2281,
      "Professor": 2282,
      "Science": 2283,
      "tremendous": 2284,
      "experiment": 2285,
      "reflection": 2286,
      "English": 2287,
      "Nautilus": 2288,
      "conversation": 2289,
      "),": 2290,
      ".,": 2291,
      "Bl": 2292,
      "Brown": 2293,
      "Dian": 2294,
      "Great": 2295,
      "LL": 2296,
      "Mon": 2297,
      "Qu": 2298,
      "RO": 2299,
      "_H": 2300,
      "bly": 2301,
      "bow": 2302,
      "base": 2303,
      "d_": 2304,
      "fle": 2305,
      "fut": 2306,
      "fra": 2307,
      "fun": 2308,
      "furn": 2309,
      "iv": 2310,
      "jum": 2311,
      "lumin": 2312,
      "mach": 2313,
      "mist": 2314,
      "nine": 2315,
      "oon": 2316,
      "pay": 2317,
      "pract": 2318,
      "sim": 2319,
      "size": 2320,
      "since": 2321,
      "uced": 2322,
      "vap": 2323,
      "thod": 2324,
      "inct": 2325,
      "anci": 2326,
      "enses": 2327,
      "sts": 2328,
      "itable": 2329,
      "icense": 2330,
      "bear": 2331,
      "ali": 2332,
      "rim": 2333,
      "chronom": 2334,
      "chief": 2335,
      "modif": 2336,
      "lose": 2337,
      "astic": 2338,
      "ural": 2339,
      "method": 2340,
      "tee": 2341,
      "spir": 2342,
      "agra": 2343,
      "sail": 2344,
      "iful": 2345,
      "ilst": 2346,
      "antly": 2347,
      "among": 2348,
      "obli": 2349,
      "serv": 2350,
      "lava": 2351,
      "caught": 2352,
      "distur": 2353,
      "vessel": 2354,
      "myster": 2355,
      "internal": 2356,
      "crust": 2357,
      "solid": 2358,
      "izon": 2359,
      "closed": 2360,
      "Because": 2361,
      "anged": 2362,
      "resist": 2363,
      "speaking": 2364,
      "excell": 2365,
      "western": 2366,
      "finally": 2367,
      "electric": 2368,
      "expression": 2369,
      "gloom": 2370,
      "describe": 2371,
      "splendid": 2372,
      "horizon": 2373,
      "listen": 2374,
      "particularly": 2375,
      "hyper": 2376,
      "quickly": 2377,
      "attractions": 2378,
      "revealed": 2379,
      "However": 2380,
      "arrange": 2381,
      "positively": 2382,
      "extremely": 2383,
      "cluded": 2384,
      "learned": 2385,
      "generally": 2386,
      "situation": 2387,
      "system": 2388,
      "names": 2389,
      "vestig": 2390,
      "extraordinary": 2391,
      "Suppose": 2392,
      "vacu": 2393,
      "Brownson": 2394,
      "Diana": 2395,
      "FI": 2396,
      "From": 2397,
      "GH": 2398,
      "Hum": 2399,
      "Have": 2400,
      "Jo": 2401,
      "Look": 2402,
      "Liter": 2403,
      "My": 2404,
      "Ob": 2405,
      "Such": 2406,
      "ather": 2407,
      "bers": 2408,
      "ether": 2409,
      "eBook": 2410,
      "fric": 2411,
      "faces": 2412,
      "gg": 2413,
      "gro": 2414,
      "gone": 2415,
      "grow": 2416,
      "ired": 2417,
      "lu": 2418,
      "lor": 2419,
      "mass": 2420,
      "pes": 2421,
      "pal": 2422,
      "sis": 2423,
      "tt": 2424,
      "ura": 2425,
      "valley": 2426,
      "wide": 2427,
      "zero": 2428,
      "ining": 2429,
      "investig": 2430,
      "envelo": 2431,
      "edler": 2432,
      "lly": 2433,
      "top": 2434,
      "leave": 2435,
      "ices": 2436,
      "held": 2437,
      "separ": 2438,
      "hair": 2439,
      "noon": 2440,
      "whir": 2441,
      "unexpected": 2442,
      "lif": 2443,
      "forty": 2444,
      "forgot": 2445,
      "depress": 2446,
      "concl": 2447,
      "die": 2448,
      "diver": 2449,
      "soci": 2450,
      "measure": 2451,
      "ularly": 2452,
      "comfort": 2453,
      "acle": 2454,
      "accept": 2455,
      "fail": 2456,
      "ager": 2457,
      "foot": 2458,
      "themat": 2459,
      "ify": 2460,
      "ified": 2461,
      "boat": 2462,
      "book": 2463,
      "worse": 2464,
      "hood": 2465,
      "tran": 2466,
      "posing": 2467,
      "cry": 2468,
      "cloud": 2469,
      "condition": 2470,
      "fallen": 2471,
      "continents": 2472,
      "paragra": 2473,
      "ensions": 2474,
      "breath": 2475,
      "thinking": 2476,
      "trip": 2477,
      "reasons": 2478,
      "considerably": 2479,
      "circular": 2480,
      "Selenite": 2481,
      "astronomer": 2482,
      "silent": 2483,
      "AND": 2484,
      "maps": 2485,
      "radiating": 2486,
      "remember": 2487,
      "eastern": 2488,
      "recogn": 2489,
      "splendor": 2490,
      "gazing": 2491,
      "comparatively": 2492,
      "opernic": 2493,
      "possibility": 2494,
      "ushed": 2495,
      "balloon": 2496,
      "shipman": 2497,
      "color": 2498,
      "volcanic": 2499,
      "business": 2500,
      "arrived": 2501,
      "natural": 2502,
      "vari": 2503,
      "millions": 2504,
      "copyright": 2505,
      "piece": 2506,
      "enthusiasm": 2507,
      "convinced": 2508,
      "retard": 2509,
      "vertical": 2510,
      "sweet": 2511,
      "uniform": 2512,
      "advantage": 2513,
      "determin": 2514,
      "eclipse": 2515,
      "Peak": 2516,
      "Mountains": 2517,
      "iloso": 2518,
      "supply": 2519,
      "Archive": 2520,
      "lofty": 2521,
      "group": 2522,
      "mortal": 2523,
      "witness": 2524,
      "luminous": 2525,
      "mysterious": 2526,
      "excellent": 2527,
      "vacuum": 2528,
      "Literary": 2529,
      "paragraph": 2530,
      "Cor": 2531,
      "Come": 2532,
      "Good": 2533,
      "Gulf": 2534,
      "LD": 2535,
      "Lie": 2536,
      "Some": 2537,
      "Tow": 2538,
      "Yor": 2539,
      "Your": 2540,
      "_V": 2541,
      "bted": 2542,
      "cro": 2543,
      "cil": 2544,
      "e_": 2545,
      "flying": 2546,
      "gain": 2547,
      "hind": 2548,
      "house": 2549,
      "lines": 2550,
      "mast": 2551,
      "opt": 2552,
      "sca": 2553,
      "scent": 2554,
      "tou": 2555,
      "vide": 2556,
      "wise": 2557,
      "thro": 2558,
      "revol": 2559,
      "ane": 2560,
      "oubted": 2561,
      "itation": 2562,
      "level": 2563,
      "ico": 2564,
      "hest": 2565,
      "search": 2566,
      "beaut": 2567,
      "behind": 2568,
      "es_": 2569,
      "room": 2570,
      "whis": 2571,
      "race": 2572,
      "impress": 2573,
      "impossible": 2574,
      "ching": 2575,
      "ird": 2576,
      "living": 2577,
      "abl": 2578,
      "cone": 2579,
      "const": 2580,
      "contained": 2581,
      "explan": 2582,
      "note": 2583,
      "notice": 2584,
      "sole": 2585,
      "nest": 2586,
      "thermom": 2587,
      "meant": 2588,
      "comet": 2589,
      "across": 2590,
      "spite": 2591,
      "spark": 2592,
      "preca": 2593,
      "perp": 2594,
      "sav": 2595,
      "coast": 2596,
      "covered": 2597,
      "ils": 2598,
      "plic": 2599,
      "grew": 2600,
      "amp": 2601,
      "display": 2602,
      "laim": 2603,
      "seem": 2604,
      "manner": 2605,
      "ineer": 2606,
      "longitude": 2607,
      "Though": 2608,
      "forming": 2609,
      "formul": 2610,
      "prison": 2611,
      "despair": 2612,
      "useless": 2613,
      "beings": 2614,
      "grat": 2615,
      "vision": 2616,
      "shell": 2617,
      "utenant": 2618,
      "undoubted": 2619,
      "donations": 2620,
      "Beer": 2621,
      "Stony": 2622,
      "speak": 2623,
      "specul": 2624,
      "explo": 2625,
      "mighty": 2626,
      "pleas": 2627,
      "double": 2628,
      "cheer": 2629,
      "struction": 2630,
      "brave": 2631,
      "consideration": 2632,
      "bott": 2633,
      "_Copernic": 2634,
      "resumed": 2635,
      "crack": 2636,
      "received": 2637,
      "chains": 2638,
      "remained": 2639,
      "distinguish": 2640,
      "distinguished": 2641,
      "TION": 2642,
      "argument": 2643,
      "watching": 2644,
      "Maedler": 2645,
      "million": 2646,
      "logical": 2647,
      "blazing": 2648,
      "imagine": 2649,
      "illuminated": 2650,
      "instrument": 2651,
      "apparently": 2652,
      "original": 2653,
      "relief": 2654,
      "child": 2655,
      "courage": 2656,
      "telegraph": 2657,
      "_v_": 2658,
      "Midshipman": 2659,
      "triumph": 2660,
      "vapor": 2661,
      "chronometer": 2662,
      "friction": 2663,
      "Lieutenant": 2664,
      "Towards": 2665,
      "York": 2666,
      "thermometer": 2667,
      "25": 2668,
      "Co": 2669,
      "HI": 2670,
      "MO": 2671,
      "Mur": 2672,
      "Or": 2673,
      "Par": 2674,
      "Te": 2675,
      "VER": 2676,
      "_New": 2677,
      "dr": 2678,
      "ded": 2679,
      "ding": 2680,
      "early": 2681,
      "fat": 2682,
      "hon": 2683,
      "hig": 2684,
      "lting": 2685,
      "mine": 2686,
      "makes": 2687,
      "mbers": 2688,
      "og": 2689,
      "oting": 2690,
      "pho": 2691,
      "rit": 2692,
      "rub": 2693,
      "sand": 2694,
      "sig": 2695,
      "sist": 2696,
      "tions": 2697,
      "twel": 2698,
      "van": 2699,
      "wid": 2700,
      "youn": 2701,
      "incl": 2702,
      "incident": 2703,
      "infinite": 2704,
      "resp": 2705,
      "record": 2706,
      "anx": 2707,
      "ons": 2708,
      "ency": 2709,
      "stor": 2710,
      "arrow": 2711,
      "orter": 2712,
      "orable": 2713,
      "itatis": 2714,
      "ision": 2715,
      "asc": 2716,
      "lead": 2717,
      "icated": 2718,
      "ictly": 2719,
      "uttered": 2720,
      "imes": 2721,
      "ung": 2722,
      "dered": 2723,
      "depart": 2724,
      "abled": 2725,
      "concent": 2726,
      "experi": 2727,
      "losing": 2728,
      "taining": 2729,
      "neigh": 2730,
      "admi": 2731,
      "compreh": 2732,
      "dance": 2733,
      "fee": 2734,
      "acknowledge": 2735,
      "faction": 2736,
      "reduced": 2737,
      "endicul": 2738,
      "---": 2739,
      "prot": 2740,
      "proportion": 2741,
      "train": 2742,
      "trace": 2743,
      "cannon": 2744,
      "ament": 2745,
      "hole": 2746,
      "somewhere": 2747,
      "establ": 2748,
      "strictly": 2749,
      "philoso": 2750,
      "tru": 2751,
      "party": 2752,
      "knows": 2753,
      "central": 2754,
      "visit": 2755,
      "visions": 2756,
      "appears": 2757,
      "afterwards": 2758,
      "THEY": 2759,
      "angu": 2760,
      "brea": 2761,
      "clearly": 2762,
      "shores": 2763,
      "rings": 2764,
      "fined": 2765,
      "considerable": 2766,
      "joy": 2767,
      "spoke": 2768,
      "ancy": 2769,
      "windows": 2770,
      "brium_": 2771,
      "receive": 2772,
      "discovery": 2773,
      "satisfaction": 2774,
      "hearts": 2775,
      "interesting": 2776,
      "gaze": 2777,
      "effects": 2778,
      "possessed": 2779,
      "arguments": 2780,
      "various": 2781,
      "concer": 2782,
      "escape": 2783,
      "purpose": 2784,
      "screw": 2785,
      "Chief": 2786,
      "safely": 2787,
      "numerous": 2788,
      "Imbrium_": 2789,
      "faint": 2790,
      "osity": 2791,
      "buoy": 2792,
      "vegetation": 2793,
      "contempl": 2794,
      "accomplished": 2795,
      "puzzling": 2796,
      "Rocky": 2797,
      "_Tycho_": 2798,
      "Jules": 2799,
      "future": 2800,
      "practical": 2801,
      "arrangement": 2802,
      "witnessed": 2803,
      "perpendicul": 2804,
      "_Copernicus_": 2805,
      "Murphy": 2806,
      "signal": 2807,
      "twelve": 2808,
      "itatis_": 2809,
      "neighbor": 2810,
      "//": 2811,
      "35": 2812,
      "://": 2813,
      "BI": 2814,
      "Could": 2815,
      "EM": 2816,
      "Li": 2817,
      "License": 2818,
      "Mac": 2819,
      "NE": 2820,
      "Per": 2821,
      "Rep": 2822,
      "Sch": 2823,
      "VI": 2824,
      "XI": 2825,
      "af": 2826,
      "bs": 2827,
      "cus": 2828,
      "dle": 2829,
      "dam": 2830,
      "filled": 2831,
      "gineer": 2832,
      "hill": 2833,
      "htt": 2834,
      "iver": 2835,
      "jud": 2836,
      "killed": 2837,
      "lit": 2838,
      "por": 2839,
      "pain": 2840,
      "snow": 2841,
      "somet": 2842,
      "sleep": 2843,
      "tint": 2844,
      "ufact": 2845,
      "vy": 2846,
      "vig": 2847,
      "warm": 2848,
      "x_": 2849,
      "yaw": 2850,
      "zy": 2851,
      "thou": 2852,
      "thrown": 2853,
      "inj": 2854,
      "incess": 2855,
      "repe": 2856,
      "ener": 2857,
      "enabled": 2858,
      "llars": 2859,
      "issu": 2860,
      "asp": 2861,
      "lea": 2862,
      "hall": 2863,
      "noise": 2864,
      "alter": 2865,
      "weigh": 2866,
      "verse": 2867,
      "roared": 2868,
      "rocks": 2869,
      "utions": 2870,
      "unknown": 2871,
      "sug": 2872,
      "delight": 2873,
      "devo": 2874,
      "demark": 2875,
      "construct": 2876,
      "exting": 2877,
      "loss": 2878,
      "arest": 2879,
      "admit": 2880,
      "fair": 2881,
      "prefer": 2882,
      "person": 2883,
      "ifying": 2884,
      "usted": 2885,
      "plac": 2886,
      "proof": 2887,
      "prove": 2888,
      "provide": 2889,
      "pered": 2890,
      "trademark": 2891,
      "bolt": 2892,
      "gebra": 2893,
      "worst": 2894,
      "hero": 2895,
      "served": 2896,
      "compared": 2897,
      "dog": 2898,
      "dollars": 2899,
      "gled": 2900,
      "rent": 2901,
      "manufact": 2902,
      "ignor": 2903,
      "oppos": 2904,
      "yours": 2905,
      "working": 2906,
      "ground": 2907,
      "nights": 2908,
      "cret": 2909,
      "crescent": 2910,
      "science": 2911,
      "spec": 2912,
      "speed": 2913,
      "gives": 2914,
      "fied": 2915,
      "attach": 2916,
      "curves": 2917,
      "curious": 2918,
      "probability": 2919,
      "shows": 2920,
      "evident": 2921,
      "mittee": 2922,
      "carry": 2923,
      "medium": 2924,
      "addition": 2925,
      "month": 2926,
      "rising": 2927,
      "immediate": 2928,
      "discovered": 2929,
      "recover": 2930,
      "described": 2931,
      "humanity": 2932,
      "Engineer": 2933,
      "successful": 2934,
      "gazed": 2935,
      "pencil": 2936,
      "rugged": 2937,
      "III": 2938,
      "hypo": 2939,
      "feeling": 2940,
      "priv": 2941,
      "prime": 2942,
      "phenomena": 2943,
      "anks": 2944,
      "examined": 2945,
      "quicker": 2946,
      "colors": 2947,
      "fortunate": 2948,
      "fifteen": 2949,
      "starry": 2950,
      "maintained": 2951,
      "paid": 2952,
      "require": 2953,
      "strike": 2954,
      "striking": 2955,
      "escaped": 2956,
      "***": 2957,
      "earnest": 2958,
      "cluding": 2959,
      "instruments": 2960,
      "hastily": 2961,
      "blinding": 2962,
      "labors": 2963,
      "features": 2964,
      "discussion": 2965,
      "employed": 2966,
      "absorbed": 2967,
      "efforts": 2968,
      "broken": 2969,
      "succeeded": 2970,
      "crowd": 2971,
      "pitchy": 2972,
      "disturbed": 2973,
      "urally": 2974,
      "Correct": 2975,
      "scale": 2976,
      "explanation": 2977,
      "formula": 2978,
      "MOON": 2979,
      "highest": 2980,
      "width": 2981,
      "perpendicular": 2982,
      "neighborhood": 2983,
      "https": 2984,
      "sometimes": 2985,
      "extingu": 2986,
      "opposite": 2987,
      "11": 2988,
      "400": 2989,
      "Ano": 2990,
      "Acc": 2991,
      "Bo": 2992,
      "CT": 2993,
      "Cali": 2994,
      "Fri": 2995,
      "Jup": 2996,
      "LU": 2997,
      "Lo": 2998,
      "Nub": 2999,
      "QU": 3000,
      "SA": 3001,
      "She": 3002,
      "South": 3003,
      "Would": 3004,
      "Washing": 3005,
      "aid": 3006,
      "adel": 3007,
      "border": 3008,
      "din": 3009,
      "ek": 3010,
      "ell": 3011,
      "emin": 3012,
      "fac": 3013,
      "field": 3014,
      "gle": 3015,
      "gla": 3016,
      "iest": 3017,
      "ky": 3018,
      "lph": 3019,
      "masses": 3020,
      "none": 3021,
      "nice": 3022,
      "pan": 3023,
      "pet": 3024,
      "pment": 3025,
      "rang": 3026,
      "rush": 3027,
      "sought": 3028,
      "senses": 3029,
      "ug": 3030,
      "war": 3031,
      "wand": 3032,
      "waters": 3033,
      "ze": 3034,
      "zing": 3035,
      "inch": 3036,
      "inex": 3037,
      "inside": 3038,
      "invent": 3039,
      "information": 3040,
      "including": 3041,
      "rene": 3042,
      "onic": 3043,
      "enable": 3044,
      "stain": 3045,
      "stud": 3046,
      "ingen": 3047,
      "told": 3048,
      "asing": 3049,
      "ascertain": 3050,
      "associ": 3051,
      "ica": 3052,
      "bewild": 3053,
      "becoming": 3054,
      "becomes": 3055,
      "alarm": 3056,
      "cele": 3057,
      "weak": 3058,
      "roll": 3059,
      "utmost": 3060,
      "rif": 3061,
      "rill": 3062,
      "riosity": 3063,
      "image": 3064,
      "unanim": 3065,
      "super": 3066,
      "superi": 3067,
      "lips": 3068,
      "forn": 3069,
      "deck": 3070,
      "owing": 3071,
      "absur": 3072,
      "concluded": 3073,
      "excl": 3074,
      "lot": 3075,
      "post": 3076,
      "notes": 3077,
      "ussion": 3078,
      "iles": 3079,
      "aston": 3080,
      "nearest": 3081,
      "mel": 3082,
      "meas": 3083,
      "quant": 3084,
      "quill": 3085,
      "commen": 3086,
      "complain": 3087,
      "common": 3088,
      "fell": 3089,
      "fered": 3090,
      "shout": 3091,
      "shif": 3092,
      "spread": 3093,
      "prev": 3094,
      "prepar": 3095,
      "permission": 3096,
      "focus": 3097,
      "ers_": 3098,
      "cot": 3099,
      "oney": 3100,
      "ustrious": 3101,
      "plun": 3102,
      "places": 3103,
      "peci": 3104,
      "ounding": 3105,
      "worked": 3106,
      "intended": 3107,
      "glory": 3108,
      "estim": 3109,
      "Which": 3110,
      "cious": 3111,
      "observer": 3112,
      "Indi": 3113,
      "phr": 3114,
      "phys": 3115,
      "bling": 3116,
      "yourself": 3117,
      "interposed": 3118,
      "descent": 3119,
      "desire": 3120,
      "undertaken": 3121,
      "contact": 3122,
      "regularly": 3123,
      "moments": 3124,
      "flashed": 3125,
      "willing": 3126,
      "tenance": 3127,
      "sooner": 3128,
      "bring": 3129,
      "vivid": 3130,
      "startling": 3131,
      "continually": 3132,
      "uded": 3133,
      "didn": 3134,
      "Secret": 3135,
      "attended": 3136,
      "furrow": 3137,
      "curiosity": 3138,
      "orders": 3139,
      "empt": 3140,
      "spots": 3141,
      "inhabited": 3142,
      "summ": 3143,
      "planets": 3144,
      "blackness": 3145,
      "radiation": 3146,
      "Dear": 3147,
      "approached": 3148,
      "stock": 3149,
      "Only": 3150,
      "ORE": 3151,
      "author": 3152,
      "recei": 3153,
      "arpath": 3154,
      "interested": 3155,
      "consequently": 3156,
      "aware": 3157,
      "dimensions": 3158,
      "operation": 3159,
      "violence": 3160,
      "America": 3161,
      "guess": 3162,
      "busy": 3163,
      "distributing": 3164,
      "reflecting": 3165,
      "occupied": 3166,
      "intellect": 3167,
      "concussion": 3168,
      "pursu": 3169,
      "burned": 3170,
      "pieces": 3171,
      "running": 3172,
      "blazed": 3173,
      "eroid": 3174,
      "convince": 3175,
      "illumination": 3176,
      "contrad": 3177,
      "plateau": 3178,
      "landscap": 3179,
      "apparent": 3180,
      "Comp": 3181,
      "axis": 3182,
      "labor": 3183,
      "increasing": 3184,
      "assertion": 3185,
      "frightful": 3186,
      "principle": 3187,
      "happy": 3188,
      "meeting": 3189,
      "surrounded": 3190,
      "ographic": 3191,
      "heavenly": 3192,
      "noticed": 3193,
      "fearful": 3194,
      "communication": 3195,
      "Mont": 3196,
      "servatory": 3197,
      "hyperbo": 3198,
      "Observatory": 3199,
      "comfortable": 3200,
      "determined": 3201,
      "crossed": 3202,
      "master": 3203,
      "beautiful": 3204,
      "explosion": 3205,
      "Paris": 3206,
      "young": 3207,
      "storm": 3208,
      "departure": 3209,
      "bolts": 3210,
      "Another": 3211,
      "Californ": 3212,
      "Jupiter": 3213,
      "Nubium_": 3214,
      "Washington": 3215,
      "superior": 3216,
      "absurd": 3217,
      "Secretary": 3218,
      "45": 3219,
      "Ah": 3220,
      "Bet": 3221,
      "BLE": 3222,
      "CON": 3223,
      "DA": 3224,
      "Fah": 3225,
      "Flor": 3226,
      "Gen": 3227,
      "IT": 3228,
      "Lon": 3229,
      "LLI": 3230,
      "Mount": 3231,
      "NO": 3232,
      "Old": 3233,
      "PO": 3234,
      "Pl": 3235,
      "Phil": 3236,
      "Ra": 3237,
      "Right": 3238,
      "TR": 3239,
      "_x_": 3240,
      "ahead": 3241,
      "bal": 3242,
      "bits": 3243,
      "carb": 3244,
      "dut": 3245,
      "dust": 3246,
      "eat": 3247,
      "ecc": 3248,
      "eager": 3249,
      "fit": 3250,
      "fic": 3251,
      "fro": 3252,
      "ges": 3253,
      "gently": 3254,
      "hur": 3255,
      "harb": 3256,
      "i_": 3257,
      "ium": 3258,
      "kes": 3259,
      "kins": 3260,
      "lad": 3261,
      "lately": 3262,
      "mus": 3263,
      "mouth": 3264,
      "nin": 3265,
      "oth": 3266,
      "pict": 3267,
      "ude": 3268,
      "ublic": 3269,
      "wast": 3270,
      "wish": 3271,
      "yield": 3272,
      "thy": 3273,
      "thin": 3274,
      "thesis": 3275,
      "inc": 3276,
      "indi": 3277,
      "infer": 3278,
      "rew": 3279,
      "regre": 3280,
      "repose": 3281,
      "relat": 3282,
      "anced": 3283,
      "ancho": 3284,
      "on_": 3285,
      "ones": 3286,
      "er_": 3287,
      "erup": 3288,
      "ats": 3289,
      "aturn": 3290,
      "edge": 3291,
      "stout": 3292,
      "stren": 3293,
      "story": 3294,
      "arked": 3295,
      "tot": 3296,
      "tograph": 3297,
      "asy": 3298,
      "asms": 3299,
      "leg": 3300,
      "icy": 3301,
      "seld": 3302,
      "bearing": 3303,
      "behold": 3304,
      "especi": 3305,
      "ctor": 3306,
      "alog": 3307,
      "entric": 3308,
      "ida": 3309,
      "ident": 3310,
      "cellar": 3311,
      "vern": 3312,
      "rop": 3313,
      "rot": 3314,
      "rose": 3315,
      "whilst": 3316,
      "rier": 3317,
      "racy": 3318,
      "chasms": 3319,
      "unte": 3320,
      "uninhabitable": 3321,
      "unfortunately": 3322,
      "alling": 3323,
      "alluded": 3324,
      "irous": 3325,
      "susp": 3326,
      "sustain": 3327,
      "lius": 3328,
      "liqu": 3329,
      "dec": 3330,
      "dem": 3331,
      "defect": 3332,
      "abun": 3333,
      "abol": 3334,
      "mole": 3335,
      "etc": 3336,
      "pot": 3337,
      "posted": 3338,
      "ouncing": 3339,
      "using": 3340,
      "asteroid": 3341,
      "meal": 3342,
      "comets": 3343,
      "outline": 3344,
      "shr": 3345,
      "accu": 3346,
      "spent": 3347,
      "preva": 3348,
      "endless": 3349,
      "perce": 3350,
      "umber": 3351,
      "sake": 3352,
      "-----": 3353,
      "anted": 3354,
      "plenty": 3355,
      "track": 3356,
      "traces": 3357,
      "upwards": 3358,
      "gress": 3359,
      "otherwise": 3360,
      "company": 3361,
      "ols": 3362,
      "observers": 3363,
      "phia": 3364,
      "blast": 3365,
      "mathemat": 3366,
      "opened": 3367,
      "twice": 3368,
      "reading": 3369,
      "rested": 3370,
      "pron": 3371,
      "desirous": 3372,
      "remarked": 3373,
      "lasted": 3374,
      "countenance": 3375,
      "bran": 3376,
      "ization": 3377,
      "creature": 3378,
      "extent": 3379,
      "parabol": 3380,
      "refund": 3381,
      "itudes": 3382,
      "Before": 3383,
      "portions": 3384,
      "continue": 3385,
      "minute": 3386,
      "shooting": 3387,
      "attle": 3388,
      "charged": 3389,
      "rupt": 3390,
      "stret": 3391,
      "insist": 3392,
      "follows": 3393,
      "copies": 3394,
      "letter": 3395,
      "ibility": 3396,
      "showing": 3397,
      "hundreds": 3398,
      "meaning": 3399,
      "burg": 3400,
      "tons": 3401,
      "wonderfully": 3402,
      "humor": 3403,
      "_Carpath": 3404,
      "ARD": 3405,
      "keeping": 3406,
      "engaged": 3407,
      "writing": 3408,
      "finding": 3409,
      "erald_": 3410,
      "usually": 3411,
      "occasions": 3412,
      "horror": 3413,
      "sym": 3414,
      "scene": 3415,
      "wildly": 3416,
      "violently": 3417,
      "announced": 3418,
      "arrival": 3419,
      "cooling": 3420,
      "distribution": 3421,
      "maintain": 3422,
      "pale": 3423,
      "sorry": 3424,
      "marine": 3425,
      "positive": 3426,
      "burning": 3427,
      "ians_": 3428,
      "presence": 3429,
      "reminded": 3430,
      "prompt": 3431,
      "assumed": 3432,
      "fellows": 3433,
      "prepare": 3434,
      "animals": 3435,
      "Having": 3436,
      "sensations": 3437,
      "hasty": 3438,
      "planetary": 3439,
      "advantages": 3440,
      "confident": 3441,
      "muttered": 3442,
      "increased": 3443,
      "stopped": 3444,
      "surrounding": 3445,
      "consciousness": 3446,
      "fresh": 3447,
      "sofa": 3448,
      "channe": 3449,
      "particle": 3450,
      "diminished": 3451,
      "www": 3452,
      "admir": 3453,
      "Algebra": 3454,
      "Lake": 3455,
      "figures": 3456,
      "paper": 3457,
      "sinking": 3458,
      "zenith": 3459,
      "Blanc": 3460,
      "ancient": 3461,
      "gloomy": 3462,
      "Jove": 3463,
      "clouds": 3464,
      "meantime": 3465,
      "precautions": 3466,
      "vanished": 3467,
      "truth": 3468,
      "Julesburg": 3469,
      "heroes": 3470,
      "extinguished": 3471,
      "Accord": 3472,
      "adelphia": 3473,
      "ellip": 3474,
      "associated": 3475,
      "measured": 3476,
      "quantity": 3477,
      "commenced": 3478,
      "summits": 3479,
      "Company": 3480,
      "hyperbola": 3481,
      "California": 3482,
      "Florida": 3483,
      "General": 3484,
      "London": 3485,
      "Philadelphia": 3486,
      "Railroad": 3487,
      "eccentric": 3488,
      "regret": 3489,
      "streng": 3490,
      "seldom": 3491,
      "especially": 3492,
      "accuracy": 3493,
      "27": 3494,
      "60": 3495,
      "AG": 3496,
      "Bay": 3497,
      "Che": 3498,
      "Chair": 3499,
      "CLU": 3500,
      "EL": 3501,
      "Er": 3502,
      "Eu": 3503,
      "Fir": 3504,
      "Her": 3505,
      "IR": 3506,
      "Just": 3507,
      "Me": 3508,
      "Man": 3509,
      "Mex": 3510,
      "Morgan": 3511,
      "MORE": 3512,
      "Nect": 3513,
      "Over": 3514,
      "Que": 3515,
      "Section": 3516,
      "TA": 3517,
      "TY": 3518,
      "Very": 3519,
      "WI": 3520,
      "Wil": 3521,
      "Yan": 3522,
      "Yet": 3523,
      "_m": 3524,
      "_r": 3525,
      "_Belfast": 3526,
      "_Ocean": 3527,
      "aer": 3528,
      "ake": 3529,
      "aimed": 3530,
      "avoid": 3531,
      "cli": 3532,
      "cab": 3533,
      "dread": 3534,
      "dry": 3535,
      "emotion": 3536,
      "elli": 3537,
      "fing": 3538,
      "fish": 3539,
      "fancy": 3540,
      "gy": 3541,
      "grim": 3542,
      "home": 3543,
      "ience": 3544,
      "ivers": 3545,
      "lun": 3546,
      "late": 3547,
      "langu": 3548,
      "mn": 3549,
      "money": 3550,
      "nit": 3551,
      "net": 3552,
      "nation": 3553,
      "page": 3554,
      "pati": 3555,
      "pgla": 3556,
      "rated": 3557,
      "rying": 3558,
      "sn": 3559,
      "scho": 3560,
      "sending": 3561,
      "tin": 3562,
      "wn": 3563,
      "wings": 3564,
      "xt": 3565,
      "xed": 3566,
      "xim": 3567,
      "zled": 3568,
      "thed": 3569,
      "theast": 3570,
      "insu": 3571,
      "incon": 3572,
      "inus": 3573,
      "invol": 3574,
      "inery": 3575,
      "innumer": 3576,
      "represent": 3577,
      "oned": 3578,
      "onder": 3579,
      "attered": 3580,
      "ende": 3581,
      "enced": 3582,
      "enclosed": 3583,
      "station": 3584,
      "oric": 3585,
      "ising": 3586,
      "islands": 3587,
      "icate": 3588,
      "iction": 3589,
      "secre": 3590,
      "besides": 3591,
      "beams": 3592,
      "ham": 3593,
      "nock": 3594,
      "aled": 3595,
      "ality": 3596,
      "entertain": 3597,
      "entering": 3598,
      "idian": 3599,
      "ceans": 3600,
      "weary": 3601,
      "roy": 3602,
      "lding": 3603,
      "rie": 3604,
      "rived": 3605,
      "ray": 3606,
      "rain": 3607,
      "rable": 3608,
      "raction": 3609,
      "railroad": 3610,
      "unwilling": 3611,
      "live": 3612,
      "lively": 3613,
      "deli": 3614,
      "devi": 3615,
      "abs": 3616,
      "conn": 3617,
      "consu": 3618,
      "conject": 3619,
      "apse": 3620,
      "apart": 3621,
      "exha": 3622,
      "locom": 3623,
      "died": 3624,
      "divided": 3625,
      "pop": 3626,
      "arewell": 3627,
      "ilege": 3628,
      "advis": 3629,
      "mechan": 3630,
      "ulated": 3631,
      "jected": 3632,
      "Around": 3633,
      "tested": 3634,
      "shut": 3635,
      "shine": 3636,
      "yous": 3637,
      "accent": 3638,
      "accor": 3639,
      "spy": 3640,
      "spher": 3641,
      "perple": 3642,
      "sailing": 3643,
      "coal": 3644,
      "illustrious": 3645,
      "proceed": 3646,
      "proceeded": 3647,
      "green": 3648,
      "blessed": 3649,
      "obst": 3650,
      "anyhow": 3651,
      "disput": 3652,
      "disposed": 3653,
      "disconcer": 3654,
      "crib": 3655,
      "intens": 3656,
      "lightning": 3657,
      "doing": 3658,
      "god": 3659,
      "strict": 3660,
      "blow": 3661,
      "mention": 3662,
      "maj": 3663,
      "myth": 3664,
      "restless": 3665,
      "gracious": 3666,
      "desc": 3667,
      "deser": 3668,
      "design": 3669,
      "flag": 3670,
      "says": 3671,
      "inkled": 3672,
      "gry": 3673,
      "lescope": 3674,
      "corn": 3675,
      "tax": 3676,
      "farther": 3677,
      "facts": 3678,
      "steadily": 3679,
      "Any": 3680,
      "dense": 3681,
      "news": 3682,
      "refract": 3683,
      "genial": 3684,
      "vored": 3685,
      "companion": 3686,
      "anging": 3687,
      "meridian": 3688,
      "volunte": 3689,
      "eternal": 3690,
      "pleased": 3691,
      "Seren": 3692,
      "fires": 3693,
      "thousands": 3694,
      "cheers": 3695,
      "check": 3696,
      "passing": 3697,
      "TEN": 3698,
      "TELLI": 3699,
      "brains": 3700,
      "reasonable": 3701,
      "considering": 3702,
      "joyous": 3703,
      "interruption": 3704,
      "spectacle": 3705,
      "_Sinus": 3706,
      "sett": 3707,
      "summer": 3708,
      "apping": 3709,
      "fastened": 3710,
      "keeps": 3711,
      "months": 3712,
      "putting": 3713,
      "sounding": 3714,
      "sequently": 3715,
      "Does": 3716,
      "Doctor": 3717,
      "equator": 3718,
      "support": 3719,
      "brighter": 3720,
      "brightness": 3721,
      "buff": 3722,
      "heavy": 3723,
      "Lunarians": 3724,
      "describing": 3725,
      "Union": 3726,
      "produce": 3727,
      "LIM": 3728,
      "remarks": 3729,
      "operations": 3730,
      "freely": 3731,
      "OUN": 3732,
      "Consequently": 3733,
      "glittered": 3734,
      "dream": 3735,
      "reflected": 3736,
      "occupying": 3737,
      "naturally": 3738,
      "_Al": 3739,
      "exception": 3740,
      "screen": 3741,
      "ines_": 3742,
      "respective": 3743,
      "intensely": 3744,
      "gentleman": 3745,
      "Everything": 3746,
      "Procellar": 3747,
      "promin": 3748,
      "assume": 3749,
      "assured": 3750,
      "affir": 3751,
      "rigor": 3752,
      "blindly": 3753,
      "confidently": 3754,
      "Committee": 3755,
      "North": 3756,
      "boundless": 3757,
      "relieved": 3758,
      "assert": 3759,
      "boldt": 3760,
      "princip": 3761,
      "blood": 3762,
      "enjoy": 3763,
      "enjoyed": 3764,
      "intelligence": 3765,
      "dropped": 3766,
      "Point": 3767,
      "domain": 3768,
      "papers": 3769,
      "officers": 3770,
      "jumping": 3771,
      "machinery": 3772,
      "simil": 3773,
      "spirits": 3774,
      "oblique": 3775,
      "Humboldt": 3776,
      "eBooks": 3777,
      "lifted": 3778,
      "variety": 3779,
      "savage": 3780,
      "plicable": 3781,
      "undoubtedly": 3782,
      "pleasant": 3783,
      "bottle": 3784,
      "Telescope": 3785,
      "honorable": 3786,
      "photograph": 3787,
      "inclined": 3788,
      "recorded": 3789,
      "comprehend": 3790,
      "Perhaps": 3791,
      "Republic": 3792,
      "yawning": 3793,
      "placed": 3794,
      "specific": 3795,
      "additional": 3796,
      "hypothesis": 3797,
      "privilege": 3798,
      "Friend": 3799,
      "SATELLI": 3800,
      "empty": 3801,
      "pictures": 3802,
      "pronounced": 3803,
      "_Carpathians_": 3804,
      "ellipse": 3805,
      "strength": 3806,
      "First": 3807,
      "Nectar": 3808,
      "Queen": 3809,
      "Yanke": 3810,
      "_r_": 3811,
      "_Belfasters_": 3812,
      "_Oceanus": 3813,
      "cliff": 3814,
      "pglaf": 3815,
      "innumerable": 3816,
      "endea": 3817,
      "intensity": 3818,
      "Procellarum_": 3819,
      "SATELLITE": 3820,
      "!!\"": 3821,
      "..": 3822,
      "14": 3823,
      "1st": 3824,
      "28": 3825,
      "200": 3826,
      "250": 3827,
      "500": 3828,
      "80": 3829,
      "Bra": 3830,
      "BAL": 3831,
      "DI": 3832,
      "Di": 3833,
      "Eye": 3834,
      "Far": 3835,
      "Five": 3836,
      "Gal": 3837,
      "HER": 3838,
      "IM": 3839,
      "Ke": 3840,
      "Lat": 3841,
      "Mis": 3842,
      "Mars": 3843,
      "Rain": 3844,
      "River": 3845,
      "SP": 3846,
      "Ter": 3847,
      "Tran": 3848,
      "UR": 3849,
      "Wor": 3850,
      "XV": 3851,
      "XX": 3852,
      "YOU": 3853,
      "_F": 3854,
      "_R": 3855,
      "_Do": 3856,
      "_d_": 3857,
      "aus": 3858,
      "ame": 3859,
      "bare": 3860,
      "bul": 3861,
      "bread": 3862,
      "bbing": 3863,
      "bird": 3864,
      "banks": 3865,
      "battle": 3866,
      "cat": 3867,
      "cities": 3868,
      "ders": 3869,
      "eur": 3870,
      "equi": 3871,
      "fal": 3872,
      "fant": 3873,
      "fla": 3874,
      "fine": 3875,
      "fund": 3876,
      "gor": 3877,
      "gutenberg": 3878,
      "glist": 3879,
      "hid": 3880,
      "hun": 3881,
      "hist": 3882,
      "harm": 3883,
      "knock": 3884,
      "l_": 3885,
      "lamp": 3886,
      "mur": 3887,
      "mater": 3888,
      "mount": 3889,
      "narrow": 3890,
      "nines_": 3891,
      "oton": 3892,
      "oceans": 3893,
      "pat": 3894,
      "pher": 3895,
      "passes": 3896,
      "sat": 3897,
      "sang": 3898,
      "satell": 3899,
      "soften": 3900,
      "t_": 3901,
      "uct": 3902,
      "uce": 3903,
      "uck": 3904,
      "uine": 3905,
      "vit": 3906,
      "wre": 3907,
      "wing": 3908,
      "wal": 3909,
      "wro": 3910,
      "wood": 3911,
      "xity": 3912,
      "threw": 3913,
      "thered": 3914,
      "inspect": 3915,
      "resol": 3916,
      "renew": 3917,
      "replace": 3918,
      "resplend": 3919,
      "analog": 3920,
      "err": 3921,
      "erable": 3922,
      "ators": 3923,
      "enet": 3924,
      "encoun": 3925,
      "edience": 3926,
      "stal": 3927,
      "stif": 3928,
      "step": 3929,
      "ara": 3930,
      "offered": 3931,
      "ism": 3932,
      "isite": 3933,
      "total": 3934,
      "ases": 3935,
      "asking": 3936,
      "ashes": 3937,
      "asleep": 3938,
      "heit": 3939,
      "season": 3940,
      "seizing": 3941,
      "serene": 3942,
      "bell": 3943,
      "betra": 3944,
      "escrib": 3945,
      "haul": 3946,
      "nod": 3947,
      "vere": 3948,
      "ented": 3949,
      "celer": 3950,
      "weather": 3951,
      "river": 3952,
      "improve": 3953,
      "changing": 3954,
      "unable": 3955,
      "unconscious": 3956,
      "liable": 3957,
      "forward": 3958,
      "dee": 3959,
      "deal": 3960,
      "decl": 3961,
      "delay": 3962,
      "moder": 3963,
      "withstanding": 3964,
      "cones": 3965,
      "conical": 3966,
      "construction": 3967,
      "containing": 3968,
      "confined": 3969,
      "appointed": 3970,
      "eteen": 3971,
      "exec": 3972,
      "exposed": 3973,
      "loc": 3974,
      "loved": 3975,
      "dig": 3976,
      "dign": 3977,
      "ileo": 3978,
      "thering": 3979,
      "quisite": 3980,
      "compe": 3981,
      "Most": 3982,
      "acid": 3983,
      "acqu": 3984,
      "acles": 3985,
      "accident": 3986,
      "acceler": 3987,
      "spap": 3988,
      "spaces": 3989,
      "springs": 3990,
      "ump": 3991,
      "cover": 3992,
      "illi": 3993,
      "illet": 3994,
      "ustion": 3995,
      "pled": 3996,
      "oughly": 3997,
      "pel": 3998,
      "upper": 3999,
      "box": 4000,
      "bore": 4001,
      "veni": 4002,
      "ables": 4003,
      "geo": 4004,
      "gested": 4005,
      "aked": 4006,
      "forests": 4007,
      "ama": 4008,
      "aming": 4009,
      "amid": 4010,
      "obedience": 4011,
      "disappear": 4012,
      "discharge": 4013,
      "indescrib": 4014,
      "serve": 4015,
      "holes": 4016,
      "itten": 4017,
      "comply": 4018,
      "compens": 4019,
      "dogs": 4020,
      "glad": 4021,
      "Whilst": 4022,
      "lessly": 4023,
      "rendered": 4024,
      "acting": 4025,
      "gold": 4026,
      "olly": 4027,
      "stron": 4028,
      "observe": 4029,
      "observing": 4030,
      "caused": 4031,
      "istic": 4032,
      "partitions": 4033,
      "distinct": 4034,
      "pointing": 4035,
      "Were": 4036,
      "assist": 4037,
      "travelling": 4038,
      "grave": 4039,
      "shade": 4040,
      "shaking": 4041,
      "interplanetary": 4042,
      "understood": 4043,
      "office": 4044,
      "region": 4045,
      "fling": 4046,
      "flow": 4047,
      "flour": 4048,
      "impati": 4049,
      "clim": 4050,
      "class": 4051,
      "century": 4052,
      "minus": 4053,
      "counted": 4054,
      "grant": 4055,
      "grounds": 4056,
      "stellar": 4057,
      "viding": 4058,
      "vidual": 4059,
      "crew": 4060,
      "deny": 4061,
      "continent": 4062,
      "parabo": 4063,
      "newspap": 4064,
      "refraction": 4065,
      "match": 4066,
      "begun": 4067,
      "genuine": 4068,
      "ensible": 4069,
      "_Mapp": 4070,
      "takes": 4071,
      "startled": 4072,
      "breast": 4073,
      "breaking": 4074,
      "cleared": 4075,
      "missing": 4076,
      "speci": 4077,
      "subst": 4078,
      "expect": 4079,
      "giant": 4080,
      "please": 4081,
      "Too": 4082,
      "wonders": 4083,
      "cury": 4084,
      "current": 4085,
      "soul": 4086,
      "ringing": 4087,
      "singular": 4088,
      "founded": 4089,
      "showers": 4090,
      "versed": 4091,
      "midt": 4092,
      "middle": 4093,
      "suming": 4094,
      "fourth": 4095,
      "resulting": 4096,
      "radius": 4097,
      "ancing": 4098,
      "helion": 4099,
      "surely": 4100,
      "layers": 4101,
      "monoton": 4102,
      "engine": 4103,
      "expressive": 4104,
      "ecst": 4105,
      "written": 4106,
      "thirteen": 4107,
      "rises": 4108,
      "valu": 4109,
      "viewed": 4110,
      "chain": 4111,
      "reality": 4112,
      "consequences": 4113,
      "projected": 4114,
      "sunlight": 4115,
      "rowned": 4116,
      "pennines_": 4117,
      "swit": 4118,
      "swallowed": 4119,
      "wildest": 4120,
      "grandeur": 4121,
      "fireworks": 4122,
      "larger": 4123,
      "squared": 4124,
      "advanced": 4125,
      "remains": 4126,
      "sufficiently": 4127,
      "heights": 4128,
      "laughing": 4129,
      "guard": 4130,
      "abode": 4131,
      "strongly": 4132,
      "announcing": 4133,
      "deeply": 4134,
      "examine": 4135,
      "example": 4136,
      "attractive": 4137,
      "distribute": 4138,
      "native": 4139,
      "186": 4140,
      "_Apennines_": 4141,
      "closely": 4142,
      "marked": 4143,
      "signs": 4144,
      "detected": 4145,
      "played": 4146,
      "nonsense": 4147,
      "enthusiastic": 4148,
      "drily": 4149,
      "ridges": 4150,
      "atio": 4151,
      "imagination": 4152,
      "conceive": 4153,
      "Americans": 4154,
      "sensible": 4155,
      "rigidly": 4156,
      "contrast": 4157,
      "contract": 4158,
      "ahs": 4159,
      "situated": 4160,
      "welcome": 4161,
      "confidence": 4162,
      "firmly": 4163,
      "throwing": 4164,
      "determine": 4165,
      "absorbing": 4166,
      "combustion": 4167,
      "steamer": 4168,
      "eclipses": 4169,
      "blocks": 4170,
      "smooth": 4171,
      "possession": 4172,
      "intelligent": 4173,
      "pulling": 4174,
      "particip": 4175,
      "buoys": 4176,
      "_Le": 4177,
      "thoroughly": 4178,
      "succeed": 4179,
      "developed": 4180,
      "development": 4181,
      "noticing": 4182,
      "gesticul": 4183,
      "volcanoes": 4184,
      "meteoric": 4185,
      "figure": 4186,
      "precious": 4187,
      "rapidity": 4188,
      "counteracting": 4189,
      "furnace": 4190,
      "machine": 4191,
      "groo": 4192,
      "luck": 4193,
      "depression": 4194,
      "conclusion": 4195,
      "conclude": 4196,
      "transp": 4197,
      "recognize": 4198,
      "optical": 4199,
      "revolution": 4200,
      "whisper": 4201,
      "constant": 4202,
      "solemn": 4203,
      "TIONS": 4204,
      "children": 4205,
      "triumphantly": 4206,
      "fatal": 4207,
      "rubbing": 4208,
      "respond": 4209,
      "concentric": 4210,
      "philosoph": 4211,
      "breathe": 4212,
      "screws": 4213,
      "354": 4214,
      "Like": 4215,
      "Schmidt": 4216,
      "hills": 4217,
      "judge": 4218,
      "vigor": 4219,
      "injury": 4220,
      "incessant": 4221,
      "repeated": 4222,
      "aspect": 4223,
      "devoted": 4224,
      "ranges": 4225,
      "ingenious": 4226,
      "unanimously": 4227,
      "melancho": 4228,
      "previous": 4229,
      "cotton": 4230,
      "plunged": 4231,
      "phrase": 4232,
      "carbonic": 4233,
      "duty": 4234,
      "eagerly": 4235,
      "harbor": 4236,
      "individual": 4237,
      "relatively": 4238,
      "totally": 4239,
      "liquid": 4240,
      "demand": 4241,
      "mathematical": 4242,
      "creatures": 4243,
      "parabolic": 4244,
      "ARDAN": 4245,
      "According": 4246,
      "Company_": 4247,
      "CLUB": 4248,
      "Mexico": 4249,
      "WITH": 4250,
      "_m_": 4251,
      "ellipt": 4252,
      "lungs": 4253,
      "language": 4254,
      "secrets": 4255,
      "deviation": 4256,
      "absence": 4257,
      "accordance": 4258,
      "disconcerted": 4259,
      "Yankee": 4260,
      "cliffs": 4261,
      "Direct": 4262,
      "Galileo": 4263,
      "Tranquill": 4264,
      "false": 4265,
      "material": 4266,
      "satellites": 4267,
      "wrote": 4268,
      "encountered": 4269,
      "parabola": 4270,
      "melancholy": 4271,
      "!--": 4272,
      ").": 4273,
      "19": 4274,
      "300": 4275,
      "46": 4276,
      "5th": 4277,
      "75": 4278,
      "97": 4279,
      "AD": 4280,
      "Ara": 4281,
      "Athen": 4282,
      "BE": 4283,
      "CE": 4284,
      "CEN": 4285,
      "Des": 4286,
      "Day": 4287,
      "DIS": 4288,
      "EW": 4289,
      "Fo": 4290,
      "Fort": 4291,
      "Gi": 4292,
      "Gre": 4293,
      "Gree": 4294,
      "HE": 4295,
      "HO": 4296,
      "Him": 4297,
      "Hard": 4298,
      "Hers": 4299,
      "Hey": 4300,
      "Hang": 4301,
      "Herald_": 4302,
      "ITE": 4303,
      "List": 4304,
      "LUN": 4305,
      "ME": 4306,
      "May": 4307,
      "MEN": 4308,
      "NI": 4309,
      "Nas": 4310,
      "Never": 4311,
      "OO": 4312,
      "Open": 4313,
      "Pou": 4314,
      "Put": 4315,
      "Pet": 4316,
      "PRO": 4317,
      "RI": 4318,
      "RAN": 4319,
      "Sw": 4320,
      "SER": 4321,
      "Sier": 4322,
      "Shall": 4323,
      "Saturn": 4324,
      "Ten": 4325,
      "Tho": 4326,
      "UT": 4327,
      "Uran": 4328,
      "ULL": 4329,
      "VE": 4330,
      "Whe": 4331,
      "West": 4332,
      "WAS": 4333,
      "_n": 4334,
      "_Barbican": 4335,
      "_you": 4336,
      "_must": 4337,
      "aver": 4338,
      "ade": 4339,
      "aven": 4340,
      "aily": 4341,
      "bid": 4342,
      "bay": 4343,
      "bad": 4344,
      "bout": 4345,
      "bility": 4346,
      "cand": 4347,
      "cad": 4348,
      "cum": 4349,
      "cup": 4350,
      "dar": 4351,
      "dying": 4352,
      "dashed": 4353,
      "econ": 4354,
      "ement": 4355,
      "eks": 4356,
      "fu": 4357,
      "fron": 4358,
      "fissu": 4359,
      "farewell": 4360,
      "gna": 4361,
      "har": 4362,
      "hence": 4363,
      "ires": 4364,
      "jun": 4365,
      "kill": 4366,
      "lantic": 4367,
      "latest": 4368,
      "mp": 4369,
      "mic": 4370,
      "mad": 4371,
      "mult": 4372,
      "mitted": 4373,
      "nd": 4374,
      "ns": 4375,
      "nally": 4376,
      "o_": 4377,
      "oli": 4378,
      "osc": 4379,
      "pun": 4380,
      "pound": 4381,
      "piles": 4382,
      "rick": 4383,
      "rue": 4384,
      "ridge": 4385,
      "ratio": 4386,
      "sal": 4387,
      "sir": 4388,
      "sive": 4389,
      "site": 4390,
      "scor": 4391,
      "tu": 4392,
      "tong": 4393,
      "uge": 4394,
      "vitable": 4395,
      "wra": 4396,
      "women": 4397,
      "yr": 4398,
      "z_": 4399,
      "inder": 4400,
      "infall": 4401,
      "indifference": 4402,
      "inconce": 4403,
      "reed": 4404,
      "ress": 4405,
      "resh": 4406,
      "referen": 4407,
      "represented": 4408,
      "recording": 4409,
      "reversed": 4410,
      "angled": 4411,
      "angry": 4412,
      "onward": 4413,
      "erfe": 4414,
      "eding": 4415,
      "stun": 4416,
      "stone": 4417,
      "stared": 4418,
      "states": 4419,
      "arily": 4420,
      "orily": 4421,
      "town": 4422,
      "icci": 4423,
      "heap": 4424,
      "seat": 4425,
      "section": 4426,
      "sevent": 4427,
      "severe": 4428,
      "belong": 4429,
      "beloved": 4430,
      "omy": 4431,
      "omin": 4432,
      "oman": 4433,
      "omer": 4434,
      "hazy": 4435,
      "alay": 4436,
      "velius": 4437,
      "cely": 4438,
      "ceiling": 4439,
      "roar": 4440,
      "roast": 4441,
      "uttering": 4442,
      "whence": 4443,
      "whist": 4444,
      "raised": 4445,
      "imper": 4446,
      "immer": 4447,
      "chart": 4448,
      "une": 4449,
      "uncertain": 4450,
      "unusual": 4451,
      "alled": 4452,
      "irt": 4453,
      "subl": 4454,
      "aint": 4455,
      "liked": 4456,
      "liance": 4457,
      "libr": 4458,
      "lift": 4459,
      "ford": 4460,
      "depos": 4461,
      "defined": 4462,
      "mol": 4463,
      "mot": 4464,
      "moves": 4465,
      "mobility": 4466,
      "conve": 4467,
      "congrat": 4468,
      "apo": 4469,
      "apsed": 4470,
      "appreh": 4471,
      "appreci": 4472,
      "eted": 4473,
      "exer": 4474,
      "explains": 4475,
      "term": 4476,
      "love": 4477,
      "lowest": 4478,
      "divisions": 4479,
      "pol": 4480,
      "notwithstanding": 4481,
      "astically": 4482,
      "astounding": 4483,
      "neg": 4484,
      "ading": 4485,
      "mem": 4486,
      "memor": 4487,
      "quet": 4488,
      "quitting": 4489,
      "quitted": 4490,
      "ulate": 4491,
      "keen": 4492,
      "kest": 4493,
      "outlines": 4494,
      "dang": 4495,
      "feas": 4496,
      "shi": 4497,
      "acked": 4498,
      "accur": 4499,
      "sprit": 4500,
      "faith": 4501,
      "fault": 4502,
      "perfor": 4503,
      "permit": 4504,
      "performed": 4505,
      "persist": 4506,
      "saved": 4507,
      "cox": 4508,
      "cost": 4509,
      "onel": 4510,
      "ity_": 4511,
      "il_": 4512,
      "ille": 4513,
      "plor": 4514,
      "plough": 4515,
      "plates": 4516,
      "proving": 4517,
      "provision": 4518,
      "provisions": 4519,
      "progress": 4520,
      "trap": 4521,
      "artic": 4522,
      "amount": 4523,
      "obtain": 4524,
      "obtained": 4525,
      "obstruct": 4526,
      "anyone": 4527,
      "disorder": 4528,
      "discharged": 4529,
      "indul": 4530,
      "indicated": 4531,
      "cribed": 4532,
      "surve": 4533,
      "hollow": 4534,
      "ester": 4535,
      "rence": 4536,
      "renheit": 4537,
      "active": 4538,
      "reporter": 4539,
      "Information": 4540,
      "odor": 4541,
      "blance": 4542,
      "blished": 4543,
      "cavern": 4544,
      "ishment": 4545,
      "knowing": 4546,
      "inevitable": 4547,
      "mail": 4548,
      "whenever": 4549,
      "Three": 4550,
      "format": 4551,
      "formations": 4552,
      "shoulders": 4553,
      "resto": 4554,
      "yourselves": 4555,
      "gray": 4556,
      "sentiment": 4557,
      "shake": 4558,
      "proud": 4559,
      "Hevelius": 4560,
      "uses": 4561,
      "flash": 4562,
      "crushed": 4563,
      "impenet": 4564,
      "THIS": 4565,
      "presenting": 4566,
      "conditions": 4567,
      "solidly": 4568,
      "solution": 4569,
      "bris": 4570,
      "brink": 4571,
      "excess": 4572,
      "exclaim": 4573,
      "dens": 4574,
      "extend": 4575,
      "extrem": 4576,
      "extended": 4577,
      "extending": 4578,
      "extinct": 4579,
      "easier": 4580,
      "plainly": 4581,
      "refer": 4582,
      "refresh": 4583,
      "matic": 4584,
      "secondly": 4585,
      "THER": 4586,
      "psed": 4587,
      "atmospher": 4588,
      "pressed": 4589,
      "voices": 4590,
      "icken": 4591,
      "icking": 4592,
      "calculating": 4593,
      "viv": 4594,
      "vius_": 4595,
      "Atlantic": 4596,
      "Stars": 4597,
      "clearer": 4598,
      "miss": 4599,
      "missed": 4600,
      "miserable": 4601,
      "resses": 4602,
      "directing": 4603,
      "submarine": 4604,
      "expense": 4605,
      "older": 4606,
      "fier": 4607,
      "ppi": 4608,
      "chel": 4609,
      "cheering": 4610,
      "landed": 4611,
      "passage": 4612,
      "looks": 4613,
      "strug": 4614,
      "strugg": 4615,
      "street": 4616,
      "streets": 4617,
      "streams": 4618,
      "winds": 4619,
      "letting": 4620,
      "bracing": 4621,
      "brakes": 4622,
      "sippi": 4623,
      "deprived": 4624,
      "perige": 4625,
      "circle": 4626,
      "embracing": 4627,
      "scientist": 4628,
      "Neither": 4629,
      "evidence": 4630,
      "spoken": 4631,
      "carrying": 4632,
      "published": 4633,
      "ton_": 4634,
      "tones": 4635,
      "setting": 4636,
      "subjected": 4637,
      "doubts": 4638,
      "existed": 4639,
      "existing": 4640,
      "Selenographic": 4641,
      "silver": 4642,
      "radiant": 4643,
      "erned": 4644,
      "laying": 4645,
      "sounded": 4646,
      "allowing": 4647,
      "equally": 4648,
      "write": 4649,
      "supposed": 4650,
      "supposing": 4651,
      "risk": 4652,
      "valid": 4653,
      "animated": 4654,
      "audi": 4655,
      "bui": 4656,
      "draught": 4657,
      "dragged": 4658,
      "heavi": 4659,
      "wanted": 4660,
      "recoll": 4661,
      "heartily": 4662,
      "description": 4663,
      "chamber": 4664,
      "ributed": 4665,
      "Enough": 4666,
      "agreeable": 4667,
      "producing": 4668,
      "OFF": 4669,
      "awak": 4670,
      "understanding": 4671,
      "scen": 4672,
      "revel": 4673,
      "returning": 4674,
      "grandest": 4675,
      "freezing": 4676,
      "ruins": 4677,
      "bolides": 4678,
      "gues": 4679,
      "feelings": 4680,
      "Contin": 4681,
      "annular": 4682,
      "minds": 4683,
      "attracting": 4684,
      "occasional": 4685,
      "drew": 4686,
      "cooled": 4687,
      "distributed": 4688,
      "otive": 4689,
      "concerned": 4690,
      "Colonel": 4691,
      "Mathemat": 4692,
      "results": 4693,
      "arranged": 4694,
      "hesit": 4695,
      "hesitation": 4696,
      "shapeless": 4697,
      "regularity": 4698,
      "eclipsed": 4699,
      "enthusiastically": 4700,
      "limbs": 4701,
      "destination": 4702,
      "conceived": 4703,
      "dangerous": 4704,
      "affected": 4705,
      "learn": 4706,
      "vertically": 4707,
      "correctly": 4708,
      "characteristic": 4709,
      "seriously": 4710,
      "meteors": 4711,
      "REE": 4712,
      "borne": 4713,
      "thickness": 4714,
      "frightened": 4715,
      "discuss": 4716,
      "satisfactorily": 4717,
      "happened": 4718,
      "combined": 4719,
      "collection": 4720,
      "collision": 4721,
      "smothering": 4722,
      "13th": 4723,
      "broke": 4724,
      "elev": 4725,
      "slumber": 4726,
      "soft": 4727,
      "telegra": 4728,
      "resembled": 4729,
      "puzzled": 4730,
      "treasure": 4731,
      "explained": 4732,
      "bowsprit": 4733,
      "frag": 4734,
      "misty": 4735,
      "modify": 4736,
      "GHT": 4737,
      "growled": 4738,
      "lucid": 4739,
      "sissippi": 4740,
      "investigations": 4741,
      "separating": 4742,
      "forgotten": 4743,
      "failure": 4744,
      "crystal": 4745,
      "retarding": 4746,
      "gained": 4747,
      "touch": 4748,
      "whispered": 4749,
      "sparkling": 4750,
      "displaying": 4751,
      "bottles": 4752,
      "cracking": 4753,
      "_Newton_": 4754,
      "drink": 4755,
      "anxiously": 4756,
      "concentrated": 4757,
      "experience": 4758,
      "protect": 4759,
      "established": 4760,
      "breathing": 4761,
      "contemplated": 4762,
      "leaving": 4763,
      "leaves": 4764,
      "altern": 4765,
      "suggested": 4766,
      "delighted": 4767,
      "constructed": 4768,
      "manufactured": 4769,
      "attached": 4770,
      "aided": 4771,
      "eminently": 4772,
      "fields": 4773,
      "wandering": 4774,
      "study": 4775,
      "celebr": 4776,
      "exclam": 4777,
      "furrows": 4778,
      "receipt": 4779,
      "contradict": 4780,
      "landscape": 4781,
      "Better": 4782,
      "Fahrenheit": 4783,
      "ladder": 4784,
      "nineteen": 4785,
      "abundan": 4786,
      "promptly": 4787,
      "Wilcox": 4788,
      "dreadful": 4789,
      "patience": 4790,
      "school": 4791,
      "insula": 4792,
      "conjecture": 4793,
      "exhausted": 4794,
      "locomotive": 4795,
      "popular": 4796,
      "accents": 4797,
      "proceeding": 4798,
      "obstacle": 4799,
      "majest": 4800,
      "volunteers": 4801,
      "Serenitatis_": 4802,
      "settled": 4803,
      "similar": 4804,
      "Nectaris_": 4805,
      "Bravo": 4806,
      "Mississippi": 4807,
      "_Doerfe": 4808,
      "breadth": 4809,
      "fantastic": 4810,
      "gorge": 4811,
      "wrecks": 4812,
      "inspection": 4813,
      "renewed": 4814,
      "deeper": 4815,
      "geological": 4816,
      "indescribable": 4817,
      "_Mappa": 4818,
      "valuable": 4819,
      "Athens": 4820,
      "Himalay": 4821,
      "Herschel": 4822,
      "Pouillet": 4823,
      "Petit": 4824,
      "Those": 4825,
      "_you_": 4826,
      "_must_": 4827,
      "oscill": 4828,
      "tongue": 4829,
      "inconceiv": 4830,
      "iccioli": 4831,
      "deposited": 4832,
      "impenetrable": 4833,
      "atmospheric": 4834,
      "Selenographica_": 4835,
      "Mathematics": 4836,
      "_Doerfel_": 4837,
      "Himalayahs": 4838,
      "',": 4839,
      ",--": 4840,
      ".'": 4841,
      ".)": 4842,
      ".--": 4843,
      "100": 4844,
      "150": 4845,
      "22": 4846,
      "23": 4847,
      "24": 4848,
      "240": 4849,
      "41": 4850,
      "6th": 4851,
      "70": 4852,
      "90": 4853,
      "Ad": 4854,
      "Aca": 4855,
      "ATIONS": 4856,
      "Bro": 4857,
      "Bel": 4858,
      "BAR": 4859,
      "BER": 4860,
      "BSER": 4861,
      "Cent": 4862,
      "CAN": 4863,
      "CAP": 4864,
      "Creat": 4865,
      "Cisco": 4866,
      "Die": 4867,
      "ECT": 4868,
      "Elph": 4869,
      "Fou": 4870,
      "Four": 4871,
      "FRO": 4872,
      "Father": 4873,
      "Frigor": 4874,
      "GR": 4875,
      "GU": 4876,
      "Gr": 4877,
      "Gate": 4878,
      "Give": 4879,
      "Gold": 4880,
      "GUN": 4881,
      "Hon": 4882,
      "Hence": 4883,
      "High": 4884,
      "HAL": 4885,
      "IBLE": 4886,
      "Jack": 4887,
      "JECT": 4888,
      "King": 4889,
      "LY": 4890,
      "Mt": 4891,
      "Mad": 4892,
      "Many": 4893,
      "Na": 4894,
      "Nat": 4895,
      "Night": 4896,
      "Next": 4897,
      "OBSER": 4898,
      "PU": 4899,
      "Ph": 4900,
      "Pen": 4901,
      "PED": 4902,
      "Rap": 4903,
      "RST": 4904,
      "Riccioli": 4905,
      "Sh": 4906,
      "Si": 4907,
      "Say": 4908,
      "Sol": 4909,
      "Seas": 4910,
      "Salt": 4911,
      "TT": 4912,
      "Tw": 4913,
      "Up": 4914,
      "Ven": 4915,
      "War": 4916,
      "Will": 4917,
      "WAR": 4918,
      "WIN": 4919,
      "WOR": 4920,
      "XXI": 4921,
      "_E": 4922,
      "_G": 4923,
      "_not": 4924,
      "_Ar": 4925,
      "_can": 4926,
      "_unity": 4927,
      "_is_": 4928,
      "awhile": 4929,
      "ba": 4930,
      "ban": 4931,
      "bent": 4932,
      "big": 4933,
      "bree": 4934,
      "bably": 4935,
      "bones": 4936,
      "cation": 4937,
      "cke": 4938,
      "cure": 4939,
      "cence": 4940,
      "crest": 4941,
      "coff": 4942,
      "claimed": 4943,
      "dome": 4944,
      "dated": 4945,
      "drun": 4946,
      "drowned": 4947,
      "epo": 4948,
      "emer": 4949,
      "event": 4950,
      "egg": 4951,
      "evapor": 4952,
      "ejected": 4953,
      "fight": 4954,
      "fring": 4955,
      "fond": 4956,
      "fanci": 4957,
      "fasc": 4958,
      "gar": 4959,
      "gall": 4960,
      "gase": 4961,
      "hat": 4962,
      "hou": 4963,
      "hit": 4964,
      "hone": 4965,
      "hens": 4966,
      "hurrah": 4967,
      "homet": 4968,
      "ige": 4969,
      "ius_": 4970,
      "iety": 4971,
      "je": 4972,
      "ju": 4973,
      "jar": 4974,
      "lust": 4975,
      "link": 4976,
      "lens": 4977,
      "lined": 4978,
      "lashed": 4979,
      "license": 4980,
      "lapse": 4981,
      "mir": 4982,
      "mers": 4983,
      "nap": 4984,
      "py": 4985,
      "pha": 4986,
      "pity": 4987,
      "piled": 4988,
      "pices": 4989,
      "rul": 4990,
      "rout": 4991,
      "ratt": 4992,
      "sit": 4993,
      "sli": 4994,
      "slo": 4995,
      "sne": 4996,
      "scap": 4997,
      "scar": 4998,
      "tor": 4999,
      "twi": 5000,
      "tap": 5001,
      "tast": 5002,
      "tend": 5003,
      "tight": 5004,
      "tted": 5005,
      "tna": 5006,
      "task": 5007,
      "tired": 5008,
      "trop": 5009,
      "ues": 5010,
      "ually": 5011,
      "uber": 5012,
      "uvi": 5013,
      "vre": 5014,
      "vous": 5015,
      "vary": 5016,
      "vities": 5017,
      "whel": 5018,
      "woman": 5019,
      "yle": 5020,
      "yester": 5021,
      "thr": 5022,
      "thri": 5023,
      "thread": 5024,
      "thunder": 5025,
      "threat": 5026,
      "thrill": 5027,
      "infl": 5028,
      "inmat": 5029,
      "inert": 5030,
      "inches": 5031,
      "incompreh": 5032,
      "rever": 5033,
      "reck": 5034,
      "reel": 5035,
      "repress": 5036,
      "retained": 5037,
      "removed": 5038,
      "reserved": 5039,
      "ont": 5040,
      "online": 5041,
      "erne": 5042,
      "ercury": 5043,
      "atic": 5044,
      "oudy": 5045,
      "oubled": 5046,
      "ench": 5047,
      "enlight": 5048,
      "editions": 5049,
      "stom": 5050,
      "stir": 5051,
      "stial": 5052,
      "stern": 5053,
      "status": 5054,
      "style": 5055,
      "armed": 5056,
      "armor": 5057,
      "ories": 5058,
      "orum_": 5059,
      "orama": 5060,
      "itute": 5061,
      "llo": 5062,
      "isn": 5063,
      "isha": 5064,
      "isol": 5065,
      "toler": 5066,
      "tools": 5067,
      "as_": 5068,
      "assuming": 5069,
      "le_": 5070,
      "lease": 5071,
      "legs": 5072,
      "icious": 5073,
      "heal": 5074,
      "select": 5075,
      "secure": 5076,
      "beat": 5077,
      "bered": 5078,
      "beside": 5079,
      "beating": 5080,
      "beef": 5081,
      "omn": 5082,
      "hap": 5083,
      "noble": 5084,
      "noses": 5085,
      "novel": 5086,
      "alk": 5087,
      "alizing": 5088,
      "vember": 5089,
      "entered": 5090,
      "wear": 5091,
      "weird": 5092,
      "week": 5093,
      "weeks": 5094,
      "rol": 5095,
      "rope": 5096,
      "uted": 5097,
      "rist": 5098,
      "rily": 5099,
      "ries": 5100,
      "rivers": 5101,
      "rade": 5102,
      "raged": 5103,
      "raising": 5104,
      "impart": 5105,
      "impossibility": 5106,
      "immobility": 5107,
      "chill": 5108,
      "chance": 5109,
      "changed": 5110,
      "chlor": 5111,
      "allic": 5112,
      "irrepress": 5113,
      "lier": 5114,
      "forci": 5115,
      "ections": 5116,
      "def": 5117,
      "destruction": 5118,
      "owed": 5119,
      "moon": 5120,
      "mother": 5121,
      "motions": 5122,
      "ource": 5123,
      "withdrawn": 5124,
      "confir": 5125,
      "consist": 5126,
      "confounded": 5127,
      "appl": 5128,
      "applicable": 5129,
      "eties": 5130,
      "exquisite": 5131,
      "bye": 5132,
      "loose": 5133,
      "lowered": 5134,
      "diving": 5135,
      "polar": 5136,
      "posts": 5137,
      "oundest": 5138,
      "neat": 5139,
      "nell": 5140,
      "nearing": 5141,
      "ades": 5142,
      "adjust": 5143,
      "adopt": 5144,
      "urged": 5145,
      "meat": 5146,
      "members": 5147,
      "quit": 5148,
      "quir": 5149,
      "quality": 5150,
      "ulation": 5151,
      "ulous": 5152,
      "comical": 5153,
      "fees": 5154,
      "tearing": 5155,
      "shorter": 5156,
      "shattered": 5157,
      "shrie": 5158,
      "More": 5159,
      "Mother": 5160,
      "acious": 5161,
      "accompan": 5162,
      "aches": 5163,
      "acknowled": 5164,
      "accompany": 5165,
      "romantic": 5166,
      "fath": 5167,
      "favored": 5168,
      "nowhere": 5169,
      "prec": 5170,
      "preserve": 5171,
      "redoubled": 5172,
      "endent": 5173,
      "endured": 5174,
      "aging": 5175,
      "agony": 5176,
      "agreed": 5177,
      "perate": 5178,
      "performing": 5179,
      "permitted": 5180,
      "fold": 5181,
      "umes": 5182,
      "sa_": 5183,
      "cock": 5184,
      "coolly": 5185,
      "ilt": 5186,
      "--?\"": 5187,
      "anting": 5188,
      "ills": 5189,
      "pler": 5190,
      "process": 5191,
      "propose": 5192,
      "prospect": 5193,
      "proposed": 5194,
      "propri": 5195,
      "proportions": 5196,
      "proxim": 5197,
      "providing": 5198,
      "pest": 5199,
      "travel": 5200,
      "uphea": 5201,
      "bos": 5202,
      "artyr": 5203,
      "ounded": 5204,
      "greed": 5205,
      "greeted": 5206,
      "derrick": 5207,
      "thanks": 5208,
      "foreshort": 5209,
      "amber": 5210,
      "amused": 5211,
      "anywhere": 5212,
      "anybody": 5213,
      "disg": 5214,
      "induce": 5215,
      "serving": 5216,
      "ideas": 5217,
      "laun": 5218,
      "lake": 5219,
      "lavius_": 5220,
      "surmount": 5221,
      "host": 5222,
      "comput": 5223,
      "compare": 5224,
      "compris": 5225,
      "compliance": 5226,
      "doom": 5227,
      "dozen": 5228,
      "dotted": 5229,
      "gling": 5230,
      "aching": 5231,
      "While": 5232,
      "manage": 5233,
      "managed": 5234,
      "manhole": 5235,
      "goes": 5236,
      "stricken": 5237,
      "cavities": 5238,
      "November": 5239,
      "oped": 5240,
      "opposition": 5241,
      "Thunder": 5242,
      "readers": 5243,
      "owner": 5244,
      "overcome": 5245,
      "overboard": 5246,
      "overwhel": 5247,
      "grace": 5248,
      "gravely": 5249,
      "ieth": 5250,
      "intox": 5251,
      "share": 5252,
      "type": 5253,
      "interstellar": 5254,
      "desol": 5255,
      "undertaking": 5256,
      "cult": 5257,
      "flashing": 5258,
      "flapping": 5259,
      "flashes": 5260,
      "sidence": 5261,
      "clap": 5262,
      "clay": 5263,
      "clust": 5264,
      "centres": 5265,
      "certain_": 5266,
      "certainty": 5267,
      "tenths": 5268,
      "mineral": 5269,
      "selen": 5270,
      "THAT": 5271,
      "counting": 5272,
      "northeast": 5273,
      "condens": 5274,
      "caloric": 5275,
      "solic": 5276,
      "solve": 5277,
      "corp": 5278,
      "corus": 5279,
      "steel": 5280,
      "exciting": 5281,
      "creation": 5282,
      "Answ": 5283,
      "tempor": 5284,
      "justify": 5285,
      "disclaim": 5286,
      "afternoon": 5287,
      "refuse": 5288,
      "refused": 5289,
      "refuge": 5290,
      "donate": 5291,
      "ifications": 5292,
      "ps_": 5293,
      "pressing": 5294,
      "icks": 5295,
      "icker": 5296,
      "instone": 5297,
      "angle": 5298,
      "clearing": 5299,
      "ventured": 5300,
      "expenses": 5301,
      "shore": 5302,
      "yell": 5303,
      "fired": 5304,
      "attend": 5305,
      "curtly": 5306,
      "landing": 5307,
      "stream": 5308,
      "copying": 5309,
      "copied": 5310,
      "observatory": 5311,
      "matters": 5312,
      "leton": 5313,
      "singularly": 5314,
      "probable": 5315,
      "final": 5316,
      "finest": 5317,
      "float": 5318,
      "flood": 5319,
      "kinds": 5320,
      "kindly": 5321,
      "ashy": 5322,
      "perihelion": 5323,
      "circul": 5324,
      "smart": 5325,
      "smiling": 5326,
      "instantane": 5327,
      "background": 5328,
      "beds": 5329,
      "inhabitability": 5330,
      "apped": 5331,
      "diffused": 5332,
      "plane": 5333,
      "skin": 5334,
      "silvery": 5335,
      "ANY": 5336,
      "_Clavius_": 5337,
      "talked": 5338,
      "radii": 5339,
      "radiated": 5340,
      "sixteen": 5341,
      "ART": 5342,
      "AROUN": 5343,
      "anciful": 5344,
      "metallic": 5345,
      "thoughts": 5346,
      "remembers": 5347,
      "store": 5348,
      "allows": 5349,
      "expressed": 5350,
      "favorite": 5351,
      "supper": 5352,
      "Once": 5353,
      "risen": 5354,
      "ites_": 5355,
      "terrific": 5356,
      "craw": 5357,
      "vals": 5358,
      "valent": 5359,
      "actual": 5360,
      "built": 5361,
      "reception": 5362,
      "Precise": 5363,
      "satisfied": 5364,
      "wants": 5365,
      "recovered": 5366,
      "professor": 5367,
      "profoundest": 5368,
      "Under": 5369,
      "chair": 5370,
      "horse": 5371,
      "horses": 5372,
      "realized": 5373,
      "laught": 5374,
      "succession": 5375,
      "successive": 5376,
      "LITT": 5377,
      "dimmer": 5378,
      "projections": 5379,
      "sunk": 5380,
      "penet": 5381,
      "arers": 5382,
      "OUGH": 5383,
      "indefinite": 5384,
      "circles": 5385,
      "command": 5386,
      "commence": 5387,
      "strangely": 5388,
      "southwest": 5389,
      "magnet": 5390,
      "magnifying": 5391,
      "balls": 5392,
      "ia_": 5393,
      "pairs": 5394,
      "dispute": 5395,
      "END": 5396,
      "ENT": 5397,
      "blame": 5398,
      "confess": 5399,
      "examination": 5400,
      "TIMORE": 5401,
      "drear": 5402,
      "dressed": 5403,
      "dreamed": 5404,
      "arrive": 5405,
      "hemispheres": 5406,
      "occupy": 5407,
      "occupants": 5408,
      "catching": 5409,
      "mixt": 5410,
      "otnote": 5411,
      "Mahomet": 5412,
      "_Ari": 5413,
      "holder": 5414,
      "periods": 5415,
      "revealing": 5416,
      "ALL": 5417,
      "Hope": 5418,
      "Without": 5419,
      "influences": 5420,
      "respects": 5421,
      "difficulties": 5422,
      "reminds": 5423,
      "1645": 5424,
      "Produ": 5425,
      "Probably": 5426,
      "cutting": 5427,
      "driving": 5428,
      "limit": 5429,
      "wait": 5430,
      "waving": 5431,
      "waves": 5432,
      "believing": 5433,
      "destroy": 5434,
      "conceal": 5435,
      "wheel": 5436,
      "namely": 5437,
      "univers": 5438,
      "ACK": 5439,
      "ACT": 5440,
      "faintest": 5441,
      "delicious": 5442,
      "principal": 5443,
      "firmament": 5444,
      "importance": 5445,
      "discussed": 5446,
      "systems": 5447,
      "circumstance": 5448,
      "employ": 5449,
      "Read": 5450,
      "STR": 5451,
      "casting": 5452,
      "vestige": 5453,
      "problems": 5454,
      "People": 5455,
      "couple": 5456,
      "smothered": 5457,
      "rendering": 5458,
      "occurred": 5459,
      "occurrence": 5460,
      "possessing": 5461,
      "Hills": 5462,
      "relished": 5463,
      "utterly": 5464,
      "supplied": 5465,
      "merely": 5466,
      "Archimed": 5467,
      "diminish": 5468,
      "resemble": 5469,
      "resembling": 5470,
      "vegetable": 5471,
      "contemplate": 5472,
      "admitting": 5473,
      "formerly": 5474,
      "organization": 5475,
      "COM": 5476,
      "COLD": 5477,
      "hilar": 5478,
      "tables": 5479,
      "explaining": 5480,
      "officer": 5481,
      "official": 5482,
      "Black": 5483,
      "Quarter": 5484,
      "_Has": 5485,
      "flew": 5486,
      "furnished": 5487,
      "paying": 5488,
      "modified": 5489,
      "methods": 5490,
      "disturb": 5491,
      "solidity": 5492,
      "resistance": 5493,
      "horizontal": 5494,
      "hyperbol": 5495,
      "FIRST": 5496,
      "envelope": 5497,
      "enveloping": 5498,
      "whirl": 5499,
      "lifting": 5500,
      "depressed": 5501,
      "measurements": 5502,
      "boats": 5503,
      "recognized": 5504,
      "_Vive": 5505,
      "touching": 5506,
      "throbbing": 5507,
      "revolving": 5508,
      "impression": 5509,
      "precaution": 5510,
      "speculation": 5511,
      "speculations": 5512,
      "cheerful": 5513,
      "telegraphic": 5514,
      "HIGH": 5515,
      "infinitely": 5516,
      "anxiety": 5517,
      "experienced": 5518,
      "admired": 5519,
      "amental": 5520,
      "establish": 5521,
      "joyful": 5522,
      "screwed": 5523,
      "signals": 5524,
      "BICAN": 5525,
      "damage": 5526,
      "incessantly": 5527,
      "fairly": 5528,
      "personal": 5529,
      "manufacture": 5530,
      "ignorant": 5531,
      "recovering": 5532,
      "requirements": 5533,
      "dinner": 5534,
      "gleam": 5535,
      "panorama": 5536,
      "rushing": 5537,
      "invented": 5538,
      "bewildered": 5539,
      "celestial": 5540,
      "astonishment": 5541,
      "shouted": 5542,
      "shifting": 5543,
      "estimation": 5544,
      "Indians": 5545,
      "physical": 5546,
      "authorities": 5547,
      "intellectual": 5548,
      "pursued": 5549,
      "landscapes": 5550,
      "balance": 5551,
      "waste": 5552,
      "yielded": 5553,
      "yielding": 5554,
      "incred": 5555,
      "inferior": 5556,
      "eruptions": 5557,
      "identical": 5558,
      "rotation": 5559,
      "suspended": 5560,
      "decision": 5561,
      "potash": 5562,
      "shroud": 5563,
      "perceive": 5564,
      "perceived": 5565,
      "branch": 5566,
      "ruptured": 5567,
      "insisted": 5568,
      "letters": 5569,
      "channel": 5570,
      "admiration": 5571,
      "Europe": 5572,
      "aerol": 5573,
      "grimly": 5574,
      "incontest": 5575,
      "involving": 5576,
      "mechanically": 5577,
      "TENBER": 5578,
      "prominence": 5579,
      "principally": 5580,
      "BALTIMORE": 5581,
      "barely": 5582,
      "birds": 5583,
      "flame": 5584,
      "fundamental": 5585,
      "glistening": 5586,
      "hiding": 5587,
      "hunger": 5588,
      "history": 5589,
      "walks": 5590,
      "located": 5591,
      "illikins": 5592,
      "venient": 5593,
      "compensation": 5594,
      "flourishing": 5595,
      "newspaper": 5596,
      "special": 5597,
      "ecstasy": 5598,
      "switched": 5599,
      "participated": 5600,
      "grooves": 5601,
      "whispers": 5602,
      "elliptical": 5603,
      "Director": 5604,
      "Tranquillitatis_": 5605,
      "Footnote": 5606,
      "Green": 5607,
      "Listen": 5608,
      "LUNAR": 5609,
      "Nasmyth": 5610,
      "PROJECT": 5611,
      "Whether": 5612,
      "_nil_": 5613,
      "_Barbicanites_": 5614,
      "furious": 5615,
      "front": 5616,
      "fissures": 5617,
      "junction": 5618,
      "tube": 5619,
      "wrapped": 5620,
      "whistling": 5621,
      "sublime": 5622,
      "molten": 5623,
      "polished": 5624,
      "memory": 5625,
      "dangers": 5626,
      "feasibility": 5627,
      "ships": 5628,
      "accurate": 5629,
      "faithful": 5630,
      "performan": 5631,
      "restored": 5632,
      "brisk": 5633,
      "struggling": 5634,
      "awakened": 5635,
      "guesses": 5636,
      "Continent": 5637,
      "telegram": 5638,
      "fragments": 5639,
      "exclamation": 5640,
      "abundant": 5641,
      "gorgeous": 5642,
      "BARBICAN": 5643,
      "Creator": 5644,
      "Elphinstone": 5645,
      "Fourier": 5646,
      "FROM": 5647,
      "Frigoris_": 5648,
      "GUTENBER": 5649,
      "Golden": 5650,
      "HALF": 5651,
      "Venus": 5652,
      "WARRAN": 5653,
      "_not_": 5654,
      "_unity_": 5655,
      "coffin": 5656,
      "epoch": 5657,
      "gaseous": 5658,
      "houses": 5659,
      "ruler": 5660,
      "route": 5661,
      "tropical": 5662,
      "yesterday": 5663,
      "inmates": 5664,
      "incomprehensible": 5665,
      "stomach": 5666,
      "irrepressible": 5667,
      "confirmed": 5668,
      "accompanied": 5669,
      "acknowledged": 5670,
      "proximity": 5671,
      "comprised": 5672,
      "AROUND": 5673,
      "Precisely": 5674,
      "16457": 5675,
      "GUTENBERG": 5676,
      "!)": 5677,
      "!--\"": 5678,
      "(-----": 5679,
      ",--\"": 5680,
      ".[": 5681,
      ".}": 5682,
      "21": 5683,
      "29": 5684,
      "33": 5685,
      "38": 5686,
      "360": 5687,
      "42": 5688,
      "450": 5689,
      "57": 5690,
      "81": 5691,
      "89": 5692,
      "AK": 5693,
      "Am": 5694,
      "Air": 5695,
      "Apo": 5696,
      "Aust": 5697,
      "Asi": 5698,
      "ACH": 5699,
      "About": 5700,
      "Bu": 5701,
      "Bar": 5702,
      "Band": 5703,
      "BRE": 5704,
      "CY": 5705,
      "Ca": 5706,
      "Cle": 5707,
      "Cha": 5708,
      "Call": 5709,
      "Cur": 5710,
      "Cable": 5711,
      "Cass": 5712,
      "Cris": 5713,
      "COU": 5714,
      "Den": 5715,
      "Down": 5716,
      "DEM": 5717,
      "EP": 5718,
      "El": 5719,
      "Es": 5720,
      "Eve": 5721,
      "EAR": 5722,
      "EBook": 5723,
      "EVER": 5724,
      "Fin": 5725,
      "Fur": 5726,
      "Fair": 5727,
      "Fris": 5728,
      "Fire": 5729,
      "Field": 5730,
      "FULL": 5731,
      "Ger": 5732,
      "Gent": 5733,
      "GEN": 5734,
      "Hu": 5735,
      "Hor": 5736,
      "Hand": 5737,
      "Hal": 5738,
      "House": 5739,
      "Homer": 5740,
      "Irid": 5741,
      "Jud": 5742,
      "LA": 5743,
      "Le": 5744,
      "Land": 5745,
      "Lun": 5746,
      "Low": 5747,
      "Last": 5748,
      "Little": 5749,
      "Lord": 5750,
      "Min": 5751,
      "Mor": 5752,
      "Map": 5753,
      "MAR": 5754,
      "MAC": 5755,
      "MAG": 5756,
      "Ni": 5757,
      "Nay": 5758,
      "None": 5759,
      "Nature": 5760,
      "Out": 5761,
      "Other": 5762,
      "OLD": 5763,
      "Owing": 5764,
      "PA": 5765,
      "PI": 5766,
      "PS": 5767,
      "Pull": 5768,
      "Pol": 5769,
      "PHI": 5770,
      "Rome": 5771,
      "SS": 5772,
      "Sp": 5773,
      "Sou": 5774,
      "Simp": 5775,
      "Sub": 5776,
      "SOU": 5777,
      "Speak": 5778,
      "Sorb": 5779,
      "Stop": 5780,
      "Scot": 5781,
      "Saint": 5782,
      "Ty": 5783,
      "Tit": 5784,
      "Tam": 5785,
      "Tele": 5786,
      "True": 5787,
      "UC": 5788,
      "Ves": 5789,
      "Vice": 5790,
      "Verne": 5791,
      "Wa": 5792,
      "Wat": 5793,
      "Wonder": 5794,
      "_N": 5795,
      "_e": 5796,
      "_g": 5797,
      "_à": 5798,
      "_the": 5799,
      "_was": 5800,
      "_The": 5801,
      "_con": 5802,
      "_had": 5803,
      "_could": 5804,
      "_should": 5805,
      "_He": 5806,
      "_did": 5807,
      "_down": 5808,
      "_Ne": 5809,
      "_Qu": 5810,
      "_Jupiter": 5811,
      "_eccentric": 5812,
      "_Er": 5813,
      "_Uran": 5814,
      "_apo": 5815,
      "_perige": 5816,
      "_Archimed": 5817,
      "ava": 5818,
      "afra": 5819,
      "bb": 5820,
      "bat": 5821,
      "bou": 5822,
      "bas": 5823,
      "bir": 5824,
      "bli": 5825,
      "bab": 5826,
      "bag": 5827,
      "bber": 5828,
      "bark": 5829,
      "cas": 5830,
      "cred": 5831,
      "cart": 5832,
      "cuse": 5833,
      "cles": 5834,
      "cchi": 5835,
      "cinder": 5836,
      "dus": 5837,
      "dess": 5838,
      "dull": 5839,
      "dict": 5840,
      "daily": 5841,
      "eu": 5842,
      "ech": 5843,
      "eman": 5844,
      "echo": 5845,
      "fy": 5846,
      "fly": 5847,
      "fanciful": 5848,
      "gri": 5849,
      "gard": 5850,
      "gence": 5851,
      "gging": 5852,
      "ghast": 5853,
      "gulf": 5854,
      "hi": 5855,
      "hn": 5856,
      "hing": 5857,
      "hide": 5858,
      "hang": 5859,
      "hung": 5860,
      "io": 5861,
      "iac": 5862,
      "iers": 5863,
      "ially": 5864,
      "ihil": 5865,
      "jag": 5866,
      "jok": 5867,
      "jack": 5868,
      "knot": 5869,
      "kne": 5870,
      "lon": 5871,
      "lam": 5872,
      "lass": 5873,
      "lted": 5874,
      "mas": 5875,
      "mal": 5876,
      "mess": 5877,
      "mud": 5878,
      "martyr": 5879,
      "oc": 5880,
      "oh": 5881,
      "oo": 5882,
      "ost": 5883,
      "oke": 5884,
      "ote": 5885,
      "otion": 5886,
      "pi": 5887,
      "pin": 5888,
      "pon": 5889,
      "pom": 5890,
      "pra": 5891,
      "pall": 5892,
      "pter": 5893,
      "pup": 5894,
      "pable": 5895,
      "pig": 5896,
      "pine": 5897,
      "pier": 5898,
      "pushed": 5899,
      "pray": 5900,
      "ras": 5901,
      "rous": 5902,
      "rum": 5903,
      "ride": 5904,
      "rud": 5905,
      "rors": 5906,
      "rank": 5907,
      "rinkled": 5908,
      "sle": 5909,
      "scri": 5910,
      "sigh": 5911,
      "scur": 5912,
      "salt": 5913,
      "sank": 5914,
      "sitting": 5915,
      "sized": 5916,
      "sangu": 5917,
      "tree": 5918,
      "tty": 5919,
      "tting": 5920,
      "tang": 5921,
      "tiest": 5922,
      "tresses": 5923,
      "upro": 5924,
      "ucle": 5925,
      "vic": 5926,
      "vad": 5927,
      "vul": 5928,
      "vag": 5929,
      "vill": 5930,
      "vable": 5931,
      "vance": 5932,
      "viction": 5933,
      "wy": 5934,
      "win": 5935,
      "wis": 5936,
      "wine": 5937,
      "wave": 5938,
      "warr": 5939,
      "wager": 5940,
      "y_": 5941,
      "yen": 5942,
      "yes": 5943,
      "yrene": 5944,
      "zac": 5945,
      "theat": 5946,
      "theless": 5947,
      "ina": 5948,
      "inf": 5949,
      "ini": 5950,
      "insp": 5951,
      "inity": 5952,
      "inations": 5953,
      "incid": 5954,
      "incalcul": 5955,
      "infin": 5956,
      "inexpress": 5957,
      "included": 5958,
      "invaluable": 5959,
      "rer": 5960,
      "rely": 5961,
      "remo": 5962,
      "reet": 5963,
      "retain": 5964,
      "revis": 5965,
      "rejo": 5966,
      "reign": 5967,
      "rebuff": 5968,
      "reliable": 5969,
      "aning": 5970,
      "ante": 5971,
      "ona": 5972,
      "onne": 5973,
      "erated": 5974,
      "ercy": 5975,
      "ata": 5976,
      "attain": 5977,
      "atics": 5978,
      "atos": 5979,
      "ena": 5980,
      "eness": 5981,
      "encounter": 5982,
      "edition": 5983,
      "stic": 5984,
      "stro": 5985,
      "stay": 5986,
      "stum": 5987,
      "stage": 5988,
      "staff": 5989,
      "aries": 5990,
      "argu": 5991,
      "arches": 5992,
      "arrested": 5993,
      "orange": 5994,
      "itary": 5995,
      "iset": 5996,
      "tole": 5997,
      "topo": 5998,
      "toast": 5999,
      "asper": 6000,
      "aside": 6001,
      "ascent": 6002,
      "assure": 6003,
      "assem": 6004,
      "assail": 6005,
      "lemen": 6006,
      "icked": 6007,
      "ications": 6008,
      "icism": 6009,
      "hearing": 6010,
      "hearers": 6011,
      "seated": 6012,
      "sealed": 6013,
      "befall": 6014,
      "escence": 6015,
      "oming": 6016,
      "ometer": 6017,
      "cted": 6018,
      "haz": 6019,
      "halt": 6020,
      "habits": 6021,
      "nobody": 6022,
      "al_": 6023,
      "alty": 6024,
      "alking": 6025,
      "alumin": 6026,
      "entr": 6027,
      "entity": 6028,
      "ential": 6029,
      "entire": 6030,
      "cease": 6031,
      "web": 6032,
      "verted": 6033,
      "versa_": 6034,
      "roof": 6035,
      "rogen": 6036,
      "roeter": 6037,
      "roaring": 6038,
      "rossed": 6039,
      "utation": 6040,
      "utonic": 6041,
      "whom": 6042,
      "rip": 6043,
      "rius": 6044,
      "ripet": 6045,
      "rivance": 6046,
      "rapt": 6047,
      "ramid": 6048,
      "ravin": 6049,
      "rails": 6050,
      "imit": 6051,
      "improved": 6052,
      "imming": 6053,
      "cher": 6054,
      "chick": 6055,
      "chimed": 6056,
      "chus_": 6057,
      "chasm": 6058,
      "united": 6059,
      "unequ": 6060,
      "unru": 6061,
      "uneasy": 6062,
      "unearth": 6063,
      "unsatisfactory": 6064,
      "unassail": 6065,
      "allation": 6066,
      "irs": 6067,
      "irty": 6068,
      "irresist": 6069,
      "irrit": 6070,
      "suit": 6071,
      "suitable": 6072,
      "sulph": 6073,
      "ainted": 6074,
      "wire": 6075,
      "wires": 6076,
      "wiping": 6077,
      "lived": 6078,
      "lives": 6079,
      "liability": 6080,
      "lihood": 6081,
      "forced": 6082,
      "deb": 6083,
      "dev": 6084,
      "decom": 6085,
      "demy": 6086,
      "decor": 6087,
      "demon": 6088,
      "decept": 6089,
      "ows": 6090,
      "aband": 6091,
      "absent": 6092,
      "abys": 6093,
      "abrupt": 6094,
      "moist": 6095,
      "model": 6096,
      "movable": 6097,
      "contain": 6098,
      "consol": 6099,
      "concept": 6100,
      "confirm": 6101,
      "convenient": 6102,
      "conviction": 6103,
      "eta": 6104,
      "etu": 6105,
      "eters": 6106,
      "etary": 6107,
      "exten": 6108,
      "explor": 6109,
      "aye": 6110,
      "hissing": 6111,
      "termin": 6112,
      "ternal": 6113,
      "local": 6114,
      "lovely": 6115,
      "looming": 6116,
      "divers": 6117,
      "poet": 6118,
      "pock": 6119,
      "noted": 6120,
      "soil": 6121,
      "soever": 6122,
      "user": 6123,
      "iless": 6124,
      "astrop": 6125,
      "astounded": 6126,
      "nebul": 6127,
      "ads": 6128,
      "advent": 6129,
      "advers": 6130,
      "urb": 6131,
      "mest": 6132,
      "member": 6133,
      "quar": 6134,
      "quity": 6135,
      "quently": 6136,
      "uls": 6137,
      "ulating": 6138,
      "comed": 6139,
      "committee": 6140,
      "key": 6141,
      "outlined": 6142,
      "ssibly": 6143,
      "feast": 6144,
      "feather": 6145,
      "tel": 6146,
      "tear": 6147,
      "shar": 6148,
      "shud": 6149,
      "shru": 6150,
      "shiver": 6151,
      "acr": 6152,
      "acqui": 6153,
      "accum": 6154,
      "spring": 6155,
      "rometer": 6156,
      "preced": 6157,
      "agn": 6158,
      "agency": 6159,
      "agara": 6160,
      "fog": 6161,
      "food": 6162,
      "folding": 6163,
      "ardon": 6164,
      "umns": 6165,
      "saf": 6166,
      "save": 6167,
      "coated": 6168,
      "cook": 6169,
      "cosm": 6170,
      "cocks": 6171,
      "ilities": 6172,
      "illa": 6173,
      "illusion": 6174,
      "couldn": 6175,
      "plat": 6176,
      "planted": 6177,
      "plutonic": 6178,
      "prolong": 6179,
      "proposition": 6180,
      "prodig": 6181,
      "peering": 6182,
      "pelled": 6183,
      "tray": 6184,
      "upright": 6185,
      "canine": 6186,
      "veness": 6187,
      "articul": 6188,
      "bleeding": 6189,
      "deriv": 6190,
      "akers": 6191,
      "forecast": 6192,
      "amuse": 6193,
      "obtaining": 6194,
      "obscur": 6195,
      "urely": 6196,
      "dish": 6197,
      "disappearance": 6198,
      "disagreeable": 6199,
      "series": 6200,
      "idest": 6201,
      "cries": 6202,
      "ladies": 6203,
      "surpassed": 6204,
      "thereby": 6205,
      "intill": 6206,
      "hove": 6207,
      "hosp": 6208,
      "hoax": 6209,
      "hotel": 6210,
      "light_": 6211,
      "lighting": 6212,
      "likelihood": 6213,
      "whatsoever": 6214,
      "compass": 6215,
      "complying": 6216,
      "compasses": 6217,
      "door": 6218,
      "dollar": 6219,
      "glac": 6220,
      "glowing": 6221,
      "glimmer": 6222,
      "ests": 6223,
      "olis": 6224,
      "ciety": 6225,
      "mann": 6226,
      "goose": 6227,
      "govern": 6228,
      "elastic": 6229,
      "selfish": 6230,
      "igrade": 6231,
      "Inst": 6232,
      "Instead": 6233,
      "phleg": 6234,
      "odd": 6235,
      "blu": 6236,
      "blown": 6237,
      "caut": 6238,
      "cavity": 6239,
      "ister": 6240,
      "istered": 6241,
      "istoric": 6242,
      "menting": 6243,
      "partly": 6244,
      "parties": 6245,
      "partially": 6246,
      "ffled": 6247,
      "everywhere": 6248,
      "oppon": 6249,
      "vellous": 6250,
      "Through": 6251,
      "Thoms": 6252,
      "Thank": 6253,
      "Web": 6254,
      "resting": 6255,
      "restra": 6256,
      "grap": 6257,
      "gravit": 6258,
      "sentence": 6259,
      "shaken": 6260,
      "shaky": 6261,
      "print": 6262,
      "theses": 6263,
      "intersection": 6264,
      "intervals": 6265,
      "ater_": 6266,
      "desert": 6267,
      "desires": 6268,
      "desperate": 6269,
      "eping": 6270,
      "offer": 6271,
      "contents": 6272,
      "contrivance": 6273,
      "roughly": 6274,
      "Hemisphere": 6275,
      "Heaven": 6276,
      "culmin": 6277,
      "useful": 6278,
      "remed": 6279,
      "flakes": 6280,
      "flung": 6281,
      "willingly": 6282,
      "crit": 6283,
      "crashing": 6284,
      "impetu": 6285,
      "clapping": 6286,
      "centrif": 6287,
      "centigrade": 6288,
      "tenth": 6289,
      "tened": 6290,
      "whereas": 6291,
      "inkage": 6292,
      "fewer": 6293,
      "airs": 6294,
      "presents": 6295,
      "gral": 6296,
      "grate": 6297,
      "correspond": 6298,
      "rows": 6299,
      "steer": 6300,
      "stered": 6301,
      "brings": 6302,
      "excuse": 6303,
      "sheets": 6304,
      "thenes_": 6305,
      "creating": 6306,
      "Annap": 6307,
      "denied": 6308,
      "extends": 6309,
      "tempered": 6310,
      "justice": 6311,
      "newly": 6312,
      "bition": 6313,
      "mative": 6314,
      "matically": 6315,
      "Bear": 6316,
      "gency": 6317,
      "ification": 6318,
      "_Mille": 6319,
      "howl": 6320,
      "howling": 6321,
      "angles": 6322,
      "Stri": 6323,
      "Street": 6324,
      "clea": 6325,
      "volumes": 6326,
      "resign": 6327,
      "speck": 6328,
      "subsidence": 6329,
      "subscri": 6330,
      "expand": 6331,
      "gian": 6332,
      "gibber": 6333,
      "navig": 6334,
      "darker": 6335,
      "watery": 6336,
      "capric": 6337,
      "yellow": 6338,
      "yelled": 6339,
      "downwards": 6340,
      "powers": 6341,
      "Secchi": 6342,
      "fiery": 6343,
      "fixed": 6344,
      "pping": 6345,
      "wondr": 6346,
      "attitudes": 6347,
      "charming": 6348,
      "passions": 6349,
      "souls": 6350,
      "streaked": 6351,
      "morrow": 6352,
      "copper": 6353,
      "trill": 6354,
      "windlass": 6355,
      "cules": 6356,
      "ibnit": 6357,
      "nals": 6358,
      "bravely": 6359,
      "finish": 6360,
      "join": 6361,
      "joke": 6362,
      "joined": 6363,
      "joining": 6364,
      "depends": 6365,
      "emb": 6366,
      "simpleton": 6367,
      "Nearly": 6368,
      "lato_": 6369,
      "interrupt": 6370,
      "purif": 6371,
      "spectators": 6372,
      "spectacles": 6373,
      "_Saturn": 6374,
      "subjects": 6375,
      "powerless": 6376,
      "kingdom": 6377,
      "sumption": 6378,
      "apply": 6379,
      "appalling": 6380,
      "exists": 6381,
      "wondering": 6382,
      "faster": 6383,
      "fasten": 6384,
      "sket": 6385,
      "astronomy": 6386,
      "address": 6387,
      "voring": 6388,
      "sixth": 6389,
      "INT": 6390,
      "hel_": 6391,
      "splitting": 6392,
      "tempers": 6393,
      "mony": 6394,
      "engrossed": 6395,
      "graphical": 6396,
      "soundless": 6397,
      "stored": 6398,
      "stoicism": 6399,
      "expressly": 6400,
      "expressions": 6401,
      "Doing": 6402,
      "wrinkled": 6403,
      "ene_": 6404,
      "countless": 6405,
      "efful": 6406,
      "choose": 6407,
      "terribly": 6408,
      "Clubmen": 6409,
      "CHO": 6410,
      "crazy": 6411,
      "valve": 6412,
      "value": 6413,
      "animation": 6414,
      "movements": 6415,
      "glassy": 6416,
      "viewing": 6417,
      "aux": 6418,
      "buried": 6419,
      "heaving": 6420,
      "pretending": 6421,
      "Pretty": 6422,
      "recovery": 6423,
      "recoil": 6424,
      "hearty": 6425,
      "shortly": 6426,
      "profess": 6427,
      "Unless": 6428,
      "Univers": 6429,
      "chambers": 6430,
      "chapter": 6431,
      "necessity": 6432,
      "necessarily": 6433,
      "bottomless": 6434,
      "horn": 6435,
      "realize": 6436,
      "production": 6437,
      "LITY": 6438,
      "LICEN": 6439,
      "syll": 6440,
      "sunken": 6441,
      "listened": 6442,
      "comparative": 6443,
      "operating": 6444,
      "scintill": 6445,
      "swore": 6446,
      "diamond": 6447,
      "grandly": 6448,
      "Newton": 6449,
      "freeze": 6450,
      "rules": 6451,
      "ushing": 6452,
      "OUR": 6453,
      "OUT": 6454,
      "guests": 6455,
      "anticip": 6456,
      "Connell": 6457,
      "ballast": 6458,
      "annihil": 6459,
      "neutralize": 6460,
      "dispense": 6461,
      "troubled": 6462,
      "distinguisha": 6463,
      "ESQ": 6464,
      "ESS": 6465,
      "_Ptole": 6466,
      "_Plato_": 6467,
      "walled": 6468,
      "examining": 6469,
      "columns": 6470,
      "answers": 6471,
      "answering": 6472,
      "opening": 6473,
      "attracted": 6474,
      "fortune": 6475,
      "TIVE": 6476,
      "dreary": 6477,
      "senseless": 6478,
      "starchus_": 6479,
      "coolness": 6480,
      "reflector": 6481,
      "mainly": 6482,
      "varied": 6483,
      "watched": 6484,
      "ceptible": 6485,
      "helpless": 6486,
      "nervous": 6487,
      "strikes": 6488,
      "escaping": 6489,
      "arency": 6490,
      "sharply": 6491,
      "brilliancy": 6492,
      "Roy": 6493,
      "marvellous": 6494,
      "purity": 6495,
      "signalling": 6496,
      "influenced": 6497,
      "respectable": 6498,
      "respectfully": 6499,
      "detach": 6500,
      "gradual": 6501,
      "equality": 6502,
      "earlier": 6503,
      "exterior": 6504,
      "reminding": 6505,
      "blaze": 6506,
      "dried": 6507,
      "driven": 6508,
      "limb": 6509,
      "limits": 6510,
      "limitation": 6511,
      "pathless": 6512,
      "wake": 6513,
      "waiting": 6514,
      "imagined": 6515,
      "destined": 6516,
      "conscience": 6517,
      "peculiarities": 6518,
      "20th": 6519,
      "Christ": 6520,
      "France": 6521,
      "Society": 6522,
      "affect": 6523,
      "sensation": 6524,
      "sensibly": 6525,
      "wardly": 6526,
      "attempted": 6527,
      "generated": 6528,
      "eighteen": 6529,
      "gunpowder": 6530,
      "welcomed": 6531,
      "universe": 6532,
      "prehistoric": 6533,
      "glimpses": 6534,
      "parallelism": 6535,
      "ACE": 6536,
      "Norway": 6537,
      "born": 6538,
      "bounded": 6539,
      "muttering": 6540,
      "increase": 6541,
      "bursting": 6542,
      "employing": 6543,
      "employe": 6544,
      "30th": 6545,
      "Regna": 6546,
      "Reiset": 6547,
      "STON": 6548,
      "named": 6549,
      "happiness": 6550,
      "combination": 6551,
      "transition": 6552,
      "flattened": 6553,
      "steamboat": 6554,
      "Didn": 6555,
      "SECON": 6556,
      "barren": 6557,
      "barrel": 6558,
      "ography": 6559,
      "enjoying": 6560,
      "1300": 6561,
      "Supposing": 6562,
      "UNI": 6563,
      "Whereas": 6564,
      "drop": 6565,
      "drops": 6566,
      "eleven": 6567,
      "elements": 6568,
      "freer": 6569,
      "frequently": 6570,
      "mingled": 6571,
      "pulled": 6572,
      "slang": 6573,
      "softly": 6574,
      "relation": 6575,
      "deathlike": 6576,
      "reported": 6577,
      "particles": 6578,
      "discovering": 6579,
      "profoundly": 6580,
      "diminishing": 6581,
      "Possibly": 6582,
      "_Lamber": 6583,
      "_vice": 6584,
      "purest": 6585,
      "purely": 6586,
      "resemblance": 6587,
      "admitted": 6588,
      "accessible": 6589,
      "property": 6590,
      "calmly": 6591,
      "calmness": 6592,
      "steeped": 6593,
      "organized": 6594,
      "Except": 6595,
      "Excuse": 6596,
      "trees": 6597,
      "treated": 6598,
      "tablets": 6599,
      "elsewhere": 6600,
      "triumpha": 6601,
      "communicate": 6602,
      "_Herald_": 6603,
      "bows": 6604,
      "fleet": 6605,
      "flesh": 6606,
      "fleck": 6607,
      "futile": 6608,
      "funct": 6609,
      "function": 6610,
      "furnish": 6611,
      "ivated": 6612,
      "jumped": 6613,
      "mistak": 6614,
      "payments": 6615,
      "modification": 6616,
      "teeth": 6617,
      "spiring": 6618,
      "sailors": 6619,
      "obliged": 6620,
      "obliquity": 6621,
      "services": 6622,
      "listeners": 6623,
      "arrangements": 6624,
      "Humorum_": 6625,
      "John": 6626,
      "Looking": 6627,
      "groans": 6628,
      "growing": 6629,
      "palace": 6630,
      "valleys": 6631,
      "enveloped": 6632,
      "separate": 6633,
      "separated": 6634,
      "whirling": 6635,
      "whirled": 6636,
      "depressions": 6637,
      "diverging": 6638,
      "comfortably": 6639,
      "accepted": 6640,
      "books": 6641,
      "tranquill": 6642,
      "variations": 6643,
      "retarded": 6644,
      "determination": 6645,
      "paragraphs": 6646,
      "Something": 6647,
      "throat": 6648,
      "impressed": 6649,
      "impressions": 6650,
      "sparkled": 6651,
      "coasts": 6652,
      "prisoners": 6653,
      "gratify": 6654,
      "speculative": 6655,
      "pleases": 6656,
      "cheerfully": 6657,
      "cracked": 6658,
      "reliefs": 6659,
      "phosp": 6660,
      "sandy": 6661,
      "respons": 6662,
      "leading": 6663,
      "philosophy": 6664,
      "concerning": 6665,
      "contemplation": 6666,
      "BILITY": 6667,
      "Life": 6668,
      "Schroeter": 6669,
      "VID": 6670,
      "afford": 6671,
      "painted": 6672,
      "snowy": 6673,
      "tints": 6674,
      "injured": 6675,
      "energy": 6676,
      "alternative": 6677,
      "weighs": 6678,
      "suggest": 6679,
      "devote": 6680,
      "ignorance": 6681,
      "hypotheses": 6682,
      "earnestly": 6683,
      "Boss": 6684,
      "eminent": 6685,
      "facility": 6686,
      "panes": 6687,
      "ugal": 6688,
      "warning": 6689,
      "warmest": 6690,
      "inexplicable": 6691,
      "ascertained": 6692,
      "bewildering": 6693,
      "alarming": 6694,
      "rolling": 6695,
      "unanimous": 6696,
      "superfic": 6697,
      "exclus": 6698,
      "astonished": 6699,
      "melted": 6700,
      "shouting": 6701,
      "shift": 6702,
      "previously": 6703,
      "preparing": 6704,
      "preparations": 6705,
      "estimated": 6706,
      "Indian": 6707,
      "physics": 6708,
      "vividly": 6709,
      "furrowed": 6710,
      "authority": 6711,
      "receives": 6712,
      "pursue": 6713,
      "contradic": 6714,
      "Between": 6715,
      "DAY": 6716,
      "DAMAG": 6717,
      "Fahr": 6718,
      "POSS": 6719,
      "Plain": 6720,
      "eaten": 6721,
      "frozen": 6722,
      "muscular": 6723,
      "infernal": 6724,
      "eruption": 6725,
      "beholding": 6726,
      "sustained": 6727,
      "sustaining": 6728,
      "defective": 6729,
      "abundance": 6730,
      "molecules": 6731,
      "asteroids": 6732,
      "shrinkage": 6733,
      "prevailed": 6734,
      "-----)": 6735,
      "blasting": 6736,
      "stretched": 6737,
      "stretching": 6738,
      "channels": 6739,
      "admiringly": 6740,
      "Cheyen": 6741,
      "aeron": 6742,
      "cabin": 6743,
      "finger": 6744,
      "fingers": 6745,
      "nitrogen": 6746,
      "network": 6747,
      "national": 6748,
      "hammer": 6749,
      "connected": 6750,
      "connection": 6751,
      "consulted": 6752,
      "advised": 6753,
      "advisable": 6754,
      "mechanical": 6755,
      "perplexity": 6756,
      "gods": 6757,
      "descend": 6758,
      "deserved": 6759,
      "designate": 6760,
      "corners": 6761,
      "refracted": 6762,
      "buffers": 6763,
      "LIMITE": 6764,
      "exceptional": 6765,
      "affirm": 6766,
      "principles": 6767,
      "obliquely": 6768,
      "picturesque": 6769,
      "endeavored": 6770,
      "endeavoring": 6771,
      "HERE": 6772,
      "SPACE": 6773,
      "World": 6774,
      "equipment": 6775,
      "equivalent": 6776,
      "knocked": 6777,
      "murm": 6778,
      "patron": 6779,
      "replacement": 6780,
      "analogous": 6781,
      "betraying": 6782,
      "hauling": 6783,
      "improvement": 6784,
      "modern": 6785,
      "moderate": 6786,
      "execution": 6787,
      "compelled": 6788,
      "compels": 6789,
      "acquainted": 6790,
      "amidst": 6791,
      "assistance": 6792,
      "impatient": 6793,
      "substance": 6794,
      "substances": 6795,
      "monotony": 6796,
      "_Leibnit": 6797,
      "gesticulating": 6798,
      "transport": 6799,
      "transparency": 6800,
      "philosophers": 6801,
      "vigorously": 6802,
      "Arago": 6803,
      "Greece": 6804,
      "Hardly": 6805,
      "Sierras": 6806,
      "Western": 6807,
      "average": 6808,
      "darkest": 6809,
      "economy": 6810,
      "ndall": 6811,
      "scoria": 6812,
      "reference": 6813,
      "seventeen": 6814,
      "belonging": 6815,
      "roasting": 6816,
      "charts": 6817,
      "library": 6818,
      "congratulate": 6819,
      "appreciable": 6820,
      "persisted": 6821,
      "articles": 6822,
      "cavernous": 6823,
      "excessive": 6824,
      "exclaiming": 6825,
      "density": 6826,
      "extremity": 6827,
      "refreshment": 6828,
      "fiercely": 6829,
      "struggle": 6830,
      "building": 6831,
      "draughts": 6832,
      "heaviest": 6833,
      "recollections": 6834,
      "scenes": 6835,
      "celebrated": 6836,
      "nineteenth": 6837,
      "majestic": 6838,
      "inconceivable": 6839,
      "Academy": 6840,
      "Diego": 6841,
      "Navy": 6842,
      "Naturally": 6843,
      "Peninsula": 6844,
      "Should": 6845,
      "Sirius": 6846,
      "Twenty": 6847,
      "_Arzac": 6848,
      "banquet": 6849,
      "crests": 6850,
      "drunk": 6851,
      "events": 6852,
      "fancies": 6853,
      "gallant": 6854,
      "honest": 6855,
      "links": 6856,
      "mirror": 6857,
      "pyramid": 6858,
      "rattling": 6859,
      "slipped": 6860,
      "slopes": 6861,
      "scaphand": 6862,
      "taste": 6863,
      "tender": 6864,
      "uvius": 6865,
      "varying": 6866,
      "throng": 6867,
      "thrilled": 6868,
      "thrilling": 6869,
      "inflated": 6870,
      "isolated": 6871,
      "healthy": 6872,
      "selected": 6873,
      "alkali": 6874,
      "imparted": 6875,
      "chlorate": 6876,
      "appla": 6877,
      "quiring": 6878,
      "shrieked": 6879,
      "fathoms": 6880,
      "greedily": 6881,
      "disgusted": 6882,
      "launch": 6883,
      "surmountable": 6884,
      "selenographic": 6885,
      "corusc": 6886,
      "Answer": 6887,
      "temporary": 6888,
      "instantaneous": 6889,
      "indefinitely": 6890,
      "magnetic": 6891,
      "mixture": 6892,
      "_Aristarchus_": 6893,
      "aerolite": 6894,
      "incontestably": 6895,
      "performance": 6896,
      "Cassini": 6897,
      "Crisium_": 6898,
      "COULD": 6899,
      "Esq": 6900,
      "Everest": 6901,
      "EARTH": 6902,
      "EVERY": 6903,
      "Finally": 6904,
      "Further": 6905,
      "Frisby": 6906,
      "German": 6907,
      "Gentlemen": 6908,
      "Half": 6909,
      "Iridium_": 6910,
      "MARSTON": 6911,
      "Niagara": 6912,
      "Spillikins": 6913,
      "Simply": 6914,
      "Sorbonne": 6915,
      "Tyndall": 6916,
      "Tampa": 6917,
      "Telegraph": 6918,
      "Vesuvius": 6919,
      "Wait": 6920,
      "Watkins": 6921,
      "Wonderful": 6922,
      "_g_": 6923,
      "_was_": 6924,
      "_had_": 6925,
      "_could_": 6926,
      "_should_": 6927,
      "_did_": 6928,
      "_down_": 6929,
      "_eccentricity_": 6930,
      "_Eratos": 6931,
      "_perigee_": 6932,
      "_Archimedes_": 6933,
      "avail": 6934,
      "afraid": 6935,
      "birth": 6936,
      "blistered": 6937,
      "ghastly": 6938,
      "hibition": 6939,
      "iacal": 6940,
      "jagged": 6941,
      "sanguine": 6942,
      "tangent": 6943,
      "uproar": 6944,
      "warrant": 6945,
      "incidents": 6946,
      "incalculable": 6947,
      "inexpressibly": 6948,
      "arguing": 6949,
      "topographical": 6950,
      "asperity": 6951,
      "aluminium": 6952,
      "ripetal": 6953,
      "ravines": 6954,
      "chickens": 6955,
      "unequalled": 6956,
      "unruffled": 6957,
      "unearthly": 6958,
      "unassailable": 6959,
      "sulphur": 6960,
      "abysses": 6961,
      "moisture": 6962,
      "extensive": 6963,
      "astrophe": 6964,
      "adversary": 6965,
      "shrugging": 6966,
      "accumulated": 6967,
      "derivative": 6968,
      "forecastle": 6969,
      "obscurity": 6970,
      "Thomson": 6971,
      "centrifugal": 6972,
      "Annapolis": 6973,
      "wondrous": 6974,
      "University": 6975,
      "LICENSE": 6976,
      "annihilated": 6977,
      "Regnault": 6978,
      "SECOND": 6979,
      "_Lambert_": 6980,
      "triumphal": 6981,
      "tranquillity": 6982,
      "Cheyenne": 6983,
      "LIMITED": 6984,
      "_Leibnitz_": 6985,
      "_Arzachel_": 6986,
      "_Eratosthenes_": 6987,
      "!!": 6988,
      "!'": 6989,
      "!}": 6990,
      "\"--": 6991,
      "''": 6992,
      ")(": 6993,
      ",'": 6994,
      "113": 6995,
      "2400": 6996,
      "2nd": 6997,
      "37": 6998,
      "44": 6999,
      "48": 7000,
      "4000": 7001,
      "480": 7002,
      "54": 7003,
      "55": 7004,
      "59": 7005,
      "62": 7006,
      "66": 7007,
      "750": 7008,
      "875": 7009,
      "900": 7010,
      ":--": 7011,
      "?'": 7012,
      "??\"": 7013,
      "AY": 7014,
      "AZ": 7015,
      "Ac": 7016,
      "Ap": 7017,
      "Au": 7018,
      "Are": 7019,
      "Ari": 7020,
      "Apri": 7021,
      "AST": 7022,
      "Afra": 7023,
      "Adie": 7024,
      "Again": 7025,
      "AQU": 7026,
      "Aug": 7027,
      "ABAL": 7028,
      "Astron": 7029,
      "BO": 7030,
      "Ba": 7031,
      "Bon": 7032,
      "Ball": 7033,
      "Bless": 7034,
      "Bey": 7035,
      "Burn": 7036,
      "BLI": 7037,
      "Broad": 7038,
      "BAT": 7039,
      "BOO": 7040,
      "BUT": 7041,
      "Bills": 7042,
      "BACK": 7043,
      "Cy": 7044,
      "Cre": 7045,
      "Cal": 7046,
      "Cut": 7047,
      "Care": 7048,
      "Cast": 7049,
      "City": 7050,
      "Cop": 7051,
      "Cold": 7052,
      "COR": 7053,
      "CII": 7054,
      "Clear": 7055,
      "Cult": 7056,
      "Cross": 7057,
      "CAT": 7058,
      "Close": 7059,
      "Cham": 7060,
      "Crises": 7061,
      "CRI": 7062,
      "Cimmer": 7063,
      "DY": 7064,
      "Dr": 7065,
      "Dra": 7066,
      "Dum": 7067,
      "Del": 7068,
      "Dist": 7069,
      "DON": 7070,
      "During": 7071,
      "DRO": 7072,
      "Dante": 7073,
      "EI": 7074,
      "EX": 7075,
      "EY": 7076,
      "Ever": 7077,
      "Eight": 7078,
      "Each": 7079,
      "Ester": 7080,
      "ELL": 7081,
      "ELD": 7082,
      "Easy": 7083,
      "EEL": 7084,
      "Egy": 7085,
      "Etna": 7086,
      "Eternal": 7087,
      "EBOO": 7088,
      "FL": 7089,
      "FT": 7090,
      "Face": 7091,
      "FTE": 7092,
      "FAN": 7093,
      "FAR": 7094,
      "Fec": 7095,
      "FIS": 7096,
      "Fert": 7097,
      "Falling": 7098,
      "Farewell": 7099,
      "FREE": 7100,
      "FACT": 7101,
      "FEEL": 7102,
      "GO": 7103,
      "Gl": 7104,
      "Go": 7105,
      "Gö": 7106,
      "God": 7107,
      "Gru": 7108,
      "GAS": 7109,
      "Grit": 7110,
      "GIR": 7111,
      "GLIM": 7112,
      "GAZ": 7113,
      "Hun": 7114,
      "Hart": 7115,
      "Hold": 7116,
      "Helen": 7117,
      "HIS": 7118,
      "Hire": 7119,
      "HING": 7120,
      "HUN": 7121,
      "HEM": 7122,
      "HEL": 7123,
      "HULL": 7124,
      "HOUR": 7125,
      "IV": 7126,
      "IX": 7127,
      "I_": 7128,
      "Ir": 7129,
      "Iron": 7130,
      "Imag": 7131,
      "IAC": 7132,
      "ILL": 7133,
      "IFI": 7134,
      "JO": 7135,
      "Jap": 7136,
      "Jard": 7137,
      "Jose": 7138,
      "Kal": 7139,
      "Kent": 7140,
      "Know": 7141,
      "KING": 7142,
      "Kane": 7143,
      "LS": 7144,
      "LV": 7145,
      "Lu": 7146,
      "Lou": 7147,
      "Lill": 7148,
      "Lec": 7149,
      "LING": 7150,
      "LAND": 7151,
      "MS": 7152,
      "MY": 7153,
      "Men": 7154,
      "Med": 7155,
      "Mab": 7156,
      "Mess": 7157,
      "Mort": 7158,
      "Mary": 7159,
      "Meas": 7160,
      "MSE": 7161,
      "MOUN": 7162,
      "Mercury": 7163,
      "MAK": 7164,
      "Mater_": 7165,
      "Nap": 7166,
      "OX": 7167,
      "Ou": 7168,
      "Occ": 7169,
      "OLU": 7170,
      "PG": 7171,
      "PR": 7172,
      "Pan": 7173,
      "Pas": 7174,
      "Prom": 7175,
      "Pass": 7176,
      "Peter": 7177,
      "PES": 7178,
      "PAC": 7179,
      "PRE": 7180,
      "PPED": 7181,
      "Pardon": 7182,
      "PHERE": 7183,
      "RD": 7184,
      "Red": 7185,
      "Ror": 7186,
      "Res": 7187,
      "Rod": 7188,
      "Rue": 7189,
      "Ref": 7190,
      "Rivers": 7191,
      "SU": 7192,
      "Sa": 7193,
      "Sm": 7194,
      "Sof": 7195,
      "Sir": 7196,
      "Sur": 7197,
      "Ste": 7198,
      "Sac": 7199,
      "Spr": 7200,
      "Slow": 7201,
      "Swit": 7202,
      "Sons": 7203,
      "SCAP": 7204,
      "Somn": 7205,
      "Surely": 7206,
      "SOLU": 7207,
      "Ta": 7208,
      "Tou": 7209,
      "Tem": 7210,
      "TLE": 7211,
      "TUR": 7212,
      "Talking": 7213,
      "Ull": 7214,
      "Use": 7215,
      "UTE": 7216,
      "UCT": 7217,
      "UTR": 7218,
      "USTR": 7219,
      "Van": 7220,
      "Vis": 7221,
      "Vir": 7222,
      "Vap": 7223,
      "Vol": 7224,
      "VII": 7225,
      "VIS": 7226,
      "VIII": 7227,
      "VATIONS": 7228,
      "WN": 7229,
      "WS": 7230,
      "Wall": 7231,
      "Want": 7232,
      "WING": 7233,
      "WHI": 7234,
      "XII": 7235,
      "XVI": 7236,
      "XIII": 7237,
      "Youn": 7238,
      "Yak": 7239,
      "Year": 7240,
      "YGEN": 7241,
      "ZE": 7242,
      "ZZ": 7243,
      "_B": 7244,
      "_Y": 7245,
      "_we": 7246,
      "_are": 7247,
      "_Mo": 7248,
      "_per": 7249,
      "_up": 7250,
      "_were": 7251,
      "_Earth": 7252,
      "_some": 7253,
      "_him": 7254,
      "_day": 7255,
      "_night": 7256,
      "_life": 7257,
      "_En": 7258,
      "_pretty": 7259,
      "_Baltimore": 7260,
      "_movement": 7261,
      "_seas": 7262,
      "_Im": 7263,
      "_Or": 7264,
      "_Old": 7265,
      "_Ke": 7266,
      "_sang": 7267,
      "_opposition": 7268,
      "_grooves": 7269,
      "_y_": 7270,
      "_I_": 7271,
      "aim": 7272,
      "aur": 7273,
      "avid": 7274,
      "avi": 7275,
      "aud": 7276,
      "aited": 7277,
      "aval": 7278,
      "aunt": 7279,
      "bi": 7280,
      "bé": 7281,
      "bon": 7282,
      "bis": 7283,
      "barb": 7284,
      "bum": 7285,
      "bill": 7286,
      "bust": 7287,
      "bite": 7288,
      "bbed": 7289,
      "bann": 7290,
      "based": 7291,
      "banged": 7292,
      "borders": 7293,
      "bdign": 7294,
      "backed": 7295,
      "brows": 7296,
      "cen": 7297,
      "cit": 7298,
      "cate": 7299,
      "card": 7300,
      "cif": 7301,
      "cust": 7302,
      "cars": 7303,
      "cub": 7304,
      "claim": 7305,
      "cases": 7306,
      "crowned": 7307,
      "cendent": 7308,
      "dp": 7309,
      "dare": 7310,
      "dur": 7311,
      "date": 7312,
      "dwell": 7313,
      "dition": 7314,
      "dings": 7315,
      "daw": 7316,
      "diction": 7317,
      "eg": 7318,
      "eh": 7319,
      "ean": 7320,
      "eating": 7321,
      "eged": 7322,
      "ebull": 7323,
      "email": 7324,
      "emotions": 7325,
      "fr": 7326,
      "fed": 7327,
      "file": 7328,
      "fil": 7329,
      "fits": 7330,
      "fren": 7331,
      "fountain": 7332,
      "fted": 7333,
      "fash": 7334,
      "fitting": 7335,
      "fram": 7336,
      "fishing": 7337,
      "flights": 7338,
      "files": 7339,
      "ffered": 7340,
      "fading": 7341,
      "gim": 7342,
      "gir": 7343,
      "gil": 7344,
      "gant": 7345,
      "grown": 7346,
      "gird": 7347,
      "game": 7348,
      "gaily": 7349,
      "gdp": 7350,
      "hr": 7351,
      "hed": 7352,
      "hus": 7353,
      "hull": 7354,
      "hort": 7355,
      "hue": 7356,
      "hanged": 7357,
      "honey": 7358,
      "ife": 7359,
      "ives": 7360,
      "ivity": 7361,
      "igled": 7362,
      "ii_": 7363,
      "irie": 7364,
      "iveness": 7365,
      "jor": 7366,
      "jet": 7367,
      "jac": 7368,
      "job": 7369,
      "jug": 7370,
      "ker": 7371,
      "lin": 7372,
      "las": 7373,
      "lur": 7374,
      "lone": 7375,
      "lustr": 7376,
      "lakes": 7377,
      "mu": 7378,
      "mê": 7379,
      "mil": 7380,
      "mant": 7381,
      "mite": 7382,
      "mitting": 7383,
      "mwood": 7384,
      "mbered": 7385,
      "makers": 7386,
      "ny": 7387,
      "nut": 7388,
      "nian": 7389,
      "nucle": 7390,
      "oy": 7391,
      "obe": 7392,
      "oven": 7393,
      "olf": 7394,
      "ock": 7395,
      "ola": 7396,
      "oph": 7397,
      "olog": 7398,
      "phe": 7399,
      "pag": 7400,
      "pill": 7401,
      "pack": 7402,
      "patch": 7403,
      "pang": 7404,
      "pave": 7405,
      "pip": 7406,
      "pments": 7407,
      "padded": 7408,
      "pitted": 7409,
      "pane": 7410,
      "packed": 7411,
      "panting": 7412,
      "puls": 7413,
      "pgdp": 7414,
      "rating": 7415,
      "rical": 7416,
      "rates": 7417,
      "rhy": 7418,
      "rushed": 7419,
      "san": 7420,
      "sse": 7421,
      "sad": 7422,
      "sac": 7423,
      "scan": 7424,
      "song": 7425,
      "sway": 7426,
      "smiles": 7427,
      "scr": 7428,
      "swell": 7429,
      "siz": 7430,
      "source": 7431,
      "slaught": 7432,
      "tar": 7433,
      "tle": 7434,
      "tic": 7435,
      "tall": 7436,
      "tum": 7437,
      "tant": 7438,
      "ture": 7439,
      "tive": 7440,
      "tact": 7441,
      "text": 7442,
      "treat": 7443,
      "tune": 7444,
      "tius_": 7445,
      "uy": 7446,
      "uit": 7447,
      "uity": 7448,
      "uction": 7449,
      "uys": 7450,
      "ugs": 7451,
      "urier": 7452,
      "udied": 7453,
      "vas": 7454,
      "vom": 7455,
      "vard": 7456,
      "vive": 7457,
      "vine": 7458,
      "vily": 7459,
      "vice": 7460,
      "wed": 7461,
      "wich": 7462,
      "wag": 7463,
      "wished": 7464,
      "wore": 7465,
      "wadded": 7466,
      "wishing": 7467,
      "waning": 7468,
      "wicked": 7469,
      "xing": 7470,
      "yer": 7471,
      "yss": 7472,
      "yard": 7473,
      "ymous": 7474,
      "yons": 7475,
      "zed": 7476,
      "zes": 7477,
      "°,": 7478,
      "Ætna": 7479,
      "ée": 7480,
      "émo": 7481,
      "ête": 7482,
      "thest": 7483,
      "theories": 7484,
      "iny": 7485,
      "inne": 7486,
      "inction": 7487,
      "incor": 7488,
      "inating": 7489,
      "inqui": 7490,
      "indirectly": 7491,
      "inability": 7492,
      "incorrect": 7493,
      "inopport": 7494,
      "instruct": 7495,
      "ina_": 7496,
      "invari": 7497,
      "inverse": 7498,
      "inhabits": 7499,
      "inverted": 7500,
      "inhosp": 7501,
      "inaccessible": 7502,
      "inspiring": 7503,
      "insurmountable": 7504,
      "re_": 7505,
      "rean": 7506,
      "rees": 7507,
      "recon": 7508,
      "revell": 7509,
      "recourse": 7510,
      "recalled": 7511,
      "readi": 7512,
      "remove": 7513,
      "resolute": 7514,
      "reconc": 7515,
      "reaction": 7516,
      "reward": 7517,
      "respir": 7518,
      "research": 7519,
      "reverse": 7520,
      "reconstruct": 7521,
      "rejected": 7522,
      "restrict": 7523,
      "replaced": 7524,
      "requisite": 7525,
      "resuming": 7526,
      "requiring": 7527,
      "anic": 7528,
      "anes": 7529,
      "anite": 7530,
      "anche": 7531,
      "annals": 7532,
      "onse": 7533,
      "onte": 7534,
      "erra": 7535,
      "erous": 7536,
      "erment": 7537,
      "eries": 7538,
      "error": 7539,
      "at_": 7540,
      "atom": 7541,
      "atten": 7542,
      "atus_": 7543,
      "atically": 7544,
      "atization": 7545,
      "attested": 7546,
      "enate": 7547,
      "enum": 7548,
      "engra": 7549,
      "envi": 7550,
      "enkind": 7551,
      "enus_": 7552,
      "enlar": 7553,
      "enforce": 7554,
      "enched": 7555,
      "encou": 7556,
      "enrapt": 7557,
      "edu": 7558,
      "edless": 7559,
      "edged": 7560,
      "edding": 7561,
      "stat": 7562,
      "stim": 7563,
      "stall": 7564,
      "sters": 7565,
      "stup": 7566,
      "stately": 7567,
      "stump": 7568,
      "sticks": 7569,
      "stagn": 7570,
      "studied": 7571,
      "arf": 7572,
      "arid": 7573,
      "archi": 7574,
      "ofreading": 7575,
      "orth": 7576,
      "orad": 7577,
      "orum": 7578,
      "ority": 7579,
      "ordered": 7580,
      "itic": 7581,
      "ital": 7582,
      "itect": 7583,
      "itated": 7584,
      "lling": 7585,
      "llation": 7586,
      "iss": 7587,
      "ises": 7588,
      "isher": 7589,
      "isive": 7590,
      "iselen": 7591,
      "ishes": 7592,
      "tow": 7593,
      "tore": 7594,
      "asped": 7595,
      "ascribed": 7596,
      "lex": 7597,
      "leis": 7598,
      "lever": 7599,
      "leag": 7600,
      "levity": 7601,
      "icing": 7602,
      "icable": 7603,
      "icating": 7604,
      "icably": 7605,
      "ician": 7606,
      "andum": 7607,
      "andered": 7608,
      "heating": 7609,
      "heave": 7610,
      "heeding": 7611,
      "heedless": 7612,
      "lys": 7613,
      "sees": 7614,
      "semi": 7615,
      "bee": 7616,
      "bel": 7617,
      "beet": 7618,
      "beast": 7619,
      "behalf": 7620,
      "beheld": 7621,
      "befallen": 7622,
      "beats": 7623,
      "beaming": 7624,
      "esar": 7625,
      "omed": 7626,
      "cts": 7627,
      "ctic": 7628,
      "ion_": 7629,
      "ionth": 7630,
      "haust": 7631,
      "haven": 7632,
      "nois": 7633,
      "nose": 7634,
      "ald": 7635,
      "als": 7636,
      "aldi": 7637,
      "alus": 7638,
      "alman": 7639,
      "alarmed": 7640,
      "aloo": 7641,
      "alpable": 7642,
      "veil": 7643,
      "vets": 7644,
      "veigled": 7645,
      "ghens": 7646,
      "ghost": 7647,
      "entific": 7648,
      "entry": 7649,
      "entiously": 7650,
      "entangled": 7651,
      "id_": 7652,
      "ider": 7653,
      "idle": 7654,
      "idable": 7655,
      "ceived": 7656,
      "ceased": 7657,
      "verge": 7658,
      "verish": 7659,
      "verging": 7660,
      "verify": 7661,
      "veracious": 7662,
      "ro_": 7663,
      "rodu": 7664,
      "rolled": 7665,
      "rocosm": 7666,
      "ldings": 7667,
      "utive": 7668,
      "utted": 7669,
      "whim": 7670,
      "whither": 7671,
      "whining": 7672,
      "riment": 7673,
      "rified": 7674,
      "riek": 7675,
      "rimony": 7676,
      "rivets": 7677,
      "rare": 7678,
      "rail": 7679,
      "ramen": 7680,
      "raise": 7681,
      "raref": 7682,
      "ragi": 7683,
      "raging": 7684,
      "rably": 7685,
      "imperfect": 7686,
      "imposed": 7687,
      "impossib": 7688,
      "immut": 7689,
      "imprison": 7690,
      "immers": 7691,
      "chor": 7692,
      "chant": 7693,
      "chances": 7694,
      "chilled": 7695,
      "union": 7696,
      "uncon": 7697,
      "unfore": 7698,
      "unted": 7699,
      "uneas": 7700,
      "unquestion": 7701,
      "unately": 7702,
      "unged": 7703,
      "unmit": 7704,
      "unaccount": 7705,
      "unnecessary": 7706,
      "une_": 7707,
      "undisturbed": 7708,
      "unavoid": 7709,
      "undivided": 7710,
      "undefined": 7711,
      "unaided": 7712,
      "unscrewed": 7713,
      "unpreced": 7714,
      "unselfish": 7715,
      "unbounded": 7716,
      "unmistak": 7717,
      "unrolling": 7718,
      "alleged": 7719,
      "irregularly": 7720,
      "irradiation": 7721,
      "suffered": 7722,
      "wiped": 7723,
      "liber": 7724,
      "lified": 7725,
      "lize": 7726,
      "forwards": 7727,
      "ecting": 7728,
      "deed": 7729,
      "dell": 7730,
      "dearly": 7731,
      "decre": 7732,
      "deport": 7733,
      "deton": 7734,
      "demi": 7735,
      "abrup": 7736,
      "abused": 7737,
      "abashed": 7738,
      "abyss": 7739,
      "abaloo": 7740,
      "moth": 7741,
      "mode": 7742,
      "moons": 7743,
      "washed": 7744,
      "withstand": 7745,
      "withdraw": 7746,
      "Them": 7747,
      "cons": 7748,
      "conste": 7749,
      "conund": 7750,
      "conscient": 7751,
      "convert": 7752,
      "console": 7753,
      "consumption": 7754,
      "aph": 7755,
      "aphelion": 7756,
      "exas": 7757,
      "exert": 7758,
      "excluded": 7759,
      "exempt": 7760,
      "exuber": 7761,
      "exhilar": 7762,
      "exhibition": 7763,
      "terly": 7764,
      "terra": 7765,
      "terror": 7766,
      "loqu": 7767,
      "dial": 7768,
      "division": 7769,
      "dividing": 7770,
      "poles": 7771,
      "polit": 7772,
      "area": 7773,
      "notion": 7774,
      "sold": 7775,
      "sock": 7776,
      "usions": 7777,
      "astrous": 7778,
      "neys": 7779,
      "necks": 7780,
      "adow": 7781,
      "adjour": 7782,
      "icans": 7783,
      "icance": 7784,
      "urated": 7785,
      "urtius_": 7786,
      "me_": 7787,
      "melt": 7788,
      "meets": 7789,
      "melting": 7790,
      "meadow": 7791,
      "qued": 7792,
      "quad": 7793,
      "quil": 7794,
      "quits": 7795,
      "quack": 7796,
      "ulity": 7797,
      "uler_": 7798,
      "ulsive": 7799,
      "commo": 7800,
      "commer": 7801,
      "commotion": 7802,
      "commenting": 7803,
      "kered": 7804,
      "keener": 7805,
      "outurier": 7806,
      "ssing": 7807,
      "femin": 7808,
      "feared": 7809,
      "feverish": 7810,
      "tea": 7811,
      "tears": 7812,
      "tegral": 7813,
      "shone": 7814,
      "shop": 7815,
      "shutter": 7816,
      "shining": 7817,
      "shrew": 7818,
      "shedding": 7819,
      "shriek": 7820,
      "acs": 7821,
      "ache": 7822,
      "acus": 7823,
      "acity": 7824,
      "accord": 7825,
      "acclim": 7826,
      "ackest": 7827,
      "accust": 7828,
      "acock": 7829,
      "span": 7830,
      "spare": 7831,
      "spend": 7832,
      "spangled": 7833,
      "sprinkled": 7834,
      "spider": 7835,
      "Moon_": 7836,
      "theirs": 7837,
      "fade": 7838,
      "fami": 7839,
      "failed": 7840,
      "presu": 7841,
      "preserved": 7842,
      "buttre": 7843,
      "reduction": 7844,
      "endure": 7845,
      "endura": 7846,
      "aggl": 7847,
      "agians": 7848,
      "pert": 7849,
      "perform": 7850,
      "fool": 7851,
      "fogs": 7852,
      "fools": 7853,
      "umbr": 7854,
      "saving": 7855,
      "cooked": 7856,
      "coeff": 7857,
      "costs": 7858,
      "coinc": 7859,
      "ificance": 7860,
      "ilate": 7861,
      "ilus_": 7862,
      "----": 7863,
      "anti": 7864,
      "illery": 7865,
      "ustic": 7866,
      "ustry": 7867,
      "pling": 7868,
      "plum": 7869,
      "plant": 7870,
      "plumb": 7871,
      "pler_": 7872,
      "plaus": 7873,
      "plugs": 7874,
      "prow": 7875,
      "proves": 7876,
      "propound": 7877,
      "pea": 7878,
      "peace": 7879,
      "pests": 7880,
      "peacock": 7881,
      "trail": 7882,
      "traced": 7883,
      "trains": 7884,
      "trails": 7885,
      "bog": 7886,
      "boiling": 7887,
      "bobbing": 7888,
      "cane": 7889,
      "canus_": 7890,
      "canvas": 7891,
      "artillery": 7892,
      "gear": 7893,
      "gelo": 7894,
      "worn": 7895,
      "wormwood": 7896,
      "blem": 7897,
      "forest": 7898,
      "foremost": 7899,
      "forehead": 7900,
      "forethought": 7901,
      "foreign": 7902,
      "amaz": 7903,
      "ample": 7904,
      "ammoth": 7905,
      "obstruction": 7906,
      "Cape": 7907,
      "ongated": 7908,
      "dispos": 7909,
      "dischar": 7910,
      "disrup": 7911,
      "disquiet": 7912,
      "disadvantage": 7913,
      "disappointed": 7914,
      "dispel": 7915,
      "dismal": 7916,
      "disastrous": 7917,
      "induced": 7918,
      "industrious": 7919,
      "industry": 7920,
      "crims": 7921,
      "suring": 7922,
      "surance": 7923,
      "surfaces": 7924,
      "surpassing": 7925,
      "surpasses": 7926,
      "item": 7927,
      "intently": 7928,
      "introdu": 7929,
      "holy": 7930,
      "hoist": 7931,
      "hook": 7932,
      "hores": 7933,
      "hoping": 7934,
      "lightened": 7935,
      "likewise": 7936,
      "compiled": 7937,
      "glow": 7938,
      "glaring": 7939,
      "glancing": 7940,
      "estions": 7941,
      "ach_": 7942,
      "Wharf": 7943,
      "wholly": 7944,
      "lesson": 7945,
      "lessness": 7946,
      "civi": 7947,
      "cigar": 7948,
      "rents": 7949,
      "manship": 7950,
      "managing": 7951,
      "acted": 7952,
      "actly": 7953,
      "actors": 7954,
      "activity": 7955,
      "vingly": 7956,
      "beration": 7957,
      "elu": 7958,
      "eled": 7959,
      "elapse": 7960,
      "elapsed": 7961,
      "elongated": 7962,
      "igated": 7963,
      "igning": 7964,
      "repast": 7965,
      "replying": 7966,
      "strat": 7967,
      "Inter": 7968,
      "Indeed": 7969,
      "Integral": 7970,
      "phic": 7971,
      "phase": 7972,
      "phases": 7973,
      "phatically": 7974,
      "ody": 7975,
      "blers": 7976,
      "blunder": 7977,
      "blank": 7978,
      "blackest": 7979,
      "caving": 7980,
      "caustic": 7981,
      "istribut": 7982,
      "istics": 7983,
      "trust": 7984,
      "trusted": 7985,
      "tricably": 7986,
      "ptions": 7987,
      "ptians": 7988,
      "ptune_": 7989,
      "partake": 7990,
      "distract": 7991,
      "ine_": 7992,
      "Nobody": 7993,
      "friendship": 7994,
      "maest": 7995,
      "maxim": 7996,
      "everyone": 7997,
      "everybody": 7998,
      "my_": 7999,
      "mystic": 8000,
      "oppose": 8001,
      "opposed": 8002,
      "Thy": 8003,
      "Thousand": 8004,
      "Things": 8005,
      "Thanks": 8006,
      "Thirty": 8007,
      "okay": 8008,
      "readable": 8009,
      "forms": 8010,
      "formats": 8011,
      "formidable": 8012,
      "shoulder": 8013,
      "travelled": 8014,
      "owns": 8015,
      "overpower": 8016,
      "overspread": 8017,
      "posity": 8018,
      "grain": 8019,
      "grains": 8020,
      "grapher": 8021,
      "ieve": 8022,
      "sentences": 8023,
      "sententiously": 8024,
      "intoler": 8025,
      "fulness": 8026,
      "shared": 8027,
      "shallow": 8028,
      "shaped": 8029,
      "shapes": 8030,
      "pride": 8031,
      "interferen": 8032,
      "interposition": 8033,
      "internally": 8034,
      "firing": 8035,
      "despa": 8036,
      "desult": 8037,
      "desired": 8038,
      "undertook": 8039,
      "undergoing": 8040,
      "underwent": 8041,
      "sidewalks": 8042,
      "offering": 8043,
      "content": 8044,
      "contro": 8045,
      "contrived": 8046,
      "contributed": 8047,
      "control": 8048,
      "Heat": 8049,
      "Hello": 8050,
      "culus": 8051,
      "beforehand": 8052,
      "regards": 8053,
      "regulating": 8054,
      "registered": 8055,
      "momentary": 8056,
      "fled": 8057,
      "flutter": 8058,
      "flushed": 8059,
      "flowing": 8060,
      "crying": 8061,
      "impalpable": 8062,
      "ars_": 8063,
      "clid": 8064,
      "cloudy": 8065,
      "clenched": 8066,
      "centripetal": 8067,
      "tension": 8068,
      "inkling": 8069,
      "selene_": 8070,
      "THAN": 8071,
      "air_": 8072,
      "council": 8073,
      "grin": 8074,
      "grass": 8075,
      "grating": 8076,
      "granted": 8077,
      "granite": 8078,
      "calf": 8079,
      "tinge": 8080,
      "viser": 8081,
      "visited": 8082,
      "corpor": 8083,
      "gets": 8084,
      "turns": 8085,
      "stere": 8086,
      "steaks": 8087,
      "brand": 8088,
      "brass": 8089,
      "excused": 8090,
      "appearing": 8091,
      "iculous": 8092,
      "sheep": 8093,
      "utensil": 8094,
      "created": 8095,
      "Angelo": 8096,
      "dened": 8097,
      "denying": 8098,
      "ledge": 8099,
      "extinction": 8100,
      "coursing": 8101,
      "parad": 8102,
      "unditatis_": 8103,
      "quiver": 8104,
      "discou": 8105,
      "discern": 8106,
      "bets": 8107,
      "mattresses": 8108,
      "donkey": 8109,
      "THEIR": 8110,
      "THEMSE": 8111,
      "closer": 8112,
      "clothed": 8113,
      "Being": 8114,
      "carelessness": 8115,
      "fectly": 8116,
      "telling": 8117,
      "vocal": 8118,
      "voirs": 8119,
      "ension": 8120,
      "_Mount": 8121,
      "_Mercury": 8122,
      "_Mémo": 8123,
      "_Monte": 8124,
      "_Mars_": 8125,
      "stony": 8126,
      "lecture": 8127,
      "vians": 8128,
      "vibr": 8129,
      "vivide": 8130,
      "handy": 8131,
      "handing": 8132,
      "installation": 8133,
      "starts": 8134,
      "continuous": 8135,
      "headed": 8136,
      "heading": 8137,
      "headlong": 8138,
      "anger": 8139,
      "angular": 8140,
      "angrily": 8141,
      "breaks": 8142,
      "Star": 8143,
      "State": 8144,
      "cleft": 8145,
      "merc": 8146,
      "merry": 8147,
      "mercury": 8148,
      "merriment": 8149,
      "mischief": 8150,
      "venteen": 8151,
      "ventilate": 8152,
      "rescu": 8153,
      "resounding": 8154,
      "resource": 8155,
      "specks": 8156,
      "speech": 8157,
      "submit": 8158,
      "expend": 8159,
      "expedition": 8160,
      "giants": 8161,
      "uds": 8162,
      "perfection": 8163,
      "nails": 8164,
      "questioning": 8165,
      "captain": 8166,
      "capped": 8167,
      "doubled": 8168,
      "calling": 8169,
      "stands": 8170,
      "standard": 8171,
      "Second": 8172,
      "Seventeen": 8173,
      "fortifications": 8174,
      "attending": 8175,
      "curving": 8176,
      "currents": 8177,
      "exactness": 8178,
      "chest": 8179,
      "checks": 8180,
      "lander": 8181,
      "passion": 8182,
      "passeng": 8183,
      "southeast": 8184,
      "sourer": 8185,
      "streak": 8186,
      "streamed": 8187,
      "moral": 8188,
      "insens": 8189,
      "insign": 8190,
      "inscribed": 8191,
      "westwardly": 8192,
      "furt": 8193,
      "fury": 8194,
      "furthest": 8195,
      "tribut": 8196,
      "considers": 8197,
      "foundations": 8198,
      "completed": 8199,
      "finished": 8200,
      "financi": 8201,
      "reasoning": 8202,
      "reasonably": 8203,
      "objected": 8204,
      "objection": 8205,
      "objections": 8206,
      "ordin": 8207,
      "joint": 8208,
      "jotting": 8209,
      "iput": 8210,
      "iplied": 8211,
      "shaded": 8212,
      "shading": 8213,
      "shades": 8214,
      "versat": 8215,
      "dependent": 8216,
      "deputation": 8217,
      "worlds": 8218,
      "emphatically": 8219,
      "simplified": 8220,
      "regarded": 8221,
      "regardless": 8222,
      "Near": 8223,
      "Nearer": 8224,
      "Nevad": 8225,
      "smiled": 8226,
      "spoiled": 8227,
      "habitable": 8228,
      "approaches": 8229,
      "backwards": 8230,
      "latitudes": 8231,
      "lifeless": 8232,
      "interrupting": 8233,
      "carri": 8234,
      "cargo": 8235,
      "puis": 8236,
      "lieu": 8237,
      "spectre": 8238,
      "spective": 8239,
      "_Sacr": 8240,
      "_Short": 8241,
      "sets": 8242,
      "doubtless": 8243,
      "doubtful": 8244,
      "ONCE": 8245,
      "ONLY": 8246,
      "ONIAC": 8247,
      "richest": 8248,
      "applied": 8249,
      "blackened": 8250,
      "shadowy": 8251,
      "Selenitic": 8252,
      "fastening": 8253,
      "humming": 8254,
      "skull": 8255,
      "skies": 8256,
      "skins": 8257,
      "skirt": 8258,
      "skimming": 8259,
      "addle": 8260,
      "addresses": 8261,
      "restrial": 8262,
      "silently": 8263,
      "ANA": 8264,
      "_Cas": 8265,
      "_Camp": 8266,
      "_Curtius_": 8267,
      "adieu": 8268,
      "numbers": 8269,
      "resusc": 8270,
      "radiate": 8271,
      "radiance": 8272,
      "radiations": 8273,
      "sixty": 8274,
      "ARE": 8275,
      "ARY": 8276,
      "Defect": 8277,
      "Dewy": 8278,
      "INS": 8279,
      "INSTR": 8280,
      "INVIS": 8281,
      "INARY": 8282,
      "ralia": 8283,
      "oftenest": 8284,
      "helm": 8285,
      "helped": 8286,
      "temperament": 8287,
      "metal": 8288,
      "thoughtful": 8289,
      "Cloudy": 8290,
      "monster": 8291,
      "remembered": 8292,
      "engineer": 8293,
      "soundings": 8294,
      "stooped": 8295,
      "expressing": 8296,
      "equation": 8297,
      "ithuys": 8298,
      "thirst": 8299,
      "suppressed": 8300,
      "suppressing": 8301,
      "nearness": 8302,
      "Online": 8303,
      "brim": 8304,
      "brightest": 8305,
      "effected": 8306,
      "risky": 8307,
      "tomb": 8308,
      "appearances": 8309,
      "crags": 8310,
      "aug": 8311,
      "aught": 8312,
      "heavily": 8313,
      "pedest": 8314,
      "satisfy": 8315,
      "icient": 8316,
      "icians": 8317,
      "profile": 8318,
      "profund": 8319,
      "descript": 8320,
      "splendors": 8321,
      "splendidly": 8322,
      "Unfortunately": 8323,
      "champ": 8324,
      "oreography": 8325,
      "interests": 8326,
      "realm": 8327,
      "realms": 8328,
      "realizing": 8329,
      "suffer": 8330,
      "product": 8331,
      "successfully": 8332,
      "LIA": 8333,
      "LIFT": 8334,
      "awaited": 8335,
      "dimly": 8336,
      "synon": 8337,
      "sunset": 8338,
      "listens": 8339,
      "listening": 8340,
      "listlessly": 8341,
      "surprising": 8342,
      "remarkably": 8343,
      "breakers": 8344,
      "opera": 8345,
      "peninsula": 8346,
      "scow": 8347,
      "scattered": 8348,
      "swing": 8349,
      "swamp": 8350,
      "swung": 8351,
      "swallowing": 8352,
      "revels": 8353,
      "wilder": 8354,
      "colder": 8355,
      "fireball": 8356,
      "ruin": 8357,
      "squall": 8358,
      "advance": 8359,
      "advice": 8360,
      "advancing": 8361,
      "remaining": 8362,
      "clearness": 8363,
      "differential": 8364,
      "OUP": 8365,
      "organs": 8366,
      "ceedingly": 8367,
      "deaden": 8368,
      "deadlights": 8369,
      "circus": 8370,
      "circuses": 8371,
      "effecting": 8372,
      "bullets": 8373,
      "guide": 8374,
      "hydro": 8375,
      "aboard": 8376,
      "community": 8377,
      "committing": 8378,
      "committed": 8379,
      "strangest": 8380,
      "southward": 8381,
      "magnitude": 8382,
      "magnified": 8383,
      "Const": 8384,
      "Consid": 8385,
      "Confound": 8386,
      "benefit": 8387,
      "sighted": 8388,
      "sighting": 8389,
      "anned": 8390,
      "alties": 8391,
      "distinguishing": 8392,
      "fluent": 8393,
      "fluid": 8394,
      "ENOUGH": 8395,
      "ESTIONS": 8396,
      "ESCAP": 8397,
      "_Pro": 8398,
      "_Pico": 8399,
      "_Pyrene": 8400,
      "_Purb": 8401,
      "_Palus": 8402,
      "confused": 8403,
      "confusion": 8404,
      "openings": 8405,
      "electronically": 8406,
      "TIES": 8407,
      "TIME": 8408,
      "busily": 8409,
      "fifth": 8410,
      "argue": 8411,
      "detailed": 8412,
      "detailing": 8413,
      "reflections": 8414,
      "reflectors": 8415,
      "occupies": 8416,
      "maintaining": 8417,
      "watchers": 8418,
      "rocket": 8419,
      "exceeding": 8420,
      "188": 8421,
      "18th": 8422,
      "501": 8423,
      "Colorad": 8424,
      "Major": 8425,
      "_Alph": 8426,
      "_Astron": 8427,
      "nerves": 8428,
      "escapes": 8429,
      "hopeful": 8430,
      "closest": 8431,
      "reveals": 8432,
      "Rosse": 8433,
      "marrow": 8434,
      "scream": 8435,
      "screamed": 8436,
      "signed": 8437,
      "signalled": 8438,
      "straw": 8439,
      "strain": 8440,
      "arrass": 8441,
      "iterran": 8442,
      "logic": 8443,
      "logist": 8444,
      "counteraction": 8445,
      "drawling": 8446,
      "*****": 8447,
      "EDUCT": 8448,
      "Everybody": 8449,
      "burns": 8450,
      "burner": 8451,
      "nonsens": 8452,
      "externally": 8453,
      "countryman": 8454,
      "characters": 8455,
      "1600": 8456,
      "ISPHERE": 8457,
      "Proofreading": 8458,
      "driver": 8459,
      "limited": 8460,
      "pitous": 8461,
      "pitiless": 8462,
      "promised": 8463,
      "promoting": 8464,
      "paths": 8465,
      "pathy": 8466,
      "ridiculous": 8467,
      "waited": 8468,
      "atives": 8469,
      "seventh": 8470,
      "belief": 8471,
      "believed": 8472,
      "imaginations": 8473,
      "needless": 8474,
      "umbers": 8475,
      "steady": 8476,
      "numberless": 8477,
      "peculiarity": 8478,
      "Change": 8479,
      "China": 8480,
      "Frank": 8481,
      "Isn": 8482,
      "_Terra": 8483,
      "affection": 8484,
      "reticul": 8485,
      "retus_": 8486,
      "retired": 8487,
      "attempts": 8488,
      "attempting": 8489,
      "semblance": 8490,
      "rigible": 8491,
      "rigged": 8492,
      "ulties": 8493,
      "safest": 8494,
      "plateaus": 8495,
      "generations": 8496,
      "dispatched": 8497,
      "Donations": 8498,
      "eightieth": 8499,
      "guns": 8500,
      "swear": 8501,
      "swept": 8502,
      "sweeping": 8503,
      "originator": 8504,
      "1500": 8505,
      "Impossible": 8506,
      "Northern": 8507,
      "RECT": 8508,
      "boundaries": 8509,
      "fainter": 8510,
      "faintly": 8511,
      "mutter": 8512,
      "mutually": 8513,
      "stops": 8514,
      "stopping": 8515,
      "asserted": 8516,
      "assertions": 8517,
      "delicate": 8518,
      "complicated": 8519,
      "boldly": 8520,
      "structed": 8521,
      "START": 8522,
      "absorbs": 8523,
      "meetings": 8524,
      "combine": 8525,
      "collapsed": 8526,
      "collecting": 8527,
      "transcri": 8528,
      "transmit": 8529,
      "transformed": 8530,
      "transfer": 8531,
      "transcendent": 8532,
      "flatter": 8533,
      "flattered": 8534,
      "Prince": 8535,
      "SEEM": 8536,
      "Scientific": 8537,
      "baromet": 8538,
      "barometer": 8539,
      "block": 8540,
      "nicety": 8541,
      "ographers": 8542,
      "smoked": 8543,
      "prevented": 8544,
      "Whenever": 8545,
      "occurs": 8546,
      "comparisons": 8547,
      "intelligible": 8548,
      "intelligently": 8549,
      "Columbiads": 8550,
      "LEEP": 8551,
      "Mountains_": 8552,
      "UND": 8553,
      "elegant": 8554,
      "freed": 8555,
      "slumbers": 8556,
      "tremor": 8557,
      "vainly": 8558,
      "tests": 8559,
      "testing": 8560,
      "thirdly": 8561,
      "heavens": 8562,
      "diminution": 8563,
      "Poor": 8564,
      "_Lacus": 8565,
      "loftiest": 8566,
      "accomplish": 8567,
      "accomplishing": 8568,
      "properly": 8569,
      "groups": 8570,
      "inhabitable_": 8571,
      "17th": 8572,
      "ASH": 8573,
      "ASCII": 8574,
      "ASLEEP": 8575,
      "Alas": 8576,
      "Alps_": 8577,
      "COVER": 8578,
      "COAST": 8579,
      "Exactly": 8580,
      "Exceedingly": 8581,
      "FORTA": 8582,
      "Julius": 8583,
      "domin": 8584,
      "lateral": 8585,
      "laterally": 8586,
      "tableau": 8587,
      "architect": 8588,
      "orbs": 8589,
      "orbits": 8590,
      "quarters": 8591,
      "precipices": 8592,
      "precipitous": 8593,
      "rapids": 8594,
      "Englishman": 8595,
      "Quicker": 8596,
      "Questions": 8597,
      "_Hercy": 8598,
      "_Huy": 8599,
      "bowed": 8600,
      "jump": 8601,
      "jumps": 8602,
      "mistake": 8603,
      "simo": 8604,
      "simpler": 8605,
      "incts": 8606,
      "alike": 8607,
      "rimaldi": 8608,
      "chronometers": 8609,
      "chiefly": 8610,
      "modifications": 8611,
      "spirit": 8612,
      "service": 8613,
      "vessels": 8614,
      "solidated": 8615,
      "resisted": 8616,
      "resistless": 8617,
      "electricity": 8618,
      "gloomily": 8619,
      "describes": 8620,
      "FIGHT": 8621,
      "FIELD": 8622,
      "FIFTE": 8623,
      "Humors": 8624,
      "Jovians": 8625,
      "ggy": 8626,
      "ttle": 8627,
      "widest": 8628,
      "investigation": 8629,
      "investigate": 8630,
      "investigating": 8631,
      "whirring": 8632,
      "unexpectedly": 8633,
      "lifet": 8634,
      "divergent": 8635,
      "society": 8636,
      "societies": 8637,
      "measurement": 8638,
      "accepting": 8639,
      "tranquil": 8640,
      "breathless": 8641,
      "colorless": 8642,
      "retardation": 8643,
      "sweetly": 8644,
      "sweetest": 8645,
      "uniforms": 8646,
      "_Valley": 8647,
      "_Venus_": 8648,
      "touched": 8649,
      "throttle": 8650,
      "anese": 8651,
      "aneously": 8652,
      "searching": 8653,
      "beauty": 8654,
      "constit": 8655,
      "constantly": 8656,
      "explanations": 8657,
      "nestling": 8658,
      "savants": 8659,
      "plicit": 8660,
      "despairing": 8661,
      "gratified": 8662,
      "exploded": 8663,
      "cheerily": 8664,
      "courageous": 8665,
      "telegraphed": 8666,
      "triumphant": 8667,
      "Coast": 8668,
      "Cool": 8669,
      "HIM": 8670,
      "Tell": 8671,
      "Team": 8672,
      "VERS": 8673,
      "VERSA": 8674,
      "drank": 8675,
      "deduct": 8676,
      "honors": 8677,
      "rubber": 8678,
      "sister": 8679,
      "younger": 8680,
      "inclination": 8681,
      "respected": 8682,
      "anxious": 8683,
      "ascend": 8684,
      "experiences": 8685,
      "admire": 8686,
      "admirable": 8687,
      "admirably": 8688,
      "feeble": 8689,
      "protected": 8690,
      "protection": 8691,
      "protuber": 8692,
      "philosopher": 8693,
      "truly": 8694,
      "joyfully": 8695,
      "BIRD": 8696,
      "EMENT": 8697,
      "MacNicholl": 8698,
      "NELL": 8699,
      "NEUTR": 8700,
      "NEWS": 8701,
      "Perfectly": 8702,
      "Reporter": 8703,
      "VIEW": 8704,
      "XIV": 8705,
      "XIX": 8706,
      "affor": 8707,
      "affright": 8708,
      "affair": 8709,
      "damages": 8710,
      "judging": 8711,
      "sleeping": 8712,
      "warmly": 8713,
      "repeat": 8714,
      "repeating": 8715,
      "issue": 8716,
      "issuing": 8717,
      "aspian": 8718,
      "noiseless": 8719,
      "sugar": 8720,
      "preferred": 8721,
      "placing": 8722,
      "dogmatically": 8723,
      "gledy": 8724,
      "ignoram": 8725,
      "specified": 8726,
      "private": 8727,
      "earnestness": 8728,
      "11th": 8729,
      "Boston": 8730,
      "Friends": 8731,
      "Locke": 8732,
      "Lobos": 8733,
      "Lohr": 8734,
      "QUITE": 8735,
      "QUESTIONS": 8736,
      "Wouldn": 8737,
      "faculties": 8738,
      "gleamed": 8739,
      "gleaming": 8740,
      "nicely": 8741,
      "petragi": 8742,
      "wander": 8743,
      "inexorable": 8744,
      "inexhaust": 8745,
      "inextricably": 8746,
      "invention": 8747,
      "enables": 8748,
      "ingenuity": 8749,
      "ascertaining": 8750,
      "bewilderment": 8751,
      "rills": 8752,
      "superlat": 8753,
      "astonishing": 8754,
      "spreads": 8755,
      "preparation": 8756,
      "plunge": 8757,
      "India": 8758,
      "phrases": 8759,
      "authorit": 8760,
      "guessed": 8761,
      "pursuing": 8762,
      "laboring": 8763,
      "masterpieces": 8764,
      "CONVERSA": 8765,
      "ITS": 8766,
      "NOT": 8767,
      "POOR": 8768,
      "POINT": 8769,
      "TRI": 8770,
      "TRACK": 8771,
      "balanced": 8772,
      "duties": 8773,
      "eatables": 8774,
      "fitful": 8775,
      "froid_": 8776,
      "harbors": 8777,
      "lady": 8778,
      "music": 8779,
      "muscles": 8780,
      "wasting": 8781,
      "thinner": 8782,
      "incand": 8783,
      "indign": 8784,
      "relative": 8785,
      "anchored": 8786,
      "stoutly": 8787,
      "asymp": 8788,
      "legal": 8789,
      "bearings": 8790,
      "suspend": 8791,
      "decide": 8792,
      "molecular": 8793,
      "molehill": 8794,
      "potential": 8795,
      "prevail": 8796,
      "prevailing": 8797,
      "branches": 8798,
      "parabolas": 8799,
      "symmet": 8800,
      "symbol": 8801,
      "sympathy": 8802,
      "Accordingly": 8803,
      "regretted": 8804,
      "AGREE": 8805,
      "Error": 8806,
      "Erfurt": 8807,
      "Euclid": 8808,
      "Mechan": 8809,
      "Megg": 8810,
      "TAKING": 8811,
      "TAINS": 8812,
      "TYCHO": 8813,
      "avoiding": 8814,
      "dryness": 8815,
      "snicker": 8816,
      "schools": 8817,
      "involved": 8818,
      "representation": 8819,
      "stationed": 8820,
      "entertaining": 8821,
      "royalties": 8822,
      "deliver": 8823,
      "delirious": 8824,
      "consulting": 8825,
      "conjectures": 8826,
      "locomotion": 8827,
      "perplexed": 8828,
      "coals": 8829,
      "greenish": 8830,
      "disputed": 8831,
      "disputes": 8832,
      "goddess": 8833,
      "blows": 8834,
      "mentioned": 8835,
      "majority": 8836,
      "mytholog": 8837,
      "restlessness": 8838,
      "descending": 8839,
      "deserves": 8840,
      "designated": 8841,
      "densely": 8842,
      "refracting": 8843,
      "Serenity": 8844,
      "checked": 8845,
      "TENNI": 8846,
      "settle": 8847,
      "LIMINARY": 8848,
      "_Alps_": 8849,
      "_Alpetragi": 8850,
      "prominently": 8851,
      "affirmative": 8852,
      "rigorously": 8853,
      "similarly": 8854,
      "savagely": 8855,
      "photographs": 8856,
      "photography": 8857,
      "photographers": 8858,
      "...": 8859,
      "...\"": 8860,
      "14th": 8861,
      "DID": 8862,
      "DIANA": 8863,
      "DIRECT": 8864,
      "Farther": 8865,
      "IMMEN": 8866,
      "IMPOSS": 8867,
      "Keep": 8868,
      "Kepler": 8869,
      "Latin": 8870,
      "Latitude": 8871,
      "Rains": 8872,
      "Rainbows": 8873,
      "SPLITT": 8874,
      "Terms": 8875,
      "Terrestrial": 8876,
      "Works": 8877,
      "XVII": 8878,
      "XVIII": 8879,
      "XXII": 8880,
      "XXIII": 8881,
      "_Rill": 8882,
      "auspices": 8883,
      "catac": 8884,
      "catastrophe": 8885,
      "hungry": 8886,
      "histor": 8887,
      "narrower": 8888,
      "saturated": 8889,
      "softened": 8890,
      "softening": 8891,
      "ucky": 8892,
      "woods": 8893,
      "resolved": 8894,
      "resplendent": 8895,
      "resplendescence": 8896,
      "analogy": 8897,
      "errors": 8898,
      "erratic": 8899,
      "stiff": 8900,
      "stifled": 8901,
      "steps": 8902,
      "seasons": 8903,
      "bells": 8904,
      "betrayed": 8905,
      "nodding": 8906,
      "declared": 8907,
      "locations": 8908,
      "dignity": 8909,
      "acquaint": 8910,
      "accelerated": 8911,
      "accelerating": 8912,
      "pelago": 8913,
      "boxes": 8914,
      "golden": 8915,
      "strongest": 8916,
      "distinctive": 8917,
      "assistants": 8918,
      "flinging": 8919,
      "flowers": 8920,
      "flourish": 8921,
      "impatiently": 8922,
      "climb": 8923,
      "newspapers": 8924,
      "expecting": 8925,
      "expectations": 8926,
      "monotonous": 8927,
      "engineering": 8928,
      "switch": 8929,
      "guarded": 8930,
      "1861": 8931,
      "1862": 8932,
      "contracted": 8933,
      "contracting": 8934,
      "gesticulated": 8935,
      "grooved": 8936,
      "lucky": 8937,
      "solemnly": 8938,
      "vigorous": 8939,
      "aspects": 8940,
      "demanded": 8941,
      "elliptic": 8942,
      "Directors": 8943,
      "Tranquillity": 8944,
      "972": 8945,
      "Arab": 8946,
      "BEAR": 8947,
      "CENTENNI": 8948,
      "Desert": 8949,
      "Descart": 8950,
      "Days": 8951,
      "DISCOVER": 8952,
      "DISTRI": 8953,
      "EWELL": 8954,
      "Fortunately": 8955,
      "Greek": 8956,
      "HEAD": 8957,
      "HOW": 8958,
      "HOME": 8959,
      "Mayor": 8960,
      "NIGHT": 8961,
      "Nevertheless": 8962,
      "Swallows": 8963,
      "Sierra": 8964,
      "UTTER": 8965,
      "adequ": 8966,
      "bays": 8967,
      "candor": 8968,
      "candidly": 8969,
      "cadence": 8970,
      "cumbered": 8971,
      "cups": 8972,
      "darned": 8973,
      "econom": 8974,
      "harsh": 8975,
      "henceforth": 8976,
      "killing": 8977,
      "micrometer": 8978,
      "microcosm": 8979,
      "madly": 8980,
      "multi": 8981,
      "multiplied": 8982,
      "punct": 8983,
      "rueful": 8984,
      "salute": 8985,
      "saluted": 8986,
      "infallible": 8987,
      "infallibly": 8988,
      "references": 8989,
      "stunted": 8990,
      "stunned": 8991,
      "seventy": 8992,
      "severely": 8993,
      "belongs": 8994,
      "roasted": 8995,
      "imperceptible": 8996,
      "librations": 8997,
      "motto": 8998,
      "motive": 8999,
      "convex": 9000,
      "convexity": 9001,
      "apprehended": 9002,
      "apprehensions": 9003,
      "exertion": 9004,
      "negative": 9005,
      "memorable": 9006,
      "memorandum": 9007,
      "keenly": 9008,
      "ploughed": 9009,
      "article": 9010,
      "indulged": 9011,
      "survey": 9012,
      "hollows": 9013,
      "sentimental": 9014,
      "referred": 9015,
      "referring": 9016,
      "THERN": 9017,
      "vivifying": 9018,
      "missible": 9019,
      "struggles": 9020,
      "perigee": 9021,
      "audience": 9022,
      "audibly": 9023,
      "buildings": 9024,
      "heavier": 9025,
      "recollection": 9026,
      "scenery": 9027,
      "revelation": 9028,
      "hesitating": 9029,
      "elevated": 9030,
      "alternating": 9031,
      "alternately": 9032,
      "schoolboys": 9033,
      "majesty": 9034,
      "oscillating": 9035,
      "inconceivably": 9036,
      ".'\"": 9037,
      "Adviser": 9038,
      "Brooke": 9039,
      "Brobdign": 9040,
      "Below": 9041,
      "Fourrier": 9042,
      "GRY": 9043,
      "GROUP": 9044,
      "Grand": 9045,
      "Honor": 9046,
      "Madre": 9047,
      "Madame": 9048,
      "OBSERVATIONS": 9049,
      "OBSERVERS": 9050,
      "PUBLI": 9051,
      "PUZZ": 9052,
      "Philoso": 9053,
      "Rapidly": 9054,
      "Raphael": 9055,
      "Solid": 9056,
      "WIND": 9057,
      "WINS": 9058,
      "WORD": 9059,
      "WORK": 9060,
      "XXIV": 9061,
      "_Euler_": 9062,
      "bathed": 9063,
      "breeze": 9064,
      "ckered": 9065,
      "emergency": 9066,
      "evaporate": 9067,
      "evaporated": 9068,
      "fringe": 9069,
      "fascination": 9070,
      "fascinating": 9071,
      "hurrahs": 9072,
      "lustily": 9073,
      "sneer": 9074,
      "sneered": 9075,
      "scarcely": 9076,
      "tapest": 9077,
      "tightly": 9078,
      "vrez": 9079,
      "thundering": 9080,
      "threatening": 9081,
      "reverie": 9082,
      "enchanting": 9083,
      "enlightened": 9084,
      "stirred": 9085,
      "tolerable": 9086,
      "tolerably": 9087,
      "beefsteaks": 9088,
      "novelty": 9089,
      "chilly": 9090,
      "forcible": 9091,
      "forcibly": 9092,
      "moonlight": 9093,
      "consisted": 9094,
      "exquisitely": 9095,
      "neatly": 9096,
      "adopted": 9097,
      "precision": 9098,
      "precincts": 9099,
      "folded": 9100,
      "propriety": 9101,
      "proprietary": 9102,
      "upheaval": 9103,
      "bosom": 9104,
      "foreshortened": 9105,
      "hostile": 9106,
      "computer": 9107,
      "computers": 9108,
      "overwhelming": 9109,
      "gracefully": 9110,
      "intoxication": 9111,
      "intoxicated": 9112,
      "desolation": 9113,
      "desolate": 9114,
      "cultivated": 9115,
      "clustered": 9116,
      "condensed": 9117,
      "solicit": 9118,
      "corpse": 9119,
      "disclaimer": 9120,
      "yells": 9121,
      "flooded": 9122,
      "circulation": 9123,
      "circulating": 9124,
      "crawl": 9125,
      "crawling": 9126,
      "laughter": 9127,
      "LITTLE": 9128,
      "penetrate": 9129,
      "commencement": 9130,
      "confessed": 9131,
      "drearier": 9132,
      "dreariest": 9133,
      "Produce": 9134,
      "Produced": 9135,
      "wheels": 9136,
      "universal": 9137,
      "resembles": 9138,
      "COMFORTA": 9139,
      "COLDS": 9140,
      "hilarity": 9141,
      "disturbance": 9142,
      "hyperbolas": 9143,
      "hyperbolic": 9144,
      "incredulous": 9145,
      "Greenland": 9146,
      "junction_": 9147,
      "WARRANTY": 9148,
      "WARRANTIES": 9149,
      "stomachs": 9150,
      "Apollo": 9151,
      "Australia": 9152,
      "Asia": 9153,
      "Barby": 9154,
      "BREACH": 9155,
      "Caesar": 9156,
      "Clearly": 9157,
      "Chapuis": 9158,
      "Current": 9159,
      "DEMONIAC": 9160,
      "Elk": 9161,
      "Hugo": 9162,
      "Judge": 9163,
      "PAIR": 9164,
      "PIPES": 9165,
      "PSES": 9166,
      "Pullman": 9167,
      "Polar": 9168,
      "Southern": 9169,
      "SOUTHERN": 9170,
      "Scotch": 9171,
      "UCTIVE": 9172,
      "_eon_": 9173,
      "_Theoph": 9174,
      "_conjunction_": 9175,
      "_Neptune_": 9176,
      "_Quand": 9177,
      "_Jupiter_": 9178,
      "_Uranus_": 9179,
      "_aposelene_": 9180,
      "batter": 9181,
      "babies": 9182,
      "barking": 9183,
      "credit": 9184,
      "dusky": 9185,
      "emanate": 9186,
      "grief": 9187,
      "garden": 9188,
      "hinges": 9189,
      "jokes": 9190,
      "knots": 9191,
      "longest": 9192,
      "lamps": 9193,
      "pomposity": 9194,
      "prairie": 9195,
      "pallor": 9196,
      "pupil": 9197,
      "piercing": 9198,
      "prayer": 9199,
      "ruddy": 9200,
      "slept": 9201,
      "vicinity": 9202,
      "vague": 9203,
      "village": 9204,
      "wiser": 9205,
      "theatre": 9206,
      "infused": 9207,
      "inspected": 9208,
      "infinity": 9209,
      "remote": 9210,
      "revised": 9211,
      "rejoicing": 9212,
      "reigns": 9213,
      "toasts": 9214,
      "assembled": 9215,
      "hazard": 9216,
      "entrance": 9217,
      "entirely": 9218,
      "imitate": 9219,
      "irresistible": 9220,
      "irritated": 9221,
      "debate": 9222,
      "decomposing": 9223,
      "decorated": 9224,
      "demoniacal": 9225,
      "abandoned": 9226,
      "models": 9227,
      "exploring": 9228,
      "terminating": 9229,
      "locality": 9230,
      "pocket": 9231,
      "nebulous": 9232,
      "adventures": 9233,
      "quarrel": 9234,
      "sharpest": 9235,
      "shudder": 9236,
      "shivering": 9237,
      "acquired": 9238,
      "safety": 9239,
      "platform": 9240,
      "prolongation": 9241,
      "prodigious": 9242,
[...]
