#version: 0.2
t h
i n
th e</w>
a n
e r
e d</w>
r e
o u
a r
e n
t i
in g</w>
o n
t o</w>
an d</w>
e r</w>
o f</w>
o r
s t
o n</w>
i n</w>
a l
i t
a t</w>
e s</w>
i s</w>
a s</w>
r o
a n</w>
a t
h a
e l
h e</w>
i l
o r</w>
a c
i c
w h
e n</w>
i s
o m
a s
e c
a l</w>
e s
th at</w>
i t</w>
u r
n o
l y</w>
v e</w>
s a
l i
a ti
r i
l o
th e
w as</w>
s i
en t</w>
l e
u s
o l
u n
b e
f or</w>
a d
l e</w>
a b
g h
i d</w>
a m
er e</w>
c h
w it
e m
t s</w>
a g
e v
wit h</w>
y o
yo u</w>
h i
p ro
s u
o p
d i
b u
h is</w>
c on
c e</w>
i r
p o
l d</w>
c om
e x
a k
t r
b e</w>
a y</w>
ou n
m e</w>
s e
sa id</w>
ati on</w>
er s</w>
s h
no t</w>
d e
ha d</w>
ou ld</w>
f or
ou t</w>
n e
ar e</w>
a r</w>
on e</w>
h er</w>
t ed</w>
m o
al l</w>
bu t</w>
s he</w>
th er</w>
a p
s t</w>
gh t</w>
g o
t er
ti on</w>
ha ve</w>
s e</w>
s p
v er
on s</w>
th is</w>
b y</w>
u l
p re
t o
f ro
q u
f f
d o
the y</w>
p l
i st
fro m</w>
it y</w>
d s</w>
i r</w>
c h</w>
r a
m e
w or
p e
s o</w>
t er</w>
i m
i d
ou r</w>
at e</w>
w e</w>
il l</w>
p ar
h o
h e
p er
a d</w>
p or
hi m</w>
t h</w>
b o
e t</w>
es s</w>
w ere</w>
m y</w>
c i
a f
m ent</w>
m in
w n</w>
d u
t ur
w ill</w>
t ing</w>
ic h</w>
t w
m or
c o
th ere</w>
l a
the ir</w>
g h</w>
s om
r u
d ing</w>
wh ich</w>
a in
no w</w>
g r
ou r
in g
u p</w>
l ed</w>
w ould</w>
t y</w>
f i
f e
wh at</w>
a y
g i
m an
t e
s el
an t</w>
si d
us t</w>
i f</w>
k e</w>
ic e</w>
as t</w>
el l</w>
th ing</w>
g e</w>
h as</w>
d ed</w>
be en</w>
wh o</w>
y e
al ly</w>
a in</w>
ol d</w>
mor e</w>
m il
o d</w>
k ed</w>
s ec
wh en</w>
en t
n o</w>
the m</w>
m ar
o ther</w>
ab out</w>
ar d</w>
ou gh</w>
v er</w>
p u
ac e</w>
a u
c an</w>
d er</w>
v i
d is
en ce</w>
c l
u s</w>
ab le</w>
k s</w>
it s</w>
d o</w>
d ay</w>
m an</w>
c oun
en ts</w>
w e
ar y</w>
ak e</w>
ou s</w>
in e</w>
on g</w>
es t</w>
at ed</w>
r y</w>
ac k</w>
k ing</w>
d er
re c
f ir
in ter
w ay</w>
ev er</w>
oun d</w>
pre s
s o
us e</w>
n i
on al</w>
p r
ati ons</w>
ti c
ur e</w>
c ould</w>
b er</w>
s ed</w>
in to</w>
s er
th en</w>
an ce</w>
lo o
ti es</w>
t ri
ti me</w>
e st
li ke</w>
k e
m u
b l
ag e</w>
f u
st r
f o
th an</w>
w i
sel f</w>
ar s</w>
ist an</w>
m on
o ff
p p
ev er
b ec
an y</w>
g re
g u
g y
som e</w>
t en
f a
l l</w>
pe op
c or
tw o</w>
peop le</w>
am e</w>
c re
f in
a re
ad e</w>
al i
y our</w>
re e</w>
v ed</w>
u d
com p
e l</w>
ne w</w>
el y</w>
af ter</w>
ho w</w>
n ed</w>
on ly</w>
a m</w>
com m
g e
du c
2 0
a z
i c</w>
ec t</w>
u m
v es</w>
o ver</w>
ing s</w>
ti ons</w>
w s</w>
v ing</w>
t a
st e
es e</w>
mo st</w>
s ti
d ec
t e</w>
p s</w>
con t
i es</w>
it e</w>
y ing</w>
an g
d re
c e
h ar
ou ght</w>
b r
d id</w>
for m
sh o
b le</w>
t u
n ing</w>
em ent</w>
h el
go ver
w ell</w>
f l
es s
ay s</w>
c es</w>
p ol
al s</w>
gover n
l ing</w>
re por
i g
m a
o se</w>
min ist
an d
g en
se e</w>
ver y</w>
a use</w>
m i
ic i
som e
il e</w>
fir st</w>
for e</w>
s y
j o
j ust</w>
m is
r e</w>
a v
or s</w>
an s</w>
ev en</w>
g o</w>
p t</w>
at t
f ac
is h
wh ere</w>
re n
su ch</w>
th r
as e</w>
en ti
d es
n ati
al so</w>
b ack</w>
d on</w>
th ese</w>
wi th
y es</w>
lo w
c ri
th in
do wn</w>
k now</w>
c al
in v
t ly</w>
si on</w>
d ev
en d</w>
pro v
c ar
f e</w>
b an
re s</w>
ac h</w>
sh ould</w>
g et</w>
o b
o c
o f
m s</w>
po s
be fore</w>
i a</w>
com e</w>
it t
o m</w>
c en
ac h
b el
0 0</w>
l s</w>
c lo
as s
t re
s hi
at es</w>
fu l</w>
ou s
tr y</w>
bec ause</w>
f r
govern ment</w>
p ri
m ade</w>
c ha
s s</w>
ex p
p ak
c ur
e gy
wor k</w>
w ar
t t
s ha
u p
d n</w>
m ay</w>
w at
lo w</w>
thr ough</w>
e d
sid e</w>
h ere</w>
m at
b ro
in ce</w>
e en</w>
v is
c er
s ur
w a
ch o
i e
nati onal</w>
f t</w>
o k</w>
us ed</w>
k il
i l</w>
wor ld</w>
c our
th ree</w>
i z
is e</w>
y s</w>
20 0
at ing</w>
di ff
il y</w>
op er
ch il
er ed</w>
an ts</w>
id e</w>
m ake</w>
l ong</w>
n ever</w>
st ar
go od</w>
is t</w>
m em
d em
go ing</w>
l itt
th ose</w>
sp ec
be tw
betw een</w>
c ap
w om
d y</w>
n ess</w>
st ru
t old</w>
litt le</w>
to o</w>
h an
mil it
b il
wh ile</w>
e i
thin k</w>
f ul
ye ars</w>
c y</w>
i on</w>
c ol
an y
he ad</w>
lo c
t al
l ast</w>
ye ar</w>
be ing</w>
ec ted</w>
li on</w>
po in
th ought</w>
ak ing</w>
tur e</w>
ag ain
again st</w>
mu ch</w>
t ake</w>
p h
ag ain</w>
ser v
c u
w er</w>
m ust</w>
sa y</w>
su p
is h</w>
m en</w>
ti m
ic al</w>
c r
h u
man y</w>
o wn</w>
f ace</w>
g l
re ad
en d
st an
t or</w>
f ol
f ri
gen er
v o
b er
cl u
d r
as h
un der
an s
re l
j i
ti ve</w>
c an
an ge</w>
th ough</w>
om e</w>
or y</w>
d e</w>
st o
y r
dev el
k no
me di
i ties</w>
le t</w>
k h
pre sid
b as
ha pp
ri ght</w>
i an</w>
u e</w>
por t
re s
in d</w>
so ci
ch ar
b re
e p</w>
sec ur
repor ted</w>
w ays</w>
af gh
em p
e ar
h er
sti ll</w>
w ant</w>
c ed</w>
m p
of f</w>
th er
be g
b or
f am
secur ity</w>
a k</w>
on d</w>
an other</w>
c le
d ur
ro om</w>
it ed</w>
s on</w>
g an
l ar
p le
st an</w>
with out</w>
c ame</w>
si g
sp e
stru c
en ed</w>
ou l
w ard</w>
hi m
n or
coun try</w>
pol ice</w>
w al
e yes</w>
un der</w>
f er
on om
po si
t ter</w>
s en
st s</w>
d ar
h and</w>
m r</w>
mi ght</w>
p a
b le
devel op
cen tr
ti v
re g
w ent</w>
off ici
a way</w>
ever y
h ou
him self</w>
li fe</w>
pl ace</w>
pu t</w>
sa me</w>
ta ji
v al
a ff
at h</w>
b us
s m
c a
ever y</w>
s ure</w>
su b
or gan
d el
c ess</w>
o l</w>
wh y</w>
l ess</w>
m ed</w>
su l
an n
bo dy</w>
dur ing</w>
ec onom
f el
gr ou
tic al</w>
diff er
re sp
v e
e ach</w>
ex t</w>
fo re
le ad
presid ent</w>
w r
ent ly</w>
k yr
ou t
kyr gy
p ti
s ol
si ble</w>
st ud
g er</w>
ni ght</w>
pro duc
ac cor
d ic
f un
p ed</w>
par t</w>
t ec
por t</w>
el ec
po li
ar t</w>
b i
k et</w>
l es</w>
di rec
en ing</w>
some thing</w>
u m</w>
w ar</w>
ar ound</w>
g ro
l ine</w>
loo k</w>
pak istan</w>
r ed</w>
ig n</w>
or t</w>
ak h
am er
as s</w>
b ar
hou se</w>
st ri
w in
au th
s cho
g y</w>
gh ts</w>
minist er</w>
p i
ch ed</w>
go t</w>
gre at</w>
s ing</w>
t ain
on ce</w>
st ate</w>
t ers</w>
n um
se t</w>
k istan</w>
m ents</w>
we e
no thing</w>
c ro
read y</w>
st er
a ve</w>
egy pti
loo ked</w>
se em
hi gh</w>
d d
h al
har ry</w>
in cre
le ft</w>
n at
ap pe
f ic
tur ned</w>
al ways</w>
e f
ec ts</w>
is l
re li
si st
em ber</w>
l in
n ec
v en</w>
b an</w>
h op
po wer</w>
w ing</w>
e ff
p al
shi p</w>
ter r
amer ic
is ed</w>
li c</w>
s il
t ell</w>
b ed</w>
b ur
k az
s ince</w>
s k
le v
1 9
egypti an</w>
g g
s po
t ro
ad ded</w>
bu il
in ess</w>
t el
accor ding</w>
ic es</w>
t ain</w>
t en</w>
t ak
to ok</w>
kil led</w>
li ght</w>
y oun
ab il
ch ange</w>
inter national</w>
re qu
st re
t ting</w>
en g
s it
u z
ap pro
ish ed</w>
wat er</w>
fe w</w>
h un
m en
ne ed</w>
an t
ar i
as ked</w>
c k</w>
vi e
al l
ho w
in form
b ri
chil dre
ou th</w>
sa ys</w>
a ir
childre n</w>
tri es</w>
wom en</w>
e u
gi ve</w>
it ing</w>
th ings</w>
con sid
hel p</w>
th s</w>
up on</w>
1 0</w>
de p
h or
pu b
th ers</w>
ti c</w>
tim es</w>
medi a</w>
p er</w>
v en
pos sible</w>
pub lic</w>
re gi
sa w</w>
t able</w>
un i
auth or
cal led</w>
d ra
gener al</w>
l at
ag re
coun tries</w>
f our</w>
ac c
j ect</w>
mil lion</w>
n er</w>
n ext</w>
o v</w>
p ing</w>
se ar
st or
ati ve</w>
fol low
is m</w>
le g
h ol
il l
bo th</w>
e y</w>
f ound</w>
f ur
a w
a b</w>
cont in
d ays</w>
d ly</w>
la w</w>
per i
a h</w>
ist s</w>
sec ond</w>
en cy</w>
c as
p le</w>
how ever</w>
me e
r us
s es</w>
w an
man ag
resp on
uz be
f ar</w>
fin d</w>
h ome</w>
r is
di dn</w>
is su
t ali
tr ac
ag es</w>
centr al</w>
fa ther</w>
ge ther</w>
im port
ne ws</w>
st ed</w>
to gether</w>
ic t</w>
oul dn</w>
d ro
fel t</w>
ic ul
in clu
lo ve</w>
m om
re ally</w>
t un
num ber</w>
p ur
d ers</w>
egy pt</w>
is ra
p e</w>
pro ble
st op
ste m</w>
tur n</w>
youn g</w>
ad i
at e
differ ent</w>
par ty</w>
si ve</w>
spec i
tali ban</w>
z e</w>
b ers</w>
f il
in di
y et</w>
d in
do or</w>
n s</w>
oper ation</w>
comm it
develop ment</w>
for m</w>
g ed</w>
kaz akh
posi tion</w>
qu es
seem ed</w>
t or
u al</w>
at a</w>
comp any</w>
ful ly</w>
m m
s ci
sy stem</w>
ter ed</w>
terr or
0 00</w>
c us
i de
j u
su c
un ti
be tter</w>
comp le
f ree</w>
id ed</w>
ol e</w>
op en</w>
s mil
s us
he ard</w>
pro f
st and</w>
c ul
fam ily</w>
grou p</w>
ic k</w>
re m
la u
se e
u t
b ab
g ir
g ra
l on
po sed</w>
tec h
an i</w>
beg an</w>
d one</w>
d ri
inform ation</w>
isl am
p ast</w>
al most</w>
an k</w>
cur ren
do es</w>
fi ve</w>
l an
m y
ous ly</w>
poli tical</w>
r s</w>
ne e
v ol
econom ic</w>
ic k
o s
c am
en ough</w>
ex am
vo ice</w>
mo ther</w>
am ong</w>
any thing</w>
hal f</w>
j e
sus p
z ed</w>
ain ed</w>
comm un
e as
fi ed</w>
hel d</w>
sh ar
tr ans
unti l</w>
wh e
abil ity</w>
c ase</w>
cont ro
it al</w>
m us
n ame</w>
o h</w>
sh all</w>
a h
bel ie
inv est
le y</w>
mom ent</w>
offici als</w>
re as
ac k
al ity</w>
de f
e qu
in c
o thers</w>
er ing</w>
is ion</w>
milit ants</w>
o ver
oun ds</w>
ti on
ad v
at ten
ch ang
en s</w>
li m
s al
as k</w>
bus iness</w>
f lo
per s
ro ad</w>
s w
se en</w>
as ia</w>
he art</w>
re sul
st er</w>
for ces</w>
fore ign</w>
l ad
organ iz
scho ol</w>
wom an</w>
b en
ban k</w>
min d</w>
p as
sec re
el s</w>
milit ary</w>
sti tu
sup port</w>
t ors</w>
b a
cour se</w>
hi gh
m ur
y a</w>
afgh an
afghan istan</w>
al ready</w>
ar ly</w>
at s</w>
ex pres
l and</w>
or der</w>
v ir
war ds</w>
with in</w>
wor d</w>
wor ds</w>
be h
c ent</w>
ci al</w>
do c
k new</w>
m id
ro w</w>
s or
taji kistan</w>
th re
chil d</w>
eu ro
h ard</w>
pl an
pres ent</w>
s qu
tak en</w>
wh ole</w>
ac t</w>
gi ven</w>
hu man</w>
j un
pr is
so on</w>
ti ci
u res</w>
v ic
c ess
di str
dis cus
fe el</w>
in du
le ar
mon ey</w>
pl ay
sear ch</w>
sm all</w>
us ing</w>
w on</w>
1 1</w>
2 0</w>
bo o
cle ar</w>
el l
fr on
il i
lar ge</w>
pl ic
a ir</w>
are n
ch ing</w>
comp an
every thing</w>
fi el
han ds</w>
le ast</w>
belie ve</w>
import ant</w>
m rs</w>
our s</w>
rus si
serv ice</w>
th ir
vie w</w>
w ed</w>
wan ted</w>
afgh an</w>
americ an</w>
ful l</w>
ke ep</w>
sel ves</w>
al y
col l
ha ps</w>
kyrgy z</w>
mo v
b al
f ar
in ed</w>
inclu ding</w>
mee ting</w>
per haps</w>
t ar
te e</w>
ac ti
beh ind</w>
em ents</w>
i ous</w>
m ent
n a
sto od</w>
ac ro
d ge</w>
g ri
kno wn</w>
poin t</w>
re co
ri ed</w>
w il
1 2</w>
bil lion</w>
c la
d ou
ha ving</w>
he ad
in a</w>
k ar
ma j
qu ite</w>
s ever
ar ed</w>
h us
minist ry</w>
n am
no v
po se</w>
re st</w>
repor t</w>
st at
w o
are a</w>
b om
ef for
m al
sa ying</w>
ti onal</w>
b est</w>
di st
e duc
i gh
in i
j an
pri v
rec ei
s le
st u
su dd
ul ar</w>
5 0</w>
ach ed</w>
b s</w>
contin u
m ul
mar ket</w>
pro cess</w>
reli gi
su ff
y ed</w>
acro ss</w>
ar ab</w>
mon ths</w>
pl ac
pp ed</w>
he al
m aking</w>
mar ch</w>
mem ber</w>
s our
wee k</w>
b lo
bas ed</w>
d am
g es</w>
ir e</w>
m er
n al</w>
ol l
par t
ti s
d a
hop e</w>
kazakh stan</w>
lau gh
m a</w>
pol ic
re p
s c
stan ding</w>
ud e</w>
ab l
d ata</w>
de ath</w>
fe el
g s</w>
h y
ir a
loc al</w>
s li
si ons</w>
t aking</w>
ac ks</w>
ain ing</w>
en ds</w>
off ice</w>
re ad</w>
soci al</w>
stud y</w>
tal k</w>
tr an
ab o
as ed</w>
do ing</w>
l u
loo king</w>
pe ace</w>
per son</w>
pr in
sever al</w>
t on
ap er</w>
bec ome</w>
do w</w>
el se</w>
en ly</w>
ex tre
i ght</w>
in s</w>
pal est
sit u
t al</w>
th o
b ra
es ti
f re
i m</w>
t y
uni ver
vi ol
w on
clo se</w>
kyrgy z
la h</w>
lo t</w>
p at
st om
an c
are as</w>
at ely</w>
c ity</w>
ch es</w>
commit tee</w>
con f
fir e</w>
fo o
for ce</w>
her self</w>
kyrgyz stan</w>
lo st</w>
me as
my self</w>
p t
ra ther</w>
st ro
the m
tur k
author ities</w>
bil ity</w>
ch ie
dar k</w>
der ed</w>
il s</w>
j ur
ne ar</w>
to day</w>
v ari
wh ite</w>
1 5</w>
al one</w>
ch e
d en
g ave</w>
gr am
in st
ke y</w>
p op
s ent</w>
t on</w>
u tion</w>
ag ency</w>
com ing</w>
est abl
follow ing</w>
ir ed</w>
li ed</w>
li st
mor ning</w>
por ts</w>
s at</w>
s ing
th ous
tr ade</w>
ver ed</w>
a th
bor der</w>
can not</w>
di es</w>
lat er</w>
on es</w>
p es
pak ist
ur al</w>
whe ther</w>
ac tion</w>
b es
distr ict</w>
form er</w>
g er
g one</w>
h ur
i or</w>
in ten
j ects</w>
k ind</w>
ol s</w>
p ic
s un
si x</w>
tic s</w>
ar ds</w>
b al</w>
bl ack</w>
en ces</w>
gr ound</w>
m it
p ul
tr u
ag o</w>
ap p
id enti
mem bers</w>
pu bl
ri ghts</w>
st ing</w>
star ted</w>
str ate
att ack</w>
cer tain</w>
ex pl
fac t</w>
fur ther</w>
h on
j our
m ay
p ho
r ound</w>
t om
tri bu
y e</w>
com pe
con cer
dep end
g ar
g ing</w>
in cl
in d
isra el
m ak
mid d
taji k</w>
under stand</w>
w as
i al</w>
m ag
mo ve</w>
ne t
pes ha
r ing</w>
re pres
ru n</w>
s ou
sto p</w>
t ary</w>
u ally</w>
ac tiv
ati c</w>
bi g</w>
ch ri
di tion</w>
ex ce
fiel d</w>
ic s</w>
il ed</w>
mat ter</w>
nec ess
pesha war</w>
re al</w>
al i</w>
al ong</w>
coun t</w>
fi g
of ten</w>
p ec
pro ject</w>
st ra
tici p
to wn</w>
tri ed</w>
an aly
chie f</w>
ex c
lo gy</w>
m ad
me ans</w>
or e</w>
r ate</w>
r un
sho w</w>
t ou
them selves</w>
tr av
tr ying</w>
vis it</w>
c o</w>
cu stom
de ad</w>
diff icul
exp lo
fo od</w>
g ation</w>
k o
li ve</w>
n or</w>
n u
offici al</w>
on line</w>
par tic
regi on</w>
st ates</w>
struc tion</w>
ter min
c are</w>
d oll
d r</w>
g as</w>
go d</w>
ha ir</w>
he av
israel i</w>
le ave</w>
n a</w>
ne w
pro gram
re f
s ity</w>
su pp
3 0</w>
ann oun
compan ies</w>
fu ture</w>
i ds</w>
jun e</w>
k en</w>
l or
mis s</w>
o w
ou d</w>
r an
sudd enly</w>
abo ve</w>
air s</w>
fron t</w>
heal th</w>
in e
si mp
ap ri
apri l</w>
ar ing</w>
bo ok</w>
ch ec
cour t</w>
d om
inter est
lo g
on ed</w>
op s</w>
pakist ani</w>
poin ted</w>
prov id
r adi
s ch
situ ation</w>
wor k
1 3</w>
1 4</w>
c ir
d ru
do m</w>
ec tion</w>
ev ening</w>
in t</w>
inter est</w>
o d
ro r</w>
si r</w>
ti al</w>
u n</w>
un ited</w>
wh om</w>
bo y</w>
bu l
dec ision</w>
exp ected</w>
ing ly</w>
inv ol
j ud
me an</w>
n er
tech no
to p</w>
ad minist
b all</w>
buil ding</w>
des cri
g lo
happ y</w>
lev el</w>
nor th</w>
out side</w>
p tion</w>
re search</w>
s outh</w>
u l</w>
emp lo
fer ence</w>
he ar</w>
im pro
incre ase</w>
m ir
me an
proble m</w>
r an</w>
st ory</w>
z a
b ly</w>
d ang
du e</w>
en ty</w>
fl u
fri end</w>
gr ap
j am
l ate</w>
m es
oun ded</w>
par ed</w>
pl ay</w>
pt ember</w>
star t</w>
to wards</w>
wor king</w>
ye v</w>
c all</w>
curren t</w>
de l</w>
ei ther</w>
gir l</w>
pres s</w>
se ptember</w>
sen se</w>
sh ort</w>
ul ation</w>
v id
19 9
ac y</w>
br ought</w>
c n
contro l</w>
em er
fe et</w>
im p
in dic
islam ic</w>
le a
midd le</w>
mov ement</w>
ne l</w>
ques tion</w>
r on</w>
r ul
soci e
t t</w>
wi fe</w>
ab ad</w>
ad dre
b ru
con ver
e f</w>
feel ing</w>
li ving</w>
m oun
me et</w>
pl an</w>
r ic
th ro
uzbe kistan</w>
b b
elec tr
em s</w>
h old</w>
i ed</w>
ide a</w>
off ic
p an
po or</w>
priv ate</w>
re ached</w>
religi ous</w>
sy ri
th y</w>
ar r
as h</w>
d ate</w>
d en</w>
ex peri
happ ened</w>
im ed</w>
inv esti
li am
me d
par ticip
pro t
s n
some times</w>
stud ents</w>
w el
ac hi
ar my</w>
ati onal</w>
c at
ear ly</w>
es day</w>
fri ends</w>
in ian</w>
is i
ke ts</w>
may be</w>
o v
t ty</w>
tal king</w>
us h
wh ose</w>
c are
enti al</w>
g ni
ge tting</w>
h our</w>
n ers</w>
p en
par liam
pri me</w>
prov ide</w>
spe ak</w>
t an
te am</w>
ar ms</w>
b ad</w>
c ra
com man
di ed</w>
dou b
dr ed</w>
f ing
ni fic
organ is
re ly</w>
serv ices</w>
sh u
to ward</w>
v ely</w>
2 5</w>
agre ement</w>
c k
educ ation</w>
exam ple</w>
f y</w>
h and
in de
in side</w>
it er
jan u
k es
l ab
maj or</w>
nat ural</w>
palest inian</w>
re turn</w>
rel ati
su gg
w er
win dow</w>
wor ks</w>
af ter
ar re
at ors</w>
bl ast</w>
c el
c ouldn</w>
con ce
en er
ex per
f ell</w>
fi gh
g est</w>
grou ps</w>
gu e</w>
i ally</w>
i e</w>
id ence</w>
in ation</w>
janu ary</w>
la un
m ing</w>
proble ms</w>
se tt
secre tary</w>
a il
ag r
be au
er y</w>
fin an
h ours</w>
in depend
ish ing</w>
lead ers</w>
or din
prov ince</w>
re sid
reas on</w>
t es</w>
thin king</w>
an ds</w>
com b
cri min
en vir
fun c
invest ment</w>
manag ement</w>
mes sa
mo ved</w>
necess ary</w>
nee ds</w>
o il</w>
s we
socie ty</w>
str ong</w>
w ouldn</w>
ain s</w>
b it</w>
blo od</w>
c ar</w>
cer tain
chri stop
de al</w>
envir on
es pec
im ag
pr ince</w>
u te</w>
administ r
au ght</w>
bro ther</w>
c op
cha ir
christop he</w>
ci l</w>
con duc
de termin
espec ially</w>
every one</w>
ex change</w>
f f</w>
fe ar</w>
h en
it self</w>
le ban
li k
mon th</w>
ou gh
p ra
pas sed</w>
resul ts</w>
sh oul
st ay</w>
st one</w>
ster n</w>
u es</w>
co st</w>
co vered</w>
indi vid
op port
opport un
p un
pro mis
reg ar
sp ir
spo kes
st and
an im
at ure</w>
cap ital</w>
chang ed</w>
dec ided</w>
en ding</w>
g n
g or
h om
in es</w>
in tel
kno w
mat er
me t</w>
ne igh
p ass
p ay</w>
pi ec
pre v
res our
s car
si bility</w>
sig nific
tur al</w>
w ide</w>
wal ked</w>
1 00</w>
al low</w>
c old</w>
d an
de ar</w>
fig ure</w>
follow ed</w>
g az
hun dred</w>
it ch</w>
ke e
li g
p ounds</w>
ple as
reco gni
s ort</w>
se qu
st ry</w>
t ation</w>
to tal</w>
tr ou
wa it</w>
ac ce
ac ked</w>
b ill</w>
b ir
bec ame</w>
dec ember</w>
du ce</w>
ener gy</w>
f al
finan cial</w>
for ward</w>
ha mm
ho sp
im ple
in k</w>
in ning</w>
indu stry</w>
lor d</w>
mus li
nee ded</w>
ob ser
oc r
oc to
octo ber</w>
per cent</w>
qu ar
qu ick
rec ently</w>
recei ved</w>
sec tor</w>
sy st
terror ism</w>
ti ce</w>
vi ties</w>
al though</w>
au g
char ac
cn n</w>
com for
cr is
do es
e m</w>
eas y</w>
ec tive</w>
en ded</w>
ev ed</w>
ex ports</w>
f le
fi ght</w>
gre at
ju ly</w>
know le
li es</w>
op ened</w>
oper ations</w>
rec ent</w>
scho ols</w>
ste ad</w>
thir d</w>
thous and</w>
y ber</w>
am s</w>
ans w
as soci
com es</w>
d a</w>
d ul
de part
dem ocr
eff ect</w>
g a
gro w
ha r</w>
jo b</w>
le ad</w>
li ber
ne y</w>
p aper</w>
ro le</w>
s co
stre et</w>
ther e
tr aining</w>
v ill
agre ed</w>
ans wer</w>
b and</w>
de pu
dem on
di e</w>
e th
en gl
fi c</w>
fi f
g ate</w>
ho od</w>
id ent</w>
in jur
li e</w>
m ic
n al
nat ure</w>
pro ce
radi o</w>
russi an</w>
s low
se a</w>
suc cess
sur pr
w ish</w>
y s
1 8</w>
ag ed</w>
any one</w>
att acks</w>
bab ly</w>
bo ard</w>
con nec
coun cil</w>
d au
de b
e v</w>
effor ts</w>
en ted</w>
es sion</w>
f ine</w>
fe der
g ent
ke pt</w>
kh yber</w>
l a</w>
lon ger</w>
n on</w>
o t</w>
peri od</w>
re le
rel ations</w>
s sed</w>
se par
sh e
sit ting</w>
smil e</w>
stat ement</w>
su per
tran sp
univer sity</w>
val ue</w>
was n</w>
wr ong</w>
4 0</w>
ac tu
ar ri
c li
cam pa
ci es</w>
con sci
con v
el led</w>
h it</w>
ha m
in stead</w>
incre as
ir an</w>
ira q</w>
isra el</w>
m es</w>
ne t</w>
p aren
s cre
s ound</w>
stop ped</w>
t a</w>
t em
tr ue</w>
w est</w>
ach i</w>
av o
b it
b led</w>
bel i
d on
e ast</w>
es sed</w>
f ren
il ing</w>
issu e</w>
kh an</w>
knowle dge</w>
l ay</w>
l er</w>
ment al</w>
mo der
net work</w>
p ati
pro bably</w>
produc ts</w>
re pe
run ning</w>
t in
tr a
uzbe k</w>
vari ous</w>
acti vities</w>
ant i</w>
ar m</w>
at or</w>
c us</w>
consid ered</w>
cri ed</w>
ear th</w>
econom y</w>
ex ten
im medi
k u
kar achi</w>
lead er</w>
leg al</w>
n y</w>
on y</w>
par ties</w>
pro per
s is</w>
tiv ely</w>
tur ning</w>
tw enty</w>
y er</w>
ac qu
appe ared</w>
ch ina</w>
cro w
does n</w>
e ful</w>
e ve</w>
ei ght</w>
euro pe
fa v
fac il
in f
jour nal
mo del</w>
ph one</w>
pl es</w>
pre vi
prin ci
pro jects</w>
s even</w>
spokes man</w>
tain ed</w>
turk men
ut es</w>
w all</w>
al e</w>
c ou
cha ir</w>
con stitu
d or</w>
dau gh
del i
du m
e k</w>
e ts</w>
gi ving</w>
h ous
in stitu
j a
o p</w>
ra ised</w>
ris k</w>
speci al</w>
ste p</w>
ter ing</w>
th us</w>
wa iting</w>
c le</w>
clo sed</w>
commun ity</w>
con di
de ta
europe an</w>
incl ude</w>
inde ed</w>
it or</w>
mar y</w>
me ant</w>
n ation</w>
o ds</w>
p ain
po ten
poin ts</w>
pro cess
qu ality</w>
ra id</w>
re ali
re spec
re turned</w>
ren g
s em
sh or
sing le</w>
st reng
su mm
ter m</w>
tu res</w>
200 1</w>
a id</w>
ab ly</w>
agr icul
beg inning</w>
br ing</w>
bru ary</w>
c ement</w>
compe ti
d us
de stro
ec ting</w>
fe bruary</w>
flo or</w>
g am
gh tly</w>
gir ls</w>
issu es</w>
lan gu
m ain
m ain</w>
m un
min utes</w>
or ity</w>
quick ly</w>
s s
so f
some one</w>
ste ps</w>
struc ture</w>
su ic
syst ems</w>
ul arly</w>
ul t</w>
viol ence</w>
we d
1 6</w>
2 2</w>
2 8</w>
an ti
ar ti
author ity</w>
b ak
be ha
bl ing</w>
can di
centr e</w>
certain ly</w>
commun ic
con ference</w>
con struction</w>
con tribu
direc tor</w>
es cap
ish ment</w>
l led</w>
la w
lo ws</w>
pl ans</w>
plac ed</w>
ple ase</w>
pro tec
re duc
russi a</w>
s mo
t our
te en</w>
wal k</w>
x ed</w>
y our
ad op
am p</w>
announ ced</w>
arre sted</w>
c ent
car ried</w>
depart ment</w>
des p
doc tor</w>
doll ars</w>
exce pt</w>
f all</w>
fam il
famil ies</w>
fic ation</w>
for tun
grow th</w>
in flu
is ing</w>
j us
k a</w>
k p</w>
l ist</w>
ma ster</w>
no on</w>
pers on
polic y</w>
posi tive</w>
pres sure</w>
produc tion</w>
re fl
repres ent
ro se</w>
sig ned</w>
sk y</w>
sol di
sp ace</w>
str on
strate gi
suic ide</w>
to m</w>
tro ops</w>
v il
al low
an ced</w>
as sist
atten tion</w>
aug ust</w>
ben ef
bo dies</w>
ch ur
com pu
effor t</w>
euro pe</w>
f ast</w>
form ed</w>
g old</w>
gh t
la m</w>
lad y</w>
o s</w>
ph ys
r ise</w>
re member</w>
s ite</w>
sa tion</w>
slow ly</w>
ter ms</w>
there fore</w>
ti ll</w>
wh is
za i</w>
1 7</w>
a st
ac count</w>
bre ak</w>
de ep</w>
do w
elec tion</w>
ex ist
fre e
hol ding</w>
in ing</w>
indu stri
ini ti
lo ved</w>
messa ge</w>
nov ember</w>
o k
op position</w>
paren ts</w>
po st</w>
pp ing</w>
program me</w>
qu i
r ou
s an
sour ce</w>
sour ces</w>
spo ke</w>
techno logy</w>
terror ist</w>
ther n</w>
tic ally</w>
tre es</w>
tt p</w>
v an
v ers</w>
y ou
200 9</w>
af raid</w>
ap ped</w>
ar ab
b ay
ban ks</w>
boo ks</w>
c ause</w>
cas es</w>
depu ty</w>
dus han
er ous</w>
for man
fren ch</w>
g en</w>
in tro
inter ior</w>
je an</w>
mo ving</w>
pr ac
qu e</w>
qu o
rem ain</w>
ri age</w>
s a</w>
sho ws</w>
si c</w>
si mil
te h
tre at
y outh</w>
an ces</w>
ap plic
ar ch
as su
ash k
ch all
chair man</w>
clo ck</w>
co operation</w>
com pl
comm er
comm on</w>
demon str
dre w</w>
dushan be</w>
e ye</w>
equ i
foo t
for ced</w>
g al
ic ally</w>
iz ed</w>
le tter</w>
mak es</w>
pr ice</w>
res ol
si ze</w>
spe aking</w>
st e</w>
t ory</w>
tur ed</w>
am e
am oun
at ever</w>
av ail
bo ys</w>
condi tions</w>
de fin
e t
en jo
ex ec
fin ally</w>
gr ad
gra m</w>
gu n</w>
her mi
hermi one</w>
in sur
in te
intel lig
l y
mar k</w>
n ur
o blast</w>
par ts</w>
pr acti
r as
rel ated</w>
resour ces</w>
s ar
sa ve</w>
st ation</w>
te ars</w>
un ion</w>
wh atever</w>
2 1</w>
aff airs</w>
americ a</w>
arr ang
b loc
b on
beha vi
bra in</w>
buil d</w>
c y
con fir
con su
cris is</w>
des er
difficul t</w>
e p
e th</w>
em y</w>
extre mis
f oun
hus band</w>
kil ls</w>
li er</w>
log ical</w>
m ach
mit ted</w>
mon day</w>
neigh b
per f
pop ulation</w>
publ ic
q a
q i</w>
ques tions</w>
re ach</w>
s cor
s in
ser ious</w>
si ght</w>
smil ed</w>
sor ry</w>
sub ject</w>
t emp
te ach
ti z
tr adi
tt on</w>
turkmen istan</w>
vic ti
vol u
2 4</w>
ab ul</w>
ad ding</w>
ad dition</w>
al ed</w>
al ex
al o
am a</w>
appro ach</w>
b ing</w>
cla imed</w>
continu ed</w>
cre ate</w>
cre d
daugh ter</w>
del e
do ws</w>
est ed</w>
figh ting</w>
happ en</w>
id es</w>
it h</w>
it or
new sp
par is</w>
per forman
poten tial</w>
r a</w>
resul t</w>
sho wed</w>
sig n</w>
sil ence</w>
ster day</w>
str ange</w>
suc cess</w>
th an
th ou
tri bal</w>
v el
ye sterday</w>
ac cess</w>
administr ation</w>
bu d
c lim
cl ass</w>
co ver</w>
comple te</w>
con fl
des ig
dru g</w>
ec h</w>
fing ers</w>
g un
ge or
gre en</w>
hamm ad</w>
jo h
lik ely</w>
m as
m el
m outh</w>
meas ures</w>
med ical</w>
organiz ations</w>
os h</w>
p es</w>
partic ularly</w>
pro mo
pro te
pur pose</w>
r ap
reg ist
rep lied</w>
sho t</w>
tr ust</w>
tu al</w>
x im
2 9</w>
answ ered</w>
ass em
az i
b ar</w>
c aught</w>
c ru
chec k</w>
ci tiz
clo th
consid er</w>
d es</w>
d or
de al
ed a</w>
en ced</w>
er able</w>
ess or</w>
fri day</w>
gr and
gro wing</w>
high er</w>
islam abad</w>
it ation</w>
k er
k ill</w>
kh w
m ad</w>
m ass</w>
m ist
off er</w>
or ig
pers onal</w>
prot ect</w>
sa tis
sle ep</w>
su n</w>
syri a</w>
ter ri
ti n</w>
w id
w ise</w>
w ol
6 0</w>
after noon</w>
al u
ash ed</w>
b ish
b un
cha m
contin ue</w>
der ing</w>
desp ite</w>
eff ici
elec tions</w>
en cies</w>
en cour
en tered</w>
es tim
ev ents</w>
fac es</w>
fun d</w>
gen cy</w>
gl ass</w>
gre w</w>
heav y</w>
injur ed</w>
itt en</w>
ke k</w>
langu age</w>
lead ing</w>
lin es</w>
organiz ation</w>
respon se</w>
s cal
s h</w>
sa ud
see ing</w>
simil ar</w>
st ati
susp ected</w>
t ch</w>
2 3</w>
ac ts</w>
activ ity</w>
aw are</w>
bish kek</w>
c up
campa ign</w>
con trac
dar k
discus sed</w>
em o
em pt</w>
er al</w>
ev idence</w>
ex ac
experi ence</w>
f low
g ame</w>
ge ts</w>
grap h
inte gr
intellig ence</w>
inter nal</w>
kil ling</w>
l o</w>
le ag
lo ss</w>
me tho
mul ti
musli m</w>
n ar
n ine</w>
no tic
o w</w>
ob j
on ship</w>
op ening</w>
pa id</w>
piec e</w>
prev ent</w>
pro posed</w>
prov in
read ing</w>
requ i
s ent
s l
sec tion</w>
sho wn</w>
sp ent</w>
st ers</w>
thou ghts</w>
u r</w>
under standing</w>
us es</w>
us ually</w>
ush ed</w>
ver age</w>
20 00</w>
ab les</w>
actu ally</w>
addre ss</w>
att le</w>
be y
bey ond</w>
c ing</w>
chang es</w>
con clu
di v
doub t</w>
ed ward</w>
ent ary</w>
environ ment</w>
ex er
f em
fa ir</w>
fol low</w>
glo bal</w>
gu ar
har dly</w>
ho t</w>
hosp ital</w>
im possible</w>
immedi ately</w>
incre ased</w>
is lam</w>
is n</w>
j ap
lev els</w>
mu sic</w>
n t</w>
om s</w>
p ted</w>
performan ce</w>
pho to</w>
play ed</w>
r ad
r i</w>
rec or
s cen
s ev
sci enti
sup por
tak es</w>
ten ed</w>
ti red</w>
tre m
tt en</w>
vill age</w>
wee ks</w>
work ers</w>
your self</w>
2 6</w>
appe ar</w>
beau ti
bl ue</w>
ble d
bled ore</w>
car ry</w>
cloth es</w>
com pared</w>
cu t</w>
d ance</w>
d ings</w>
da ily</w>
differ ence</w>
discus s</w>
dum bledore</w>
ear lier</w>
el ess</w>
ess es</w>
g ol
gre ss</w>
hi story</w>
intro duc
j ac
jo bs</w>
k h</w>
l ess
li ps</w>
lon don</w>
loo ks</w>
ne arly</w>
parliam ent</w>
ph ili
pre tty</w>
pro sec
qa eda</w>
requ ired</w>
sa fe</w>
se ts</w>
sh are</w>
simp ly</w>
sist er</w>
supp ly</w>
treat ment</w>
ve h
wat ching</w>
we ap
wo od</w>
200 8</w>
a head</w>
af ric
am ed</w>
at trac
at ures</w>
avail able</w>
b es</w>
bec om
ch ance</w>
char ge</w>
comm is
connec tion</w>
d ad</w>
dec lar
develop ing</w>
eng ine
es si
for d</w>
h um
i ther</w>
invol ved</w>
jo int</w>
k ha
k ur
lear ned</w>
mar ried</w>
min e</w>
mo squ
n ice</w>
nati on
oc cup
offic er</w>
or i
per ce
pris on
prof essor</w>
prov ided</w>
repor ts</w>
saud i</w>
seem s</w>
sen ior</w>
shi ps</w>
st age</w>
st oc
t est</w>
th ank</w>
tru th</w>
wor se</w>
z ation</w>
2 7</w>
adv ant
b ack
b ad
bus in
d an</w>
dist ance</w>
emer gency</w>
exac tly</w>
fel low</w>
fo cus</w>
gr y</w>
ic ity</w>
independ ent</w>
individ ual</w>
ing ing</w>
k abul</w>
k es</w>
k in
l ou
leban on</w>
m ec
mar kets</w>
min ute</w>
nor m
nu clear</w>
p ain</w>
p ass</w>
pre pared</w>
r ates</w>
re stor
regi onal</w>
resid ents</w>
ro ad
s sing</w>
secre t</w>
sh ou
signific ant</w>
te eth</w>
thre at
tr aff
tu esday</w>
un t</w>
vis ion</w>
we stern</w>
wr itten</w>
200 3</w>
ac ad
ac coun
ad ed</w>
ag encies</w>
an cy</w>
as ian</w>
ay ed</w>
b in</w>
b ol
beauti ful</w>
c ks</w>
c up</w>
co tton</w>
cro ss</w>
descri bed</w>
di stri
direc t</w>
distri bu
dow n
emplo ye
en se</w>
en ter
expres sed</w>
f our
fil led</w>
form s</w>
g ad
g ul
go ti
govern or</w>
hu man
k g</w>
kno ws</w>
li ves</w>
n ations</w>
n e</w>
ne goti
pak h
pos s
pro gram</w>
r am
resp ect</w>
s at
sou l</w>
strate gy</w>
sun day</w>
sup posed</w>
t ings</w>
tr ad
ty pe</w>
w ash
w ind</w>
x es</w>
20 10</w>
ac tions</w>
ag ing</w>
anc ing</w>
ar t
ati ves</w>
avo id</w>
b at
be ar</w>
c ell</w>
cal ling</w>
cl in
con n
d ates</w>
devel op</w>
do g</w>
dra wing</w>
e ase</w>
electr icity</w>
en th</w>
gent le
h m
ig nor
k ne
lo gi
m ers</w>
mu t
pho to
pr ices</w>
pres ence</w>
pris on</w>
ra ise</w>
s it</w>
sho p</w>
sil ent</w>
simp le</w>
spe ech</w>
spe ed</w>
st ly</w>
ta x</w>
thir ty</w>
ti l
vis h</w>
z ing</w>
acc used</w>
an x
ang er</w>
as p
b a</w>
bab y</w>
bes ide</w>
bro ken</w>
buil t</w>
c ket</w>
ca ir
cal ls</w>
col on
comple t
complet ely</w>
confl ict</w>
crimin al</w>
crow d</w>
d y
der vish</w>
dr ink</w>
ev a</w>
expres sion</w>
fin al</w>
for get</w>
fr ance</w>
go es</w>
gu ard</w>
hous es</w>
hur t</w>
ir an
j an</w>
journal ists</w>
k it
laun ched</w>
lead er
me dic
mec han
n it
oc cas
offic ers</w>
pakh tun
pal e</w>
po ver
presid ential</w>
provid es</w>
pur su
r on
r ying</w>
re ser
re st
respon sibility</w>
sa m</w>
ser ies</w>
sil ver</w>
strategi c</w>
sur vi
tis h</w>
tri c</w>
ur ed</w>
wed n
y el
1 9</w>
an a</w>
ar med</w>
bor n</w>
bre ath</w>
cair o</w>
chur ch</w>
cor por
cor ru
d i</w>
dec isi
deta ils</w>
direc tly</w>
e e</w>
en sure</w>
free dom</w>
ha med</w>
i ously</w>
im s</w>
in ion</w>
in qu
ira qi</w>
is s</w>
j or
j um
k ov</w>
kee ping</w>
khw a</w>
l ack</w>
la id</w>
list en</w>
lo y
n one</w>
no body</w>
no te</w>
op inion</w>
p ac
p il
pakhtun khwa</w>
partic ular</w>
pi er
po wer
produc t</w>
re mem
re ve
ri ver</w>
s end</w>
s on
se tting</w>
sh ei
shu t</w>
si x
st af
st y</w>
sup pose</w>
t ol
ti t
wedn esday</w>
y ers</w>
z z
19 8
a p</w>
ab road</w>
an ci
an ded</w>
analy sis</w>
app aren
ar tic
b on</w>
bl es</w>
bom b</w>
bre a
bud get</w>
cap ac
con dem
cor rec
des ire</w>
doc um
dom es
en ter</w>
enti re</w>
extre m
f er</w>
fa ult</w>
fin ance</w>
gl ad</w>
go tten</w>
great er</w>
h at</w>
impro ve</w>
in nov
inclu ded</w>
increas ing</w>
influ ence</w>
ing ton</w>
investi gation</w>
issu ed</w>
jus tice</w>
k y</w>
laugh ed</w>
m ali
me t
mean while</w>
metho ds</w>
ne ither</w>
or row</w>
p ay
pa ir</w>
phili p</w>
pl ant</w>
po w
practi ce</w>
previ ous</w>
re u
regar ding</w>
shoul der</w>
stan ces</w>
stati s
stra ight</w>
sw at</w>
tom orrow</w>
tr ain</w>
trou ble</w>
us h</w>
20 11</w>
7 0</w>
ab us</w>
abil ities</w>
ad di
af p</w>
ali a</w>
all en</w>
amoun t</w>
appro pri
ar gu
bay ev</w>
bel ow</w>
c um
charac ter
con dition</w>
con sequ
cre ated</w>
custom s</w>
dem and</w>
determin ed</w>
doll ar</w>
e ag
e ding</w>
eff ective</w>
en ess</w>
escap e</w>
expl ained</w>
g il
head s</w>
i als</w>
inter net</w>
interest s</w>
iran ian</w>
j er
k ni
kazakh stan
lar gest</w>
laugh ter</w>
lear n</w>
leg s</w>
manag ed</w>
minist ers</w>
n on
newsp aper</w>
ni c</w>
o li
obser ved</w>
opportun ity</w>
p ath</w>
pe tro
per ed</w>
pover ty</w>
ra il
re public</w>
re sist
res h</w>
s wit
st ations</w>
streng th</w>
sur face</w>
sur ve
t ask</w>
t te</w>
tel ling</w>
ter nal</w>
trav el</w>
tt ers</w>
val ues</w>
veh ic
w ro
wat ched</w>
wr iting</w>
200 2</w>
a u</w>
a unt</w>
ag on</w>
ag ree</w>
alex and
am m
an abus</w>
an tly</w>
att empt</w>
b ig
ber anabus</w>
c a</w>
ca used</w>
cen tur
ci vi
conver sation</w>
cri mes</w>
dang er</w>
democr atic</w>
din ner</w>
emp ty</w>
en sive</w>
exp ect</w>
f ish</w>
f low</w>
fin ished</w>
foo t</w>
gre s
gri d</w>
h es
h il
ha ven</w>
hor se</w>
hu ge</w>
i er</w>
ide as</w>
identi fied</w>
investi g
iz ation</w>
joh n</w>
le tt</w>
mat ch</w>
mater ial</w>
mem ory</w>
mo v</w>
moder n</w>
oc cur
opportun ities</w>
or g</w>
or ies</w>
p age</w>
pre par
protec tion</w>
qu ali
re mar
sci ence</w>
shei kh</w>
sk in</w>
soldi ers</w>
st airs</w>
stre ets</w>
stu dies</w>
t op
tal ked</w>
tech n
un less</w>
ven tion</w>
victi ms</w>
w ounded</w>
wat ch</w>
wor th</w>
wro te</w>
z a</w>
1 8
200 7</w>
a verage</w>
ad a</w>
allow ed</w>
an o</w>
appe ar
assem bly</w>
b y
be k</w>
beli ev
bes ides</w>
bri tish</w>
cam p</w>
cen ter</w>
ch i
ch in
ci ties</w>
civi l</w>
concer n</w>
confir med</w>
cred it</w>
d ded</w>
d ry</w>
dang erous</w>
dd en</w>
des ign</w>
di ver
dra wn</w>
ent re
f ly</w>
fa ir
foot ball</w>
fr ank</w>
h a</w>
ici al</w>
im pres
indi a</w>
is tic</w>
jo in</w>
k m</w>
l un
mee tings</w>
min im
ob vi
off ered</w>
p ap
p ha
prof essi
qu e
rele ase</w>
s ac
s cri
se at</w>
sec on
see m</w>
star ting</w>
th es
thous ands</w>
thre ats</w>
tri al</w>
ul lah</w>
un able</w>
under stood</w>
w ants</w>
w in</w>
won der</w>
5 00</w>
ac her</w>
ach ing</w>
ad vis
am az
am bas
am ing</w>
ambas sa
associ ation</w>
b ase</w>
b ile</w>
br an
chall eng
commis sion</w>
comp on
curren tly</w>
dark ness</w>
emp ha
enti oned</w>
eth nic</w>
ev ent</w>
expres s</w>
f it</w>
f requ
f ted</w>
f ying</w>
fer red</w>
fr an
fri end
fri gh
gener ation</w>
geor ge</w>
h all</w>
he ar
hel ped</w>
hy dro
l iter
la ws</w>
leader ship</w>
li ved</w>
lim ited</w>
loc ation</w>
low er</w>
m ac
m ous</w>
man ner</w>
ment ation</w>
mo bile</w>
ne g
ob serv
organis ation</w>
plac es</w>
pre hen
qu anti
r ange</w>
r ich</w>
re vol
rem ained</w>
reu ters</w>
ris ti
ru le</w>
sh el
sh r
sha h</w>
shi r
so ft</w>
struc k</w>
surpr ised</w>
susp ects</w>
t ched</w>
t i</w>
tain s</w>
tar get</w>
teach ers</w>
terror ists</w>
tur ns</w>
u als</w>
v a</w>
volu me</w>
weap ons</w>
wh er
ab dul
ac ted</w>
agricul tural</w>
ak h</w>
anim als</w>
any body</w>
as i
as ks</w>
ashk ent</w>
at tribu
att acked</w>
b ag
beg in</w>
bel on
bro ke</w>
bu y</w>
c ked</w>
ch an
ch risti
cha mp
char ges</w>
cl ass
cle an</w>
comm and</w>
conduc t</w>
cri me</w>
engl ish</w>
ev alu
ev ision</w>
ex port</w>
f resh</w>
fa iled</w>
fac tors</w>
fi g</w>
fu el</w>
g ly</w>
go al</w>
ha dn</w>
ha z
id ity</w>
imag ine</w>
it able</w>
k ids</w>
kazakhstan i</w>
lea ving</w>
mi gr
mil es</w>
mo del
ordin ary</w>
pers ons</w>
pic ture</w>
pleas ure</w>
poin ting</w>
pre dic
pro per</w>
re duce</w>
re form</w>
reli ef</w>
rul es</w>
st ability</w>
staf f</w>
success ful</w>
sugg ested</w>
surpr ise</w>
syri an</w>
t ashkent</w>
ter ror</w>
ti er</w>
traff ic</w>
tran si
ud es</w>
us ual</w>
v acc
val ley</w>
vi de
wil d</w>
wor ked</w>
a be
a stan
ad es</w>
al li
as si
astan a</w>
ati c
b loo
c ab
cl es</w>
co m</w>
cul ture</w>
di alo
domes tic</w>
e br
eas ily</w>
em ma</w>
er a</w>
est s</w>
expl ain</w>
f allen</w>
f ile</w>
facil ities</w>
g ru
gh ty</w>
gi ves</w>
hi stor
i ons</w>
ic ket</w>
ie ty</w>
imp act</w>
jo y</w>
lear ning</w>
m entioned</w>
m er</w>
milit ant</w>
mis sion</w>
nam ed</w>
or dered</w>
p ment</w>
p sy
phys ical</w>
play ing</w>
pre ci
process es</w>
qu ick</w>
re fu
re view</w>
reg ard</w>
sa fe
sch em
shor t
sp read</w>
speci fic</w>
spir it</w>
st res
stru gg
summ er</w>
te l</w>
tel evision</w>
than ks</w>
ti ves</w>
ver ing</w>
vi a</w>
wa ited</w>
we ak
we b</w>
win ter</w>
ab du
ah med</w>
ak es</w>
an ing</w>
appro ved</w>
ar ies</w>
arri ved</w>
artic le</w>
ass ess
au str
b ered</w>
ban king</w>
ben e
bo t
bro ad
co sts</w>
com par
comman der</w>
con sul
consci ous</w>
custom er</w>
da wn</w>
develop ed</w>
dis covered</w>
do ors</w>
dor o
e a
en emy</w>
ent ation</w>
every body</w>
exer c
fem ale</w>
fi gu
fi xed</w>
fil m</w>
fir m</w>
gam es</w>
go als</w>
go od
gr ace</w>
ha y
har d
high ly</w>
hor e</w>
hun dre
i um</w>
i us</w>
i v
i ve</w>
ic ts</w>
in al</w>
in sul
l eng
li br
liber ty</w>
m c
m it</w>
ma il</w>
ma xim
man u
manu fac
notic ed</w>
os ce</w>
parliam entary</w>
pass ing</w>
polic em
pp er</w>
pres sed</w>
pun j
qu ie
r ati
ra in</w>
relati onship</w>
s ses</w>
sa m
scal e</w>
scar lett</w>
se as
se ized</w>
shoul ders</w>
sm all
sou thern</w>
sp ite</w>
sp or
spe ak
spo t</w>
stan tly</w>
stand ard</w>
stoc k</w>
stri ke</w>
su it</w>
suff ered</w>
t v</w>
te ams</w>
te dly</w>
techn ical</w>
th ur
thr ough
tin y</w>
un g</w>
us er</w>
v ar
wa ve</w>
wash ington</w>
whis pered</w>
20 0</w>
ac king</w>
ac tive</w>
ach es</w>
aff ected</w>
ambassa dor</w>
any way</w>
ap art</w>
are n</w>
bre ak
c ast</w>
cham ber</w>
co at</w>
co ff
commer cial</w>
cul tural</w>
de gre
def ence</w>
di pl
dipl om
direc tion</w>
do z
dra w</w>
dri ve</w>
dru gs</w>
e at</w>
e ded</w>
en or
engl and</w>
equi pment</w>
ex ternal</w>
exper ts</w>
fa il
feder al</w>
figu res</w>
fir ms</w>
ger man</w>
gro w</w>
h ell</w>
hor ses</w>
hundre ds</w>
i th
id ly</w>
industri al</w>
invest ments</w>
is es</w>
is on</w>
iz e</w>
l ying</w>
la hore</w>
lad en</w>
leban ese</w>
li ghts</w>
li ked</w>
lin k</w>
loc ated</w>
m ou
mar ry</w>
me th
mic ro
nec k</w>
o ts</w>
o x
ob ject</w>
oper ating</w>
organis ations</w>
oun ding</w>
plan ning</w>
play ers</w>
prosec u
provid ing</w>
r ac
ra ising</w>
ra m</w>
re ality</w>
respon sible</w>
s day</w>
s er</w>
smil ing</w>
sp l
suff ici
t ent</w>
t ext</w>
t ree</w>
thur sday</w>
tour ism</w>
vide o</w>
wil ling</w>
win dows</w>
200 4</w>
a ther</w>
addi tional</w>
an gry</w>
appropri ate</w>
as hi
as king</w>
at ory</w>
b its</w>
bas is</w>
beli eved</w>
bri dge</w>
ch em
cho ice</w>
ci vil
con sist
dele gation</w>
destro yed</w>
di r
difficul ty</w>
dis pu
dou ble</w>
el e
elec tric</w>
en tr
ex hi
f i</w>
feel ings</w>
fiel ds</w>
g ates</w>
h i</w>
happ iness</w>
im ages</w>
im prov
individ uals</w>
inst ance</w>
insur g
inten ded</w>
is ation</w>
it al
k i</w>
lau gh</w>
leag ue</w>
li ons</w>
li qu
list ening</w>
m am
mag ic</w>
mean ing</w>
no ise</w>
norm al</w>
ob tained</w>
ok ay</w>
ol der</w>
op pos
or k</w>
p el
per su
poli tics</w>
promis ed</w>
pul led</w>
pur cha
r is</w>
reas ons</w>
ro ber
ro y
s kills</w>
sa dd
sel y</w>
some how</w>
some where</w>
sp ring</w>
star ing</w>
sur ren
sy m
t ac
tar ge
thro at</w>
tradi tional</w>
tre ated</w>
tw el
ur s</w>
us eful</w>
wr ite</w>
y le</w>
y ork</w>
200 6</w>
a imed</w>
achi eve</w>
acqu ain
advant age</w>
al led</w>
anci ent</w>
appear ance</w>
att emp
att ers</w>
au di
azi ri
aziri stan</w>
b attle</w>
b i</w>
bene ath</w>
benef it</w>
bi tion</w>
bo tt
bo x</w>
c ry</w>
car riage</w>
centur y</w>
cha p
challeng es</w>
chin ese</w>
cir cum
clu b</w>
comfor t</w>
cont ent</w>
contro lled</w>
coun ter</w>
de fe
de st
desig ned</w>
dialo gue</w>
direc ted</w>
du ty</w>
el ed</w>
establ ish</w>
establ ished</w>
f la
fl ying</w>
gar den</w>
guar an
h ill</w>
in come</w>
ing u
interest ed</w>
invest ors</w>
isl and</w>
it es</w>
jap an</w>
k er</w>
k in</w>
l and
l ic
l oud</w>
laugh ing</w>
le ge</w>
m ly</w>
mach ine</w>
mar g
mater ials</w>
mis sing</w>
mur mur
n es</w>
ner ship</w>
o b</w>
ob ama</w>
or ders</w>
perf ect</w>
person nel</w>
pier re</w>
pro pos
pro to
pro ve</w>
proper ty</w>
pu tting</w>
publ ished</w>
qui et</w>
re j
re ven
refu ge
s cr
s en</w>
s ind
s la
s y</w>
ser ve</w>
sh ed</w>
sha dow</w>
sid es</w>
sp here</w>
terri ble</w>
th in</w>
th u
w aziristan</w>
wol f</w>
z es</w>
200 5</w>
a ids</w>
ab sol
ac ting</w>
acce pted</w>
afric an</w>
an ed</w>
and a</w>
anim al</w>
ann ual</w>
ap e</w>
ar rest</w>
au l</w>
ba gh
bas ic</w>
be at</w>
bro wn</w>
bus h</w>
cap tain</w>
capac ity</w>
care fully</w>
citiz ens</w>
co ordin
com plic
con vic
concer ned</w>
cor ner</w>
cri tical</w>
d av
dev o
dro p</w>
e ye
ed ul
eff ects</w>
em bar
entr ance</w>
ex ist</w>
f at
f led</w>
f ts</w>
fil es</w>
go ods</w>
ha m</w>
hi dden</w>
ho ly</w>
ill u
imple mentation</w>
in ated</w>
indi an</w>
inter ru
it ated</w>
jud ge</w>
k ho
k is
k ol
kaz akh</w>
ke ting</w>
lad ies</w>
lar ger</w>
li gh
libr ary</w>
list ened</w>
lo ad</w>
loc k</w>
meth od</w>
mu hammad</w>
no ted</w>
no tice</w>
num bers</w>
p a</w>
p av
pat ter
pati ent</w>
ple ased</w>
pop ular</w>
pow ers</w>
prison ers</w>
professi onal</w>
provin cial</w>
r l</w>
recei ve</w>
regi me</w>
religi on</w>
rep ly</w>
ri es</w>
ru d
sa d</w>
safe ty</w>
sch edul
sec ure</w>
sett led</w>
sho ok</w>
sol u
sol ution</w>
ste ad
sy mp
t ations</w>
tal ks</w>
tech ni
thre at</w>
through out</w>
transp ort</w>
tre as
un known</w>
v ac
v al</w>
vie ws</w>
w ine</w>
war m</w>
wit n
won der
z ar
z one</w>
3 5</w>
a i</w>
a ster</w>
a z</w>
acad em
achi ev
achi eved</w>
adop ted</w>
al ist</w>
al leg
al ter
al together</w>
ali ve</w>
americ ans</w>
an g</w>
atten d</w>
b o</w>
becom ing</w>
bo at</w>
bro ad</w>
bu t
c ars</w>
c at</w>
c king</w>
cal m</w>
cle arly</w>
col lege</w>
compon ents</w>
cont ext</w>
cr icket</w>
cra w
de a
deb t</w>
decisi ons</w>
dre am</w>
dre ssed</w>
e ds</w>
e u</w>
employe es</w>
exec u
extremis m</w>
fail ure</w>
four th</w>
frigh tened</w>
func tion</w>
g ab
g ar</w>
g li
gener ally</w>
gg ed</w>
h ate</w>
h in
high est</w>
ho li
hop es</w>
ili ans</w>
im age</w>
import ance</w>
in fl
in no
in spec
in struc
inter view</w>
jac ob</w>
jo ined</w>
k ad
k ly</w>
ko re
m as</w>
m on</w>
mali k</w>
mar keting</w>
mar riage</w>
mo re
mon itor
mosqu e</w>
n as
n ings</w>
nam es</w>
negoti ations</w>
oper ate</w>
p hi
p tions</w>
pe ac
po st
pos sibility</w>
power ful</w>
pre ne
pri ority</w>
pro duce</w>
punj ab</w>
r out
reas on
requ est</w>
ris ing</w>
ro l
s low</w>
s ounds</w>
s tic
scen e</w>
separ ate</w>
sind h</w>
sm ell</w>
sp end</w>
star ed</w>
sudd en</w>
t ren
t ted</w>
tain ing</w>
te a</w>
te ach</w>
te enth</w>
te sts</w>
th om
tou ch</w>
tou ched</w>
trac y</w>
tt a</w>
tur ing</w>
tur key</w>
turk men</w>
twel ve</w>
wal king</w>
we al
9 0</w>
ad d</w>
agricul ture</w>
ang el
ann a</w>
ap pl
app lied</w>
b ought</w>
bb c</w>
be gun</w>
bel la</w>
bom bing</w>
bot tom</w>
br inging</w>
busin esses</w>
c ali
c and
candi date</w>
candi dates</w>
cap tured</w>
cel ebr
cer em
cer ti
chang ing</w>
chap ter</w>
char lie</w>
charac ter</w>
ci v
circum stances</w>
civ ilians</w>
cl er
co l</w>
compu ter</w>
consid er
cou ple</w>
d ust</w>
de ad
do gs</w>
dri ving</w>
ed ge</w>
ent al</w>
entre prene
establ ishment</w>
extrem ely</w>
extremis t</w>
f a</w>
f it
fam ili
far mers</w>
govern ments</w>
gr an
gu ards</w>
h ang
h es</w>
h is
ha ss
hi v</w>
hi z
hus sa
in stru
inc ident</w>
incl udes</w>
independ ence</w>
ir on</w>
is c
k n
ke y
kil l
l am
l ec
l is
le ts</w>
lev ant</w>
lo se</w>
lo ts</w>
ma p</w>
mad ame</w>
mal fo
me h
meas ure</w>
n az
nati ve</w>
o ting</w>
occur red</w>
om e
p ack
p ushed</w>
poli o</w>
prac tic
princi ples</w>
pro p
quar ters</w>
quie tly</w>
r fe</w>
re ments</w>
re pu
rec ru
relati ves</w>
rem ains</w>
remem bered</w>
ro ck</w>
s now</w>
scienti fic</w>
sh er
sle e
sli ghtly</w>
small er</w>
so li
so vi
sof tw
t all</w>
tel e
th ly</w>
trem bling</w>
v ul
vir tu
w ished</w>
wal ls</w>
we ak</w>
wher e
won dered</w>
y ard</w>
youn ger</w>
1 0
3 1</w>
abdu l</w>
ac he</w>
adv ice</w>
alli ance</w>
an ni
assist ance</w>
au tom
b ound</w>
bb ing</w>
bre ast</w>
bus y</w>
care ful</w>
chri st
colon el</w>
com prehen
comfor table</w>
competi tion</w>
comple x</w>
con centr
conf idence</w>
consid ering</w>
constitu tion</w>
corru ption</w>
cr y
cre ature</w>
d less</w>
d ness</w>
d p</w>
de ep
def ense</w>
dem ands</w>
dev ices</w>
dis aster</w>
dis ease</w>
doc tors</w>
dro pped</w>
electr on
en ge</w>
enti rely</w>
ev il</w>
f ru
foun d
fun ds</w>
g is</w>
han ded</w>
he at</w>
he l</w>
head ed</w>
heav en</w>
hom es</w>
hor ri
hun g</w>
i i</w>
i ved</w>
inst ant</w>
ish es</w>
it ors</w>
k en
l in</w>
lab our</w>
lat est</w>
le tters</w>
leg isl
leng th</w>
me ters</w>
men tion</w>
min ds</w>
mo d
mo hamed</w>
mor al</w>
moun tains</w>
my ster
neighb our
no se</w>
nor thern</w>
on y
or ed</w>
our ed</w>
p aul</w>
pre c
previ ously</w>
ques tion
ra w</w>
re al
re levant</w>
re move</w>
reali zed</w>
ref used</w>
reg ular</w>
regist ered</w>
repe ated</w>
represent atives</w>
requi res</w>
resist ance</w>
ro lled</w>
ro man
ro oms</w>
s ick</w>
sat ur
see k</w>
sh ops</w>
shou ted</w>
softw are</w>
solu tions</w>
sovi et</w>
spor ts</w>
stor e</w>
suc ce
sur r
susp ect</w>
t led</w>
t one</w>
te es</w>
tem per
th or
th row</w>
the at
vic tory</w>
wa ste</w>
war ned</w>
we as
20 12</w>
ab sor
acce pt</w>
ali an</w>
ali zed</w>
ap pointed</w>
applic ations</w>
arab ia</w>
as tic</w>
b la
b right</w>
b ye</w>
be d
beau ty</w>
ble w</w>
bloc k</w>
bur st</w>
c er</w>
ce iling</w>
cho ose</w>
cl ou
co ali
coll ection</w>
communic ations</w>
comple ted</w>
con tr
conclu ded</w>
conduc ted</w>
cu ment</w>
d ary</w>
d ent</w>
de fault</w>
declar ed</w>
dem anded</w>
democr acy</w>
des k</w>
dis ci
dist ur
do cument</w>
dr in
e ars</w>
ea stern</w>
ed itor</w>
ed y</w>
el ling</w>
en for
en try</w>
engine ering</w>
enor mous</w>
equ al</w>
es h</w>
ev ent
ev ol
ex tr
exist ing</w>
exp ec
f es
fal ling</w>
famili ar</w>
fig ur
fin ding</w>
flo od</w>
fun dam
g as
gl anced</w>
gu ess</w>
ho tel</w>
hon est</w>
i yev</w>
ic ked</w>
im por
imple men
inf ra
infra structure</w>
k ate</w>
k i
k id
l i</w>
m atters</w>
m az
m p</w>
maj ority</w>
malfo y</w>
me g
mil lions</w>
mo stly</w>
mon y</w>
more over</w>
musli ms</w>
mut tered</w>
neg ative</w>
on to</w>
p ad
p h</w>
particip ation</w>
pic tures</w>
plan ned</w>
po cket</w>
port ers</w>
posi tions</w>
pro gress</w>
r u</w>
re ek</w>
re mo
re present</w>
re sear
roy al</w>
rul ing</w>
sa v
sac ri
sal es</w>
satis fac
scor ed</w>
sel l</w>
sh ore</w>
si bly</w>
st on</w>
stand ards</w>
stat us</w>
statis tics</w>
ste el</w>
ste pped</w>
stor ies</w>
stres sed</w>
stud ent</w>
su rely</w>
sugg est</w>
suppor ted</w>
swe et</w>
t ex
targe ted</w>
thes is</w>
tho u</w>
ti ght</w>
ton nes</w>
tre at</w>
un fortun
w are</w>
we ather</w>
we ight</w>
3 00</w>
a x
acc ident</w>
adv ance</w>
al ing</w>
ali zation</w>
appe ars</w>
assist ant</w>
at eral</w>
at mo
austr alia</w>
b acks</w>
bal o
behavi or</w>
belon ging</w>
big gest</w>
bu s</w>
c iting</w>
c ous
ca ther
cal cul
cap able</w>
car bon</w>
cat ch</w>
cather ine</w>
cel ls</w>
ch u
christ mas</w>
cl y
cly de</w>
coali tion</w>
con st
conn ected</w>
cor ri
cra ft</w>
cri tic
d at
def end</w>
den ied</w>
dev ice</w>
dra w
e able</w>
e x</w>
en han
environ mental</w>
er r
er ror</w>
eu r</w>
ex claimed</w>
exerc ise</w>
fac ing</w>
fam ous</w>
fif th</w>
fl at</w>
fr ame
fu sion</w>
func tions</w>
g a</w>
gaz a</w>
gr ass</w>
h ttp</w>
ha grid</w>
ha u
hass an</w>
her o
ici ous</w>
im port</w>
ini tial</w>
initi ative</w>
insurg ents</w>
interest ing</w>
ir s</w>
it ement</w>
j ack</w>
jam ie</w>
k un
kit ch
kno wing</w>
l en
le ment</w>
li p</w>
lin ed</w>
lo v
manag ers</w>
mo sco
mo tiv
mosco w</w>
net works</w>
o logy</w>
ol y
om en
or ities</w>
our selves</w>
out put</w>
ov a</w>
p ush</w>
particip ants</w>
pati ents</w>
pl ants</w>
plan e</w>
princi ple</w>
pro sp
prosecu tor</w>
r ab
re ver
recogni zed</w>
recor d</w>
rele ased</w>
ren t</w>
s op
s wee
se l</w>
seas on</w>
see king</w>
serv ants</w>
shar p</w>
sho wing</w>
si gh
smo o
some body</w>
squ are</w>
st up
suff ering</w>
suffici ent</w>
t j</w>
t ons</w>
te acher</w>
teh reek</w>
ter ly</w>
threat ened</w>
thro wn</w>
u li
un cle</w>
w and</w>
weas ley</w>
y ment</w>
yel low</w>
z i
1 4
1 7
a i
a ur
activ ists</w>
ad mir
al le
al mat
almat y</w>
am es</w>
ant a</w>
ap ping</w>
ap s</w>
applic ation</w>
are r</w>
arrang ements</w>
ash ley</w>
assess ment</w>
atten ded</w>
b ent</w>
b in
b low</w>
be ating</w>
bor ders</w>
br it
bre aking</w>
bur g</w>
c ate
c ely</w>
cl am
clo ser</w>
co de</w>
con struc
d in</w>
de fic
de struction</w>
dre ss</w>
dri ven</w>
dri ver</w>
e ous</w>
ec tions</w>
educ ational</w>
enfor cement</w>
est ate</w>
establ ishing</w>
estim ated</w>
exp ensive</w>
f at</w>
fa ith</w>
fir ed</w>
for th</w>
form ing</w>
fortun e</w>
fr ed</w>
fro do</w>
g est
g ory</w>
gg ing</w>
gi e</w>
gl ance</w>
gr and</w>
gre y</w>
happ ens</w>
hol ds</w>
hol e</w>
holi day</w>
hussa in</w>
id ents</w>
identi fy</w>
in ations</w>
inform ed</w>
introduc ed</w>
iz ing</w>
jam es</w>
k ers</w>
k ing
k o</w>
l l
le um</w>
loc ked</w>
logi es</w>
m ere</w>
milit ancy</w>
mo on</w>
monitor ing</w>
moun tain</w>
multi ple</w>
murmur ed</w>
n ic
ne ar
ob li
on g
op e</w>
orig inal</w>
ous ness</w>
p an</w>
p on
palest ini
ph il
pha se</w>
piec es</w>
pl at
pl ays</w>
polic ies</w>
pr oud</w>
prof ile</w>
r ang
rail way</w>
ran g</w>
re comm
re public
reg im
regi ons</w>
reve aled</w>
revol ution</w>
s ession</w>
s old</w>
s wi
satur day</w>
sch ol
schedul ed</w>
si on
sp ending</w>
sp ort</w>
st ated</w>
st ayed</w>
str ic
stre am</w>
stron gly</w>
su m
suff er</w>
sy n
t ab
t aught</w>
ten d</w>
ti ed</w>
tim ate</w>
to w
tw ice</w>
u z</w>
un k</w>
ur g
us ers</w>
ut ely</w>
ver i
vis ited</w>
war ning</w>
wonder ful</w>
y ards</w>
1 50</w>
3 3</w>
8 0</w>
ab u</w>
ac compan
ac le</w>
air port</w>
al a</w>
ann y</w>
ar i</w>
ar ily</w>
as le
ash a</w>
asle ep</w>
ass ass
ast on
at tered</w>
ath le
att ack
b is
b our
b ya</w>
bak iyev</w>
bal ance</w>
bil ateral</w>
bre ath
bro ther
bu re
buil dings</w>
bur ied</w>
c ard</w>
cab in
cabin et</w>
car rying</w>
christi an</w>
clim ate</w>
clin ton</w>
co ol</w>
coff ee</w>
con gress</w>
condem ned</w>
consid erable</w>
cont act</w>
cor respon
coun ter
cu tting</w>
cul tiv
d ying</w>
d z
de pos
defin ed</w>
dem on</w>
dem ons</w>
des ired</w>
dro ve</w>
du res</w>
e tr
eas ier</w>
eff ec
el ements</w>
en thu
encour age</w>
enthu si
er agon</w>
exc use</w>
exper im
explo sion</w>
extre me</w>
f are</w>
f ashi
fac ed</w>
fe atures</w>
fer ring</w>
figh ters</w>
fing er</w>
for gotten</w>
fore st</w>
form ation</w>
found ation</w>
frame work</w>
friend ly</w>
g ain</w>
g gl
gentle man</w>
go o
gra ve</w>
gro wn</w>
gu id
h man</w>
ici ans</w>
il legal</w>
impro ved</w>
indic ated</w>
institu te</w>
it ory</w>
jor dan</w>
jour ney</w>
l ake</w>
lab or</w>
lan ds</w>
lea ves</w>
lev in</w>
li bya</w>
lo an</w>
low ing</w>
maxim um</w>
me at</w>
medic ine</w>
mo hammad</w>
model s</w>
n ad
nat ur
near by</w>
neigh bor
ni ght
no tes</w>
no w
o logical</w>
o ther
other wise</w>
ow ned</w>
ow ners</w>
p ace</w>
p al</w>
p in
par ame
pec uli
perf ec
ph en
pl ain</w>
practic es</w>
pres sing</w>
pri mary</w>
program s</w>
promis e</w>
prot est</w>
pul ling</w>
qu es</w>
quar ter</w>
r ace</w>
reali ze</w>
reduc ed</w>
refuge es</w>
reg ul
requ ire</w>
res cu
ri a</w>
ri er</w>
ris ks</w>
road s</w>
s an</w>
s anc
s ary</w>
s ought</w>
sa ving</w>
sha pe</w>
shar ed</w>
shar ing</w>
sho ck</w>
soldi er</w>
spir it
st ars</w>
strugg le</w>
su st
swit ch</w>
t ables</w>
t an</w>
ta xes</w>
th ick</w>
tion ary</w>
tiv ity</w>
to ols</w>
ton gue</w>
tr ag
un happy</w>
un it</w>
val u
vo ices</w>
vo te</w>
vul ner
we b
y an
3 8</w>
4 5</w>
ac compl
academ ic</w>
ad ju
ad ver
adv anced</w>
ag ged</w>
ah mad</w>
ak ed</w>
al d</w>
al ism</w>
an ony
app ly</w>
apparen tly</w>
arab s</w>
arch it
atmo sphere</w>
au d
audi ence</w>
b bed</w>
b by</w>
bar ak</w>
be l</w>
bl ame</w>
boo ts</w>
bre ad</w>
brea thing</w>
brit ain</w>
bro o
bro ws</w>
brother hood</w>
c es
certi fic
ch er</w>
ch est</w>
champ i
cho sen</w>
cl ar
cla im</w>
coll ected</w>
comb at</w>
comman ders</w>
con stantly</w>
cont ained</w>
correc t</w>
corri dor</w>
cr iter
cre te</w>
d az
d ges</w>
de t
deal ing</w>
descri be</w>
di a</w>
di men
disci pl
e fully</w>
e tary</w>
el ing</w>
en able</w>
er ies</w>
er ly</w>
ess ential</w>
event ually</w>
exc ell
exc itement</w>
exist ence</w>
exper t</w>
experi enced</w>
f s</w>
fo ol</w>
fore head</w>
fr anc
g ment</w>
g on
gu ide</w>
gu il
har v
ho g
ho p</w>
hop ed</w>
hur ry</w>
imp ati
in put</w>
inno cent</w>
innov ation</w>
ir y</w>
is tics</w>
it er</w>
it ting</w>
journal ist</w>
jur gis</w>
kin ds</w>
kitch en</w>
kne es</w>
l ashk
lat ter</w>
lo sses</w>
m and</w>
man age</w>
messa ges</w>
min ded</w>
mu barak</w>
n i</w>
ner v
ni a</w>
no dded</w>
oly mp
op h
op tion</w>
oppos ite</w>
p ack</w>
p ick</w>
p ts</w>
palestini ans</w>
par ad
par ti
par tly</w>
pas sion</w>
petro leum</w>
phen omen
por ary</w>
pr ise</w>
prin cess</w>
proce dures</w>
produc ed</w>
provin ces</w>
psy cho
re gre
recogni ze</w>
refl ected</w>
rel ation</w>
remo te</w>
resour ce</w>
respec tively</w>
rus h
s mu
s word</w>
sa ke</w>
schem e</w>
sel ling</w>
sen ding</w>
ser iously</w>
sh op
shir t</w>
si mul
si sts</w>
sp an
sp ell</w>
sp r
squ e
stan ds</w>
stron ger</w>
sub sequ
suppor ting</w>
surve y</w>
t s
ta il</w>
te sting</w>
teh ran</w>
th a</w>
thre w</w>
tri um
ty pes</w>
u t</w>
un its</w>
val jean</w>
vie wed</w>
viol ent</w>
w ake</w>
w is
we ar</w>
wi z
won dering</w>
wor ry</w>
wor st</w>
3 6</w>
4 00</w>
4 4</w>
a er
a har</w>
a im</w>
a po
a vi
ab and
ab b
abdul lah</w>
ac tors</w>
ad mitted</w>
addre ssing</w>
ag ement</w>
al gor
al lows</w>
algor ith
am ir</w>
an drew</w>
analy st</w>
announ cement</w>
anx ious</w>
any where</w>
ap art
ap preci
ap prov
ar ian</w>
are ness</w>
as ide</w>
as sets</w>
ash es</w>
assu med</w>
ati on
attribu ted</w>
au r</w>
b ac
b ou
ba j
back ground</w>
baj aur</w>
balo ch
ban ned</w>
bar re
bir th</w>
bl an
bl in
bor e</w>
bran ch</w>
ca using</w>
campa ig
car lis
cent res</w>
cerem ony</w>
ch ers</w>
ch ose</w>
chall enge</w>
clo sely</w>
commit ted</w>
comprehen sive</w>
con serv
continu es</w>
cor ro
cour age</w>
cr ying</w>
cre ation</w>
d ged</w>
d il
dam age</w>
dam aged</w>
de tec
depend ent</w>
docum ents</w>
dom ain</w>
du ties</w>
ear th
ed ly</w>
el ected</w>
el i
empha si
extr a</w>
f ain
fac tor</w>
facil it
fes tiv
fif teen</w>
fif ty</w>
fin ish</w>
flow ers</w>
fo cus
g an</w>
g and
g in
gentle men</w>
ger many</w>
gi ant</w>
gli mp
gr ac
gul f</w>
he aring</w>
hel ping</w>
hou se
hous ing</w>
id ently</w>
im ports</w>
imple ment</w>
impres sion</w>
impro ving</w>
in ced</w>
in sist
industri es</w>
institu tions</w>
inv ited</w>
it ary</w>
it ations</w>
j o</w>
k and
k ari
k at
k har
ke ys</w>
ker nel</w>
laun ch</w>
li am</w>
lo ans</w>
lo sing</w>
lun ch</w>
manag ing</w>
meg gie</w>
minim um</w>
mis sed</w>
mov ements</w>
mur der</w>
n an
o t
ob jects</w>
organiz ed</w>
p ers</w>
perfec tly</w>
pi pel
po ol</w>
po tter</w>
policem en</w>
pre ce
pri de</w>
pro b
proper ties</w>
pul l</w>
pun ishment</w>
re su
rem aining</w>
represent ative</w>
requi rements</w>
resid ent</w>
se in</w>
sh an</w>
si ves</w>
sig n
signific ance</w>
sing ing</w>
sof tly</w>
st able</w>
st ages</w>
st are</w>
st um
st yle</w>
stor m</w>
summ it</w>
supp lies</w>
t yr
to ol</w>
trans l
u k
u pper</w>
v i</w>
vehic le</w>
vehic les</w>
ver sion</w>
w re
w w
we aring</w>
weal th</w>
web site</w>
wel come</w>
wh it
wor l
wor thy</w>
y i
z er
19 7
3 2</w>
4 1</w>
6 00</w>
a ims</w>
ab del</w>
ab s
absol utely</w>
absor bed</w>
ad ing</w>
af at</w>
afgh ans</w>
al ice</w>
al lah</w>
al ties</w>
al ty</w>
am end
an ese</w>
apparen t</w>
appe al</w>
approv al</w>
arrang ed</w>
asp ects</w>
ass es</w>
associ ated</w>
at en</w>
at o
ath ered</w>
atic ally</w>
att ached</w>
b are
b ell</w>
b id</w>
b ones</w>
baloch istan</w>
ban ds</w>
be aring</w>
be ast</w>
becom es</w>
behavi our</w>
believ es</w>
ber ing</w>
br ac
bur ning</w>
c amer
c ell
carlis le</w>
ch o</w>
chan nel</w>
clo sing</w>
co o
compl ain
con crete</w>
cont ain</w>
contrac t</w>
cu r</w>
custom ers</w>
dec ide</w>
dec re
deep ly</w>
deli ver</w>
dev il</w>
di g
di vision</w>
differ ences</w>
dir ty</w>
dis co
dis h</w>
dist inc
dist ingu
distr icts</w>
doro the
doz en</w>
dra ft</w>
e ar</w>
e em</w>
effici ent</w>
emplo yment</w>
en tering</w>
enjo y</w>
ess ing</w>
ex trac
exec ution</w>
exten ded</w>
f anny</w>
f c</w>
fac ts</w>
fav or
feder ation</w>
for t</w>
fore ver</w>
fu n</w>
g all
g athered</w>
g ence</w>
g le</w>
gaz e</w>
ge o
gr ounds</w>
grand father</w>
great est</w>
h id</w>
hen ry</w>
hon or</w>
hy po
ic a</w>
ici an</w>
im pe
im posed</w>
immedi ate</w>
in y</w>
ini ons</w>
introduc tion</w>
ir i</w>
ir ing</w>
ist ed</w>
jap anese</w>
ji had</w>
k ar</w>
kand ahar</w>
kh at
ku wait</w>
l t</w>
lashk ar</w>
leag ues</w>
m bled</w>
mal e</w>
man i
manag er</w>
manufac turing</w>
mat ches</w>
mir ror</w>
mo thers</w>
mo vi
mp tion</w>
mus e
na to</w>
nat asha</w>
nation wide</w>
natur ally</w>
obvi ously</w>
ol es
ol ly</w>
op posed</w>
op ti
oper ational</w>
or ation</w>
ow ner</w>
p ause</w>
pain ful</w>
par k</w>
per formed</w>
pl u
play er</w>
poin t
poli tici
pos sibly</w>
pra yers</w>
prac tical</w>
pre ven
qu een</w>
r ist</w>
r ural</w>
r y
rap idly</w>
re moved</w>
re r</w>
recogni tion</w>
reduc tion</w>
regar ded</w>
repres ents</w>
resol ved</w>
resp ond</w>
rest aur
sa ved</w>
scre en</w>
se tte</w>
sear ching</w>
sel ect</w>
sel ected</w>
sen si
sh ru
sha dows</w>
sha king</w>
she et</w>
si ties</w>
sn ape</w>
sp ar
spirit ual</w>
spo ken</w>
st ance</w>
st le</w>
stic k</w>
strategi es</w>
stre tched</w>
stri p</w>
su s</w>
sub jects</w>
success fully</w>
t ar</w>
t um
techni ques</w>
the ory</w>
thom as</w>
tion ally</w>
to t
ton ight</w>
tr ack</w>
transi tion</w>
trou bled</w>
u k</w>
univer se</w>
ur ged</w>
ur ing</w>
v an</w>
v es
v ital</w>
ve ter
vis iting</w>
was h</w>
wer e
wil liam</w>
wol ves</w>
wor e</w>
ww w</w>
ye ah</w>
z o
z y</w>
199 0</w>
4 6</w>
8 00</w>
a c</w>
a il</w>
a is</w>
ab led</w>
ad ap
aff ect</w>
afric a</w>
after wards</w>
agre ements</w>
analy sts</w>
ann e</w>
anni ver
ar afat</w>
ar ou
ati vely</w>
aw areness</w>
az uz</w>
b are</w>
b id
b oun
bagh dad</w>
benef its</w>
ber g</w>
bis hop</w>
br il
bril li
bur n</w>
busin ess
c au
c kets</w>
char les</w>
cir cle</w>
cir cul
citiz en</w>
cl assi
cla ims</w>
clou ds</w>
co ach</w>
co sette</w>
com mon
commer ce</w>
communic ation</w>
complic ated</w>
con figur
con ven
const ant</w>
conv inced</w>
cor ps</w>
cous in</w>
cre ating</w>
cro wn</w>
cy cle</w>
d led</w>
d un
dat ab
dav id</w>
dea ths</w>
defic it</w>
dis cre
dis crimin
discus sion</w>
div ided</w>
dorothe a</w>
dre ams</w>
drin king</w>
e es</w>
e yed</w>
e z</w>
eag er</w>
el d</w>
electr ical</w>
electron ic</w>
end it
ev idently</w>
ex por
exp endit
explo sives</w>
f ata</w>
f ice</w>
f light</w>
fav our
fl ag
fle w</w>
fo c
fr ame</w>
fron tier</w>
fun ding</w>
fun ny</w>
fur ther
g ently</w>
gr ade</w>
h its</w>
head quarters</w>
hel lo</w>
hi e</w>
hol es</w>
hon ey</w>
hon our</w>
hus sein</w>
i j
i tion</w>
ic king</w>
im men
in sp
in ter</w>
in to
increas es</w>
indic ate</w>
instruc tions</w>
ir r
it ely</w>
ital y</w>
jum p</w>
k gs</w>
kad y
kee per</w>
kill ings</w>
la yer</w>
law yer</w>
le aned</w>
le gen
lim it</w>
lin ked</w>
lu ck</w>
m i</w>
m our
mach ines</w>
medi um</w>
met res</w>
min ent</w>
mo od</w>
mon d</w>
n om
ob st
obvi ous</w>
occas i
off ering</w>
op inions</w>
ov na</w>
p in</w>
p ity</w>
p ound</w>
part nership</w>
pat ro
per form</w>
perce ived</w>
pic ked</w>
pipel ine</w>
pl enty</w>
pleas ant</w>
pri or</w>
pris ing</w>
pro of</w>
promo te</w>
proper ly</w>
prote sters</w>
prote sts</w>
proto col</w>
quo ting</w>
r are</w>
rap id</w>
re hman</w>
re ment</w>
reason able</w>
regar dless</w>
regre t</w>
repres ented</w>
restor e</w>
ri de</w>
rus h</w>
s al</w>
s ex
s ke
s ons</w>
satisfac tion</w>
scar cely</w>
secon ds</w>
shar on</w>
sho oting</w>
sil ly</w>
sk i
sli pped</w>
sop hie</w>
sp on
stat ements</w>
stead y</w>
stu died</w>
stu ff</w>
sub mitted</w>
super vis
t ack
t ag
t ari
t ful</w>
ta x
techno logies</w>
ten ded</w>
terr itor
the e</w>
thin ks</w>
ti ghtly</w>
ti le</w>
tol er
transp aren
transp or
tun is
tun nel</w>
u c
ul l</w>
ut tered</w>
v ice</w>
v oc
vill ages</w>
vol un
w et</w>
4 7</w>
4 8</w>
5 5</w>
6 6</w>
a q
abb as</w>
abs ence</w>
ac les</w>
acad emy</w>
actu al</w>
ad i</w>
addre ssed</w>
af i</w>
aff ir
air craft</w>
al er
al ger
allow ing</w>
am bi
am i</w>
an th
an ticip
ang le</w>
ap ers</w>
ap point
appl ause</w>
ar iz
are s</w>
as ing</w>
as sa
as y
ass y</w>
attack ers</w>
auth or</w>
ay ing</w>
b and
bel ong</w>
bir d</w>
brilli ant</w>
bro thers</w>
bur ned</w>
ca sting</w>
cali for
califor nia</w>
cap it
character istics</w>
chec k
col or</w>
commit ment</w>
commun ities</w>
comp en
compar ison</w>
con ve
concer ns</w>
consu mer</w>
convic tion</w>
cop e</w>
cop y</w>
corro sion</w>
coun tr
criter ia</w>
d ging</w>
de tained</w>
dec line</w>
del ic
del igh
dep th</w>
des per
destro y</w>
determin e</w>
dis play</w>
discus sions</w>
dispu te</w>
distribu tion</w>
dr ank</w>
dr ust</w>
du le</w>
dul l</w>
dy nam
e c</w>
effici ency</w>
el iz
emo tion</w>
employe e</w>
eng aged</w>
enjo yed</w>
ex ic
exam ine</w>
exhi bition</w>
eye brows</w>
f an</w>
f ate</w>
f ra
f ting</w>
fa re
fa st
fac ul
fair ly</w>
festiv al</w>
ff s</w>
fol ded</w>
for um</w>
further more</w>
g ant</w>
gent le</w>
gil ani</w>
grad u
gre e
gri ef</w>
gu ests</w>
h at
h r</w>
hand le</w>
hel pl
hel ps</w>
hi de</w>
hil ls</w>
ho st</w>
hor ror</w>
hy per
i ble</w>
im am</w>
im ing</w>
improv ement</w>
in er</w>
integr ated</w>
it arian</w>
ja il</w>
jan e</w>
je al
jun i</w>
k ind
kni fe</w>
l ac
l an</w>
l yr
lan ded</w>
le gi
liqu id</w>
lo s</w>
lo v</w>
lu x
m exic
ma x
mar ius</w>
mar ked</w>
mel an
mi ghty</w>
midd le
min es</w>
mo di
mon etary</w>
moun ted</w>
n an</w>
nar row</w>
ne u
neighbour ing</w>
o ce
obj ec
obj ective</w>
obser ve</w>
off ers</w>
off ices</w>
on a</w>
on er</w>
on ships</w>
p ages</w>
p har
p ical</w>
p it
p y</w>
pap ers</w>
particip ate</w>
pas sa
pe as
pe t</w>
pe ter</w>
peac eful</w>
per man
ph ones</w>
phenomen on</w>
pre gn
pre p
prepar ing</w>
pri orities</w>
pro ved</w>
process ing</w>
pu ts</w>
qu ake</w>
quo ted</w>
r akh
r ass
re forms</w>
re ss</w>
re volu
repor tedly</w>
repu tation</w>
rescu e</w>
reser ves</w>
rou te</w>
ru m
s ali
s cent</w>
s enti
s light</w>
s lo
s ri</w>
sa int</w>
sco t
sent enced</w>
ser ved</w>
sh ouldn</w>
sha me</w>
shar p
si m
sigh ed</w>
sit es</w>
situ ations</w>
sk i</w>
sk ir
slee ping</w>
span ish</w>
st ones</w>
stre ss</w>
stud ying</w>
stup id</w>
su dan</w>
sup porters</w>
surren der</w>
t our</w>
taji ks</w>
tel ls</w>
tele phone</w>
terr itory</w>
th en
ti li
til ity</w>
tor n</w>
tou ri
tr ic
tri p</w>
tw isted</w>
univer sities</w>
ush ing</w>
uzbe ks</w>
vic tor
victi m</w>
vulner able</w>
w ill
wh en
wit ness</w>
wor ried</w>
y eva</w>
zz y</w>
2 6
20 13</w>
3 4</w>
4 2</w>
5 7</w>
6 5</w>
ab bed</w>
abe th</w>
accompan ied</w>
accor dance</w>
accoun ting</w>
ad s</w>
administ ered</w>
al am</w>
alexand ria</w>
alleg ed</w>
an e</w>
ann ually</w>
anniver sary</w>
answ ers</w>
anth ony</w>
appro ached</w>
appro xim
are st</w>
as es</w>
ash ing</w>
asp ect</w>
ass ure</w>
at tit
ati n</w>
attemp ts</w>
au t
azi z</w>
b att
b az
b en</w>
b ited</w>
be g</w>
be t</w>
bl ack
bo w
bo w</w>
bom b
boo st</w>
bott le</w>
business men</w>
c af
can ada</w>
cap ture</w>
car ds</w>
cat aly
certain ty</w>
ch al
cha in</w>
champi onship</w>
char ged</w>
civil ian</w>
class es</w>
cli ent</w>
col um
coll ap
comb ined</w>
complain ts</w>
con fusion</w>
con vention</w>
conce pt</w>
concer ning</w>
conf ess</w>
consider ation</w>
constitu tional</w>
cont ains</w>
contribu te</w>
conv enti
conven i
cor ners</w>
corpor ate</w>
cour ts</w>
cr ou
cry st
cu b
cur ious</w>
curren cy</w>
d am</w>
d ure</w>
dar ed</w>
de an</w>
dec ades</w>
dec ree</w>
def end
degre e</w>
di gn
di m</w>
difficul ties</w>
distribu ted</w>
e ing</w>
e ption</w>
ec e</w>
ed mun
edmun d</w>
el ders</w>
el se
eliz abeth</w>
ell a</w>
else where</w>
em b
em me
emme tt</w>
emplo yed</w>
en ting</w>
eng ine</w>
enter prise</w>
entreprene ur
equ ally</w>
ess ly</w>
et c</w>
ex tra
exam ined</w>
exc ited</w>
explo sive</w>
f an
f ed</w>
f ill</w>
fa x</w>
far ther</w>
fashi on</w>
favor ite</w>
fe ars</w>
fer ences</w>
fi er
fin dings</w>
fl ash</w>
fl esh</w>
fol lows</w>
form ul
g le
ga ther
ge tty</w>
gen u
gi ble</w>
glimp se</w>
gol den</w>
gra v
grap h</w>
hand ling</w>
hand some</w>
hang ing</w>
happ ening</w>
har mony</w>
hay at</w>
he ight</w>
hel mand</w>
hi r</w>
hog war
hogwar ts</w>
hol ders</w>
hosp it
human ity</w>
hun ger</w>
hypo thesis</w>
i b
i bra
id ing</w>
il le</w>
im mun
im plic
im u</w>
imag ined</w>
immen se</w>
in ate</w>
in j
in ner</w>
intel lec
interru pted</w>
invol v
involv ement</w>
it alian</w>
it ems</w>
j al
jor dan
jud gment</w>
jud icial</w>
k ru
kn b</w>
kne e</w>
kore a</w>
l ang
le on</w>
li fted</w>
lic en
lin ks</w>
main tain</w>
mal ak
mar tyr
mas sive</w>
me tr
mil k</w>
min ing</w>
mist ake</w>
mo de</w>
mo ves</w>
mon itor</w>
mon si
mon te</w>
monsi eur</w>
mor row</w>
mosqu es</w>
mp le</w>
mul ti</w>
muse um</w>
n ine
naz ar
nor th
o be
oc cur</w>
occas ion</w>
od d</w>
op ium</w>
organ ised</w>
os ity</w>
ov itch</w>
p ist
p m</w>
p rud
pa used</w>
pan ic</w>
peculi ar</w>
pen etr
photo graph
pl ed</w>
pl us</w>
po t
pre fer</w>
prep are</w>
pres er
pris es</w>
pro por
proce dure</w>
program mes</w>
prop ag
prov isi
r ation</w>
r ay</w>
r he
r o</w>
re aching</w>
re construction</w>
re in
re la
re place</w>
reco vered</w>
reduc ing</w>
repe at</w>
ri g
ro of</w>
ro sto
ro v</w>
road side</w>
ru ined</w>
run s</w>
s and
s and</w>
s k</w>
s nat
s ong</w>
sa tions</w>
san cho</w>
sc ru
scho ol
se es</w>
ser ge
ser ver</w>
sett le</w>
sev ere</w>
sig ns</w>
sle pt</w>
sm ith</w>
smo ke</w>
sol ve</w>
spec tac
speci fic
ste pping</w>
str ict</w>
su pre
survi v
sw iss</w>
symp ath
t ank</w>
teach ing</w>
tem porary</w>
temper ature</w>
ten ance</w>
tiv eness</w>
to b
tour nam
tow ns</w>
trans ferred</w>
tunis ia</w>
u tility</w>
un easy</w>
un like</w>
unfortun ately</w>
uni form</w>
uni que</w>
ut terly</w>
v ag
v end
vo ters</w>
w ars</w>
whe at</w>
witn essed</w>
wo od
wor n</w>
y ass
y em
z e
0 2</w>
7 5</w>
a e</w>
acc o</w>
acce p
accoun ts</w>
activ ely</w>
ad m
adv ent
ag gres
agre eable</w>
ah m</w>
ak zai</w>
al f</w>
al lies</w>
amm uni
ammuni tion</w>
an ding</w>
anx iety</w>
any more</w>
ap l
ap ple</w>
apart ment</w>
appro ve</w>
ar di
ar kady
ar o</w>
arkady ev
as har
at ul
aut onom
auth ors</w>
ay ev</w>
b acked</w>
ba g</w>
bab a</w>
bar a</w>
be kov</w>
bed room</w>
ber t</w>
bit ter</w>
bom ber</w>
boo k
bra z
break fast</w>
bri ef
bure au</w>
ca stle</w>
ca uses</w>
car din
cas u
ch ann
cl ing</w>
cli ents</w>
clo ak</w>
coll ect</w>
com ed</w>
comp li
competi tive</w>
con sol
consci ence</w>
consequ ences</w>
contr ast</w>
contribu ted</w>
corpor ation</w>
cre atures</w>
cri tici
crimin als</w>
d ag
d are</w>
d gate</w>
d u</w>
de ter
deb ts</w>
declar ation</w>
defe ated</w>
deser t</w>
dign ity</w>
dis cover</w>
dis gu
do v</w>
doro thy</w>
dr am
dre ad
eas es</w>
el ev
el im
em be
em ies</w>
em per
emb assy</w>
en emies</w>
ent ine</w>
enthusi as
estim ates</w>
ex plan
ex posed</w>
execu tive</w>
experi ences</w>
f ounded</w>
fac tory</w>
fal ls</w>
fal se</w>
far m</w>
fe ar
fe ared</w>
fe ature</w>
fe els</w>
ff ed</w>
fi es</w>
fin ed</w>
fla g</w>
for ty</w>
fre sh
frequ ency</w>
func tion
fur n
g ained</w>
g ger</w>
g knb</w>
g t</w>
gand alf</w>
gh o
gi an</w>
gu l</w>
gun s</w>
h an</w>
ha bit</w>
har m</w>
hel p
hero in</w>
hi c</w>
hm oud</w>
ho o
hun gry</w>
i k
i van
ig n
inc idents</w>
indic ates</w>
infl ation</w>
insist ed</w>
insur ance</w>
inten tion</w>
inter pre
is i</w>
is ms</w>
is ol
it i</w>
joh n
jordan ian</w>
kar zai</w>
kis sed</w>
l loy
l um
la sted</w>
lab or
lead s</w>
lear nt</w>
li sted</w>
lim its</w>
liter ature</w>
lon ely</w>
ly dgate</w>
lyr a</w>
m ar</w>
m ass
m ess</w>
m o</w>
m t</w>
ma hmoud</w>
ma ster
mak ers</w>
mar ia</w>
mar tin</w>
me e</w>
meas u
mechan ism</w>
mem or
mem ories</w>
mer ely</w>
mil e</w>
mit ya</w>
mov al</w>
mu m</w>
mu st
n go</w>
n y
na po
napo leon</w>
necess ity</w>
nerv ous</w>
newsp apers</w>
ni kov</w>
no de</w>
no tion</w>
ob lig
ob tain</w>
on ing</w>
op tions</w>
or ate</w>
organiz ational</w>
ori entation</w>
orig in</w>
p ink</w>
p ure</w>
pain ted</w>
patter n</w>
pe t
pe ter
per spec
pi ano</w>
pl ing</w>
plan es</w>
po e
pol y
politici ans</w>
pos es</w>
pr e</w>
pra ise</w>
pres ented</w>
pro mp
produc tive</w>
q m</w>
que tta</w>
r ough</w>
ran dom</w>
re moval</w>
re stra
re tired</w>
rec all</w>
rec alled</w>
reco very</w>
recomm end
ref er</w>
ref use</w>
rej ected</w>
remar k
resol ution</w>
ri ding</w>
ro de</w>
ro v
rober t</w>
ru e</w>
rul ed</w>
s burg</w>
s mar
sa ma</w>
sa mple</w>
sacri fice</w>
sal t</w>
sc ope</w>
sci ences</w>
scienti sts</w>
scot land</w>
sem i</w>
sensi tive</w>
sett lement</w>
sh a</w>
sh ining</w>
shor tly</w>
so il</w>
so oner</w>
soli d</w>
speak er</w>
st air
stor age</w>
str ang
struc tures</w>
su d</w>
sub scri
succe eded</w>
surr ounded</w>
sw im
sym bo
t ance</w>
t ching</w>
t es
t le</w>
t ness</w>
t z</w>
ta ste</w>
tal ity</w>
ten der</w>
ten tion</w>
ter y</w>
theat re</w>
tion ed</w>
tob acco</w>
tot ally</w>
touri sts</w>
tr ained</w>
tra il</w>
tri bun
turk ish</w>
ul ts</w>
up set</w>
ur ban</w>
us a</w>
v ast</w>
valu able</w>
virtu e</w>
w an</w>
w ning</w>
wat er
wat ers</w>
wed ding</w>
wel comed</w>
wer en</w>
wh o
whe el</w>
when ever</w>
wo ods</w>
y ours</w>
4 9</w>
5 1</w>
5 8</w>
5 9</w>
9 5</w>
a a</w>
a sts</w>
ab be</w>
ab sent</w>
ac cur
ac tor</w>
acquain ted</w>
ad e
ad equ
administr ative</w>
adop t</w>
af ford</w>
aff ili
ak s</w>
al isation</w>
al ists</w>
alexand rov
am id</w>
an dre
an is</w>
an no
appoint ment</w>
appro aches</w>
ar ise</w>
ar m
ar se</w>
archit ec
argu ed</w>
arri ve</w>
arti sts</w>
as hamed</w>
ass ured</w>
assu me</w>
at ri
attrac ted</w>
ay a</w>
bl ess</w>
bloo dy</w>
bomb ings</w>
bor ro
br and</w>
brea the</w>
bu ying</w>
c b</w>
c be</w>
c in
can cer</w>
cent age</w>
cent ers</w>
ch est
che ap</w>
ck y</w>
cl ick</w>
cle ver</w>
co ast</w>
co inc
co vering</w>
con c
con fron
con sists</w>
conf essed</w>
conf isc
configur ation</w>
consist ent</w>
consu mers</w>
continu ous</w>
conventi onal</w>
cor e</w>
craw ford</w>
cro ssed</w>
cro ssing</w>
d afi</w>
d al
d ancing</w>
d ant</w>
d ar</w>
d est</w>
d nt</w>
d war
datab ase</w>
deb ate</w>
dec ent</w>
dec lined</w>
dec reas
degre es</w>
del ay</w>
dep ends</w>
dep lo
des cen
develop ments</w>
di ag
di et</w>
din ing</w>
diplom atic</w>
dis eases</w>
discipl ine</w>
dri vers</w>
e h</w>
ear n</w>
ear ned</w>
ef f</w>
ei gh
el ement</w>
el f</w>
el le</w>
em is
en a</w>
encour aging</w>
end a</w>
entrepreneur ship</w>
es pre
escap ed</w>
espre ad</w>
every where</w>
ex clu
ex hau
ex pe
ex plic
ex pos
exp and</w>
exp ecting</w>
expendit ure</w>
exten sive</w>
f ati
f ish
f loo
f ought</w>
f ty</w>
fa il</w>
fa z
fair fax</w>
fe asi
fi x</w>
foc used</w>
for cing</w>
for got</w>
fr ag
fundam ent
g age</w>
g au
g dp</w>
g ers</w>
ga p</w>
gad dafi</w>
gener ous</w>
gest ure</w>
gi ft</w>
gl asses</w>
gr ant</w>
gra in</w>
gran ted</w>
gu y</w>
h ence</w>
ha s
har sh</w>
heal thy</w>
histor ic</w>
hm and</w>
ho l</w>
ho sti
hy dr
hyper link</w>
i f
i o</w>
i res</w>
ick en</w>
identi ty</w>
il e
im f</w>
in ary</w>
in ha
in k
inc enti
indi gn
instru ments</w>
intellec tual</w>
inv isi
invol ving</w>
is sa</w>
j ected</w>
jo ke</w>
ju li
jus ti
k al
k am
k id</w>
kid n
kit ty</w>
ko hat</w>
le an</w>
le aning</w>
le ap
le e</w>
le g</w>
lea ther</w>
li by
li sts</w>
m ity</w>
m ol
ma h
ma ul
main ly</w>
malak and</w>
mar ks</w>
marg are
mat ov</w>
mat ure</w>
max im</w>
me g</w>
mer ch
mi xed</w>
mo bil
mo hmand</w>
mo tor
movi e</w>
mu tual</w>
n ab
n ev
n ever
na p</w>
nati ves</w>
ne arer</w>
ne ed
neighbor hood</w>
objec tives</w>
occup ied</w>
oce an</w>
on es
oper ated</w>
or akzai</w>
os oph
pakist anis</w>
pal ace</w>
palest ine</w>
part ner</w>
patter ns</w>
peop les</w>
per centage</w>
person ality</w>
perspec tive</w>
persu ade</w>
phil osoph
pl ain
pl ate</w>
pl ying</w>
po is
policem an</w>
poss ession</w>
post p
pre mi
preven ted</w>
prin t</w>
prof it</w>
promo ting</w>
q at
ra rely</w>
rati o</w>
re ar</w>
re ne
re placed</w>
re serv
re stric
re treat</w>
re turning</w>
read er</w>
rec eption</w>
rec oll
recei ving</w>
refl ection</w>
rel ative</w>
rel uc
reli eved</w>
requ ested</w>
resear chers</w>
restaur ant</w>
reven ues</w>
ro ot</w>
ru p
s in</w>
s ni
sa f
sal e</w>
sc and
schol ars</w>
se ated</w>
se x</w>
secon dary</w>
sent ence</w>
separ ated</w>
serv ant</w>
sett ings</w>
sh ud
sha re
she ep</w>
sho cked</w>
shop ping</w>
si vely</w>
sig nal</w>
sist ers</w>
sli p</w>
so m</w>
so ver
sor ts</w>
sover e
sp are</w>
st ag
star ts</w>
statis tical</w>
ste pan</w>
stri kes</w>
stri king</w>
supre me</w>
susp ici
t ability</w>
t ap
t ence</w>
t esti
t less</w>
tar gets</w>
te ar</w>
temp er</w>
ten s</w>
terri fied</w>
th ed</w>
th ough
ther ap
tho s</w>
ti e</w>
ti ous</w>
to wer</w>
toler ance</w>
tor ies</w>
trans fer</w>
treas ure</w>
tren ds</w>
tru ly</w>
un ic
ur y</w>
v am
v y</w>
val ent</w>
val entine</w>
var iety</w>
vari ables</w>
ven ture</w>
vis itors</w>
volun te
weak ness</w>
wee kly</w>
wel fare</w>
wid espread</w>
win ning</w>
wr iter</w>
z ak
z u
198 0</w>
199 2</w>
5 4</w>
6 3</w>
7 1</w>
accep table</w>
ad dic
ad ic
aff ection</w>
affir med</w>
ag enda</w>
ag gre
ah mad
al em</w>
al oud</w>
al yo
ali yev</w>
alyo sha</w>
amaz ing</w>
an ia</w>
angel es</w>
ann on</w>
apl us</w>
appe aring</w>
approxim ately</w>
ar ro
ar th
arkadyev itch</w>
arri val</w>
as cus</w>
as if</w>
ashar q</w>
asi aplus</w>
assass ination</w>
at edly</w>
at l
atl anta</w>
az har</w>
b ay</w>
b ia</w>
ba i</w>
bab bit
babbit t</w>
bad ly</w>
bas es</w>
bat ken</w>
be c</w>
be er</w>
belie f</w>
big ger</w>
bir th
bloc ks</w>
bom bs</w>
br and
br on
bro m</w>
bro w</w>
bul lah</w>
bul let</w>
bur y</w>
c av
campaig ns</w>
cap abilities</w>
casu alties</w>
cate gor
certific ate</w>
ch rist</w>
chair s</w>
che dule</w>
che ek</w>
cir cu
cl as
cl en
cle ared</w>
cli ff</w>
clo sure</w>
co al</w>
commit tees</w>
compan ion</w>
compe tence</w>
con trad
conce aled</w>
conduc ting</w>
conn ect</w>
consequ ently</w>
cont em
continu ally</w>
contro l
coordin ation</w>
coun ty</w>
cris to</w>
crow ded</w>
cur b</w>
cur i
curi osity</w>
d ated</w>
d le</w>
d ling</w>
d wel
dam ascus</w>
dar ling</w>
de e
dead ly</w>
decre ase</w>
dem ort</w>
demon ata</w>
der ly</w>
desper ate</w>
determin ation</w>
dis pos
dist ant</w>
diver sity</w>
duc ed</w>
e g
ear nings</w>
ed back</w>
effec tively</w>
egypti ans</w>
el der</w>
ell en</w>
embar rass
emer ged</w>
emo tional</w>
emo tions</w>
emper or</w>
en su
end ers</w>
enhan ced</w>
er adic
es mee</w>
est y</w>
eu gen
evalu ation</w>
exhau sted</w>
expec tations</w>
expos ure</w>
extra ordinary</w>
extrem ists</w>
f ans</w>
f ence</w>
f icial</w>
f le</w>
fac e
fe edback</w>
fear ful</w>
feder ally</w>
fin ancing</w>
fin ds</w>
fl ames</w>
fl es</w>
fl or
fle x
fol k</w>
g are
g ay</w>
g led</w>
gather ing</w>
gaz ing</w>
ge dly</w>
go s</w>
govern mental</w>
gr ate
gr ay</w>
gr in
grap hic</w>
guaran tee</w>
h int</w>
ha j
ha w
han g</w>
he i
head ing</w>
hel ic
helic op
help ful</w>
helpl ess</w>
her e
hes itated</w>
horri ble</w>
hospit als</w>
human itarian</w>
i ans</w>
i p</w>
ic als</w>
igh tened</w>
ignor ed</w>
illu str
implemen ted</w>
implemen ting</w>
impor ted</w>
in ches</w>
in form</w>
in her
in stantly</w>
in tim
inst all
inst inc
institu tion</w>
inten tions</w>
inter vention</w>
inv itation</w>
jo e</w>
ju st
k ash
k har</w>
k or
kh ali
l ers</w>
l it</w>
la sts</w>
la ying</w>
lan ka</w>
lang don</w>
lar ry</w>
le ys</w>
leg ally</w>
less ly</w>
li ft</w>
li min
li vely</w>
liby an</w>
limin ary</w>
lloy d</w>
lo aded</w>
lo t
lo vely</w>
loo se</w>
lu c
m s
mag ical</w>
maj esty</w>
marg in</w>
mat ri
meas ured</w>
meh sud</w>
mid st</w>
migr ation</w>
mis erable</w>
mo ham
mon thly</w>
mur do
ni ghts</w>
no ble</w>
no des</w>
nu tri
o dy</w>
o sama</w>
oblig ations</w>
od a</w>
off ensive</w>
ol en</w>
on ally</w>
on e
on going</w>
op en
ou l</w>
ough ly</w>
ow nership</w>
p ir
par aly
par ted</w>
pass word</w>
pat ri
per mitted</w>
per sist
perman ent</w>
persu aded</w>
peter sburg</w>
phar mac
pic ally</w>
pl astic</w>
pl un
po sts</w>
poe try</w>
poss essed</w>
pp ers</w>
pr o</w>
pr on
pra ised</w>
pre liminary</w>
pres cri
pres ents</w>
princi pal</w>
priv ati
pro minent</w>
prof its</w>
promis es</w>
prot ected</w>
pu p
pu r</w>
purcha se</w>
q ad
qu it</w>
quanti ty</w>
r hy
ra p</w>
rakh mon</w>
ran king</w>
ran ks</w>
re ference</w>
re minded</w>
re treated</w>
recor ded</w>
refl ect</w>
reg ulation</w>
relati onships</w>
ren esmee</w>
repor ters</w>
repor ting</w>
republic an</w>
res ist</w>
reser ve</w>
reser ved</w>
resol ve</w>
ro ots</w>
rol ling</w>
rout ine</w>
ru st
s ank</w>
s chedule</w>
s ick
s wal
sa y
sanc tions</w>
satis fied</w>
satis fy</w>
scre aming</w>
se y</w>
sec tors</w>
separ ation</w>
ser ving</w>
sh annon</w>
sha ke</w>
sha w</w>
shar if</w>
si l</w>
six th</w>
sk ill</w>
sle ep
sli de</w>
sol ved</w>
sp ac
sp rang</w>
speci fied</w>
spl it</w>
st ar</w>
stair case</w>
ster ing</w>
sto res</w>
streng then</w>
stron gest</w>
stu b
su itable</w>
su m</w>
su peri
subsequ ent</w>
sul tan</w>
surviv ors</w>
susp ended</w>
swe pt</w>
sy ed</w>
sympath y</w>
t ably</w>
t ant</w>
ta h
te sted</w>
temp le</w>
termin al</w>
territor ies</w>
then ardi
ti mat
ti p</w>
ton y</w>
tor ate</w>
tournam ent</w>
tradi tion</w>
tren d</w>
ty pically</w>
u d</w>
ul ous</w>
ul timat
un ity</w>
un ted</w>
v ain</w>
v s</w>
val idity</w>
veri fy</w>
vis ible</w>
vol demort</w>
w ell
w ings</w>
w ounds</w>
wa ved</w>
war ded</w>
wee k
wh ale</w>
wh el
where as</w>
wi ves</w>
wid ely</w>
wis dom</w>
wit ch</w>
wo ke</w>
y a
z ones</w>
0 9</w>
1 20</w>
19 6
199 7</w>
199 8</w>
3 9</w>
4 3</w>
a ver
abe l</w>
ac o</w>
ad mit</w>
advent ures</w>
ag ent</w>
ag ents</w>
ail ing</w>
air e</w>
al arm</w>
al es</w>
al id</w>
al ised</w>
al ling</w>
al located</w>
algorith m</w>
alter native</w>
am y</w>
an to
ant on
appro aching</w>
ar ity</w>
architec ture</w>
arou sed</w>
arth ur</w>
arti st</w>
ash gab
ashgab at</w>
ass ur
at ers</w>
ato es</w>
att or
attit ude</w>
au bon</w>
autonom ous</w>
aw ful</w>
aw k
aw sat</w>
b old</w>
bac ter
ban i</w>
bare ly</w>
bas in</w>
be tr
bel t</w>
bi o
bir ds</w>
bl u
bu ck
bu tt
bur den</w>
c ents</w>
c tion</w>
can cel
cap ability</w>
cas aubon</w>
cas h</w>
categor ies</w>
ce ased</w>
ch ances</w>
ch at
ch er
ch ess</w>
ch in</w>
ch ron
cham bers</w>
che er
chil d
cho ices</w>
chu ck
ci gare
cl ash</w>
co ok</w>
col leagues</w>
com ment</w>
comb ination</w>
comp ound</w>
compe ten
compu ters</w>
con gr
con qu
concentr ate</w>
conf used</w>
congr atul
consid ers</w>
continu ing</w>
contrac ts</w>
contro ls</w>
conv ince</w>
cor p
corru pt</w>
cou p</w>
coun c
countr y
cr ack</w>
cre ative</w>
cre w</w>
critici zed</w>
d c</w>
dar i</w>
daugh ters</w>
de als</w>
de dic
de pri
dec l
dee per</w>
del ight</w>
deli ber
demonstr ated</w>
demonstr ators</w>
dep end</w>
deplo yed</w>
depu ties</w>
dest iny</w>
destro ying</w>
deter i
devo tion</w>
di ble</w>
dic t
direc tors</w>
dis appeared</w>
dispos al</w>
distingu ished</w>
do or
dom in
doz ens</w>
dr agged</w>
dr unk</w>
dre ssing</w>
dread ful</w>
dro ps</w>
du al</w>
du mp
e an</w>
e ed</w>
e ur
e ze</w>
earth quake</w>
econom ics</w>
effici ently</w>
el even</w>
el o
ele gant</w>
embar ras
embarras sed</w>
emphasi zed</w>
en e</w>
en ger</w>
eng agement</w>
enthusias m</w>
enti tled</w>
entreprene urs</w>
er arch
est a</w>
evalu ate</w>
ex act</w>
ex changed</w>
ex tent</w>
exist ed</w>
exp on
f ant
f isc
f lip</w>
f p</w>
fa iling</w>
fac tories</w>
facilit ate</w>
facul ty</w>
fain t</w>
favour able</w>
fe tch</w>
ff ind
ffind or</w>
fil ling</w>
fir mly</w>
fisc al</w>
fit ted</w>
flow er</w>
fol ks</w>
foun der</w>
frequ ent</w>
friend ship</w>
fro z
froz en</w>
fru it</w>
fu r</w>
fu zzy</w>
func tional</w>
g ps</w>
gall ery</w>
ge o</w>
genu ine</w>
gh ali</w>
gi l</w>
gol l</w>
goo gle</w>
good ness</w>
gr y
graph y</w>
gre ece</w>
gru mbled</w>
gry ffindor</w>
gu es</w>
guil ty</w>
h r
h ud
ha b</w>
hal t</w>
ham as</w>
hat red</w>
hes it
hi erarch
histor ical</w>
hor iz
hus h</w>
hydro electric</w>
id a</w>
ignor e</w>
il les</w>
in cur
in fer
in o</w>
increas ingly</w>
indic ators</w>
ing er</w>
insp ired</w>
inspec tor</w>
integr ation</w>
inter v
inv est</w>
is al</w>
is y</w>
iv an</w>
j ad</w>
j as
j eff</w>
j on</w>
je wish</w>
je ws</w>
jeal ous</w>
jer us
jerus alem</w>
jo in
jour nal</w>
k ay
k icked</w>
k iss</w>
kari mov</w>
ke en</w>
kin dly</w>
king dom</w>
l ak
l est</w>
l up
laugh s</w>
li fe
lin ing</w>
lo ver</w>
lo ves</w>
lou dly</w>
lup in</w>
m ates</w>
ma il
mag az
margare t</w>
mechan ical</w>
mechan isms</w>
melan ie</w>
mic ha
mid night</w>
mo tion</w>
moder ni
moham med</w>
mom ents</w>
mor tality</w>
mur tag
murdo ch</w>
murtag h</w>
myster ious</w>
n ally</w>
n est</w>
n gos</w>
n is</w>
nar ro
nazar bayev</w>
never th
neverth eless</w>
new ly</w>
no vo
num erous</w>
o ke</w>
obser ving</w>
observ ers</w>
offici ally</w>
oli ver</w>
oun ced</w>
ox ide</w>
p ash
pac i
pak ti
part ners</w>
particip ating</w>
pay ing</w>
pe ak</w>
per forming</w>
plat form</w>
po t</w>
por ch</w>
pra yer</w>
prac tically</w>
pre ference</w>
preci ous</w>
premi er</w>
prepar ation</w>
pres ently</w>
pres sion</w>
prison er</w>
priv ile
pro hi
produc tivity</w>
promis ing</w>
promo tion</w>
prosp ect</w>
provisi ons</w>
purcha sing</w>
quo te</w>
r ank</w>
r at</w>
ra za</w>
ran ked</w>
re bel
re conc
re ferred</w>
re l</w>
re mind</w>
re ti
re turns</w>
rec k
ref ers</w>
regim es</w>
rel ate</w>
relati vely</w>
reli able</w>
remar ks</w>
remem bering</w>
ren ce</w>
represent ation</w>
res em
restor ation</w>
restor ed</w>
rhe tt</w>
ri ages</w>
ric h
ro cks</w>
rober ta</w>
rout es</w>
ru b
ru in</w>
s c</w>
s ounded</w>
sa r</w>
sat ell
scand al</w>
scar ed</w>
sco res</w>
scor e</w>
se f</w>
see ks</w>
sel s</w>
sent ences</w>
sex ual</w>
sh allow</w>
sh ine</w>
sha ped</w>
shou ting</w>
si e</w>
si ghts</w>
si onal</w>
sig nature</w>
signific antly</w>
sil ently</w>
sil k</w>
six teen</w>
sli ding</w>
smil es</w>
sol ar</w>
som alia</w>
speak s</w>
spec ies</w>
st al
st i</w>
st olen</w>
sti ff
stop ping</w>
stu ck</w>
sub stan
succe ed</w>
sugg ests</w>
swe at</w>
swee ping</w>
swim ming</w>
symp tom
symptom s</w>
syst em
t asks</w>
t ches</w>
te en
techno logical</w>
thr ust</w>
top ics</w>
tor ture</w>
tr ash</w>
transpor tation</w>
tri bes
tri bes</w>
tru ck</w>
tt le</w>
tun e</w>
ty pical</w>
u ae</w>
u no
u tili
ultimat ely</w>
um s</w>
un expected</w>
unic ef</w>
ur a</w>
ur ge</w>
v in
vi er</w>
vil le</w>
w i</w>
w ishing</w>
w rest
we ary</w>
weap on</w>
wh ist
whis per</w>
witn esses</w>
wiz ard</w>
you m</w>
z i</w>
zar dari</w>
0 7</w>
1 30</w>
199 6</w>
2 50</w>
3 7</w>
7 6</w>
a ide</w>
a is
ab duc
ab i</w>
aband oned</w>
absol ute</w>
ac u
ach ment</w>
ad ian</w>
ad oles
advant ages</w>
aff air</w>
ag nan</w>
ag on
ain able</w>
air lines</w>
akh shan</w>
al co
all u
alter natives</w>
am bition</w>
ang s</w>
anony mity</w>
anony mous</w>
ap prehen
ar a</w>
ar ch</w>
ar gue</w>
ar ose</w>
argu ment</w>
ariz a</w>
arre sts</w>
art agnan</w>
arti cles</w>
as ser
as signed</w>
ass ist</w>
aston ishment</w>
at am
athle tes</w>
atic s</w>
au reli
aureli ano</w>
aw ake</w>
b ang
bad akhshan</w>
bag s</w>
bal anced</w>
bar ri
bar rier</w>
bay eva</w>
baz a
be ar
be ard</w>
be ings</w>
beg ins</w>
ben ch</w>
bil ities</w>
bloo d
bo wed</w>
bo x
bo xes</w>
bom bers</w>
bon ds</w>
br ad
br ings</w>
br is
bri dges</w>
bri ef</w>
bri g
broad cast</w>
but ler</w>
butt ons</w>
by l</w>
c he</w>
c s</w>
c ure</w>
ca ve</w>
cal end
camer a</w>
can adian</w>
can al</w>
cardin al</w>
cat ching</w>
cate gory</w>
ch im
chann els</w>
che e
chem ical</w>
chur ches</w>
ci ous</w>
clo thing</w>
co ok
co vers</w>
coll ab
coll ective</w>
com rad
comm it</w>
commun ist</w>
comp as
compe te</w>
compen sation</w>
comrad es</w>
con sent</w>
con ten
con vo
conclu sion</w>
consequ ence</w>
cont acts</w>
contribu tion</w>
contribu tions</w>
contro ver
correspon dent</w>
critic ism</w>
cro p</w>
cro ss
cub ic</w>
cur ve</w>
d ay
d itch</w>
dam n</w>
daz z
dea f</w>
deal t</w>
decisi ve</w>
decl are</w>
dedic ated</w>
def ine</w>
defend ants</w>
dem anding</w>
demonstr ate</w>
demonstr ations</w>
deta il</w>
dic k</w>
dis missed</w>
dis placed</w>
div or
doc tr
don t</w>
doub led</w>
down stairs</w>
du z</w>
e ating</w>
e o
eag er
eager ness</w>
ec h
educ ated</w>
el and</w>
em in
em om
embarrass ment</w>
embe dded</w>
en de
en sur
en vel
en vy</w>
eng age</w>
engine er</w>
engine ers</w>
equi valent</w>
es cal
es sions</w>
es us</w>
estim ate</w>
eugen e</w>
euro s</w>
ev acu
ev es</w>
evol ution</w>
ex ists</w>
exam ination</w>
exam ples</w>
excell ent</w>
explo ded</w>
f ab
f ancy</w>
f ers</w>
f ishing</w>
f ond</w>
fa ils</w>
facil ity</w>
far ming</w>
fav our</w>
fel lows</w>
fi re
fier ce</w>
fir ing</w>
fl ame</w>
flo ws</w>
fo ol
for give</w>
form al</w>
four teen</w>
fr o</w>
ful ness</w>
fun ded</w>
fun eral</w>
fundam ental</w>
g ated</w>
g go
g ha
g haz
ge ome
geor gi
ger y</w>
gg le</w>
gg ling</w>
ggl es</w>
ggo tty</w>
gh d</w>
good bye</w>
gor ous</w>
grad ually</w>
grand mother</w>
graph ical</w>
gre ek</w>
gre en
gri gory</w>
guaran tees</w>
guid el
har iri</w>
har ri
harri et</w>
he els</w>
he t</w>
hear ts</w>
heav ily</w>
her it
her o</w>
herit age</w>
hi ding</w>
hiz bullah</w>
ho bb
hom e
hom eland</w>
hu a</w>
hu t</w>
human s</w>
hun ting</w>
i op
i rel
id ation</w>
ide ology</w>
identi fying</w>
il lion</w>
ill ness</w>
in ability</w>
in appropriate</w>
in ch</w>
in sec
ind ones
inqu iry</w>
inst alled</w>
intro duce</w>
investig ations</w>
ira q
iraq is</w>
irel and</w>
is mail</w>
it ude</w>
j ec
j esus</w>
jan g</w>
ji m</w>
jo ining</w>
jud ges</w>
k re
k w
kee ps</w>
ken ya</w>
khw an</w>
kind ness</w>
kno cked</w>
ku tu
kun ar</w>
kun duz</w>
kutu z
kutuz ov</w>
kw h</w>
l atin</w>
l it
l or</w>
law yers</w>
legisl ation</w>
legisl ative</w>
li est</w>
li ght
ligh ted</w>
lik eli
lon g
low ed</w>
m al</w>
m ate</w>
m l</w>
m me</w>
ma them
ma ur
magaz ine</w>
man s</w>
mar i
martyr s</w>
matri x</w>
me al</w>
me tal</w>
mean time</w>
med als</w>
men ted</w>
ment ally</w>
mexic o</w>
micha el</w>
migr ants</w>
mir acle</w>
mis ery</w>
mist akes</w>
mist ress</w>
mo ck</w>
mu kh
n ah
n av
n ful</w>
n in
n ity</w>
na sty</w>
nar co
neu tr
ni e</w>
ni kol
norm ally</w>
novo sti</w>
o ted</w>
o y</w>
oc curren
occup ation</w>
occup y</w>
oli vier</w>
olymp ic</w>
om ing</w>
op enly</w>
op ens</w>
or n</w>
ori ented</w>
ou se</w>
ou ts</w>
over head</w>
over whel
ox y
oxy gen</w>
p cb</w>
p en</w>
p ent
p oured</w>
p r</w>
pack age</w>
pan el</w>
pap a</w>
parame ters</w>
pass es</w>
passa ge</w>
patro l</w>
pav el</w>
pe er</w>
pe ggotty</w>
pharmac eu
phi ra</w>
pi pe</w>
plic ity</w>
plun ged</w>
po ckets</w>
pol l</w>
poten ti
pre vention</w>
pro pose</w>
process or</w>
produc er</w>
prof ession</w>
propos als</w>
prosec ution</w>
protec ting</w>
prov ision</w>
provid ers</w>
prud ence</w>
psy chi
public ations</w>
public ly</w>
pur ple</w>
pursu e</w>
quali fied</w>
quanti ties</w>
r ade</w>
r age</w>
r as</w>
r ash
r d</w>
ra h</w>
ra ises</w>
ra v
rad ical</w>
re mark</w>
re ward</w>
recommend ations</w>
regist ration</w>
remar ked</w>
repe atedly</w>
resu med</w>
rhy th
ri r</w>
ris en</w>
ro b
ro bes</w>
ro sem
rosem ary</w>
rosto v</w>
rush ed</w>
s ement</w>
s i</w>
s now
s p</w>
s wa
s wing</w>
sa phira</w>
sadd le</w>
sal ary</w>
sar cas
satell ite</w>
se ats</w>
se pt</w>
sen ate</w>
sev enth</w>
sh al
sh ell</w>
sh i</w>
sh ri
sha de</w>
sha res</w>
shi eld</w>
shi ft</w>
shi fted</w>
sho ot</w>
short age</w>
shru gged</w>
si bilities</w>
si de
si gh</w>
six ty</w>
sn apped</w>
some what</w>
son gs</w>
sou ls</w>
sp reading</w>
squ ad</w>
stom ach</w>
stor ed</w>
str anger</w>
streng th
su ghd</w>
sugg es
supp er</w>
surren dered</w>
survi ve</w>
susp icious</w>
sw ung</w>
swe ar</w>
swi ft</w>
symbo l</w>
system atic</w>
t d</w>
t ude</w>
ta b</w>
tah rir</w>
techni que</w>
teh sil</w>
tel s</w>
than ked</w>
thenardi er</w>
thro wing</w>
ti de</w>
tin o</w>
tit le</w>
top ic</w>
tr illion</w>
tr un
tra p</w>
trad ers</w>
trad ing</w>
transi tional</w>
transparen cy</w>
trav eling</w>
trav ell
treat y</w>
tri be</w>
tu be</w>
tur n
u gly</w>
u pro
uk ra
un employment</w>
un identified</w>
up date</w>
up stairs</w>
urg ent</w>
us eless</w>
v au
v ex
v it
ven ge
veter ans</w>
vir tual</w>
vis ions</w>
vis itor</w>
vis its</w>
vis t</w>
vo tes</w>
vo y
vol t
w a</w>
w ishes</w>
w ned</w>
war m
war ri
wor shi
wor ship</w>
worl d
wr apped</w>
x in
x y</w>
y as
yi el
z ia</w>
7 3</w>
a o</w>
a sted</w>
a ward</w>
ab rup
ab sur
ab use</w>
abrup tly</w>
acc el
acc use</w>
accel er
accompl ished</w>
accor d
achiev ements</w>
achiev ing</w>
acquain tance</w>
ad am</w>
adequ ate</w>
adop tion</w>
affili ated</w>
ag an</w>
ag ers</w>
ag la
ag u
ak e
ak en</w>
alco hol</w>
aler t</w>
alger ia</w>
ali ke</w>
ali ties</w>
alle gedly</w>
alle l</w>
am ong
amend ment</w>
among st</w>
an der</w>
an gu
ang i</w>
ant es</w>
ap par
appe ti
ar bit
arr ay</w>
as set</w>
ass ess</w>
assu ming</w>
atam bayev</w>
att acking</w>
atten ding</w>
attrac t</w>
au stri
av esta</w>
avi ation</w>
az a</w>
az er
azer ba
b ars</w>
b bs</w>
b one</w>
bak er</w>
bal ls</w>
ban n
bann u</w>
be ach</w>
be aten</w>
be half</w>
be have</w>
be ij
beij ing</w>
ber ry</w>
ber tr
bi b</w>
bil li
bil ls</w>
bo ar
bo ats</w>
bo d
bo th
bon net</w>
boo t</w>
bor is</w>
br ace</w>
br an</w>
broo ks</w>
bun ch</w>
c age</w>
c d</w>
c ited</w>
c r</w>
ca p</w>
ca tho
caf e</w>
calend ar</w>
cam ps</w>
cand le</w>
car go</w>
care er</w>
cav al
cent ri
ces sions</w>
ch el
ch i</w>
ch ill</w>
char ming</w>
chec ks</w>
christi ans</w>
cl ari
cl ude</w>
clar issa</w>
classi fication</w>
clim b</w>
clim bed</w>
clu bs</w>
clu ster</w>
co ck
co ol
co operate</w>
co tt
co verage</w>
col our</w>
com mod
com modi
com rade</w>
comm ents</w>
comman ds</w>
commodi ties</w>
comp elled</w>
comp ly</w>
compl ained</w>
con sec
conf ident</w>
consci ousness</w>
cont aining</w>
cont empt</w>
conveni ent</w>
convic ted</w>
corp se</w>
coun tenance</w>
counc ils</w>
counter parts</w>
critic ised</w>
cryst al</w>
cul l
cultiv ation</w>
d ad
d aw
d ents</w>
d les</w>
d ley</w>
d mit
d ol
dan a</w>
dan ese</w>
de tention</w>
dec ade</w>
dec k</w>
def ending</w>
defe at</w>
deli vered</w>
deligh ted</w>
den y</w>
dep ending</w>
depos its</w>
der a</w>
descri bes</w>
deser ted</w>
detec tion</w>
dev ast
di an</w>
di min
dic t</w>
dis abilities</w>
dis appear</w>
dis played</w>
disco very</w>
discrimin ation</w>
distur bed</w>
div ine</w>
divor ce</w>
docum entation</w>
don ors</w>
dre amed</w>
dro pping</w>
du tch</w>
e a</w>
e aten</w>
e ously</w>
e ting</w>
e y
eag erly</w>
ec hes</w>
ec ho
ec tor</w>
effec tiveness</w>
el ty</w>
el ves</w>
em brace</w>
emer ge</w>
emer ging</w>
emom ali</w>
emp ir
emp ire</w>
en abled</w>
en cing</w>
en der</w>
en i</w>
end ure</w>
eng ers</w>
enjo ying</w>
enter prises</w>
equ ation</w>
ess ica</w>
est eem</w>
et ts</w>
ev ident</w>
ex t
ex tor
exp an
exp anded</w>
explan ation</w>
explo itation</w>
expres sing</w>
exten d</w>
exten ding</w>
f as
f on
face book</w>
fav or</w>
fe wer</w>
fer o
fi er</w>
fl ashed</w>
fl ings</w>
fle e</w>
flo ren
floren tino</w>
flow ing</w>
fo rec
focus ing</w>
foot steps</w>
fore ig
franc s</w>
fur ious</w>
fur y</w>
g aining</w>
g or</w>
gal lo
gener ated</w>
glo be</w>
glo om
go ds</w>
go wn</w>
gr abbed</w>
gr as
gr ati
gr in</w>
grac eful</w>
grate ful</w>
grin ned</w>
gru bbs</w>
gu essed</w>
gu est</w>
guidel ines</w>
h ers</w>
h o</w>
h s</w>
ha i</w>
ha ir
ha q</w>
ha ste</w>
ha sti
has n</w>
hasti ly</w>
heav ens</w>
ho ods</w>
ho tels</w>
hop efully</w>
hop ing</w>
house hold</w>
hur rying</w>
i b</w>
i di
i h
i khwan</w>
i p
ibra him</w>
ick er</w>
id able</w>
id le</w>
il led</w>
il ling</w>
im a</w>
im it
im pul
imag ination</w>
impati ently</w>
in i</w>
in ti
in timate</w>
ind ul
indic ation</w>
inf ected</w>
inqu ired</w>
inten se</w>
inten sive</w>
inter im</w>
inter medi
inter ro
inv en
investi gate</w>
investig ating</w>
invisi ble</w>
invol ve</w>
ir on
it ted</w>
j essica</w>
j ol
ja ws</w>
jum ped</w>
k hel</w>
k hi
k ings</w>
k ir
kat er
ke wise</w>
kol nikov</w>
kore an</w>
kur dish</w>
l on</w>
lat ely</w>
le fort</w>
le on
lea f</w>
legi timate</w>
less on</w>
li kewise</w>
liber ation</w>
lin s</w>
liter ally</w>
lo ving</w>
log ist</w>
logi c</w>
lon ged</w>
loy al</w>
lu ke</w>
m ill</w>
m m</w>
ma sters</w>
mag nit
magnit ude</w>
mar ily</w>
mar ine</w>
mar sh</w>
mat h</w>
may or</w>
mee ts</w>
mem ber
mer ry</w>
mi x</w>
middle march</w>
mil an</w>
mil i
mis t</w>
mo m</w>
mo on
mo tion
mo tor</w>
mol ec
mor oc
mor rel</w>
mor t
motion less</w>
moun tain
mu d</w>
mus icians</w>
n ick</w>
narco tics</w>
ne arest</w>
necess arily</w>
neighb ors</w>
neighb ours</w>
non sense</w>
nur se</w>
o od</w>
o te</w>
o tic</w>
ob lasts</w>
ob s
obst acles</w>
occas ions</w>
occasi onally</w>
off enders</w>
om ar</w>
or al</w>
or ange</w>
or nam
or tho
out come</w>
p lo
p lot</w>
p p</w>
p ushing</w>
pakti ka</w>
par allel</w>
par don</w>
parad ise</w>
parame ter</w>
pass engers</w>
pe ar
pe l</w>
pe tr
per mission</w>
ph er
philosoph y</w>
photo graph</w>
photo s</w>
photograph s</w>
pl a
pleas ant
plu g</w>
pol ite</w>
pop ul
pos ing</w>
posi tively</w>
postp oned</w>
pre su
predic ted</w>
pregn ant</w>
presid ents</w>
pri marily</w>
pro cur
pro spec
proce eded</w>
proce eding</w>
produc ing</w>
propos al</w>
pu zz
publ ishing</w>
public ation</w>
pursu ed</w>
qat ar</w>
quali ties</w>
qui x
quix ote</w>
quo ta</w>
r ice</w>
radi ation</w>
rang ers</w>
ras kolnikov</w>
re action</w>
re form
re si
re signed</w>
re t</w>
re tain</w>
re viewed</w>
read s</w>
reco gn
reco ver</w>
rej ection</w>
religi ons</w>
remark able</w>
republic ans</w>
res is
respec ted</w>
respon ded</w>
resul ted</w>
resul ting</w>
reven ue</w>
rever se</w>
revolu tionary</w>
ri pped</w>
ro cket</w>
ro ll</w>
ro sa
ro ws</w>
ron sky</w>
rosa mond</w>
rou ting</w>
s ist</w>
s lu
s man</w>
s ne
s nor
s ors</w>
s r</w>
sa ble</w>
sa dly</w>
sa eed</w>
sa iling</w>
sadd am</w>
se al</w>
se as</w>
secre ts</w>
sel dom</w>
sel ection</w>
sev en
sh ang
sh old</w>
sh one</w>
sha ded</w>
sha pes</w>
shar ia</w>
sho w
shr ine</w>
shu ff
si ri
sign als</w>
skir ts</w>
smo king</w>
smoo th</w>
sn ar
sol ely</w>
sp ain</w>
st aff
st aying</w>
st led</w>
st u</w>
st un
star tled</w>
ste ve</w>
sti r
stop s</w>
stra w</w>
stro ke</w>
struc tured</w>
su danese</w>
su its</w>
sub mit</w>
substan tial</w>
success es</w>
sur gery</w>
survi ved</w>
t apped</w>
t ative</w>
t b</w>
t fully</w>
t wit
tack le</w>
tan eously</w>
ten sion</w>
ter n</w>
th ful</w>
th i
the me</w>
thre shold</w>
ti ble</w>
ti ly</w>
to t</w>
tour ist</w>
trag edy</w>
tribes men</w>
tur ks</w>
ud h
um ar</w>
un covered</w>
un necessary</w>
unfortun ate</w>
up ward</w>
us al</w>
us u
ut most</w>
v ary</w>
v ation</w>
v ronsky</w>
vacc ination</w>
vacc ine</w>
vag ue</w>
val id</w>
van ished</w>
van ity</w>
vari able</w>
ve ge
venge ance</w>
vil lefort</w>
vo ting</w>
vol can
w are
w ay
w b</w>
w y
wan dered</w>
war n</w>
we igh
week end</w>
whe els</w>
wi g</w>
with drew</w>
world wide</w>
x x
y ab</w>
y az
y usu
you ths</w>
z am
z oda</w>
0 3</w>
1 15</w>
1 40</w>
5 2</w>
6 2</w>
7 00</w>
8 4</w>
8 5</w>
8 8</w>
9 00</w>
a at</w>
a x</w>
ab ella</w>
ab str
absur d</w>
ac cu
acc es
acc idents</w>
accord ingly</w>
ach us
achus etts</w>
acti vist</w>
activ ating</w>
adver ti
adver tis
aff ec
aff ecting</w>
aff ects</w>
ag all</w>
ag eous</w>
ag ony</w>
aggre gate</w>
agla ya</w>
air line</w>
ak ov</w>
al as</w>
al bert</w>
al loc
al ls</w>
alex ey</w>
algorith ms</w>
ali ze</w>
am ped</w>
amaz ed</w>
amend ments</w>
amoun ts</w>
an i
angu ish</w>
announ ce</w>
ap pal
apo logi
aq sa</w>
ar ag
ar c
ar ge</w>
ar ia</w>
ar men
ar n</w>
ar ov</w>
arr ange</w>
arrang ement</w>
as ion</w>
as sad</w>
assa ult</w>
associ ations</w>
at er
at er</w>
ate au</w>
ati es</w>
attemp ted</w>
attrac ting</w>
attrac tive</w>
au to
aud it</w>
austr alian</w>
author ization</w>
autom atically</w>
avail ability</w>
b acking</w>
b ond</w>
ba th
back ward</w>
ban kru
barre l</w>
barre ls</w>
baza ar</w>
be asts</w>
be id</w>
be wil
bel ar
bel o
believ ing</w>
belo ved</w>
ber lin</w>
bes sie</w>
bi ological</w>
bid ding</w>
birth day</w>
bl amed</w>
bl ank</w>
blan ket</w>
blin ked</w>
blo s
blo ws</w>
bloc ked</w>
bo ther</w>
bo y
bod ily</w>
bor row</w>
br ed</w>
brac ed</w>
bran ches</w>
bre eze</w>
breath ed</w>
bri de</w>
bri gh
brief ly</w>
broad er</w>
broo ke</w>
bul k</w>
c ence</w>
c ession</w>
c ough
c z
ca thy</w>
can e</w>
catho lic</w>
celebr ate</w>
centur ies</w>
certific ates</w>
ch ic
cha udh
char m</w>
chec ked</w>
chec king</w>
chie fs</w>
cho o
cir cles</w>
civil ization</w>
cl ashes</w>
cla iming</w>
class ical</w>
cle aning</w>
cle aring</w>
clen ched</w>
clin ic</w>
coll ecting</w>
collap se</w>
com edy</w>
com ic</w>
com promise</w>
comb ating</w>
comfor tably</w>
compas sion</w>
competi tors</w>
compon ent</w>
con fined</w>
conce al</w>
conce p
condem n</w>
connec ting</w>
connec tions</w>
constitu te</w>
consu mption</w>
cont ing
contrad ic
conve yed</w>
convo y</w>
coo ked</w>
coo king</w>
cop per</w>
cor d</w>
coun ted</w>
coun tered</w>
cour ses</w>
cr ack
cra zy</w>
cre pt</w>
cro ps</w>
cru cial</w>
cru el</w>
cu sto
cul tures</w>
cur led</w>
custo dy</w>
d antes</w>
d ding</w>
d win
da isy</w>
dag ger</w>
de br
de tain
dec or
dele gates</w>
deli very</w>
delic acy</w>
dep loy
depart ments</w>
deploy ment</w>
descen ded</w>
deta iled</w>
dev i
devo ted</w>
di m
di r</w>
dimen sion</w>
dimen sions</w>
dis abled</w>
dis ru
dist res
diver se</w>
dom inated</w>
du bai</w>
du bbed</w>
du dley</w>
du es</w>
du ke</w>
dynam ic</w>
e beid</w>
e ter
eigh th</w>
em a</w>
em an</w>
empha sis</w>
emplo y</w>
en ses</w>
en tic
end or
end ous</w>
ende av
eng ines</w>
enhan cing</w>
ensur ing</w>
envel ope</w>
equi pped</w>
es cor
es sive</w>
eth iop
ethiop ia</w>
ev ing</w>
ex ha
exec ute</w>
exp elled</w>
exp ense</w>
expan sion</w>
exper ti
expor ting</w>
exten sion</w>
f ada</w>
f angs</w>
f au
f li
f lights</w>
fa ith
fa thers</w>
fa ults</w>
fast est</w>
fe ed</w>
fe eding</w>
feasi ble</w>
fero cious</w>
fi q</w>
fil ed</w>
fil ms</w>
fin ite</w>
fir m
fl ung</w>
fle eing</w>
fol ding</w>
fool ish</w>
form idable</w>
g ely</w>
g ill
g in</w>
g ur
gab e</w>
gal ax
gen e
gen oc
gener ations</w>
gener ators</w>
genoc ide</w>
georgi a</w>
gh ana</w>
gin ny</w>
gl ory</w>
glo b
gloom y</w>
gon agall</w>
gon na</w>
govern or
governor ates</w>
grap her</w>
great ly</w>
gree ted</w>
gri ff
gu ided</w>
h ated</w>
h itting</w>
h t
ha bib</w>
ha iry</w>
ha l</w>
ha sh
ha st
har der</w>
harv est</w>
he ightened</w>
he y</w>
hin der</w>
hiz b</w>
hol der</w>
hol land</w>
hop eful</w>
hop eless</w>
hor n</w>
hu b</w>
hum ble</w>
hun t</w>
i mov</w>
i ot</w>
i ths</w>
i x</w>
icul ar</w>
id ditch</w>
ide al</w>
ie c</w>
ie u</w>
ign ty</w>
ignor ance</w>
im per
imag inary</w>
imp acts</w>
implic ations</w>
in er
in ev
in n</w>
in struction</w>
in t
in tent</w>
in tru
incenti ves</w>
inde x</w>
indign ation</w>
inform al</w>
ing ness</w>
initi ally</w>
initi atives</w>
innov ative</w>
instru ment</w>
integr ity</w>
inter face</w>
inti fada</w>
into x
intox ic
invol ves</w>
ir a</w>
ir ri
is abel</w>
is abella</w>
is ely</w>
islam ists</w>
it a</w>
it ous</w>
ivan ovna</w>
j ab
j ack
j i</w>
jur y</w>
just ine</w>
k ah</w>
k night</w>
ke l</w>
kh alid</w>
kho st</w>
kidn apped</w>
kno ck</w>
kre acher</w>
ku wa
kur man
kurman bek</w>
kuwa iti</w>
l ily</w>
l td</w>
la y
langu ages</w>
laun ching</w>
law suit</w>
le m
le tting</w>
legen d</w>
len e</w>
less ons</w>
liber al</w>
light ning</w>
lo cal
lo g</w>
low est</w>
lu ci
lux ury</w>
m are</w>
m ati
m id</w>
m ir</w>
mag ician</w>
mag ne
main tained</w>
main taining</w>
mak er</w>
man ners</w>
manufac tur
manufactur ers</w>
mar ched</w>
mass achusetts</w>
maul ana</w>
mc gonagall</w>
me dov</w>
me ter</w>
mean ing
mi x
micro soft</w>
mil dred</w>
min eral</w>
min or</w>
mis es</w>
mis r</w>
mis sil
missil es</w>
mo dul
motiv ated</w>
moun t</w>
mountain ous</w>
mour ning</w>
mu kha
mu tter</w>
mun ici
mur dered</w>
myster y</w>
n ano</w>
na ils</w>
nam ely</w>
nan o
nation alist</w>
night side</w>
nikol ay</w>
nin th</w>
no te
no ti
no ting</w>
nor ris</w>
north west</w>
o on</w>
o re
o th
o tun
obli ged</w>
observ ation</w>
oc ity</w>
oc t</w>
occur s</w>
off ence</w>
on als</w>
op ed</w>
oper ators</w>
or ing</w>
or ly</w>
or ted</w>
organis ing</w>
orig in
otun bayeva</w>
our ing</w>
ous ers</w>
over all</w>
p end
p han
p ig
p ill
p it</w>
pa st
paci fic</w>
pack ages</w>
pain t</w>
pan e</w>
par ry</w>
par tial</w>
particip ated</w>
pat ches</w>
pav lov
pay ments</w>
pe dia</w>
peas ant</w>
pen cil</w>
per mit</w>
per sec
perce ption</w>
peri ods</w>
petro v
ph s</w>
pil gri
pist ol</w>
plac ing</w>
plain ly</w>
plan ted</w>
pleasant ness</w>
po orly</w>
pop py</w>
pot atoes</w>
pr ic
pre mises</w>
pre tend</w>
prec isely</w>
prepar ations</w>
prev enti
priv acy</w>
pro found</w>
pro gres
produc ers</w>
prof itable</w>
professi onals</w>
psychi at
pur ity</w>
pursu it</w>
qu idditch</w>
qu il
question ing</w>
qui ries</w>
r al
r at
r c</w>
r ors</w>
ra fa
ra ids</w>
re actors</w>
re ferring</w>
re min
re pair</w>
re pro
re vis
reconc ili
recru iting</w>
refuge e</w>
reg ularly</w>
regul ations</w>
rela xed</w>
rene wed</w>
repor ter</w>
reserv o
respec ts</w>
reve al</w>
revol t</w>
ri d</w>
ri dic
ri fles</w>
ri ots</w>
ri vers</w>
ro d</w>
ro me</w>
ro oted</w>
ro sali
ro sy</w>
ro t
rosali e</w>
ru s</w>
rul ers</w>
rum ours</w>
s killed</w>
s no
s si
sa b
sa il
sacri fic
saf ely</w>
sal eh</w>
san g</w>
sc ar</w>
scen es</w>
schol ar</w>
scr ap
scre am</w>
se attle</w>
se ize</w>
se t
secre tari
secretari at</w>
sem in
sequ ence</w>
serge ant</w>
sh out</w>
sh re
sha h
sha mi
shang hai</w>
shar k</w>
sharp ly</w>
she ets</w>
she pher
shi re</w>
shir ts</w>
sho es</w>
shr ank</w>
shr ines</w>
si di
si zed</w>
si zes</w>
sig ning</w>
sim pl
simul ation</w>
sin king</w>
sing er</w>
siri us</w>
sk ull</w>
sleep y</w>
smoo thly</w>
smu ggl
snat ched</w>
so c
sol ving</w>
sor row</w>
sovere ignty</w>
speci alist</w>
spectac les</w>
spokes woman</w>
st ered</w>
st ole</w>
stat ue</w>
ste in</w>
sti c</w>
stoc ks</w>
str ing</w>
str ous</w>
stre tch</w>
stro de</w>
strugg ling</w>
su gar</w>
subsequ ently</w>
suffici ently</w>
sup er</w>
sup ports</w>
super inten
surr ounding</w>
sust ainable</w>
sw an</w>
t am
t elec
t ess</w>
t ough</w>
t u</w>
ta k</w>
tan gible</w>
tan ks</w>
temp tation</w>
ten ing</w>
ten nis</w>
ten sions</w>
tex tile</w>
th ick
th ol
the tic</w>
theat er</w>
threat ening</w>
ti s</w>
ti tion</w>
tion ers</w>
tis m</w>
to k
tol erable</w>
tr ace</w>
tr ains</w>
tr ousers</w>
tr unk</w>
trac king</w>
traff icking</w>
trag ic</w>
trans ferring</w>
trans formation</w>
trans mission</w>
transl ated</w>
trav eled</w>
tre ach
tre ats</w>
tribun e</w>
trium ph</w>
trou bles</w>
tu bes</w>
tu n</w>
u sa
ud din</w>
un certainty</w>
un comfortable</w>
under ground</w>
under take</w>
uni fied</w>
univer sal</w>
up dated</w>
ur ging</w>
v et</w>
v lad
vac ation</w>
ve ins</w>
ven e
vi br
victor ia</w>
volcan o</w>
w az
w fp</w>
w ic
w im
w ire</w>
w l</w>
w ling</w>
w t</w>
w to</w>
wal i</w>
wal ks</w>
wan ting</w>
war ding</w>
war t</w>
warm th</w>
wash ing</w>
we iner</w>
wh i
will ingness</w>
with draw
wood en</w>
work er</w>
work shop</w>
wr ist</w>
xin hua</w>
y an</w>
y aw
yass er</w>
yem eni</w>
you thful</w>
your selves</w>
z ham
z he
zer o</w>
0 1</w>
199 1</w>
199 3</w>
20 15</w>
5 6</w>
6 4</w>
6 9</w>
8 1</w>
9 4</w>
9 8</w>
a f</w>
a ils</w>
a iming</w>
a warded</w>
a we</w>
ab dur
ab ing</w>
ab ling</w>
ab ul
ac company</w>
acc ru
acc using</w>
accoun tability</w>
acqu ire</w>
ad ds</w>
adju sted</w>
admir ation</w>
adoles cent</w>
advis er</w>
af c</w>
af ri
ag er</w>
ag s</w>
aggres sion</w>
agr ap
ah id</w>
al ise</w>
al ong
alexandrov na</w>
alger ian</w>
along side</w>
alu min
am ended</w>
am i
am n</w>
am ne
amaz ement</w>
ambi tions</w>
amne sty</w>
an gr
an ium</w>
analy zed</w>
ang ar
angr ily</w>
ap sed</w>
appeti te</w>
appreci ate</w>
appro ves</w>
ar gent
ar is
ar tis
ar ts</w>
arab ic</w>
arbit r
argu ments</w>
ari ans</w>
arti ficial</w>
as e
as ph
as y</w>
ass essed</w>
ast ers</w>
at ro
at ter</w>
ath cliff</w>
att achment</w>
att ain</w>
attor ney</w>
au mi</w>
au to</w>
auth entic
avo ided</w>
aw i</w>
awk ward</w>
ax is</w>
azerba i
azerbai jan</w>
b age</w>
b ash
b ath</w>
b c</w>
b li
b lowing</w>
b out
bacter ia</w>
bag gage</w>
bagh lan</w>
ban que</w>
bar red</w>
bas ically</w>
bb on</w>
be am</w>
be ats</w>
be ds</w>
be ef</w>
be ir
bec ca</w>
bec k</w>
behavi ors</w>
beir ut</w>
belon ged</w>
ben ding</w>
ber dy
ber y</w>
bil bo</w>
bin ding</w>
bit ants</w>
bl ade</w>
bl essing</w>
bl in</w>
bl ur
bl ushed</w>
blo g</w>
bo ston</w>
bo wing</w>
bom bed</w>
bon d
bor ed</w>
bor ne</w>
bou lev
boun dary</w>
br ic
breath less</w>
bron ze</w>
bru tal</w>
bu b
bu khar
bu ll</w>
bu tt</w>
bul strode</w>
bure au
c ats</w>
c enti
c m</w>
ca the
cam el</w>
cand les</w>
cand y</w>
capit a</w>
car pet</w>
car t</w>
ce o</w>
cell ar</w>
cer y</w>
cerem on
ch icken</w>
ch or
chan ting</w>
char ity</w>
char t</w>
charac ters</w>
chaudh ry</w>
check point</w>
chem icals</w>
chest er</w>
child hood</w>
chim ney</w>
chuck led</w>
ci ally</w>
cir cling</w>
cla ws</w>
clas ped</w>
cler k</w>
cler ks</w>
clo th</w>
co is</w>
co ke</w>
co sting</w>
co ven
col lins</w>
coll ar</w>
com posed</w>
com pr
comb at
comb ining</w>
comman ded</w>
comp iled</w>
compar ing</w>
compli ance</w>
compr ised</w>
compu ting</w>
con gres
con jec
con stra
conce iv
conce pts</w>
conclu sions</w>
confisc ated</w>
confl icts</w>
congres sional</w>
consci ously</w>
conserv ation</w>
conserv ative</w>
consider ations</w>
consol e</w>
consul tations</w>
contem pl
conten ted</w>
continu ation</w>
contr ary</w>
control ling</w>
conver gence</w>
conver sion</w>
cop ies</w>
cott age</w>
cou ch</w>
coun sel
coun ters</w>
coun tess</w>
coun ts</w>
country side</w>
cour t
cr abbe</w>
cr acked</w>
cr acks</w>
cr ash</w>
cre ates</w>
cri tics</w>
crou ch</w>
cru de</w>
cru m
cu st
cu ts</w>
cul ar</w>
cur y</w>
cust om</w>
d ashed</w>
d dy</w>
d ency</w>
d ger</w>
d life</w>
d na</w>
d ney</w>
d ors</w>
d well
dan ced</w>
dang l
dangl ars</w>
dar a</w>
daz a</w>
de ton
dead line</w>
deal er</w>
defin es</w>
del ayed</w>
deligh tful</w>
democr ats</w>
den ted</w>
dep ths</w>
depos it</w>
der ness</w>
der son</w>
descri ption</w>
deser ve</w>
deser ved</w>
desig n
dest ination</w>
det ect</w>
determin ing</w>
diag ram</w>
differ ently</w>
dig ital</w>
dir t</w>
dis agreeable</w>
dis appointment</w>
dis pen
discus sing</w>
distinc t</w>
do x</w>
does nt</w>
don ald</w>
don or</w>
dra g</w>
dram atically</w>
dre ad</w>
dro wning</w>
du m</w>
dump ing</w>
dur ation</w>
e di
e id</w>
e ta</w>
e ternal</w>
e yel
eas ed</w>
ei ghty</w>
el derly</w>
el essly</w>
el ine</w>
el ls</w>
ell i</w>
elo qu
em ail</w>
em al</w>
em bo
en abling</w>
en did</w>
en g</w>
en ings</w>
en jol
eng aging</w>
enjol ras</w>
enti ties</w>
enti ty</w>
equ ality</w>
equ ity</w>
er ect</w>
er ial</w>
er ic</w>
er ings</w>
er it
er ity</w>
er o
erit re
err ors</w>
ess ence</w>
est ly</w>
eth ics</w>
ex cur
ex emp
exce eded</w>
exce ption</w>
exce ptions</w>
excell ency</w>
experim ent</w>
experim ents</w>
experti se</w>
f aded</w>
f ang</w>
f ever</w>
f id
f ists</w>
f old</w>
f om
fa ster</w>
fare brother</w>
fat al</w>
fe u
fer r
fi ery</w>
fic ations</w>
figh ter</w>
fil thy</w>
fin ishing</w>
fl ats</w>
flag s</w>
fle eting</w>
flow ed</w>
focus es</w>
fol der</w>
foo ds</w>
foreig ners</w>
form at</w>
fortun ate</w>
fr ing
fran cois</w>
fran k
fre ed</w>
free ze</w>
fren ch
frequ ently</w>
fru str
ful filled</w>
fur nit
furnit ure</w>
g al</w>
g ary</w>
g ate
g ay
g im
g it</w>
g loo
g lowing</w>
ga z</w>
gad fly</w>
gad ha
gadha fi</w>
gar th</w>
gaz ed</w>
ge e</w>
ge on</w>
gen der</w>
gho st</w>
ght est</w>
gi es</w>
gi fts</w>
gl ad
gl u
gloo m</w>
go v</w>
go yle</w>
gra il</w>
gra ves</w>
gram s</w>
gre n
griff iths</w>
gro aned</w>
gro ss</w>
grow led</w>
gu ys</w>
guar dian</w>
guaran te
gun men</w>
h ed</w>
h ris</w>
h t</w>
ha cking</w>
ha di</w>
ha k
ha unted</w>
ham id</w>
ham mock</w>
hamm er</w>
han i</w>
han ov</w>
hau ghty</w>
hay ward</w>
he ated</w>
he athcliff</w>
he ter
hierarch y</w>
hm i</w>
ho stages</w>
hon estly</w>
horri fied</w>
hosp ital
hu h</w>
hus bands</w>
hydro gen</w>
ic ting</w>
ic y</w>
id er</w>
identi fication</w>
ignor ant</w>
il ity</w>
il legally</w>
illu min
im pose</w>
impor ting</w>
impres sive</w>
improv ised</w>
in difference</w>
in duced</w>
in ity</w>
in ju
in mates</w>
in quiries</w>
in sists</w>
in sufficient</w>
in tric
in ts</w>
in tu
incl ination</w>
incl ined</w>
ine tte</w>
inha bitants</w>
injur ies</w>
injur y</w>
innov ations</w>
instinc t</w>
insul ted</w>
insurg ent</w>
inten sity</w>
inter nally</w>
interru ption</w>
into sh</w>
inven tion</w>
invest ed</w>
ir d</w>
irr it
irri gation</w>
is ar</w>
is ite</w>
ist er</w>
it ative</w>
it em</w>
it ers</w>
it ly</w>
it ment</w>
j uni
jac ket</w>
je ans</w>
je w</w>
jo kes</w>
john son</w>
juli a</w>
jun ction</w>
juni or</w>
jur is
k emal</w>
k ins</w>
k nit
k ul</w>
k z</w>
ke e</w>
ker chief</w>
khat tak</w>
kho v</w>
kno cking</w>
kur ram</w>
l acking</w>
l end</w>
l es
l ity</w>
l one</w>
lan e</w>
lan tern</w>
lar gely</w>
le ah</w>
le ments</w>
le t
li p
li v
li vel
lim bs</w>
lim itations</w>
lo ch</w>
lo dged</w>
lo fty</w>
lo ses</w>
lo sis</w>
log ists</w>
lou is</w>
lu cky</w>
m ation</w>
m ic</w>
m in</w>
m ps</w>
m qm</w>
m v
ma c</w>
ma x</w>
mad am</w>
mad ness</w>
mag nific
man kind</w>
man n
man n</w>
man ship</w>
man us
manus cri
mar v
mat ched</w>
measu rement</w>
measu rements</w>
member ship</w>
mer cury</w>
mer cy</w>
merch ants</w>
migr ant</w>
min a</w>
mis fortune</w>
mis sions</w>
mist aken</w>
mm er</w>
mo h
mo s</w>
mod ular</w>
model ing</w>
mon o
mon op
mon tan
montan elli</w>
moon light</w>
mor tal</w>
mour nful</w>
mov a</w>
mu f
mu gabe</w>
mul lah</w>
mur der
must n</w>
mut tering</w>
n aire</w>
n am</w>
n ap
n au
n d</w>
n el
n es
n ly</w>
nation als</w>
nav y</w>
ne gl
neighbour hood</w>
new s
nit ro
no is
no v</w>
nor way</w>
notic ing</w>
nov el</w>
nu t</w>
o ak</w>
o id</w>
o ked</w>
obe di
obli gation</w>
observ ations</w>
ol ate</w>
olymp ics</w>
op ec</w>
op ing</w>
op pon
oppos ing</w>
opti mi
opti mis
or able</w>
or ph
organ ic</w>
organiz e</w>
ortho dox</w>
ou ter</w>
oun ce</w>
out post</w>
out skirts</w>
ov ich</w>
over come</w>
over seas</w>
ow ns</w>
p acked</w>
p c</w>
p ick
p ire</w>
p itch</w>
p lots</w>
p ou
p yr
pa ths</w>
pad dy</w>
pal m</w>
pan ting</w>
par agrap
pas sions</w>
pas sive</w>
pash tun</w>
patro ls</w>
pe tty</w>
peas ants</w>
per forms</w>
person ally</w>
phys ically</w>
phys icians</w>
pi pes</w>
pi pp
pil low</w>
pipp in</w>
pl um
ple dged</w>
po et</w>
po v</w>
pol ar
pol i</w>
port ation</w>
poss ess</w>
potenti ally</w>
pr ay</w>
pre y</w>
preventi ve</w>
pro cessions</w>
pro m</w>
pro pri
prob ability</w>
proce eds</w>
prop het</w>
prosp erity</w>
prov en</w>
pu mp</w>
pu s</w>
pur poses</w>
pursu ing</w>
q aumi</w>
qu arre
qu ery</w>
que er</w>
question naire</w>
r ak
r ally</w>
r ant</w>
r in</w>
r oughly</w>
r oun
ra f</w>
ra il</w>
ra ins</w>
ra z
rail ways</w>
rang ing</w>
re aches</w>
re gres
re jects</w>
re sign</w>
re vi
re y</w>
real ise</w>
rec ession</w>
rec ur
reconcili ation</w>
recru itment</w>
reform ist</w>
regist er</w>
rein forcing</w>
rele ases</w>
reluc tan
reluctan tly</w>
rep ay
resear cher</w>
respec table</w>
respec tive</w>
respon ses</w>
respon sibilities</w>
reve aling</w>
reven ge</w>
ri ft</w>
ridic ulous</w>
ro gun</w>
ro man</w>
ro tten</w>
rou sed</w>
rub ber</w>
rul er</w>
s can
s nu
s or</w>
s ounding</w>
sa w
sal aries</w>
satisfac tory</w>
sav age</w>
sc attered</w>
scen ari
scor ing</w>
scre amed</w>
se th</w>
sear ched</w>
see ds</w>
sel ess</w>
sen ator</w>
sen or</w>
sen sible</w>
ser ves</w>
serv ers</w>
sha ken</w>
shami l</w>
share holders</w>
sher i
shi fting</w>
shi fts</w>
shi p
shou ts</w>
sl um
sli d</w>
sli ghtest</w>
smar t</w>
so ared</w>
so bbing</w>
soc cer</w>
socie ties</w>
sol itary</w>
son ia</w>
son ya</w>
sp her
sp it
sp it</w>
sp urs</w>
spec t
spec tr
spec ulation</w>
speci alized</w>
spir its</w>
spl endid</w>
st abil
st ake
st ake</w>
st ap
st en
st es</w>
st ling</w>
st y
sti ll
stra in</w>
strength ening</w>
stric tly</w>
stru ggles</w>
stum bled</w>
su b</w>
su ez</w>
su f</w>
su ite</w>
sub jected</w>
sub stance</w>
sub stitu
sum mar
sun light</w>
sun ny</w>
superi or</w>
superinten dent</w>
supp li
surve ys</w>
suspici on</w>
swi f
t abo
t ad
t ents</w>
t ing
ta p</w>
tan eous</w>
tar a</w>
tar ian</w>
te abing</w>
te ens</w>
temper atures</w>
testi mony</w>
th ec
the y
thes es</w>
thor pe</w>
thr one</w>
threat en</w>
thro p</w>
ti gh
ti um</w>
tim ing</w>
to tal
to y</w>
tol l</w>
tom my</w>
tor ch</w>
tor e</w>
tou gh
tr ailing</w>
tr apped</w>
tr ick
tra it</w>
trans actions</w>
trans form</w>
trans formed</w>
tre ating</w>
trem endous</w>
tri poli</w>
tribu te</w>
tru cks</w>
tt es</w>
tu ally</w>
tu ber
twit ter</w>
u prising</w>
u tter</w>
ukra ine</w>
ul ars</w>
ul ated</w>
um bridge</w>
un acceptable</w>
un certain</w>
un conscious</w>
un fair</w>
un iting</w>
un usual</w>
under stand
ur anium</w>
uzbe k
v akh
v ity</w>
v or
vac ant</w>
val ve</w>
ve z</w>
ven s</w>
vend or</w>
vend ors</w>
ver dict</w>
ver ies</w>
ver sus</w>
ver t</w>
veter an</w>
vir gin
virtu ally</w>
volt age</w>
w af
w ri
wa iling</w>
wa ving</w>
wa z</w>
warri ors</w>
we i
weal thy</w>
were wolf</w>
were wolves</w>
wh ir
wh oles
wh olly</w>
wid th</w>
wil dlife</w>
win d
withdraw al</w>
wiz ards</w>
wre tched</w>
y ates</w>
y elled</w>
y l
yass in</w>
ye h</w>
yi eld</w>
you suf</w>
z ani</w>
z er</w>
z ers</w>
z ie</w>
zham byl</w>
1 28</w>
1 6
1 60</w>
1 70</w>
19 70</w>
198 3</w>
199 9</w>
20 14</w>
3 50</w>
4 50</w>
5 3</w>
6 9
7 9</w>
a im
a j
a stro
a thos</w>
a waiting</w>
ab d</w>
ab un
abo ard</w>
abul ary</w>
ac custom
ac id</w>
ac ies</w>
ac res</w>
acce pt
accept ance</w>
acces sible</w>
accor d</w>
accur ate</w>
accustom ed</w>
ach man</w>
achiev ement</w>
acquain tan
acquaintan ces</w>
activ ate</w>
ad an</w>
ad el
ad el</w>
ad ieu</w>
ad ult</w>
ad ults</w>
adap t</w>
addic tion</w>
ade zai</w>
adi um</w>
adm ire</w>
adv ancing</w>
adv oc
advertis ements</w>
advis e</w>
advis ed</w>
af ar</w>
affec tion
afri di</w>
after math</w>
ag ging</w>
ag itation</w>
ah ram</w>
ahmad ine
ahmadine jad</w>
air ports</w>
ak bar</w>
ak ened</w>
ak i
aki press</w>
al gam
al location</w>
al maz
al ter</w>
al tered</w>
alexand ra</w>
alexandrov itch</w>
algam ation</w>
almaz bek</w>
am algamation</w>
am p
am us
amm u</w>
amoun ted</w>
an di
an ov</w>
an p</w>
an sar</w>
andi jan</w>
andre a</w>
ang els</w>
angar har</w>
anno y
annoy ance</w>
ant ation</w>
anti qu
anticip ated</w>
anto inette</w>
ap point</w>
ap t</w>
apologi ze</w>
appal ling</w>
appear ances</w>
appreci ation</w>
ar cha
ar do</w>
ar if</w>
ar ising</w>
ar ming</w>
ar ya</w>
arch bishop</w>
ariz ona</w>
arm chair</w>
arti stic</w>
as kar</w>
as sign
assess ments</w>
assist ed</w>
assu mp
assump tions</w>
aston ished</w>
at lan
at ly</w>
at om
at oms</w>
at ov</w>
athle tic</w>
ati vity</w>
atlan tic</w>
attemp ting</w>
atten dance</w>
attrac tion</w>
au d</w>
austri an</w>
authentic ation</w>
autom atic</w>
av en
av enge</w>
aw ber</w>
ax e</w>
ay e</w>
az i</w>
b ah
b ind</w>
b iting</w>
b iz
b ounds</w>
b p</w>
bab ies</w>
bab we</w>
bak u</w>
bal last</w>
ban g</w>
bar n</w>
barri ers</w>
batt les</w>
be ak</w>
be amed</w>
be ver
beg ged</w>
beha ved</w>
berdy mukha
berdymukha medov</w>
bertr am</w>
bi e</w>
bid den</w>
bit ter
bitter ness</w>
bl ades</w>
bl ind</w>
bl ings</w>
ble eding</w>
blos som
bo ards</w>
bo ss</w>
bo v</w>
bo ws</w>
bol lah</w>
borro wing</w>
both ered</w>
boulev ard</w>
box er</w>
br ick</w>
br us
bra ve</w>
brand y</w>
braz il</w>
bri en</w>
bri ghtly</w>
brig ade</w>
bro id
bro w
bu ck</w>
bu cks</w>
bu end</w>
bu l</w>
bul l
bur nt</w>
bur sting</w>
bureau cr
c able</w>
c attle</w>
c el</w>
c em
c it
c key</w>
c ough</w>
c oul
c p</w>
c u</w>
cal mly</w>
calcul ated</w>
calcul ation</w>
cali ph
caliph ate</w>
cam els</w>
cancel led</w>
candi d
cap e</w>
car ol
car riages</w>
car ries</w>
car to
car ts</w>
carol ina</w>
cas ual</w>
cataly st</w>
cathe dr
ce ase</w>
ce dri
ce pti
cedri c</w>
cell ular</w>
cen tered</w>
centri fu
ch op
cha pel</w>
cha r</w>
character istic</w>
cho king</w>
ci a</w>
ci ble</w>
cigare ttes</w>
circu it</w>
cl an</w>
cl oud</w>
cl um
cla use</w>
clam ation</w>
clim bing</w>
clo ses</w>
clu tched</w>
cn ts</w>
co achman</w>
co arse</w>
co des</w>
co ins</w>
co oper
col s</w>
collab oration</w>
colon ial</w>
colum n</w>
com part
com prising</w>
comm ent
comm entary</w>
commit ments</w>
common wealth</w>
comp are</w>
comp ounds</w>
comple tion</w>
comple x
con fer
con front</w>
con go</w>
con sen
con sor
concentr ation</w>
confer ees</w>
confir m</w>
confir mation</w>
consen sus</w>
consor tium</w>
consul tant</w>
cont ents</w>
contin ual</w>
continu ously</w>
contrac ting</w>
contribu ting</w>
controver si
coordin ate</w>
cor n</w>
cor relation</w>
correc ting</w>
correc tly</w>
cour tes
cous ins</w>
coven ant</w>
craw led</w>
cri tically</w>
cu losis</w>
cu ps</w>
cultiv ated</w>
cur ly</w>
cur r
cur tain</w>
curren cies</w>
cz ech</w>
d at</w>
d ence</w>
dad dy</w>
dam ages</w>
dam ned</w>
dam p</w>
dang ers</w>
dar cy</w>
dar ing</w>
dazz ling</w>
de en</w>
de grad
de par
deal ings</w>
deb ated</w>
dec eased</w>
dec ide
dec oud</w>
declar ing</w>
decreas ed</w>
defin i
defin itely</w>
del hi</w>
delic ate</w>
dem ol
demonstr ation</w>
dep ended</w>
des k
des pair</w>
deser ves</w>
desk top</w>
det ected</w>
devast ating</w>
di abe
di oxide</w>
di yev</w>
diff er</w>
dimin ished</w>
diplom acy</w>
diplom ats</w>
dis agreement</w>
dis charged</w>
dis close</w>
dis closed</w>
dis grace</w>
dis h
dis per
dis plays</w>
dis position</w>
discre tion</w>
disgu ise</w>
dispu ted</w>
distingu ish</w>
do ck</w>
do s</w>
doctr ine</w>
docum entary</w>
dor mit
doub tless</w>
dr agon</w>
dr un
dra ws</w>
dram atic</w>
dre aded</w>
dri ed</w>
dri fted</w>
dri ves</w>
drun ken</w>
du bi
dwar f</w>
dwel t</w>
e gg
e i</w>
ear liest</w>
ebr d</w>
ec o
ec st
ed ding</w>
ed ges</w>
ed it</w>
ed ness</w>
el a</w>
el t</w>
el y
elim inate</w>
em broid
emer gence</w>
emin ence</w>
emo is
emois elle</w>
emphasi zing</w>
empir ical</w>
en countered</w>
en h
en ko</w>
en vi
enh ance</w>
ensu ed</w>
enti eth</w>
es me</w>
ess ness</w>
est ates</w>
est ing</w>
esti vities</w>
eth eless</w>
eur o</w>
ev al</w>
ex ag
ex am</w>
ex cess</w>
ex ile</w>
ex it</w>
ex portation</w>
ex porters</w>
ex qu
exam ining</w>
exc essive</w>
exc iting</w>
exce pti
excur sion</w>
execu ted</w>
exerc ises</w>
exp enses</w>
expec tation</w>
expl aining</w>
expl ains</w>
expl ored</w>
explic it</w>
explo sions</w>
exqu isite</w>
ext ingu
extingu ished</w>
extor tion</w>
extrac ting</w>
f ade</w>
f ame</w>
f anci
f en
f estivities</w>
f ist</w>
f yo
fac he</w>
far ah</w>
far yab</w>
fare well</w>
fast ened</w>
fat ah</w>
fati gue</w>
fe at
fe e
fe es</w>
fer ghana</w>
fer mina</w>
fer n
ff icial</w>
ff led</w>
ff les</w>
fi res</w>
fin als</w>
fing er
fit ting</w>
fl ushed</w>
fla v
flag g</w>
flex i
flo ating</w>
fo g</w>
fo x</w>
for d
for wards</w>
forec ast</w>
form erly</w>
fr ac
fr amed</w>
fr ames</w>
fro g</w>
fu gi
ful fill</w>
ful s</w>
furn ished</w>
g ains</w>
g at
g el
g ham</w>
g id
g ins</w>
g ould</w>
g p
g us</w>
gas ped</w>
ger mans</w>
gest ures</w>
ghaz ni</w>
ght ness</w>
gl ances</w>
gn ome</w>
go blin</w>
go dd
go ose</w>
gol f</w>
gor iot</w>
govern ance</w>
grav ity</w>
gre gor</w>
gree ks</w>
gri pped</w>
gro ve</w>
gro ws</w>
guar ded</w>
guid ance</w>
h ec
h ind
h m</w>
ha bil
ha ble</w>
ha il</w>
ha y</w>
haj j</w>
hamm a</w>
hand ful</w>
happ ily</w>
har old</w>
hard est</w>
hard ware</w>
hast ened</w>
haz ard</w>
he al</w>
he dge</w>
he dging</w>
he el</w>
head ache</w>
heal th
hear th</w>
hei ghts</w>
helicop ter</w>
helicop ters</w>
heter o
hi a</w>
hi b</w>
high lights</w>
ho arse</w>
ho ckey</w>
ho se</w>
ho sn
ho sts</w>
horiz on</w>
hosn i</w>
hud dled</w>
hun ter</w>
hur ried</w>
i el</w>
i q
i v</w>
ib n</w>
ic ted</w>
if ti
il a</w>
il ian</w>
ill a</w>
ill iter
im babwe</w>
im ir</w>
im prison
imp lied</w>
impati ence</w>
import antly</w>
imprison ment</w>
improv ements</w>
in adequate</w>
in ating</w>
in c</w>
in corpor
in hi
in sist</w>
in tri
inc ere</w>
incre dible</w>
indi ans</w>
indic ating</w>
indones ia</w>
influ ences</w>
inher ent</w>
inqu ire</w>
inspec tion</w>
inst all</w>
inst alling</w>
insul a</w>
integr ate</w>
intellig ent</w>
inter act</w>
inter action</w>
interpre tation</w>
inv asion</w>
inv ite</w>
investig ated</w>
investig ators</w>
ir resis
ir tier</w>
irr itated</w>
irresis tible</w>
is mail
isl ands</w>
islam i</w>
isol ated</w>
isol ation</w>
israel is</w>
issu ing</w>
it ar</w>
iter ran
iterran ean</w>
iz es</w>
j em
j en
j et</w>
j on
j ones</w>
j us</w>
ja w</w>
jack son</w>
jal al
jal al</w>
jam aat</w>
jas per</w>
je ts</w>
jer sey</w>
ji ang</w>
jo king</w>
jo y
join tly</w>
ju ven
k ab
k an</w>
k ans
k ap
k asy
k el
k is</w>
k oc
k on
k ul
k us
k z
kari m</w>
kater ina</w>
kh ud
kh ur
khud z
ki pedia</w>
kid ney</w>
kil o
kil ome
kil y</w>
kill ers</w>
kis ses</w>
kis sing</w>
kni ves</w>
koc hamma</w>
kur ds</w>
kz t</w>
l amp</w>
l as</w>
l ing
la wn</w>
la ys</w>
lad der</w>
land lady</w>
le be
lea p</w>
leader ships</w>
legi tim
legitim acy</w>
less er</w>
less ness</w>
li fel
li fting</w>
li ghtly</w>
licen sed</w>
licen sing</w>
life time</w>
likeli hood</w>
lim iting</w>
lin king</w>
liqu idity</w>
lo dge</w>
local ity</w>
lor ds</w>
low ered</w>
loy alty</w>
m ast</w>
m atic</w>
m b</w>
m fa</w>
ma j</w>
mad emoiselle</w>
magnific ent</w>
main tenance</w>
mal icious</w>
mam ma</w>
mam mo
man date</w>
man ual</w>
mani pul
mar ble</w>
mar k
mar rying</w>
mar se
mar sha
mar vel
marsha l</w>
marvel ous</w>
master y</w>
mat tered</w>
mathem atics</w>
me era</w>
med iterranean</w>
medic are</w>
men u</w>
merch ant</w>
met als</w>
mic awber</w>
mil li
min orities</w>
minist erial</w>
mis s
mit ting</w>
mo bility</w>
mo des</w>
mo ody</w>
mo ther
mo tives</w>
mod est</w>
moderni zation</w>
mon ov</w>
mon strous</w>
mort gage</w>
motiv ation</w>
mu ja
mu r</w>
munici pal</w>
murder er</w>
mus cles</w>
mus ical</w>
n aked</w>
n angarhar</w>
n esses</w>
n ud
na vi
ne atly</w>
neg atively</w>
negoti ate</w>
ner ves</w>
nerv ously</w>
nev ille</w>
new com
ni ger
ni ko
nic hol
no d</w>
no irtier</w>
non etheless</w>
nor we
norwe gian</w>
notic eable</w>
now sh
nowsh era</w>
nutri tion</w>
o ath</w>
o g</w>
o o
ob struction</w>
ob taining</w>
obj ection</w>
obst acle</w>
occurren ce</w>
ol dest</w>
ol ga</w>
ol o</w>
om an</w>
om ed</w>
om in
on ist</w>
op y</w>
ou tw
ous sef</w>
out break</w>
out comes</w>
over throw</w>
overwhel med</w>
ow l</w>
ox ford</w>
p d
p ins</w>
p ond</w>
p yo
pa w
pac kets</w>
pain fully</w>
pain ting</w>
pap er
par am
par ish</w>
par ro
paren t</w>
pass enger</w>
pat ch</w>
pati ently</w>
pe ers</w>
pe p
pe tition</w>
pe ts</w>
pear l</w>
pen insula</w>
penetr ating</w>
per ing</w>
perce ive</w>
pet ya</w>
ph r
pharmaceu tical</w>
phi l</w>
pi one
pi res</w>
pier ced</w>
pil es</w>
pir ates</w>
plac ement</w>
plan et</w>
plan ting</w>
ple x
plo tting</w>
po p</w>
pol ar</w>
pol e</w>
pol es</w>
pol ish</w>
pol itely</w>
pol ling</w>
pol ls</w>
poli tically</w>
pop e</w>
por thos</w>
por tion</w>
por tr
posi tion
pr sa</w>
pre ferences</w>
pre jud
pre mature</w>
pre n
pre tended</w>
prec ision</w>
prece dented</w>
predic t</w>
prev ent
prin ting</w>
pris ons</w>
priv ately</w>
pro claimed</w>
pro li
pro position</w>
prob able</w>
prohi bited</w>
promp ted</w>
propag anda</w>
propos ing</w>
proto cols</w>
psychiat rist</w>
pu rely</w>
pun ished</w>
pyo t
pyot r</w>
qu al
qu est</w>
qu ill
quali fy</w>
quanti tative</w>
r anc
r anger</w>
r ated</w>
r ick</w>
r ons</w>
ra ft</w>
rac ial</w>
ram say</w>
rati on
rati os</w>
re acting</w>
re actor</w>
re agan</w>
re becca</w>
re building</w>
re ci
re d
re dun
re fer
re ject</w>
re medi
re n</w>
re tri
read ily</w>
read iness</w>
reali zing</w>
rebel s</w>
recogni zes</w>
recoll ect</w>
recor ding</w>
recor ds</w>
ref usal</w>
ref uses</w>
refl ecting</w>
regim ent</w>
rel ess</w>
reli ability</w>
reli es</w>
reli eving</w>
ren der</w>
ren dered</w>
rep ay</w>
res on
resid ence</w>
resid ential</w>
resist ed</w>
rest less</w>
restric tions</w>
ri bbon</w>
ri dden</w>
ri der</w>
ri ders</w>
ri dge</w>
ri el</w>
ri fle</w>
ri gorous</w>
ri val</w>
ris es</w>
ro ared</w>
ro ckets</w>
ro les</w>
ro of
ro pe</w>
ro ss</w>
rob ust</w>
roman ia</w>
ru bles</w>
rust am</w>
ry an</w>
s anta</w>
s ari
s incere</w>
s ink</w>
s its</w>
s m</w>
s me
s mi
s nap</w>
sa ma
sa man
sa tin</w>
sac red</w>
sal man</w>
sam ples</w>
sc o</w>
scienti st</w>
scr am
scre ams</w>
se iz
sec tarian</w>
sec tions</w>
secon dly</w>
secur ed</w>
seem ingly</w>
sel fish</w>
separ ately</w>
ser t</w>
sev enty</w>
sh attered</w>
sh edding</w>
sh in
sha b
sha me
sha wl</w>
shepher d</w>
sho ts</w>
sho wer</w>
short ages</w>
shu tting</w>
si an</w>
sick ness</w>
sil very</w>
sim plicity</w>
sin cer
sin ister</w>
sin ner</w>
six teenth</w>
ske tch</w>
sl ender</w>
sle eve</w>
sle eves</w>
sli pping</w>
sm elled</w>
small est</w>
smu ggling</w>
smuggl ers</w>
sn ake</w>
snor ted</w>
so lem
soci o</w>
sof a</w>
sol ic
some day</w>
sor aya</w>
sou p</w>
sp elled</w>
sp in</w>
sp reads</w>
sp un</w>
spac es</w>
spe eding</w>
spec im
speci alised</w>
speci fy</w>
specific ally</w>
specific ations</w>
spon sor
spr in
sque e
st adium</w>
st ained</w>
staf a</w>
stake holders</w>
star ters</w>
star ving</w>
stati oned</w>
ste ering</w>
stead ily</w>
sti ff</w>
sti pul
still ness</w>
stitu tion</w>
str icken</w>
strang ely</w>
strang ers</w>
stri des</w>
stub b</w>
su ms</w>
success or</w>
sul aco</w>
sum mary</w>
sum mon
sun shine</w>
sup plying</w>
super sti
suppli ers</w>
sus cepti
sust ained</w>
sw am</w>
swe ep</w>
swee tness</w>
swif tly</w>
swit zer
switzer land</w>
sy dney</w>
sy l
t at
t qm</w>
t to</w>
t us</w>
ta g</w>
ta i
tack led</w>
tal ent</w>
tal l
tar ily</w>
targe ting</w>
tax i</w>
te asing</w>
te te</w>
temp ted</w>
ten dency</w>
ten ds</w>
ten th</w>
terr ace</w>
th under
the ft</w>
therap y</w>
thir teen</w>
threat ens</w>
thro bbing</w>
ti an</w>
ti ously</w>
ti re
tic ated</w>
tim ber</w>
to e</w>
to il
to v</w>
to x
tou ching</w>
tr am
tr um
trac es</w>
tradi tionally</w>
transparen t</w>
trav elled</w>
trav elling</w>
tre ss</w>
tri gger</w>
tuber culosis</w>
tur sun
tw entieth</w>
tw in</w>
u bi
u le
u ps</w>
u said</w>
u sion</w>
u um</w>
u x</w>
ul lo</w>
un doub
un likely</w>
un pleasant</w>
un pleasantness</w>
un precedented</w>
under go</w>
uno fficial</w>
up dates</w>
up wards</w>
upro ar</w>
us e
ut ors</w>
ut tering</w>
v ap
v as
v re</w>
vac uum</w>
vam pire</w>
vam pires</w>
ve iled</w>
ve ted</w>
vege tables</w>
vel vet</w>
ven ess</w>
ven tured</w>
veri fication</w>
ves sel</w>
viol ating</w>
viol ations</w>
vis ual</w>
vlad imir</w>
vo ted</w>
voc al</w>
volunte ers</w>
w ages</w>
w icked</w>
w om</w>
w ound</w>
w rap</w>
wa its</w>
wa sting</w>
wal es</w>
wal id</w>
war dly</w>
war ming</w>
war mly</w>
wat ery</w>
we ird</w>
we st
weak ening</w>
wher ever</w>
where by</w>
whist le</w>
wi dow</w>
wi ki</w>
wi kipedia</w>
wi ped</w>
wi zar
wid er</w>
win ding</w>
win throp</w>
work force</w>
wr iters</w>
wrest ling</w>
y arn</w>
y ell</w>
y lene</w>
y o</w>
y oussef</w>
z able</w>
z ar</w>
z h
z hum
z imbabwe</w>
za hir</w>
zam bia</w>
0 5</w>
0 6</w>
0 8</w>
1 10</w>
1 16</w>
1 25</w>
1 500</w>
10 6</w>
198 7</w>
198 8</w>
199 4</w>
20 17</w>
6 8</w>
7 4</w>
7 8</w>
8 02</w>
8 3</w>
8 9</w>
9 1</w>
9 2</w>
9 6</w>
a hab</w>
a ster
a to</w>
a ullah</w>
a ver</w>
a wards</w>
a while</w>
ab a</w>
ab e</w>
ab id
ab s</w>
abduc ted</w>
ac ity</w>
ac knowle
ac re</w>
ac tress</w>
acc um
accu sations</w>
acqu ired</w>
ad just</w>
ad venture</w>
addre sses</w>
administr ator</w>
adv ances</w>
advant ageous</w>
aer ial</w>
aer o
af ul</w>
aff ron
ag ility</w>
ag in</w>
ah ya</w>
ain ers</w>
ak ayev</w>
ak er</w>
ak hanov</w>
ak n</w>
akh bar</w>
al arming</w>
al e
al istic</w>
al lied</w>
alleg ations</w>
alloc ate</w>
allu ded</w>
alumin um</w>
am bul
am ent</w>
am in</w>
am med</w>
am used</w>
ame ter</w>
ami able</w>
amus ement</w>
an alo
an at
an bul</w>
an ge
an ism</w>
an ten
an thro
anc est
ang el</w>
ang ered</w>
angel ica</w>
anni hil
announ cing</w>
answ ering</w>
antiqu ities</w>
anton io</w>
ap ar
ap h
apart ments</w>
appe aled</w>
appl ying</w>
applic ants</w>
ar d
ar mor
ar re</w>
arag orn</w>
arbitr ary</w>
arch ive</w>
arti ly</w>
as is</w>
asph emy</w>
ass er</w>
ass uring</w>
assa il
assem bled</w>
assur ance</w>
ast al</w>
asy l
at ories</w>
ate f</w>
ati al</w>
atom ic</w>
att ach</w>
attack er</w>
atten tively</w>
attribu tes</w>
au g</w>
au ster
au tions</w>
aug ur
autom ated</w>
aven ue</w>
avo id
avoid ance</w>
aw ed</w>
ay lor</w>
ay y
b able</w>
b ance</w>
b ian</w>
b n</w>
b oul
b read
b ren
bak y
bang lad
banglad esh</w>
bankru pt</w>
bar k</w>
bar on</w>
bas eline</w>
bas ket</w>
bat tery</w>
bath room</w>
bb ish</w>
be ams</w>
be at
be e</w>
be fore
be sto
be t
beg ging</w>
behavi oral</w>
bel fast</w>
bel gian</w>
belar us</w>
belie fs</w>
believ ers</w>
ben ch
ben i</w>
benef ici
benefici aries</w>
bes ie
betr ay</w>
bi ke</w>
bi tions</w>
bin o</w>
bit terly</w>
bl asphemy</w>
bla sts</w>
ble ak</w>
blo c</w>
bo asted</w>
bo bby</w>
bo dy
bo som</w>
bo t</w>
boo ked</w>
bor dering</w>
boun dar
boundar ies</w>
bour g</w>
bour se</w>
bow l</w>
br ands</w>
bra un</w>
bre ed</w>
break down</w>
bri g</w>
bris kly</w>
broad casting</w>
bu tter</w>
bu tton</w>
bu z
bud ge
bukhar i</w>
bur gh</w>
bur ial</w>
but ter
c ad
c ake</w>
c ay
c ements</w>
c end</w>
c i</w>
c il
c inated</w>
c is</w>
c led</w>
c un
cab in</w>
cam pus</w>
can opy</w>
can ton
canton ment</w>
cap ital
capac ities</w>
car di
car ed</w>
car pets</w>
care tak
caretak er</w>
cas ey</w>
cat alo
cataly sts</w>
cathedr al</w>
caval ry</w>
ce asing</w>
ce des</w>
celebr ating</w>
celebr ation</w>
cen sus</w>
ces sive</w>
cess es</w>
ch ateau</w>
ch ir
ch it
ch ment</w>
ch oc
ch ris</w>
cha ins</w>
cha os</w>
cha sti
cha u
challeng ing</w>
champ ion</w>
champ ions</w>
char ging</w>
char ter</w>
char ts</w>
che w</w>
chee ks</w>
chem ist
chem ist</w>
chemist ry</w>
chic ago</w>
cho ly</w>
choc olate</w>
choo sing</w>
chur chill</w>
ci gar</w>
cigare tte</w>
circu its</w>
circul ated</w>
cl ad</w>
cl ay</w>
class room</w>
cle ar
cle us</w>
cli ps</w>
clu sters</w>
co astal</w>
co efficient</w>
co h
coff in</w>
col dly</w>
col ony</w>
col or
col ored</w>
col oured</w>
coll ections</w>
collap sed</w>
colum ns</w>
com ings</w>
com pos
com pressed</w>
comb ine</w>
comfor ting</w>
comm enced</w>
comman ding</w>
commer cially</w>
commis sion
commission er</w>
commod ity</w>
common ly</w>
communic ate</w>
communic ating</w>
compen s
competen ces</w>
competi tiveness</w>
competi tor</w>
compu ter
con clude</w>
con den
con soli
conce ption</w>
conceiv able</w>
concer ts</w>
conf ession</w>
conf identi
confron ted</w>
consist ency</w>
consist ing</w>
construc ted</w>
consu med</w>
consul tation</w>
consul ting</w>
cont est</w>
cont ex
contem porary</w>
contrac tual</w>
control ler</w>
controversi al</w>
conv ened</w>
conv ent</w>
conv inc
conve y</w>
conver sations</w>
conver t</w>
conver ted</w>
convinc ing</w>
cool ing</w>
cor di
correc tion</w>
correspon ding</w>
cou rier</w>
cough ing</w>
coun sel</w>
countr ys</w>
cour te
court room</w>
courtes y</w>
cr acking</w>
cr ashed</w>
cr ushed</w>
cra f
cre ativity</w>
cred its</w>
cru elty</w>
cur ate</w>
cur ed</w>
cur gus</w>
cur ls</w>
cur se</w>
cur sing</w>
curr icul
cus es</w>
cy cles</w>
cy p
cyp rus</w>
d allah</w>
d ants</w>
d as</w>
d ens</w>
d wig</w>
d ye</w>
dar ted</w>
day light</w>
dd in</w>
dd le</w>
de arest</w>
de eds</w>
de em
de fam
de parted</w>
de posed</w>
de pressed</w>
de pression</w>
deal ers</w>
dec ei
decide dly</w>
deem ed</w>
def arge</w>
def f</w>
def ici
defe ating</w>
defend ant</w>
defic its</w>
defin ing</w>
defin ition</w>
del ays</w>
den ies</w>
den is
den ounced</w>
den sity</w>
denis ov</w>
depar ture</w>
depend ence</w>
des cend</w>
descri ptions</w>
deser ving</w>
design ated</w>
detain ees</w>
deteri oration</w>
deton ated</w>
dev ol
develop s</w>
di ameter</w>
di c</w>
di dnt</w>
di gging</w>
di gni
di ous</w>
di re</w>
di stor
di stress</w>
di vid
di visions</w>
diabe tes</w>
dic ally</w>
direc tions</w>
direc torate</w>
dis appearing</w>
dis asters</w>
dis charge</w>
dis content</w>
dis mis
discre e
discree tly</w>
distr acted</w>
distur b</w>
distur bance</w>
do bby</w>
do dger</w>
do l</w>
do lo
do ver</w>
do wed</w>
dom ains</w>
door way</w>
doub ts</w>
dow ns</w>
dr ought</w>
dra in</w>
dri ft</w>
dru id</w>
du el</w>
du g</w>
du plic
dum b</w>
dwell ers</w>
dynam ics</w>
dz ha
e al</w>
e b</w>
e h
e hr</w>
e z
ear n
ear thly</w>
earn shaw</w>
econom ically</w>
econom ies</w>
ed die</w>
ed in
edin burgh</w>
egg s</w>
el ab
el bow</w>
el ect</w>
el iness</w>
el ite</w>
ele ine</w>
elev enth</w>
ell is</w>
embroid ered</w>
emis sion</w>
emp t
en cla
en counter</w>
en cry
en dean</w>
en ligh
en r
encour agement</w>
enjo yment</w>
enjo ys</w>
ent ally</w>
ent arians</w>
ent ory</w>
enter tain
enter tained</w>
enter taining</w>
entertain ment</w>
enti ally</w>
equ ations</w>
er ie</w>
er man</w>
er ship</w>
er to</w>
er up
eradic ation</w>
eritre an</w>
err and</w>
err ant</w>
es tha</w>
escal ation</w>
est an</w>
est er</w>
et res</w>
et te</w>
euro zone</w>
ev enings</w>
ev na</w>
evalu ated</w>
every day</w>
ex cesses</w>
ex clamation</w>
ex cuses</w>
ex pose</w>
ex ter
ex trav
exag ger
exam inations</w>
exam s</w>
exce ed</w>
exer t</w>
exha us
exhi bit</w>
exhi bitions</w>
exp atri
exp ects</w>
expe dition</w>
experim ental</w>
expor ted</w>
extrav ag
eyel ids</w>
f ading</w>
f id</w>
f lies</w>
f m</w>
f ou
fa a</w>
fa hmi</w>
fa isal</w>
fa q</w>
fab ric
fac tions</w>
facilit ating</w>
facul ties</w>
faith ful</w>
fal se
fanci ed</w>
far m
far mer</w>
far ms</w>
fas cinated</w>
faz l
fazl ullah</w>
fe a
feasi bility</w>
fem ales</w>
fer ation</w>
fer tili
fern and</w>
fi x
fier cely</w>
fil ch</w>
fin es</w>
fin itely</w>
fire works</w>
fit ness</w>
fl icker</w>
fl int</w>
fl our</w>
fl u</w>
flexi bility</w>
flo ors</w>
flo p</w>
flo ps</w>
floo ding</w>
floo ds</w>
fo stering</w>
foo d
foo ting</w>
for bidden</w>
for ds</w>
for warding</w>
fore most</w>
fore seen</w>
formul a</w>
formul ated</w>
foun ders</w>
foun tain</w>
fr an</w>
franc oph
francoph one</w>
fri ght</w>
frigh ten</w>
fro wn</w>
fro wned</w>
frustr ated</w>
fu dge</w>
fun c</w>
function ality</w>
fundament ally</w>
g ash</w>
g emma</w>
g ling</w>
g ments</w>
g mt</w>
g us
g ust</w>
ga ily</w>
ga ther</w>
gal ley</w>
galax y</w>
gallo p</w>
gar ang</w>
gate way</w>
ge t
gen ius</w>
gen ous</w>
gener ate</w>
geo graphic</w>
geo graphical</w>
ger ald</w>
gh a</w>
gh ul
ght ley</w>
ghul am</w>
gi ants</w>
gi f
gi v
gir l
gl ancing</w>
gl as
gl it
gle am</w>
glo ves</w>
glob alization</w>
go at</w>
go d
godd amn</w>
gor a</w>
gor no</w>
govern orate</w>
govern ors</w>
gr ants</w>
gr ind</w>
gr inning</w>
gra b</w>
grac ious</w>
grad ed</w>
grad ual</w>
gradu ate</w>
gradu ates</w>
grati tude</w>
gri ev
gri p</w>
gu ine
gu m</w>
guarante ed</w>
guid ing</w>
gun fire</w>
gun ned</w>
h ates</w>
h ats</w>
h b
h cr</w>
h em
h ens</w>
h in</w>
h ong</w>
h ound</w>
h w
ha ck
ha d
ha fe
ha q
ha sty</w>
ha vens</w>
hal al</w>
hal f
han ding</w>
han dover</w>
hand kerchief</w>
hang u</w>
har a</w>
har b
har m
har ris</w>
harv ard</w>
he art
he artily</w>
he ath</w>
he ating</w>
he dwig</w>
he ed</w>
he im</w>
he v</w>
head er</w>
health care</w>
hear ted</w>
hec t
hen ko</w>
her at</w>
hes itation</w>
hesit ant</w>
hi p</w>
hi re</w>
hi red</w>
high light</w>
him i</w>
his sed</w>
hiz bollah</w>
ho c</w>
ho ok</w>
ho oting</w>
ho st
hobb its</w>
hol ly
hol mes</w>
holi days</w>
holly wood</w>
home work</w>
hospital ised</w>
hosti lity</w>
how l</w>
how led</w>
how ls</w>
hu mor
hum idity</w>
hum our</w>
hur ting</w>
hur ts</w>
hus ky</w>
hw ok</w>
i as</w>
i at</w>
i ves</w>
i ving</w>
ic hi</w>
ic it</w>
ic on</w>
ici ously</w>
id ating</w>
id ge</w>
id ps</w>
ie ee</w>
ie ties</w>
ifti khar</w>
il ey</w>
il i</w>
il le
ili ght</w>
ill way</w>
im minent</w>
im pu
immun isation</w>
imp lies</w>
impati ent</w>
impe ded</w>
import ers</w>
in augur
in capable</w>
in comprehen
in conveni
in ely</w>
in fir
in n
in scri
in stances</w>
in tolerable</w>
in tolerance</w>
in tr
inc idence</w>
incenti ve</w>
ind a</w>
ind i</w>
independ ently</w>
indic ations</w>
indu s</w>
indul gence</w>
inev itable</w>
inf ant</w>
inf ection</w>
infl icting</w>
ingu istic</w>
inha bited</w>
initi ating</w>
inj ection</w>
inju res</w>
injur ing</w>
insec ts</w>
inst ability</w>
install ations</w>
institu tion
inten d</w>
inten si
inter f
inter ference</w>
inter val</w>
inter views</w>
intermedi ate</w>
intoxic ated</w>
inv entory</w>
inv itations</w>
ir ina</w>
ir ish</w>
ir relevant</w>
is law</w>
ish man</w>
ish ments</w>
islam ist</w>
ist anbul</w>
it ful</w>
iv ory</w>
ivan ovitch</w>
j acqu
j ah</w>
j ay</w>
j hwok</w>
ja vert</w>
jam iat</w>
jam il</w>
je ph
je w
jeph son</w>
jew els</w>
jo se
jose ph</w>
jum ping</w>
k ev
k hu
k ie</w>
k of
k om
k ong</w>
kans as</w>
ke t
ken ne
kes pe
kespe are</w>
key words</w>
kh or
khar t</w>
khat ami</w>
khudz hand</w>
kil man</w>
kil om
kilom etres</w>
kni ghtley</w>
kni ghts</w>
ko t</w>
ko v
ko va</w>
kol ya</w>
l acks</w>
l ad</w>
l ap
l as
l ending</w>
l ent</w>
l il
l inguistic</w>
l is</w>
l oun
l uz
la in</w>
la yers</w>
labor atories</w>
lad islaw</w>
lan do</w>
land s
lat eral</w>
law makers</w>
le f
le vi
lebe deff</w>
lec ture</w>
leg acy</w>
leg es</w>
legen ds</w>
len ni
li d</w>
li fts</w>
li king</w>
li thu
liber alism</w>
ligh ter</w>
lik eness</w>
lik es</w>
lin ton</w>
liter acy</w>
livel i
lo ading</w>
lo bby</w>
lo d
lo dging</w>
lo vers</w>
loc als</w>
loc ations</w>
loc khart</w>
loc ks</w>
log ically</w>
loo sely</w>
lor ry</w>
lou vre</w>
lu cy</w>
luc as</w>
lun a</w>
lun gs</w>
ly curgus</w>
ly ther
m acro
m ains</w>
m ble</w>
m ess
m l
m med</w>
m yr
ma gh
ma id</w>
ma ids</w>
mac intosh</w>
mad eleine</w>
magne tic</w>
mal ala</w>
mal es</w>
man d
man gled</w>
man ov</w>
man son</w>
mar king</w>
mar riages</w>
mari time</w>
marse illes</w>
martyr dom</w>
mat ur
matur ity</w>
maur it
me ad
me h</w>
me tic
me tric</w>
meaning ful</w>
meas ur
medi eval</w>
meh mood</w>
mel ting</w>
melan choly</w>
mem o</w>
men ace</w>
ment ary</w>
mer cedes</w>
mer kel</w>
metho do
metr ics</w>
mexic an</w>
mi an</w>
mi ke</w>
mi ti
mic ro</w>
mil a</w>
mil lenni
mil ler</w>
min gled</w>
min t</w>
minist ries</w>
mit ka</w>
mo l</w>
moder ate</w>
molec u
molecu le</w>
mom ent
mon u
monitor ed</w>
monop o
monopo ly</w>
moroc can</w>
mou se</w>
movi es</w>
muf ti</w>
mul es</w>
mur ray</w>
n abl
n arr
n ds</w>
n f
n ick
n ile</w>
n isar</w>
n ish
n m</w>
n our
n t
na c</w>
na i
na waz</w>
nad ia</w>
nad ine</w>
nas ir</w>
nat ures</w>
nation ally</w>
nec k
need les</w>
negoti ating</w>
neighb or</w>
neighb our</w>
nev ada</w>
new t</w>
ni fied</w>
ni yaz
nichol as</w>
nine teenth</w>
nine ty</w>
niyaz ov</w>
no or</w>
no str
no tions</w>
no where</w>
no z
nostr ils</w>
nu cleus</w>
num er
nur ses</w>
nutri ents</w>
o asis</w>
o e</w>
o es</w>
o ids</w>
o wing</w>
ob sc
obj ected</w>
obsc ure</w>
obser ver</w>
occasi onal</w>
of t</w>
off ense</w>
ol a</w>
on ia</w>
on ic</w>
op er</w>
oper a</w>
oppon ents</w>
or a</w>
or ated</w>
or lando</w>
origin ally</w>
ou k</w>
oun cing</w>
ous y</w>
over look</w>
p ants</w>
p ile</w>
p indi</w>
p ines</w>
p ounded</w>
p ush
p y
pa irs</w>
pa jhwok</w>
pa tho
pa ul
pac ing</w>
pan els</w>
pan ted</w>
par king</w>
parad ig
param il
parliam entarians</w>
parti ally</w>
partic ulars</w>
pat ron
pati ence</w>
pavlov na</w>
pay ment</w>
pe e
pe te</w>
pe w</w>
peac e
pen alty</w>
pen ny</w>
penetr ate</w>
pent agon</w>
per petr
ph ant</w>
ph ras
phili pp
pho en
phras es</w>
phys ics</w>
pi ti
pil lows</w>
pil ls</w>
pil ot</w>
pl antation</w>
pl aza</w>
pl en
pl y
ple dge</w>
po ke</w>
po se
po sters</w>
po sting</w>
po tion</w>
po ts</w>
pois on
pol and</w>
por tu
pp p</w>
practi tioners</w>
pre ferring</w>
pre fers</w>
prec autions</w>
pregn ancy</w>
pres entation</w>
pres sur
preser ve</w>
presid ency</w>
preven ting</w>
pri est</w>
pric ing</w>
privile ged</w>
pro cession</w>
pro files</w>
pro j
pro xy</w>
procur ing</w>
progres sive</w>
proli feration</w>
promo ted</w>
pron ounced</w>
propor tion</w>
propri e
prosec utors</w>
prosecu ted</w>
protec tive</w>
prov oc
provid er</w>
psycho logical</w>
pu erto</w>
publ ics</w>
pup il</w>
pup ils</w>
pur po
pur se</w>
puzz led</w>
qu akes</w>
qu er
qu et</w>
qu itous</w>
qu itting</w>
qual itative</w>
quar rel
qui vering</w>
r al</w>
r ar</w>
r ating</w>
r fid</w>
r ing
r it
r m</w>
r ust</w>
r w
ra g</w>
ra hel</w>
ra him</w>
ra ining</w>
ra wal
ra ys</w>
rab bani</w>
rab bit</w>
rac ket</w>
rad ar</w>
rad ic
rad icals</w>
radi o
rafa h</w>
ral ph</w>
ram adan</w>
ram allah</w>
ran a</w>
rawal pindi</w>
re ared</w>
re bar</w>
re ed</w>
re habil
re jo
re me
re new
re plic
re publics</w>
re sted</w>
re strict</w>
real istic</w>
real m</w>
reali ties</w>
reali zation</w>
reason ably</w>
reason ing</w>
rebel lion</w>
rec alls</w>
rec re
recei ves</w>
reci pi
recogn ise</w>
reduc es</w>
ref rain</w>
reg ained</w>
regist ers</w>
regul atory</w>
rel ay</w>
remark ably</w>
rep lies</w>
repay ment</w>
repe al</w>
repro ach</w>
requ iring</w>
res ort</w>
res orted</w>
reservo irs</w>
resist ant</w>
respon dents</w>
restaur ants</w>
restra int</w>
reti re</w>
revolu tions</w>
rhyth m</w>
ri b</w>
ri ot</w>
ri p
ri y
ri z
rich ness</w>
ro m
ro ses</w>
road way</w>
rol ls</w>
rou bles</w>
roun d
ru bbing</w>
ru bbish</w>
ru sty</w>
s ally</w>
s ber
s ly</w>
s lyther
s nee
s ory</w>
s our</w>
s q</w>
sa fi</w>
sa hib</w>
sa id
sa iled</w>
sa yed</w>
sadd a</w>
sail or</w>
sam son</w>
sama a</w>
san itary</w>
sav ag
sav ings</w>
sc ary</w>
scenari o</w>
schem es</w>
scr at
scrap ing</w>
scri p
se aled</w>
se als</w>
se ed</w>
se is
se izing</w>
sec ular</w>
seem ing</w>
sel ects</w>
semin ar</w>
sen ess</w>
sen sations</w>
sen ses</w>
sent in
senti ment</w>
senti mental</w>
senti ments</w>
ser p
sett lements</w>
sever ity</w>
sh an
sh en
sh er</w>
sh ura</w>
sha hid</w>
sha k
sha kespeare</w>
shal om</w>
shame ful</w>
shar m</w>
shel ves</w>
sheri ff</w>
shi el
shi pping</w>
shi ver</w>
sho o
short comings</w>
shu ttle</w>
shud dered</w>
si a</w>
si es</w>
si m</w>
si r
si re</w>
side ways</w>
sig natures</w>
simul taneously</w>
sin ai</w>
sincer ely</w>
sing ular</w>
sk y
ske p
sla ve</w>
slee ps</w>
soci ally</w>
sol e</w>
some time</w>
sor e</w>
sp atial</w>
sp elling</w>
sp ells</w>
sp er
sp i
sp illway</w>
sp lin
sp y</w>
spar k
spe eches</w>
spec ul
speci alists</w>
spectac le</w>
spo iled</w>
spo tted</w>
spon taneous</w>
sponsor ed</w>
squee zed</w>
st a</w>
st abbed</w>
st am
st ard</w>
st ares</w>
st ays</w>
star ch</w>
ste al</w>
ste p
ster ling</w>
sti fled</w>
sti g
sti mul
sto ol</w>
sto ve</w>
stor med</w>
str ings</w>
stra igh
stre aming</w>
stres sing</w>
stri pped</w>
stri ving</w>
stro eve</w>
stro ll</w>
stron gh
stum bling</w>
stun ned</w>
su e</w>
sub clause</w>
sub marine</w>
sub sid
sub sidi
subscri be</w>
subscri bers</w>
suc cessive</w>
suff erings</w>
sugges tions</w>
summon ed</w>
sun ami</w>
sun set</w>
super b</w>
super vision</w>
superi ority</w>
supp lied</w>
sur ge</w>
sur plus</w>
surve yed</w>
sus an</w>
suspici ons</w>
sw elling</w>
sw o
swa p</w>
swal lowed</w>
sy k</w>
syn thesis</w>
t ang
t apping</w>
t as</w>
t ashi
t aylor</w>
t nam</w>
t ours</w>
t sunami</w>
t tered</w>
ta ils</w>
ta ir</w>
ta wi</w>
tal e</w>
tal ler</w>
tan tawi</w>
tar az</w>
techno starters</w>
teen agers</w>
temp est</w>
ten derness</w>
ter ies</w>
territor ial</w>
tex as</w>
th at
th el
th ru
th um
th wart</w>
than k
the ories</w>
there after</w>
thor oughly</w>
though tfully</w>
thr ill</w>
ti m</w>
ti ps</w>
tic k</w>
tic ket</w>
tim as</w>
tim ely</w>
tim idly</w>
to be</w>
to ken</w>
to ssed</w>
toil et</w>
tol o</w>
ton ne</w>
tor al</w>
tou ches</w>
tr ick</w>
tra ils</w>
trac ks</w>
tradi tions</w>
tran quill
trans action</w>
trans fers</w>
trans late</w>
trans mitted</w>
transl ation</w>
transp l
trav els</w>
travell er</w>
travell ers</w>
tre aties</w>
treach ery</w>
treas ures</w>
trem ble</w>
trem bled</w>
tri als</w>
tri gg
tribun al</w>
tric ks</w>
tro op</w>
tro pical</w>
trou bl
tu c
tu ous</w>
tu ously</w>
turkmen s</w>
tw e
tw ilight</w>
tw ins</w>
u ba</w>
u rer</w>
u ted</w>
ubi quitous</w>
ud a</w>
ul ate</w>
ul um</w>
un armed</w>
un consciously</w>
un dp</w>
un familiar</w>
un il
un rest</w>
un s</w>
un ts</w>
under secretary</w>
under stands</w>
under taken</w>
under way</w>
under went</w>
undoub tedly</w>
unti dy</w>
ur an</w>
ur du</w>
us er
us s</w>
ut ter
uz s</w>
v ar</w>
vacc inations</w>
valu ed</w>
vari ance</w>
vari ed</w>
ve y</w>
vel ocity</w>
vene zu
ver ge</w>
ver n</w>
ver ses</w>
ves sels</w>
vi al</w>
vi an</w>
vie w
viol ation</w>
vir gin</w>
vir us</w>
vol ati
volunte er</w>
voy ages</w>
vul gar</w>
w ag
w aking</w>
w al</w>
w ashed</w>
w at</w>
w ick
w it</w>
w oul
w ren
wa h
wa sted</w>
wa vered</w>
wa ves</w>
wal ter</w>
wal tz</w>
wan dering</w>
war fare</w>
war nings</w>
wat ch
wat son</w>
wat ts</w>
we a
wel ls</w>
wh ence</w>
wh ist</w>
wi ping</w>
wi reless</w>
will ingly</w>
wim ax</w>
win ston</w>
wit ches</w>
wit s</w>
with draw</w>
with drawn</w>
wo ody</w>
wom b</w>
wonder fully</w>
wood house</w>
wor rying</w>
work flow</w>
worl ds</w>
worshi ppers</w>
wr ites</w>
y ahya</w>
y ak
y u
ya ho
yiel ds</w>
you n</w>
yusu f</w>
z ahid</w>
z hi
z ul
ا ن
0 4</w>
1 13</w>
1 22</w>
1 63</w>
17 3</w>
17 5</w>
18 00</w>
18 0</w>
19 40</w>
19 60</w>
197 9</w>
2 11</w>
2 40</w>
5 50</w>
6 1</w>
6 7</w>
7 50</w>
8 7</w>
9 3</w>
9 7</w>
9 9</w>
a es
a g</w>
a iding</w>
a iled</w>
a str
a unts</w>
a ved</w>
a w</w>
a waits</w>
ab be
ab bott
ab di
ab er
ab st
ab y
aband oning</w>
abbe y</w>
abbott abad</w>
abdul lo</w>
abid jan</w>
abstr act</w>
abun dance</w>
ac commod
ac es</w>
ac on</w>
ac ute</w>
academ ics</w>
acc ent</w>
acceler ate</w>
accompan ying</w>
accompl ish</w>
accur acy</w>
ach illes</w>
acqu iring</w>
ad ays</w>
ad h</w>
ad o</w>
ad or</w>
addi tionally</w>
adi o</w>
adm ired</w>
admir able</w>
adop ters</w>
adverti sed</w>
adverti sing</w>
af o
aff lic
affection ate</w>
affron ted</w>
ag grav
ag m
ag ne</w>
ag ue</w>
aggres sive</w>
agre es</w>
ah rar</w>
ah u</w>
ai res</w>
ail and</w>
ain t</w>
ak edness</w>
ak mal</w>
ak tobe</w>
al ab
al an</w>
al armed</w>
al be
al bus</w>
al ex</w>
al lo
al pat
al pha
al t</w>
al zhe
albe it</w>
alex ander</w>
ali as</w>
ali g
ali yeva</w>
ali zoda</w>
all ying</w>
alleg ing</w>
alli ances</w>
alpat y
alpaty ch</w>
alzhe im
am en</w>
am mon
am using</w>
ambassa dors</w>
ambul ance</w>
amm ar</w>
amp li
an ch
an dum</w>
an k
an te</w>
anat ole</w>
anc ers</w>
ancest ors</w>
and arov</w>
and i</w>
and ri
andri y</w>
ann an</w>
ann ers</w>
annihil ated</w>
ans i</w>
anticip ating</w>
anto ine</w>
anx ieties</w>
anx iously</w>
any a</w>
any ahu</w>
any time</w>
ap ol
ap ore</w>
appar ition</w>
appl au
applic able</w>
apprehen sion</w>
ar al</w>
ar c</w>
ar in</w>
ar ist
ar s
arc adio</w>
archa eo
archit ect</w>
ard ous</w>
are say</w>
argu ing</w>
ari el</w>
ari th
aris en</w>
armen ian</w>
arou se</w>
arrang ing</w>
arri ving</w>
arro gant</w>
arti ll
artill ery</w>
artis tically</w>
as im</w>
as lam</w>
as per
as sed</w>
as signing</w>
ase fire</w>
ash can</w>
ash faq</w>
ash ore</w>
asp ir
ass ing</w>
assail ants</w>
assass inations</w>
asser t</w>
asser ted</w>
associ ates</w>
assu mption</w>
assur ances</w>
aston ishing</w>
asyl um</w>
at akhanov</w>
at in
at ol
at om</w>
at on
at ori
at tering</w>
atori um</w>
att ara</w>
atten dant</w>
attit udes</w>
attribu te</w>
attribu ting</w>
au t</w>
au tism</w>
aud iting</w>
autom ob
avi v</w>
avo i</w>
avo iding</w>
aw akened</w>
aw ami</w>
aw fully</w>
aw oke</w>
b aff
b ah</w>
b all
b anda</w>
b ing
b m</w>
b ols</w>
b rent</w>
b son</w>
b t</w>
b ta</w>
ba it</w>
ba stard</w>
ba z</w>
bab anov</w>
bac hel
bad s</w>
bag gins</w>
bag h</w>
bag man</w>
baky t</w>
bal ancing</w>
bal con
bal i</w>
bal lot</w>
bal ti
balcon y</w>
ban ba</w>
ban ning</w>
bar gain</w>
bar kis</w>
bar on
bar ric
bar row</w>
bas hir</w>
bas ket
bash i</w>
basket ball</w>
be ards</w>
be aver</w>
be e
be et
bec k
before hand</w>
beg in
beh old</w>
bel k
bel le</w>
bel ls</w>
bel ly</w>
belk nap</w>
bench mark</w>
besie ged</w>
betr ayed</w>
bever ages</w>
bewil dered</w>
bi ble</w>
bi bli
bi en
bil our</w>
billi ards</w>
biz arre</w>
bl aming</w>
bl ance</w>
blan kly</w>
bloc king</w>
bloo m</w>
blood shed</w>
bo om</w>
boar ded</w>
body guards</w>
bol t</w>
bott les</w>
boul der</w>
boy co
br am
br at</w>
br e</w>
br itt
br ushed</w>
bra ins</w>
brac el
brac kets</w>
brad y</w>
brand short
brandshort name</w>
bre eding</w>
bre w</w>
brea sts</w>
bread th</w>
break through</w>
bri bery</w>
bri bes</w>
bri d</w>
bri l</w>
bri ties</w>
brigh ter</w>
bro om</w>
broad ly</w>
brus sels</w>
bu cket</w>
bu ff
bu mble</w>
buck beak</w>
bul gar
bulgar ia</w>
bun dle</w>
bur ns</w>
bur ying</w>
buz kash
buzkash i</w>
c ache</w>
c ade</w>
c d
c f</w>
c is
c on</w>
c s
c tu
c ture</w>
ca b</w>
ca ster</w>
ca sts</w>
caf es</w>
calcul ations</w>
cam bo
can als</w>
can ti</w>
can v
candid acy</w>
canv as</w>
cap s</w>
car ter</w>
car ved</w>
care s</w>
carto ons</w>
cas y</w>
cat astro
cat er
cau tion</w>
cau tioned</w>
cau tiously</w>
caval canti</w>
cay lee</w>
ce asefire</w>
cel e
cele brities</w>
centi metres</w>
ceremon ies</w>
ch ant
ch et</w>
ch lor
ch s</w>
ch y</w>
cha ck
cha sing</w>
chack o</w>
chair manship</w>
champ agne</w>
champi onships</w>
char ities</w>
char lat
char ms</w>
character ised</w>
chat tering</w>
che at</w>
che er</w>
che ering</w>
che wing</w>
check points</w>
cheer ful</w>
chi p</w>
chie fly</w>
ci ful</w>
ci o</w>
circul ar</w>
circul ating</w>
cl apped</w>
cl inging</w>
clam bering</w>
clar k</w>
clari fied</w>
class rooms</w>
cle an
cle ary</w>
clen ching</w>
cler gy</w>
cli ppers</w>
clin ical</w>
clin ics</w>
clo set</w>
clu tch</w>
clu tches</w>
clu tching</w>
cn g</w>
cn t</w>
co gni
co lo
co sm
co ss
co w
co w</w>
coff ers</w>
coinc ided</w>
col in</w>
col leges</w>
col let</w>
coll ec
colon ies</w>
color ful</w>
com motion</w>
com position</w>
com prises</w>
comm ented</w>
comm enting</w>
communic ated</w>
compan ions</w>
compar ative</w>
compart ment</w>
competen cy</w>
competi tions</w>
complex ion</w>
compli ment</w>
complic ity</w>
con fin
con gre
con nor</w>
con tend</w>
con tended</w>
con trav
conce ived</w>
concentr ated</w>
concep tually</w>
conclu ding</w>
confir ming</w>
confron ting</w>
congratul ate</w>
congratul ating</w>
conqu ered</w>
consec u
conserv atives</w>
consoli date</w>
constitu ted</w>
construc t</w>
construc ting</w>
construc ts</w>
cont emp
contempl ated</w>
conting ent</w>
continu ity</w>
contrac tors</w>
conv ict</w>
conver ts</w>
cook er</w>
coordin ated</w>
cop ing</w>
cop ts</w>
cor respond</w>
corru gated</w>
cou ples</w>
coun tless</w>
cr on
cr un
craf ts
cre am</w>
cre ants</w>
cre di
cred ited</w>
credi bility</w>
cri es</w>
cris es</w>
criter ion</w>
cro ati
cro pped</w>
cro w</w>
crou ched</w>
crow ds</w>
cru ise</w>
cryst alli
ctu ations</w>
cu t
cul pr
cull en</w>
cull ens</w>
cum ul
cumul ative</w>
cur iously</w>
cur ses</w>
cur ves</w>
cy lin
d ah</w>
d ak</w>
d aresay</w>
d ash</w>
d ating</w>
d b</w>
d ently</w>
d ha
d olly</w>
d stone</w>
da em
da i
da i</w>
dai ichi</w>
dam s</w>
dan ces</w>
dan iel</w>
dar ity</w>
dar ya</w>
dark ened</w>
dark er</w>
datab ases</w>
de ath
de part</w>
dead liest</w>
debr ay</w>
debr is</w>
dec lining</w>
decre es</w>
decreas es</w>
def ects</w>
def ended</w>
defam ation</w>
defici ency</w>
del ph
del ta</w>
dele te</w>
deli vering</w>
demonstr ates</w>
den ial</w>
den ying</w>
dep icted</w>
depos ited</w>
depri ve</w>
depri ved</w>
der ick</w>
der ived</w>
der o</w>
des ir
desig nation</w>
desig ning</w>
desig ns</w>
desp ise</w>
dest abil
deta iling</w>
detec tor</w>
devol ution</w>
di al</w>
di arr
di bly</w>
di e
di g</w>
di ment</w>
di ments</w>
di on</w>
di ver</w>
diag no
dialo g</w>
digni fied</w>
dimen sional</w>
din a</w>
din ed</w>
direc ting</w>
direc tives</w>
dis ability</w>
dis agree</w>
dis ap
dis appears</w>
dis belief</w>
dis cer
dis count</w>
dis d
dis henko</w>
dis hes</w>
dis man
dis may</w>
dis miss</w>
dis order</w>
dis satisfaction</w>
dis sent</w>
dis t</w>
disci ples</w>
dismis sal</w>
dispen sable</w>
dispu tes</w>
distinc tion</w>
distor ted</w>
distribu te</w>
distribu tions</w>
distribu tor</w>
distur bing</w>
diver sion</w>
diver t</w>
dmit ri</w>
dmit ry</w>
do se</w>
do t
do v
docum ented</w>
dolo khov</w>
domin ant</w>
don ate</w>
don ations</w>
down load</w>
down stream</w>
dr a</w>
dr ap
dr on</w>
dr one</w>
dr ying</w>
dra in
dra u
drain age</w>
draw ers</w>
drin ks</w>
dro me</w>
du ly</w>
du sty</w>
dubi ous</w>
dwel ling</w>
dwin dled</w>
dy sle
dysle x
dyslex ia</w>
dz halal</w>
e aters</w>
e dition</w>
e of</w>
e pi
e q</w>
e that</w>
ea ster</w>
earth quakes</w>
eas iness</w>
ec k</w>
eco system</w>
ecst asy</w>
ed i</w>
ed ited</w>
ed itor
ed oms</w>
ed u</w>
educ ate</w>
educ ators</w>
eg g</w>
egy p
egyp tair</w>
el apsed</w>
el bows</w>
el chair</w>
el ven</w>
ele k
elec toral</w>
electron ically</w>
electron ics</w>
elev ation</w>
eli gible</w>
eloqu ent</w>
ely n</w>
em braced</w>
em i</w>
em ic</w>
em il</w>
em ir
em power
embo diments</w>
emin ent</w>
emir ates</w>
emp tied</w>
empha s
empha size</w>
empower ment</w>
en ables</w>
en ce
en chant
en rich
en tical</w>
en um
encour aged</w>
encour ages</w>
encry ption</w>
end angered</w>
end ent</w>
end uring</w>
engl ishman</w>
enor m
enorm ously</w>
enr aged</w>
ensu res</w>
ent ers</w>
ent ren
ent u
enthusi astic</w>
enti t
enum er
ep is
er ecting</w>
eradic ate</w>
ero sion</w>
err atic</w>
es a</w>
es co</w>
es ity</w>
esti mat
eter nity</w>
eth no
evol ve</w>
ex asper
ex tradition</w>
exc av
exce eds</w>
excepti onal</w>
exclu sive</w>
exer ted</w>
exp anding</w>
exp ired</w>
expe di
expec tedly</w>
expendit ures</w>
expl oration</w>
expl ore</w>
expl oring</w>
explic itly</w>
explo de</w>
explo ited</w>
explo iting</w>
expon ential</w>
expor ter</w>
expres ses</w>
expres sions</w>
extrac t</w>
eye witnesses</w>
f ake</w>
f ec
f ever
f ir</w>
f its</w>
f oul</w>
f u</w>
fa thom
fa w
fabric ated</w>
fac ial</w>
fam ine</w>
fan cies</w>
fan ning</w>
fant astic</w>
farm land</w>
fashi on
fat ally</w>
fathom able</w>
favour ite</w>
fe ast</w>
fe b</w>
fe isal</w>
fe sted</w>
fe tching</w>
feat uring</w>
feder ations</w>
fee ble</w>
fel la</w>
fem in
fer dishenko</w>
fer gan
fer v
fergan a</w>
fertili zers</w>
ff man</w>
ff y</w>
fi a</w>
fi z</w>
fif teenth</w>
fig ured</w>
firm ware</w>
fix ing</w>
fl an
fl ash
fl attered</w>
fl in
fl ing</w>
fl ur
flav or</w>
flex ible</w>
fli r
flo wn</w>
flu ctuations</w>
flu id</w>
flu x</w>
fo am</w>
fo iled</w>
fo li
fo ren
fo s
foc al</w>
fol ly</w>
follow ers</w>
food stu
foodstu ffs</w>
for bid</w>
for getting</w>
for k</w>
for ks</w>
for t
form ulation</w>
fort night</w>
foun ding</w>
found ations</w>
fr action</w>
fra ud</w>
frac tal</w>
frag ile</w>
frag ments</w>
fre edoms</w>
fre el
fre ely</w>
fre ight</w>
fresh ly</w>
fri ed</w>
fri g
fro st</w>
fro wning</w>
fro ze</w>
fu kus
fugi tives</w>
fukus him
fukushim a</w>
ful filling</w>
fun er
function ing</w>
fundament alist</w>
fur iously</w>
fur s</w>
furn ace</w>
g ag
g ah</w>
g anda</w>
g aps</w>
g av
g el</w>
g ent</w>
g g</w>
g inger</w>
g low</w>
g no
g oman</w>
ga it</w>
ga watts</w>
gad ish
gadish u</w>
gal a</w>
gal leys</w>
gam bling</w>
gan g</w>
gan i</w>
gar age</w>
gar bage</w>
gas es</w>
gay er</w>
ge tically</w>
gen eous</w>
gen eva</w>
gen ic</w>
gener ating</w>
genu inely</w>
geome tric</w>
gh ani</w>
gh orn</w>
gh tily</w>
gim li</w>
girl friend</w>
gl are</w>
glas go
glasgo w</w>
go p</w>
go ssi
gol d
good will</w>
gor ny
gorny i</w>
gossi p</w>
gover ning</w>
gra vely</w>
gra w
gra zia</w>
grad er</w>
gradu ated</w>
grand fathers</w>
gras p</w>
great ness</w>
green house</w>
gri m
gri m</w>
gri pping</w>
gro cery</w>
grou ped</w>
gu ese</w>
gu mm
guil t</w>
gul p</w>
gumm idge</w>
h ating</w>
h end</w>
h iss</w>
h it
h n
h on</w>
h ra</w>
h tt
h u</w>
h z</w>
ha bit
ha bits</w>
ha fiz</w>
ha gue</w>
ha mp
ha re
ha ul</w>
ha v
ha ve
haj i</w>
hal l
hal ted</w>
hand writing</w>
haq q
haqq ani</w>
har am</w>
har t</w>
hard ness</w>
haz ardous</w>
haz ards</w>
he ap</w>
heal ed</w>
hear se</w>
hel met</w>
hen ce
here after</w>
hero ic</w>
hi da</w>
hi r
hi ring</w>
high lighted</w>
his pan
ho stage</w>
ho t
ho ward</w>
hobb it</w>
hol low</w>
hol ly</w>
hom a</w>
hom ais</w>
hom o
hoo ded</w>
hop elessly</w>
hor m
hor rors</w>
hor sem
hosti le</w>
hosti li
hostili ties</w>
ht ley</w>
htt ps</w>
hu d</w>
hu gh</w>
hu mili
hu stling</w>
hun gar
hun gary</w>
hy brid</w>
hydr o</w>
i g</w>
i ousness</w>
i y
ibra imov</w>
ic c</w>
ic ks</w>
ici ary</w>
ick ering</w>
id ated</w>
id entally</w>
id entical</w>
ide o
identi fier</w>
identi ties</w>
idi ot</w>
ie ds</w>
ig ni
igni tion</w>
ignor ing</w>
il es</w>
ill icit</w>
illiter ate</w>
illu sions</w>
illumin ated</w>
im ana</w>
im migrants</w>
im passive</w>
im peri
im pris
imag in
immun e</w>
impor ter</w>
impres sions</w>
impris oned</w>
impro per</w>
impul se</w>
in comes</w>
in consistent</w>
in descri
in different</w>
in directly</w>
in dispensable</w>
in duc
in effective</w>
in finite</w>
in human</w>
in num
in ny</w>
in ov</w>
in sa
in sight</w>
in stan
in the</w>
inc iner
inc iting</w>
inc t</w>
incomprehen sible</w>
incorpor ated</w>
incre dibly</w>
indi genous</w>
indones ian</w>
industri alized</w>
ine yards</w>
inf requ
infer ior</w>
infer nal</w>
influ enced</w>
influ ential</w>
inform ational</w>
inform ing</w>
ing town</w>
inj ections</w>
inno cence</w>
innum erable</w>
inspec tors</w>
install ation</w>
instinc tively</w>
institu tional</w>
instruc ted</w>
insul ation</w>
insul t</w>
insul ting</w>
insul ts</w>
insur gency</w>
int ently</w>
integr ating</w>
intensi fied</w>
inter acting</w>
intermedi ary</w>
interv als</w>
interv ening</w>
intric ate</w>
introduc ing</w>
intu ition</w>
inv ented</w>
inv oke</w>
invest or</w>
investig ator</w>
invisi bility</w>
iq bal</w>
ir matov</w>
ir re
is a</w>
is hable</w>
is o</w>
is syk</w>
ish ers</w>
ish ly</w>
isi ans</w>
ist a</w>
it ability</w>
it ably</w>
it an</w>
it s
it ti
ith standing</w>
itti had</w>
iz a</w>
iz ations</w>
j ake</w>
j alo
j aw
j az
j ective</w>
j eff
j ing
j ir
j olly</w>
ja z</w>
jacqu es</w>
jalal abad</w>
jeal ousy</w>
jem ima</w>
jer k</w>
jer ked</w>
john ny</w>
ju an</w>
ju stly</w>
jud iciary</w>
jun k</w>
justi fied</w>
juven ile</w>
k a
k am</w>
k as
k icking</w>
k it</w>
k out</w>
k rem
k ri</w>
k yo
kal andarov</w>
kal ash
kam al</w>
kazakh s</w>
kazakh st
kazakhst ans</w>
ke enly</w>
ke ith</w>
kee pers</w>
ker ry</w>
ker ton</w>
kev in</w>
key stone</w>
kh ouse</w>
kha y
khali fa</w>
khar tou
khartou m</w>
khor og</w>
kni g</w>
knit ting</w>
kno tted</w>
kof i</w>
kon stan
kru ger</w>
ku lov</w>
kur di
l ace</w>
l ag
l akes</w>
l ati
l en</w>
l endent</w>
l eness</w>
l ls</w>
l r
l ush</w>
l vo
la bel</w>
la homa</w>
la p</w>
la sting</w>
la v
la wed</w>
lab eled</w>
lam bs</w>
laun ches</w>
laun dry</w>
law rence</w>
lay out</w>
le aks</w>
le field</w>
le gged</w>
le is
le ton</w>
le ver</w>
le y
leap ed</w>
leap ing</w>
leap t</w>
legen dary</w>
leon ardo</w>
lev eled</w>
li a</w>
li bel</w>
li mp
li ver</w>
liber als</w>
ligh ting</w>
lim p</w>
lin e
lin ear</w>
lin ess</w>
lin ux</w>
ling ered</w>
list ens</w>
lithu ania</w>
liv ni</w>
ll able</w>
lo ads</w>
lo go</w>
lo yev</w>
loc ally</w>
lon eliness</w>
lon ging</w>
loo kout</w>
loo p</w>
lou der</w>
low ick</w>
lux ur
luz hin</w>
ly ari</w>
ly dia</w>
ly n
m ack
m akh
m at</w>
m att
m ck
m d
m ice</w>
m my</w>
m ons</w>
m v</w>
m w
ma id
ma imana</w>
ma w
macro economic</w>
mad rass
magh re
main stream</w>
mak es
mal ay
mal i</w>
man eu
man gal</w>
man ian</w>
manufac tured</w>
manuscri pt</w>
mar jah</w>
mar ya</w>
mass acre</w>
mat ching</w>
mater nal</w>
maul vi</w>
maurit ania</w>
maz arin</w>
me gawatts</w>
me try</w>
mead ow</w>
measur able</w>
medi an</w>
medic ines</w>
mem bran
memor andum</w>
ment or</w>
mer ciful</w>
mer ged</w>
mer its</w>
mer we</w>
mess enger</w>
met aph
methodo logy</w>
metr e</w>
mi ties</w>
mic hel
mil ky</w>
mil l
mil ls</w>
min gora</w>
min i
min na</w>
minim al</w>
mir rors</w>
mir z
mirz o</w>
mis creants</w>
mis pricing</w>
mis sion
mix ture</w>
ml le</w>
mo aning</w>
mo b</w>
mo de
mo gadishu</w>
mo or</w>
mo ore</w>
mo ti
mo u</w>
moder n
moderni ze</w>
mon arch</w>
mon key</w>
mon ster</w>
mon t</w>
monu ment</w>
mor ale</w>
mor dor</w>
mor gan</w>
moroc co</w>
motiv ations</w>
mou st
mou th
mou ths</w>
moust ache</w>
mu sa
mu te</w>
mu tters</w>
muja hi
multi p
multi tude</w>
mun ic
mur dstone</w>
murmur s</w>
mus h
mus ician</w>
mv d</w>
mw cnts</w>
n akedness</w>
n ant</w>
n asser</w>
n ate</w>
n avoi</w>
n ay</w>
n dp</w>
n els</w>
n ina</w>
n ished</w>
n ison</w>
n uns</w>
n wfp</w>
na il</w>
na ive</w>
na j
na st
nab il</w>
nabl us</w>
nam ing</w>
nas a</w>
nas r</w>
nation ality</w>
ne ath</w>
ne ts</w>
ne ys</w>
nec ks</w>
need le</w>
negl ected</w>
neighbor hoods</w>
neighbor ing</w>
net anyahu</w>
net working</w>
neu ro
neutr al</w>
ni ger</w>
ni gger</w>
niger ia</w>
night mare</w>
nine teen</w>
nit rate</w>
nitro gen</w>
no bility</w>
no dding</w>
no ds</w>
no stro
no table</w>
no tw
nom inated</w>
nostro mo</w>
note book</w>
note worthy</w>
noti fication</w>
notw ithstanding</w>
nov elty</w>
nov ru
now adays</w>
nur istan</w>
nur sed</w>
nur ser
nur sultan</w>
nur ture</w>
nurser y</w>
o aks</w>
o ch</w>
o dd
o de</w>
o g
o il
o is</w>
o ve</w>
o we</w>
ob esity</w>
obe y</w>
observ ance</w>
occup ies</w>
occurren ces</w>
off ended</w>
off set</w>
off shore</w>
ok lahoma</w>
ol ine</w>
oli via</w>
om er
om munic
om ni
on ary</w>
on ged</w>
on i</w>
on ian</w>
on ne</w>
op pressed</w>
open ings</w>
oper ation
oper ator</w>
optimi zed</w>
or angi</w>
or ating</w>
or bits</w>
or chest
or dering</w>
or derly</w>
or gan</w>
organ ise</w>
orph ans</w>
os a</w>
ot out</w>
ou attara</w>
oun dly</w>
our se</w>
out lawed</w>
out puts</w>
out standing</w>
outw ard</w>
ov ers</w>
ov o</w>
over coming</w>
over sight</w>
ow ls</w>
p ag
p ained</w>
p d</w>
p i</w>
p iled</w>
p light</w>
p om
p oul
p s
p to
pa olo</w>
pac ed</w>
pac es</w>
pac king</w>
pack ingtown</w>
pain tings</w>
pal lid</w>
pal ms</w>
par as
par son
paragrap h</w>
paraly zed</w>
paramil itary</w>
parson age</w>
parti cles</w>
parti tion</w>
pat ched</w>
pat ted</w>
pat ty</w>
patri otic</w>
patron izing</w>
pav ement</w>
pe tun
peac efully</w>
pen al</w>
pen n
pen sion</w>
pend ulum</w>
per cy</w>
per ish</w>
per kins</w>
per pe
per pend
per ry</w>
per spir
per t</w>
per ver
perce pti
perce ptions</w>
performan ces</w>
peri o
perman ently</w>
persist ent</w>
petrov itch</w>
petun ia</w>
ph y</w>
pharmaceu tic
pharmaceutic als</w>
phenomen a</w>
phoen ix</w>
photo grapher</w>
phr ase</w>
phys ician</w>
pic king</w>
pig s</w>
pilgri ms</w>
pill ars</w>
pin kerton</w>
pist ols</w>
pl anners</w>
pl ates</w>
pl au
pl ural</w>
plan ets</w>
plan ks</w>
plat forms</w>
pleas antly</w>
pleas ing</w>
plic ation</w>
plu cked</w>
po ems</w>
po ets</w>
po ison</w>
po ta
po tions</w>
po well</w>
pol ina</w>
pol ished</w>
polic ing</w>
politici an</w>
poly gam
por ter</w>
por trait</w>
port able</w>
portu guese</w>
pose dly</w>
poss essing</w>
postp one</w>
pota to</w>
pow der</w>
pp o</w>
pr t</w>
pra ising</w>
pra yed</w>
pra ying</w>
pre ach</w>
pre dec
pre ferred</w>
pre hend</w>
prece ded</w>
predic table</w>
predic tion</w>
pres enting</w>
prescri bing</w>
preser ved</w>
prev ents</w>
prevent able</w>
pri ze</w>
pri zed</w>
prin ted</w>
prin ts</w>
privati zation</w>
privile ge</w>
pro pen
produc es</w>
promp tly</w>
propag ation</w>
propor tion
propor tions</w>
propos es</w>
prosp erous</w>
prospec ts</w>
prote in</w>
prote st
prote sted</w>
prov oked</w>
provid ence</w>
psycho logy</w>
pu mp
pu pp
publ ish</w>
pun ch</w>
pun ish</w>
punj abi</w>
purcha ses</w>
q ari</w>
q azi</w>
qat ari</w>
qu er</w>
qu il</w>
quali fications</w>
quar ry</w>
quar t
quarre l</w>
quarrel led</w>
quart et</w>
quick er</w>
r ags</w>
r and
r att
r iley</w>
r inging</w>
r ings</w>
r or
r sul
ra f
ra fiq</w>
ra h
ra wling</w>
ra y
rac ed</w>
rac ing</w>
radio active</w>
ram p
ran som</w>
ranc or</w>
rash t</w>
rav ine</w>
re actions</w>
re assured</w>
re bel</w>
re build</w>
re eds</w>
re ferences</w>
re fined</w>
re fresh
re id</w>
re iter
re mor
re moving</w>
re open</w>
re plying</w>
re productive</w>
re shuff
re sig
re start</w>
re sts</w>
re tained</w>
re taining</w>
re tention</w>
re tor
re tro
re warded</w>
re wards</w>
rec tion</w>
rec y
recei ver</w>
recipi ents</w>
reck on</w>
reco vering</w>
recommend ation</w>
recru it</w>
ref using</w>
refl ects</w>
reg ards</w>
regres sion</w>
rehabil itation</w>
rej ecting</w>
rel ates</w>
rel ating</w>
rela x</w>
reluc tance</w>
rem ain
rem itt
reme dy</w>
ren aud</w>
ren ted</w>
rep ent
rep ul
repe ats</w>
repu di
requi rement</w>
resem blance</w>
resem bles</w>
reshuff le</w>
resi dual</w>
resi dues</w>
resol ute</w>
resp lendent</w>
restor ing</w>
restra ined</w>
resu me</w>
retri eve</w>
revis ed</w>
ri ghtly</w>
ri m</w>
ri pping</w>
ri v
ri veted</w>
ric hard</w>
ric o</w>
ris king</w>
ro ars</w>
ro bbed</w>
ro bbing</w>
ro be</w>
ro bo
ro chester</w>
ro cking</w>
ro m</w>
ro ot
ro pes</w>
ro s
ro w
ro za</w>
rol ler</w>
rom ney</w>
roman tic</w>
rosto vs</w>
rsul a</w>
ru bbed</w>
ru de</w>
ru ins</w>
ru pert</w>
rum our</w>
run k</w>
run ner</w>
rush ing</w>
russi ans</w>
rw anda</w>
s ance</w>
s can</w>
s cro
s essions</w>
s ful</w>
s log
s lot</w>
s lov
s ms</w>
s r
s son</w>
s words</w>
s worn</w>
sa adi</w>
sa fer</w>
sa il</w>
sa in
sa j
sa meh</w>
sa u
sa un
sa x
sacrific ed</w>
sacrific es</w>
safe guard</w>
sal ah</w>
sal im
sam i</w>
sam pling</w>
saman tha</w>
san e</w>
sarcas tically</w>
sc rap</w>
scal es</w>
schedul es</w>
school ing</w>
sco tch</w>
scru ples</w>
se aling</w>
se gment</w>
se gments</w>
se wing</w>
secur ing</w>
seis mic</w>
seiz ure</w>
sel fish
sel im</w>
sel ler</w>
sel ls</w>
sem i
sem ic
sen ds</w>
sensi tivity</w>
sentin el</w>
sequ ences</w>
ser en
ser ene</w>
ser mon</w>
serge y</w>
serp ent</w>
serv ic
seven teen</w>
sh ari
sh iny</w>
sh runk</w>
sh y</w>
sha fts</w>
sha kes</w>
sha m
sha r</w>
shar mila</w>
she er</w>
shel f</w>
shel ls</w>
shel ter</w>
shel tered</w>
sher man</w>
shi mm
sho e</w>
sho otout</w>
shop keeper</w>
shor ter</w>
shre w
shri v
shu tters</w>
shud der</w>
si blings</w>
si p</w>
si veness</w>
sid ed</w>
simp li
simpl er</w>
sin o</w>
sing apore</w>
situ ated</w>
sl ammed</w>
sla ying</w>
sle ek</w>
slo pe</w>
slo ven
slow ed</w>
slow er</w>
sm ashed</w>
sm ol
sn r</w>
snat ch</w>
sni ffed</w>
so ap</w>
so o
soci o
sol itude</w>
solem nly</w>
soli darity</w>
solic itor</w>
som ali</w>
son dra</w>
sovere ign</w>
sp illed</w>
sp in
sp inning</w>
sp rawling</w>
speak ers</w>
spec ters</w>
speci fication</w>
specim ens</w>
spectr al</w>
spher es</w>
spo il</w>
spor ting</w>
sprin ted</w>
squ ads</w>
squ ir
squ ire</w>
st ables</w>
st amm
st atic</w>
st ating</w>
st out</w>
staff ers</w>
stan ley</w>
star ved</w>
ste aling</w>
ste ep</w>
ste er</w>
ste ph
ste ward</w>
ster eo
sti l
sti r</w>
stic ky</w>
stiff ness</w>
stir red</w>
stor my</w>
str ad
str anded</w>
stra ightened</w>
stra ined</w>
strate g
stre am
stre tches</w>
stre tching</w>
stre wn</w>
stri de</w>
stri pes</w>
stro kes</w>
strongh old</w>
struc tural</w>
strugg led</w>
stu art</w>
stu ffed</w>
stub born</w>
su ited</w>
su r</w>
su res</w>
su zie</w>
sub mitting</w>
sub tle</w>
sub urban</w>
substitu te</w>
sugges tion</w>
sun k</w>
sup posedly</w>
supersti tious</w>
supervis e</w>
supervis ed</w>
supervis or</w>
sur faces</w>
sur ged</w>
sur prising</w>
surren dering</w>
survi ving</w>
suscepti ble</w>
sust ain</w>
sw ayed</w>
sw er
sw ine</w>
sw ir
swa thed</w>
swal low</w>
swe den</w>
swit ching</w>
sym bol
sym bols</w>
symbo lic</w>
t anya</w>
t ape</w>
t ch
t ling</w>
t mt</w>
t p</w>
t st</w>
t ush
ta h</w>
ta i</w>
tac tics</w>
tak aful</w>
tal ents</w>
tal es</w>
tan z
tanz ania</w>
tari q</w>
tashi yev</w>
te ase</w>
teen age</w>
tel ler</w>
telec ommunic
tem pered</w>
tem ples</w>
ten ant</w>
ten ham</w>
termin ate</w>
terr ors</w>
terri bly</w>
testi fied</w>
tex t
th ailand</w>
th ence</w>
th est</w>
th is
th under</w>
th y
the ast</w>
the or
the ore
ther mal</w>
thick ness</w>
thir ds</w>
thir teenth</w>
thom p
thor n
thor ough</w>
thou se</w>
though tful</w>
thr ashed</w>
ti a</w>
ti le
ti re</w>
tic es</w>
tic ism</w>
tic k
tic kets</w>
til ney</w>
tire some</w>
tit led</w>
tit les</w>
to es</w>
to go</w>
to s</w>
tom b</w>
tom bs</w>
ton ks</w>
tor nad
tor tured</w>
tox ic</w>
tr amp</w>
tr ashcan</w>
tr au
tr in</w>
tr o</w>
tra its</w>
trac tion</w>
tranquill ity</w>
trans form
trans former</w>
transpor ted</w>
tri fle</w>
tri fles</w>
tri ps</w>
trigg ered</w>
trium phs</w>
tro t</w>
troubl es
tru sted</w>
tru sting</w>
trun ks</w>
tt i</w>
tu rer</w>
tum or</w>
tun nels</w>
tur b
tur bul
turk estan</w>
turkmen bashi</w>
turn key</w>
tw ist</w>
ty r</w>
u a</w>
u ality</w>
u ded</w>
u ely</w>
u ganda</w>
u pri
u rely</w>
ul es</w>
ul timate</w>
ule ma</w>
un aware</w>
un believ
un certainly</w>
un comfortably</w>
un commonly</w>
un disturbed</w>
un expectedly</w>
un fathomable</w>
un folded</w>
un folding</w>
un hcr</w>
un ic</w>
un ite</w>
un le
un named</w>
un safe</w>
un satisfactory</w>
un seen</w>
un sure</w>
un ting</w>
un veiled</w>
un welcome</w>
under going</w>
under gone</w>
under ing</w>
under neath</w>
under taking</w>
understand able</w>
ur bek</w>
ur bino</w>
urg ently</w>
us d</w>
us her</w>
usa ge</w>
utili ties</w>
v ector</w>
v icious</w>
v inc
v ineyards</w>
v ista</w>
v om
v y
vag uely</w>
vakh sh</w>
val e</w>
vari ation</w>
vau quer</w>
vau trin</w>
ve gas</w>
ve il</w>
ve in</w>
ver anda</w>
ver non</w>
ver te
ver tical</w>
vex ation</w>
vex ed</w>
vi e</w>
vi g
vi gil</w>
vi gorous</w>
vi o
vi v
vi vid
vic inity</w>
vic tor</w>
vie tnam</w>
vie wer</w>
vie wing</w>
vill agers</w>
vin cy</w>
viol ated</w>
viol ently</w>
virgin ia</w>
vis i
vo id</w>
vo ws</w>
voc abulary</w>
voc ational</w>
volati le</w>
vulner abilities</w>
w aged</w>
w ick</w>
w icket</w>
w ist
w ns</w>
w ounding</w>
w rec
w right</w>
wa il</w>
wa ist</w>
wa iter</w>
wa j
wa stes</w>
waf d</w>
wal ker</w>
wal led</w>
wan a</w>
wan g</w>
war a</w>
war dness</w>
war i</w>
war ily</w>
war ns</w>
war rant</w>
ware house</w>
water fall</w>
waz ir</w>
we arily</w>
we ars</w>
we ep</w>
we ster
weak en</w>
weak ened</w>
wel coming</w>
wel sh</w>
whe elchair</w>
whis ky</w>
whis pering</w>
whis pers</w>
who ever</w>
wholes ale</w>
wick ham</w>
wid ened</w>
win ds</w>
win ner</w>
win s</w>
wo o</w>
wo ol</w>
wo w</w>
work shops</w>
worl dly</w>
woul dnt</w>
wr ink
wri ggle</w>
wy n</w>
x on</w>
y l</w>
y un
yas in</w>
yaw ning</w>
ye d
yel ling</w>
yem en</w>
youn gest</w>
z abul</w>
z ad</w>
z ag
z b
z en
za c</w>
zhum atov</w>
zi onist</w>
0 01</w>
1 11</w>
1 17</w>
1 200</w>
10 1</w>
10 4</w>
10 9</w>
14 3</w>
18 15</w>
18 5</w>
19 0</w>
19 47</w>
19 58</w>
196 2</w>
196 7</w>
197 5</w>
197 7</w>
198 2</w>
198 9</w>
2 3
2 35</w>
2 44</w>
26 2</w>
26 4</w>
3 03</w>
3 20</w>
3 60</w>
5 07</w>
7 2</w>
7 7</w>
8 2</w>
8 60</w>
a gha</w>
a it
a qu
a sting</w>
a the
a thetic</w>
a thing</w>
a ths</w>
a us
a waited</w>
ab ag
ab ated</w>
ab ayev</w>
ab bas
ab bing</w>
ab bling</w>
ab dallah</w>
ab ide</w>
ab la
ab normal</w>
ab ol
ab omin
ab ru
abag ail</w>
aband on</w>
abdul la</w>
abil ia</w>
abla ze</w>
abru pt</w>
absor b</w>
ac ha
ac ids</w>
ac om
ac ou
acc ess
access ories</w>
accompl ices</w>
accoun ted</w>
accru als</w>
accu sation</w>
ach a</w>
ach ers</w>
ach mann</w>
ach na</w>
acknowle dged</w>
acqu isi
acquisi tion</w>
activ ated</w>
ad ar</w>
ad ata</w>
ad b</w>
ad here</w>
ad jour
ad li</w>
ad nan</w>
ad ul
ad words</w>
ad z
adap tive</w>
addi tive</w>
addic ts</w>
ade pt</w>
adel phi
adelphi a</w>
adequ ately</w>
adi er</w>
adju st
adju sting</w>
adju tor</w>
admir ingly</w>
adoles cence</w>
adop ting</w>
adv anc
advanc ement</w>
advent urer</w>
adver se</w>
advis or</w>
advis ors</w>
advis ory</w>
aer ob
aerob ic</w>
af ea</w>
af ford
af ing</w>
aff lu
affir m</w>
afford able</w>
after ward</w>
ag afea</w>
ag ath
ag ile</w>
ag itated</w>
agath a</w>
aggres sively</w>
agon ized</w>
agr ation</w>
agre eing</w>
ah l</w>
ah mar</w>
ai ff</w>
ail ments</w>
ail ov</w>
aim on</w>
ain e</w>
ain ly</w>
air planes</w>
ais sance</w>
ak aba</w>
ak hel</w>
ak hi
ak il</w>
ak y</w>
al an
al b
al bu
al den</w>
al ec
al ken
al lam</w>
al ness</w>
al ous</w>
al ph
al tar</w>
al ya</w>
alab ama</w>
alb any</w>
ale ppo</w>
alec tic</w>
ali e</w>
ali ght</w>
ali zing</w>
allow ance</w>
alzheim er</w>
am an</w>
am ar
am bar
am bush</w>
am en
am end</w>
am ic
am ids</w>
am in
am ins</w>
am is</w>
am o</w>
am our</w>
am pl
am ple</w>
am u
amar anta</w>
amaz ingly</w>
ambi ent</w>
ambi gu
ampl itude</w>
an as</w>
an ato
an ba</w>
an ce
an do
an ean</w>
an in</w>
an ity</w>
an o
an or</w>
an tec
an war</w>
analo gy</w>
analy ze</w>
anato ly</w>
anc ell
anc ou
anc ying</w>
ancell or</w>
ancou ver</w>
and alu
and ers</w>
ang aro</w>
ang les</w>
angel o</w>
anim ously</w>
announ ces</w>
ans ar
ans ch</w>
ant ars</w>
antec ed
anten na</w>
anthro p
anticip ation</w>
anton ia</w>
any how</w>
ap ache</w>
ap pren
ap ron</w>
ap shot</w>
ap ti
apar te</w>
apo lo
app li
app lies</w>
appar at
apparat us</w>
appoint ments</w>
appro ving</w>
ar amis</w>
ar av
ar b
ar ching</w>
ar iness</w>
ar ing
ar ised</w>
ar ises</w>
ar ish</w>
ar ities</w>
ar k</w>
ar mature</w>
ar me</w>
ar ned</w>
ar osa</w>
ar ra
ar row</w>
ar tem
ar tery</w>
arch ie</w>
archaeo logists</w>
archit ects</w>
are tz</w>
aren ko</w>
argent ina</w>
argent ine
argentine an</w>
aring arosa</w>
arist ot
aristot le</w>
arith me
arithme tic</w>
arm our</w>
armen ia</w>
armor ed</w>
arra yed</w>
arre sting</w>
arri ves</w>
arro ws</w>
art ful</w>
arti facts</w>
as ad</w>
as b</w>
as hev</w>
as ies</w>
as much</w>
as riel</w>
ash ings</w>
ash raf</w>
ass roots</w>
assass inated</w>
assem ble</w>
assess ing</w>
assi m</w>
assign ment</w>
assign ments</w>
astr onom
at az</w>
at ra</w>
at tic</w>
at y
ater ally</w>
ater ials</w>
ath el
athel ny</w>
athle te</w>
ati st</w>
atic al</w>
atmo spher
atmospher ic</w>
atol lah</w>
aton in</w>
atri c</w>
atro cities</w>
atten dants</w>
atten de
atten ed</w>
atten u
attor neys</w>
atul lo</w>
au ction</w>
au da</w>
au s</w>
au st
au x</w>
audi ences</w>
aust ere</w>
auster lit
austerlit z</w>
automob ile</w>
autonom y</w>
av dot
avdot ya</w>
avo s</w>
ay atollah</w>
ay az</w>
ay eva</w>
ay man</w>
ayy um</w>
az am</w>
az ar</w>
az kab
az z
azi g</w>
azkab an</w>
b achmann</w>
b ade</w>
b ak</w>
b akh
b ates</w>
b av
b ble</w>
b c
b ds</w>
b end</w>
b har
b hu
b ic
b ind
b ir</w>
b itten</w>
b lah</w>
b oll
b ony</w>
b pm</w>
b pr</w>
ba ha
ba ik
ba il
bab ble</w>
bachel or</w>
back wards</w>
bad i</w>
baff led</w>
bail out</w>
bal ances</w>
bal let</w>
balo ch</w>
balti stan</w>
ban anas</w>
ban ha</w>
ban k
ban quet</w>
ban tering</w>
band ages</w>
band width</w>
bankru pt
bankrupt cy</w>
bar bar
bar bara</w>
bar cel
bar gaining</w>
bar king</w>
bar ou
bar r
bar thol
barcel ona</w>
bare foot</w>
barou che</w>
barthol ome
bartholome w</w>
bas e
bas har</w>
bas ics</w>
bas ker
base ball</w>
basker ville</w>
bat tered</w>
bath il
bathil da</w>
batt ali
batt ling</w>
be acon</w>
be arer</w>
be ars</w>
be dro
be th</w>
be tov</w>
be verage</w>
bear able</w>
bear ers</w>
beau cham
beau ties</w>
beaucham p</w>
bec ky</w>
bed side</w>
bedro oms</w>
beet les</w>
beg gar</w>
bel gi
bel l
bel lies</w>
belar u
belgi um</w>
belon gs</w>
ben evol
ben net</w>
benef icial</w>
ber ated</w>
ber gen</w>
besto wed</w>
bewil der
bewilder ment</w>
bhu tto</w>
bi as</w>
bi ased</w>
bi ds</w>
bil isi</w>
bil l
bil ling</w>
billi ard</w>
bin ds</w>
bin son</w>
bind ings</w>
bl essed</w>
bl est</w>
bl ink</w>
bl on
bl ond</w>
bl ouse</w>
bl ur</w>
bl ush</w>
bla sted</w>
bla zers</w>
blin ded</w>
bloc khouse</w>
bloo ded</w>
blossom s</w>
blu b
blur ted</w>
bo b</w>
bo g</w>
bo k</w>
bo so</w>
bo yev</w>
boar ding</w>
bol dly</w>
bol ted</w>
bol ts</w>
bom bar
bond age</w>
bond arenko</w>
boo sting</w>
book store</w>
borro wed</w>
bour n</w>
bout ro
boutro s</w>
bow ler</w>
box ing</w>
boyco tt</w>
br a</w>
br ag
br akes</w>
br ass</w>
br ush</w>
bra ver</w>
bracel ets</w>
braz ilian</w>
bre eches</w>
breath lessly</w>
bri be</w>
bri des
bri dle</w>
bri gad
bric ks</w>
brides maids</w>
brief ing</w>
brigad es</w>
bris k</w>
bro c
bro oms</w>
bru ise</w>
bu g</w>
bu st
bu ster</w>
bu yer</w>
bub ble</w>
bub bles</w>
budge ted</w>
buil ds</w>
bul ging</w>
bul lets</w>
bun yo
bunyo d
bunyod k
bunyodk or</w>
bur j</w>
bur sement</w>
bur sts</w>
bureaucr atic</w>
bus es</w>
bus hes</w>
bus tion</w>
but to
butto cks</w>
by tes</w>
c ain</w>
c ant</w>
c ers</w>
c essed</w>
c ine
c t</w>
c tt</w>
c ud
c yber</w>
ca ius</w>
ca usal</w>
ca ves</w>
cal li
cal or
calcul ate</w>
calcul ating</w>
cam p
cam ped</w>
cam ping</w>
cambo dia</w>
camer as</w>
camer on</w>
camp bell</w>
campaig ners</w>
campaig ning</w>
can cel</w>
can cell
can did</w>
cancel ed</w>
cancell ation</w>
cap ataz</w>
cap stan</w>
cap tive</w>
cap tures</w>
car gad
car lo</w>
car ni
car pen
car ras
cardin als</w>
care less</w>
carpen ter</w>
carras co</w>
cas ino</w>
cas sa
cas ually</w>
cassa va</w>
cat al
cat ter
catalo gue</w>
catastro phi
catastrophi c</w>
cau tious</w>
ce as
ce c</w>
ce p
celebr ity</w>
cem e
ceme tery</w>
centrifu ge</w>
cer am
cer eal</w>
cer ies</w>
cer pts</w>
certi fication</w>
ch a</w>
ch anced</w>
ch ancellor</w>
ch and
ch at</w>
ch en
ch u</w>
ch yard</w>
cha ined</w>
cha ired</w>
cha se</w>
cha vez</w>
chair person</w>
chal et</w>
chal k</w>
chan ted</w>
char ds</w>
char lo
char sadda</w>
character ize</w>
character ized</w>
charlo tte</w>
chasti sement</w>
chau ff
chauff eur</w>
che aper</w>
che ese</w>
check list</w>
cheer fulness</w>
chel event</w>
cher no
cherno byl</w>
chi pped</w>
chi ps</w>
child birth</w>
chin oy</w>
chir p</w>
chit os
chitos an</w>
cho ke</w>
choo ses</w>
chor us</w>
chron ic
chron ous</w>
cil essly</w>
cin dy</w>
cin em
cin ema</w>
cis g</w>
citiz en
citizen ship</w>
civil ity</w>
civil izations</w>
ck er</w>
ck ery</w>
ck le
ck les</w>
cl icked</w>
cl ung</w>
clari fication</w>
clas sic</w>
classi fied</w>
cle ars</w>
cle vel
clevel and</w>
cli ff
clo ck
clo cks</w>
cloth ed</w>
clou dy</w>
clu stering</w>
clu ttered</w>
clum sy</w>
co aches</w>
co adjutor</w>
co ck</w>
co effici
co her
co le
co oper</w>
co smo
co sta</w>
co ve</w>
co ver
co wardly</w>
co wards</w>
cock tail</w>
coeffici ents</w>
cogni tive</w>
coh en</w>
coher ent</w>
col der</w>
col dness</w>
col league</w>
col m</w>
col ors</w>
coll ars</w>
coll ision</w>
colo ss
colon ias</w>
coloss al</w>
com bed</w>
com bustion</w>
com e
com min
com plac
com pression</w>
com prise</w>
combat ting</w>
comm em
comm en
comm ons</w>
comman dant</w>
comman dn</w>
commem orate</w>
commen cement</w>
comment ator</w>
comment ators</w>
commin ges</w>
commis sions</w>
common place</w>
commun al</w>
comp act</w>
comp ul
compe tent</w>
compe ting</w>
compens ate</w>
compl ain</w>
complain t</w>
complic ations</w>
compu tation</w>
compul sory</w>
con dol
con du
con ferences</w>
con ferred</w>
con figure</w>
con fu
con s</w>
con sign
con sist</w>
con sp
con spir
con tri
conce ive</w>
conce ptions</w>
concentr ations</w>
concep tual</w>
condem nation</w>
condem ning</w>
condol ences</w>
conduc tor</w>
conf using</w>
confin ement</w>
confisc ate</w>
confron tation</w>
confu sions</w>
congratul ations</w>
congre ss
conjec tures</w>
conn la</w>
connec tivity</w>
conqu erable</w>
consci enti
conscienti ous</w>
consider ably</w>
consist ed</w>
consist ently</w>
consol ation</w>
const able</w>
constitu ency</w>
constra ined</w>
construc tive</w>
consu me</w>
consu ming</w>
consul t</w>
consul tative</w>
cont am
contemp tuously</w>
contempl ating</w>
contex ts</w>
contrad icts</w>
contradic tion</w>
contradic tions</w>
controver sy</w>
conv ul
conver ter</w>
cooper ative</w>
coordin ates</w>
cop tic</w>
cop y
copy right</w>
cor k</w>
cor related</w>
cor sa
cordi ally</w>
corpor al</w>
corri dors</w>
coss acks</w>
cou pled</w>
cough ed</w>
coul ter</w>
coun selling</w>
coun ting</w>
counter part</w>
cour sing</w>
cour ty
courte ously</w>
courty ard</w>
cr aning</w>
cr ate</w>
cr ates</w>
cr m</w>
cr ush</w>
cra p</w>
crack down</w>
craw l</w>
craw ling</w>
cre dible</w>
cre e
cre ep</w>
cre ev
cre ws</w>
cred itors</w>
cri m
cro aking</w>
cro ok
cro s
cro sses</w>
cro ws</w>
croati a</w>
crook shan
crookshan ks</w>
cross fire</w>
cross ings</w>
cru mbled</w>
crum pled</w>
crun cher</w>
cry pto
cu rement</w>
cul p
culpr its</w>
cultiv ate</w>
cun ning</w>
cup board</w>
cur ity</w>
cur l</w>
curricul um</w>
cus hi
cut backs</w>
cy clo
cy n
d al</w>
d ancers</w>
d ator</w>
d ave</w>
d avos</w>
d der</w>
d ell</w>
d ened</w>
d ine</w>
d ing
d oun
d st</w>
d well</w>
da e
da p</w>
dae woo</w>
daem on</w>
dam aging</w>
dan e</w>
dan ish</w>
dan vers</w>
dang ling</w>
dar ia</w>
dar nay</w>
dazz led</w>
de ar
de dly</w>
de duc
de ed</w>
de er</w>
de fi
de form
de hydr
de pl
de ple
de pot</w>
de stri
de taining</w>
de tro
de v</w>
deb ates</w>
dec ay</w>
dec e
dec ides</w>
dec on
dece itful</w>
decei ved</w>
decisi vely</w>
decon struction</w>
decor ated</w>
decreas ing</w>
def ensive</w>
defin ite</w>
defini tions</w>
defini tive</w>
degrad ation</w>
deli ver
deli veries</w>
deliber ate</w>
deliber ately</w>
delph i</w>
dem ent
dem oli
dement ors</w>
demol ished</w>
demoli tion</w>
demonstr ating</w>
den cies</w>
den mark</w>
den se</w>
dep icts</w>
depart mental</w>
der eg
der gar
der ings</w>
der oy</w>
dereg ulation</w>
des cent</w>
des ires</w>
des sert</w>
deser ts</w>
desir able</w>
dest ined</w>
destabil ising</w>
destro yer</w>
detain ee</w>
deteri orating</w>
detro it</w>
dev ils</w>
dev ised</w>
dev oured</w>
devast ation</w>
develop mental</w>
devi ating</w>
devi ation</w>
dha bi</w>
di alectic</w>
di ana</w>
di es
di gg
di gi
di mly</w>
di stances</w>
di um</w>
di ve</w>
diagno sis</w>
diarr ho
diarrho ea</w>
dic tionary</w>
dies el</w>
diff usion</w>
differ ential</w>
dig ger</w>
digg ory</w>
dil ap
dil emma</w>
dim med</w>
din er</w>
diplom at</w>
direc tional</w>
direc tive</w>
dis appearance</w>
dis appointed</w>
dis approved</w>
dis bursement</w>
dis c</w>
dis card</w>
dis closing</w>
dis comfort</w>
dis cour
dis course</w>
dis credit</w>
dis graceful</w>
dis gust</w>
dis like</w>
dis liked</w>
dis lodged</w>
dis missing</w>
dis orders</w>
dis pleasure</w>
dis posed</w>
dis respec
dis respect</w>
dis sem
dis sid
dis solved</w>
disco veries</w>
disco vering</w>
discre tionary</w>
discrimin ant</w>
discus ses</w>
disgu sted</w>
disper se</w>
disru pted</w>
distinc tions</w>
distr action</w>
distres sed</w>
div ide</w>
diver si
divid ends</w>
do d</w>
do e</w>
do i</w>
do in</w>
do om</w>
do te</w>
do va</w>
do zing</w>
dom en</w>
domes tically</w>
domes ticated</w>
don key</w>
door step</w>
dor a</w>
dor ovitch</w>
dormit ories</w>
dormit ory</w>
dou bles</w>
doub ted</w>
doun ia</w>
down fall</w>
dr agging</w>
dr ags</w>
dr ama</w>
dr ill</w>
dr illing</w>
dr o</w>
dra wer</w>
draw backs</w>
draw ings</w>
dre aming</w>
dre n
dread fully</w>
dren ched</w>
dro be</w>
dro go</w>
dro oping</w>
dro wned</w>
dru m</w>
du er
duc k</w>
duer son</w>
dul cine
dul ously</w>
dum bly</w>
dum k</w>
dum p</w>
dun no</w>
duplic ate</w>
dwar ves</w>
dwin dling</w>
dz hon</w>
dzha ma
dzhama at</w>
e ad</w>
e at
e av
e du
e era</w>
e g</w>
e go
e in</w>
e off</w>
e pan
e po
e w</w>
ear ch
ear ed</w>
ear nest</w>
earth en
earthen ware</w>
ec tively</w>
ec tors</w>
ec u
ech t</w>
echo ed</w>
echo es</w>
econom ist</w>
econom ists</w>
ecu ador</w>
ed din</w>
ed en</w>
ed ic
ed ingly</w>
ed itors</w>
ed mond</w>
edi tions</w>
editor ial</w>
educ ating</w>
eg al</w>
eigh teen</w>
el astic</w>
el dest</w>
el essness</w>
el ity</w>
el to</w>
ele phant</w>
elec tro
elim inated</w>
elim ination</w>
ell o</w>
ell on</w>
ell ous</w>
em ails</w>
em an
em en
em ently</w>
em i
embe zz
emphas ised</w>
empir ically</w>
emplo yers</w>
empt iness</w>
en bekov</w>
en by</w>
en chanting</w>
en closed</w>
en closure</w>
en do
en dum</w>
en force</w>
en forced</w>
en ka</w>
en sk</w>
en tran
en vo
en z
en zie</w>
enchant ment</w>
encla ve</w>
end all</w>
end less</w>
end ur
end ured</w>
endeav our</w>
endeav ouring</w>
endor sed</w>
endor sement</w>
endur ance</w>
ener gi
enor mand</w>
ent a</w>
ent e</w>
ent less</w>
ent ment</w>
ent ures</w>
enter tain</w>
enthusi ast</w>
enthusias tically</w>
enti als</w>
enti ation</w>
entre at</w>
entre aties</w>
entu cky</w>
envi ous</w>
environ ments</w>
ep id
ep ist
epis ode</w>
equi vocal</w>
er ably</w>
er ected</w>
er nie</w>
er o</w>
er p</w>
erup ted</w>
es h
es is</w>
es man</w>
es men</w>
es pace</w>
escap ees</w>
escap ing</w>
escor t</w>
escor ting</w>
essi e</w>
essi ties</w>
est one</w>
establ ishments</w>
estim ation</w>
eth n
ev ans</w>
ev i</w>
ev ils</w>
evacu ation</w>
evalu ating</w>
evol ved</w>
ex cerpts</w>
ex changes</w>
ex clude</w>
exagger ated</w>
exam ines</w>
exce eding</w>
exce edingly</w>
excell ence</w>
exclu ding</w>
execu ting</w>
exha ust</w>
expatri ate</w>
expl or
explan ations</w>
explo it</w>
expon ent</w>
expon entiation</w>
expres sive</w>
exten sions</w>
extra ordin
extrac ted</w>
extrac tion</w>
extraordin arily</w>
extravag ant</w>
ey re</w>
eye brow</w>
f ad
f agin</w>
f ancying</w>
f att
f bi</w>
f d
f da</w>
f en</w>
f in</w>
f ing</w>
f itt
f lock</w>
f p
f r</w>
f te
f tot</w>
fa res</w>
fa ther
fab r
fabr ics</w>
fac ade</w>
fac tion</w>
fac tual</w>
fail ures</w>
fain tly</w>
fair s</w>
faith fully</w>
fal tering</w>
false hood</w>
fan ned</w>
fant ine</w>
far amir</w>
far thing</w>
fashion able</w>
fat wa</w>
father land</w>
fati ma</w>
fau bourg</w>
fau chelevent</w>
fav ours</w>
favor able</w>
faz al</w>
faz l</w>
fe asted</w>
fe ather</w>
fea thers</w>
fel ic
fem to
femto cells</w>
fer mentation</w>
ferr ous</w>
fes to</w>
festiv als</w>
feu ding</w>
ff er</w>
ff ing</w>
fi achna</w>
fi ghts</w>
fi k</w>
fi q
fi replace</w>
fi xes</w>
figur ation</w>
fil mm
fil ter</w>
fil ters</w>
filmm aker</w>
fin ery</w>
fin ishes</w>
finan ces</w>
fing ering</w>
fish eries</w>
fl akes</w>
fl ashes</w>
fl ashing</w>
fl attened</w>
fl atter</w>
fl attering</w>
fl ess</w>
fl ickering</w>
fl inging</w>
fl our
fl ushing</w>
fl uttered</w>
fla p</w>
flan nel</w>
fle et</w>
flin ched</w>
flo at</w>
flo ated</w>
flo ats</w>
flor a</w>
flor ida</w>
flu ffy</w>
flu te</w>
flur ry</w>
fo es</w>
fo ols</w>
fo ster</w>
fol ders</w>
fol ds</w>
follow er</w>
for ging</w>
for go</w>
for sa
for ums</w>
fore front</w>
fore sts</w>
foren sic</w>
form ats</w>
form ly</w>
forman ts</w>
fortun ately</w>
fortun es</w>
fos sil
fou ad</w>
four teenth</w>
fr ith</w>
fra u
fra u</w>
fran kly</w>
fran tic</w>
fran tically</w>
franc is
francis co</w>
fre y</w>
freel ance</w>
french man</w>
fri ght
frig id</w>
fring e</w>
fron ti
fte gaz</w>
fu ck</w>
fu eled</w>
fu m
ful l
fum bling</w>
fundament als</w>
funer als</w>
furn ish</w>
fyo dor</w>
fyo dorovitch</w>
g ang
g ars</w>
g ations</w>
g aw
g ement</w>
g har</w>
g hassan</w>
g ings</w>
g la
g ore</w>
g ou
g w
g wine</w>
ga iety</w>
gab elle</w>
gab riel</w>
gal al</w>
galax ies</w>
gallo ping</w>
gan tly</w>
gar dens</w>
gar diner</w>
gar lands</w>
gar ment</w>
gar ments</w>
gas oline</w>
gau dy</w>
gau ge</w>
gav ro
gavro che</w>
gaz es</w>
gaz eta</w>
gaz prom</w>
ge ar</w>
ge m</w>
ge ons</w>
gen dar
gen es</w>
gene ity</w>
gene tic</w>
gener alized</w>
gener als</w>
gener ic</w>
gent leness</w>
geo graphy</w>
geome try</w>
geor ges</w>
geor gian</w>
gg ish</w>
gh op
gho sts</w>
ghop ir</w>
gi o
gi o</w>
gid plural</w>
gif fords</w>
gil bert</w>
gil deroy</w>
gil git</w>
gill enormand</w>
giv ings</w>
gl ared</w>
gl aring</w>
gl um
gle aming</w>
gli mmer</w>
glimp ses</w>
glit tering</w>
gn ant</w>
go b</w>
go j
go sla
go th</w>
goj in</w>
goo se
good man</w>
gover n</w>
gover ned</w>
gr abbing</w>
gr adi
gr assroots</w>
gr i</w>
gr o</w>
gr oun
gr unted</w>
gra ff</w>
gra ined</w>
grad y</w>
gram mar</w>
gran ite</w>
gran ting</w>
grand daughter</w>
grand son</w>
graph s</w>
gras ped</w>
grate fully</w>
grav el</w>
graw p</w>
gre ase</w>
gre ed</w>
gre et</w>
gren ade</w>
gren ades</w>
gri mly</w>
griev ances</w>
gro aning</w>
gro ceries</w>
gro ss
gro ssed</w>
gross ly</w>
gu el</w>
gu ise</w>
gu itar</w>
gu ly</w>
gu t
guine a</w>
gun do</w>
h echt</w>
h ill
h l
h ul
h ull</w>
ha ider</w>
ha iled</w>
ha ired</w>
ha irs</w>
ha san</w>
ha st</w>
ha ti
ha uran</w>
ha vo
ha ze</w>
hafe z</w>
hak im
hakim ullah</w>
hal ls</w>
hal ovna</w>
half way</w>
ham is</w>
hand ic
hang vi</w>
happ ier</w>
har assed</w>
har dy</w>
har k</w>
har ley</w>
har med</w>
har po
har ram</w>
harb our</w>
hard ened</w>
hare ton</w>
harm ful</w>
harpo one
harv ested</w>
hash ish</w>
hati bs</w>
havo c</w>
haz el</w>
haz rat</w>
hb v</w>
he aps</w>
he ater</w>
he ather</w>
he aved</w>
he avi
he brew</w>
he in
he ir</w>
he pt
he u
he ur
he y
head ings</w>
head less</w>
head master</w>
hear ty</w>
hect ares</w>
hem p</w>
hen ri</w>
hept ane</w>
hero es</w>
hes itations</w>
heu reu
heur istics</w>
heureu x</w>
hi j
hi ke</w>
hi ked</w>
hi ps</w>
hierarch ical</w>
high bury</w>
high way</w>
hil t</w>
hill ary</w>
hin dering</w>
hin ted</w>
hin ting</w>
hin ts</w>
hind ley</w>
his ticated</w>
hispan ics</w>
histor ian</w>
histor ians</w>
hm p</w>
ho ard</w>
ho ffman</w>
ho or
ho sting</w>
hom em
homo geneous</w>
hon orable</w>
hon oured</w>
hoo ks</w>
hop kins</w>
horiz on
horizon tal</w>
horm one</w>
horri bly</w>
horsem en</w>
hosp itable</w>
hospit ality</w>
host el</w>
hou ston</w>
house holds</w>
house keeper</w>
how ling</w>
ht ml</w>
hu ck</w>
hu gged</w>
hu gh
hum bly</w>
hum ming</w>
hun ted</w>
hun ters</w>
hungar ian</w>
hur dles</w>
hur rah</w>
hussa r</w>
hy ster
hy un
hydro carbon</w>
hypo theses</w>
hyun dai</w>
i ah</w>
i ard</w>
i est</w>
i i
i j</w>
i kh
i os</w>
i phone</w>
i ya</w>
ib lah</w>
ic h
ic ho</w>
ic ily</w>
ic o</w>
ic or
ici a</w>
ici ties</w>
id ate</w>
ide alistic</w>
ide ological</w>
ie f</w>
ig ned</w>
igh ton</w>
igh urs</w>
ign ite</w>
ih in</w>
ih san
ihsan ullah</w>
ij ani</w>
ikh wan
il er</w>
il ia</w>
il ly</w>
il ov</w>
il ush
illu sion</w>
illustr ate</w>
illustr ates</w>
ilush a</w>
im an</w>
im itation</w>
im mobil
im moral</w>
im mortal</w>
im pa
im parted</w>
im posing</w>
im possibility</w>
im pover
im press</w>
im ran</w>
imag ing</w>
imag ining</w>
imagin able</w>
imp elled</w>
impe ding</w>
implic ated</w>
import ation</w>
impres sed</w>
impro ves</w>
in asmuch</w>
in burg</w>
in conceivable</w>
in convenient</w>
in corporate</w>
in cub
in decent</w>
in direct</w>
in ery</w>
in ex
in explic
in ference</w>
in formants</w>
in fusion</w>
in ities</w>
in justice</w>
in patient</w>
in sights</w>
in sin
in take</w>
in tangible</w>
in ting</w>
inaugur ated</w>
inc itement</w>
inc um
inclu sion</w>
inconveni ence</w>
incre dulously</w>
incum bent</w>
incur red</w>
incur sions</w>
inde finitely</w>
indescri bable</w>
indi c</w>
indign ant</w>
indu ce</w>
iner t</w>
inev itably</w>
infl amed</w>
inform atics</w>
inher it</w>
inhi bited</w>
initi alization</w>
initi ated</w>
ink age</w>
ink ling</w>
inqu est</w>
inqu iring</w>
insa ti
insati able</w>
inscri ption</w>
insec t</w>
insin u
int act</w>
inte l</w>
integr al</w>
intel li
intelli gible</w>
inten ding</w>
inten tionally</w>
inter actions</w>
inter ce
inter faces</w>
inter lac
inter nationally</w>
inter ven
interest ingly</w>
interpre ter</w>
interro gation</w>
interv ened</w>
intim acy</w>
intim idation</w>
intri gu
intru sted</w>
inv ade</w>
inv alid</w>
inv ari
inv ites</w>
inv iting</w>
invol un
involun tarily</w>
ip d</w>
ir atory</w>
ir dzhon</w>
ir fan</w>
ir ony</w>
ir regular</w>
is earch
is er</w>
is ers</w>
is il</w>
is ma
is mo
isma el</w>
issu ance</w>
it ate</w>
it case</w>
it u</w>
iter ations</w>
iv y</w>
j ad
j agged</w>
j ail
j ar
j hangvi</w>
j ill</w>
j im
j om
j ose</w>
j p</w>
j s</w>
ja iled</w>
ja ish</w>
ja ved</w>
jalo zai</w>
jam al</w>
jam s</w>
jan ov</w>
je ering</w>
je wel
jen ny</w>
jer icho</w>
jer ry</w>
jewel ry</w>
jir ga</w>
jo anna</w>
jo s</w>
jo stled</w>
jo vial</w>
jour n
journ als</w>
ju lie</w>
jud ged</w>
jud ging</w>
jud y</w>
juli en</w>
jum ble</w>
jun gle</w>
jur ed</w>
juris prudence</w>
jus tices</w>
justi fication</w>
justi fy</w>
k ah
k ak
k antars</w>
k aren</w>
k at</w>
k av
k b</w>
k entucky</w>
k ering</w>
k hamis</w>
k han
k ingly</w>
k lip
k nu
k rep
k se</w>
k t</w>
k tor</w>
k ud
k w</w>
kad o</w>
kar ate</w>
kar i</w>
kar rou
karrou bi</w>
kash mir
kash mir</w>
kasy mov</w>
kater inburg</w>
kay ani</w>
kaz an</w>
kaz tag</w>
kazakhstan is</w>
ke dness</w>
ke en
ke es</w>
ke ter</w>
kenne dy</w>
key board</w>
key map</w>
kh ol
kh on</w>
kha ki</w>
kha men
khali fa
khat lon</w>
kidn apping</w>
kil ler</w>
kilome ters</w>
kin ase</w>
kin dergar
kind led</w>
king s
king ston</w>
kn elt</w>
kne ftegaz</w>
knit ted</w>
kno wed</w>
knu ckles</w>
ko z
ko zy</w>
konstan tin</w>
kor an</w>
kru m</w>
kurdi stan</w>
l ame</w>
l ass</w>
l ings</w>
l ise</w>
l ude</w>
l ull</w>
l ur
l us
l ut
l wind</w>
la k</w>
la undering</w>
la v</w>
lab els</w>
lab s</w>
labor atory</w>
labor ers</w>
lad s</w>
lak eman</w>
lam b</w>
lan ding</w>
lan dow
lan kan</w>
land au</w>
land lord</w>
land slide</w>
lands cap
lat or</w>
law ney</w>
le af
le aking</w>
le ash</w>
le en</w>
le mentary</w>
le th
le x</w>
lea ther
lear ns</w>
lec tures</w>
leg alise</w>
leg ol
legol as</w>
leis ure</w>
leng ths</w>
leon ard</w>
less en</w>
lev y</w>
ley ball</w>
li ability</w>
li able</w>
li ar</w>
li dia</w>
li me</w>
li que
li ver
li z
li zzy</w>
libr aries</w>
licen ses</w>
life style</w>
likeli est</w>
lil ac</w>
lin da</w>
line age</w>
liqu idating</w>
lique fied</w>
lis sy</w>
list en
lit tering</w>
liter ary</w>
liver pool</w>
lo afing</w>
lo athing</w>
lo bb
lo fur</w>
lo oming</w>
lo op
lo p
lo pe
lo re
lo va</w>
loc ate</w>
loc k
loc ust</w>
log ar</w>
log in</w>
log ne</w>
lon gest</w>
long bourn</w>
loo kers</w>
loop holes</w>
lop sided</w>
lope z</w>
lor n</w>
lou d
lou isa</w>
lov sky</w>
lr h</w>
luc kily</w>
luci e</w>
luci en</w>
lum p</w>
lum ps</w>
lut ful
lux em
lvo v</w>
lyn ch</w>
m acqu
m ally</w>
m ama</w>
m apping</w>
m ask</w>
m au
m b
m c</w>
m ellis</w>
m its</w>
m n
m ole</w>
m oul
m ound</w>
m pt</w>
m ri</w>
m w</w>
ma bel</w>
ma h</w>
ma her</w>
ma iled</w>
ma ize</w>
ma je
mach inery</w>
madrass as</w>
maghre bi</w>
mah mood</w>
maj es
mak e
mal ad
mal nutrition</w>
mal ware</w>
malay sia</w>
mali gnant</w>
mam ad
man chester</w>
man ghopir</w>
man i</w>
man so
man sour</w>
mani fested</w>
mani festo</w>
mani ya</w>
manipul ation</w>
mann heim</w>
manuscri pts</w>
mar fa</w>
mar ov</w>
mar qu
mar tha</w>
mar tin
mar tyr</w>
mar wat</w>
mar yan
marqu is</w>
martin i</w>
marv ellous</w>
maryan n</w>
mas on</w>
mat ova</w>
mat the
mat ullah</w>
mat urely</w>
matthe w</w>
maxim izing</w>
maz ar</w>
maz e</w>
mc gregor</w>
me als</w>
me dina</w>
me tall
me tro
meas uring</w>
med ve
medve dev</w>
meg gies</w>
mel atonin</w>
mel e
mel inda</w>
mel ted</w>
mem e</w>
membran e</w>
memor abilia</w>
men ded</w>
men ting</w>
ment ors</w>
mer cilessly</w>
mer ger</w>
mer r
mes h</w>
met adata</w>
metall urg
metallurg ical</w>
metaph ors</w>
metr o</w>
mi ghtily</w>
mi guel</w>
mi halovna</w>
mi tive</w>
mic ally</w>
michel e</w>
mid wife</w>
middle ware</w>
migr ate</w>
mil estone</w>
millenni um</w>
milli on
min d
min dedly</w>
min ority</w>
min ster</w>
mini ature</w>
minim ize</w>
mir ac
mir th</w>
mis chief</w>
mis conceptions</w>
mis erably</w>
mis givings</w>
mis understanding</w>
mis understood</w>
mission aries</w>
mit t</w>
miti gation</w>
mo dule</w>
mo och</w>
mo ods</w>
mo or
mo ses</w>
mo tioned</w>
mo tive</w>
mod ulation</w>
mode sty</w>
moder ation</w>
modi fied</w>
modul es</w>
moh sin</w>
molec ular</w>
mom entary</w>
moment um</w>
mon go
mon k</w>
mon sters</w>
mon y
mono ton
monoton ous</w>
mony gham</w>
mor ality</w>
mor atorium</w>
mor nings</w>
mor ris</w>
mor tar</w>
motiv ate</w>
motor bike</w>
mou n</w>
mou sav
moun ting</w>
mousav i</w>
mouth fuls</w>
mp ha
ms gidplural</w>
mu ddy</w>
mu ffled</w>
mu harram</w>
mu j
mu mbled</w>
mu rod</w>
mu stafa</w>
mu ster</w>
mujahi deen</w>
mukh er
mul la
mul tan</w>
mul tin
multi plicity</w>
mun ir</w>
mur ad</w>
mur ders</w>
mur mur</w>
murmur ing</w>
mus cular</w>
muse ums</w>
mush ta
mushta q</w>
must aches</w>
my sti
myr tle</w>
myster ies</w>
n ab</w>
n ag
n ah</w>
n akh
n ancy</w>
n at</w>
n c
n em
n ered</w>
n essie</w>
n ull</w>
n us
na eem</w>
nad eem</w>
nah da</w>
nal ling</w>
nam ys</w>
nano tube</w>
nano tubes</w>
nap kin</w>
narr ative</w>
narro w
narro wed</w>
narro wing</w>
narrow ly</w>
nas r
nasr allah</w>
navi gation</w>
naz im</w>
ne edy</w>
nec essities</w>
neck tie</w>
negoti ation</w>
ner ships</w>
ner ved</w>
new est</w>
nf l</w>
ni al</w>
ni k
ni kit
nick named</w>
nish tar</w>
nit r
no isy</w>
no on
no ons</w>
no sed</w>
no ses</w>
no tor
no ver</w>
nois elessly</w>
nois ily</w>
nom ination</w>
non chal
nor a</w>
nor ah</w>
nor ms</w>
nov el
novru z</w>
noz irdzhon</w>
nt c</w>
nud ge</w>
num bered</w>
numer ical</w>
nur i</w>
nur sing</w>
ny mpha
o a</w>
o ar</w>
o c</w>
o graphy</w>
o king</w>
o live</w>
o o</w>
o res</w>
o ven</w>
o wed</w>
o youn</w>
o z</w>
ob er
ob struc
obedi ence</w>
obedi ent</w>
obj ections</w>
obli ging</w>
obs curity</w>
oc k</w>
occasi oned</w>
occur ring</w>
oce ans</w>
od ds</w>
od or</w>
odd ly</w>
of the</w>
off ending</w>
off s</w>
off spring</w>
oly te</w>
om bo</w>
om ers</w>
om ir</w>
om urbek</w>
ome ter</w>
omin ous</w>
on lookers</w>
on na</w>
ong ir</w>
op tical</w>
open ness</w>
oppos es</w>
opti mum</w>
optimi zation</w>
optimis m</w>
or c</w>
or chards</w>
or phan
orchest ra</w>
ordin ate</w>
ordin ated</w>
ordin ation</w>
ordin ator</w>
organis ms</w>
organiz ing</w>
ori ent</w>
ori k</w>
os ev
os mon
os si
oth man</w>
ou f</w>
ou tly</w>
ou tr
ough ing</w>
ough s</w>
out burst</w>
out line</w>
out sid
out stretched</w>
outr age</w>
over arching</w>
over coat</w>
over heard</w>
over night</w>
over see</w>
over view</w>
ow ning</w>
p agan</w>
p ains</w>
p ak</w>
p ally</w>
p am
p and
p ar</w>
p ays</w>
p ia</w>
p ies</w>
p iss</w>
p ounding</w>
p our</w>
p sk
p ting</w>
p tive</w>
pa il</w>
pa th
pa using</w>
pa ve</w>
pac ket</w>
pack aging</w>
pad dled</w>
pal ais</w>
pal p
pan j
pan j</w>
pan tal
pan ther</w>
pantal aimon</w>
paper work</w>
par chment</w>
par fen
par ting</w>
par tis
par vez</w>
[...]
