#version: 0.2
ا ی
ا ن
م ی</w>
ب ه</w>
ا ن</w>
ا ر
ک ه</w>
ا ی</w>
د ر</w>
ن د</w>
ا ز</w>
د ه</w>
ر ا</w>
ا س
و د</w>
د ا
ب ر
ر و
س ت
ای ن</w>
ک ر
ب ا
ا م
د ی
ا ر</w>
اس ت</w>
و ر
ا ل
ه ای</w>
ه ا</w>
ب ا</w>
ن ی
خ و
م ی
ر ا
ر ی
ب ی
ت و
ب ود</w>
آ ن</w>
س ا
ک ن
ف ت</w>
ی ک</w>
ت ه</w>
س ی
س ت</w>
ا ه
د و
م و
د ر
ل ا
ت ی</w>
ا و</w>
ش د</w>
ل ی
گ ر
د ار
ا ف
بر ای</w>
ل ی</w>
م ا
و ی
د ی</w>
و ر</w>
کر د</w>
ه م
ب و
پ ی
م ن</w>
و ن</w>
ز ی
د ند</w>
ت ا
م ر
ن ا
ه م</w>
م ا</w>
گ فت</w>
ان ی</w>
ا ت</w>
ش ده</w>
ب ر</w>
د م</w>
د ن</w>
ای ی</w>
دا ش
ت ر
ان ه</w>
و ا
ت ا</w>
م ن
ت ر</w>
ف ر
ار ی</w>
خ ود</w>
ب ی</w>
گ ر</w>
ک ش
س ر
ی د</w>
ن گ
ن ه</w>
ا م</w>
ز ی</w>
ن ی</w>
ی ر
ان د</w>
ن و
ک ند</w>
ست ان</w>
ا د</w>
ا ه</w>
ی ن</w>
خو اه
ک و
د ه
ل ه</w>
و ی</w>
م ان</w>
ن د
چ ه</w>
ن می</w>
اس ت
م ح
ای د</w>
ق ی
ا و
ا ب
گ ذ
ک ی</w>
ی ا</w>
ز ه</w>
ام ا</w>
ق ر
ش ود</w>
کر ده</w>
ی م</w>
ه ر</w>
ا ل</w>
دا د</w>
م ع
ک ار</w>
ه ر
ت ح
س ی</w>
ور د</w>
ف ت
ش ان</w>
ه ی
ی ر</w>
ن ظ
ف ته</w>
م ش
م ای
ار ه</w>
پ ر
ل و
آ ن
چ ی
گ ی</w>
داش ت</w>
ا ش
ن ده</w>
خ ا
ا ح
ا ع
ل ا</w>
آ م
ه ست
با شد</w>
رو ی</w>
ف ا
ش ر
دی گر</w>
دار د</w>
خ ی
ب ع
ای ن
دی د</w>
ک ار
سا ل</w>
ت ص
س و
ش و
گ و
م ق
د ست</w>
ت ی
ج ا</w>
د و</w>
ی ه</w>
کن ند</w>
س ه</w>
ت ما
گ اه</w>
رو ز</w>
ط ر
ن ام
ال ی</w>
م ان
د ا</w>
هم ه</w>
و ق
ک ت</w>
پ س</w>
ب اید</w>
خ ت</w>
ی ت</w>
تو ان
م ه</w>
می ن</w>
ای ش</w>
گ یر
د ان
با ز
ن گ</w>
ج ه</w>
ا د
ا ق
ت ع
ق ه</w>
ش ک
ش ی
ش ت</w>
ت و</w>
س ر</w>
ب خ
ش ما</w>
ان ت
ا ز
خواه د</w>
م ج
گ ز
د ست
ا ج
پ و
م س
ک نی
ه ایی</w>
ح ر
ش ن
ب ت</w>
ح ال</w>
را ه</w>
قر ار</w>
کن م</w>
ب ز
ا ک
ش ه</w>
ع ه</w>
م ورد</w>
ج ود</w>
خ ت
ری ن</w>
ز مان</w>
نی ن</w>
ت ن
بو دند</w>
ی س</w>
گ وی
ن ان</w>
نام ه</w>
هی چ</w>
ع ی</w>
ل ت</w>
ا دی</w>
دا ده</w>
ع م
بی ن</w>
ا ط
ا گر</w>
ب ل
ر س
ک ر</w>
ب ه
پی ش</w>
ده د</w>
ک ن</w>
ج ه
ا ص
دا ر</w>
ور ی</w>
کر دند</w>
ش ی</w>
ان ج
ز د</w>
م ص
ر و</w>
چ نین</w>
ی کی</w>
ا ش</w>
ب سی
م ت
تو س
ن ش
م ت</w>
ج و
ط ور</w>
ج م
خ انه</w>
نظ ر</w>
خو د
ار د</w>
اف ز
ار ش</w>
ان دا
ر سی
و جود</w>
و ل</w>
هست ند</w>
ت ق
پ ای
ست ه</w>
ب اره</w>
ج ی
زی ر</w>
ز ند
بع د</w>
نی ز</w>
با ر</w>
ت ن</w>
پ ن
ش ته</w>
ر ی</w>
انج ام</w>
ن ف
د ل
ن ق
ا ت
رو ن</w>
ف کر</w>
ح ال
2 0
و لی</w>
بی ش
ص ور
با ش
ی ل</w>
خ ص
ب ار
بز ر
ر ه</w>
خ ان
ب ان</w>
ق ی</w>
ک م
ا ده</w>
ه و
داش ته</w>
ع ت</w>
م ط
کر دن</w>
م ل
این که</w>
م ث
گ ان</w>
وق تی</w>
گز ارش</w>
شر کت</w>
ک م</w>
ا ض
ب از</w>
ک ی
ان گ
تما م</w>
نی ست</w>
کش ور</w>
آ ز
ار ت</w>
ک اری</w>
ن مای
چی زی</w>
ار ت
وا ق
خی لی</w>
ست م</w>
تن ها</w>
ت ج
دو لت</w>
پ رو
ب ان
ت رین</w>
ف ی</w>
ن شان</w>
ن م
ا خ
م د
ال ه</w>
م انی</w>
ص د
ک ان</w>
چ ش
می ان</w>
گ فت
گیر ی</w>
ف ق
بسی ار</w>
شو ند</w>
ف ی
ر ئ
بر خ
خ ته</w>
است فا
استفا ده</w>
لا م</w>
دار ند</w>
د ان</w>
بو ده</w>
تر ی</w>
ک ل
می لی
ن م</w>
هم ان</w>
چ ون</w>
ر فت
اب ل</w>
رئ یس</w>
نو ان</w>
چ ند</w>
د ری
ز ش</w>
اف را
خ ار
ط ر</w>
ا ب</w>
اس ی</w>
ام ل</w>
بیش تر</w>
دار ی</w>
دی م</w>
مر دم</w>
صور ت</w>
بزر گ</w>
من ط
ن س
ا می</w>
ک س</w>
دی گر
ح تی</w>
ن ز
پ اک
سا زمان</w>
م ار
ق و
ح م
اه ی</w>
ب ن
آ ی
نگ اه</w>
داش ت
گر فته</w>
لا ت</w>
گر فت</w>
گ رو
دو ر</w>
کر دم</w>
کنی د</w>
توس ط</w>
ق ب
ل ب</w>
م م
آ ور
ص د</w>
زند گی</w>
ی ا
20 0
ب د
ش دند</w>
ل ح
ه می
ای ت</w>
ه مین</w>
خو ب</w>
و ل
ع نوان</w>
آم د</w>
بی ش</w>
ط ی</w>
فق ط</w>
ما ه</w>
ر فت</w>
کنی م</w>
گو نه</w>
لی س</w>
ک ستان</w>
منط قه</w>
تو اند</w>
را ت</w>
ز ن</w>
ا ئ
غ ی
با ل</w>
بر ا
گذ شته</w>
ای ج
ف ع
ک سی</w>
ما ت</w>
اط لا
بر نامه</w>
مم کن</w>
آ ق
ری ک
تو جه</w>
ص ح
کم ک</w>
ا س</w>
اف تا
ق ان
ق ت</w>
ام نی
رسی د</w>
س خ
دا خ
مث ل</w>
پاک ستان</w>
کو چ
ا ون</w>
افز ایش</w>
گوی د</w>
ای ست
ا ور
بی رون</w>
ج ی</w>
ز مین</w>
0 0</w>
ت رو
ک ل</w>
ا تا
ع ات</w>
ف رو
انت خا
دو ن</w>
س ط
مص ر</w>
آ مو
ش ب</w>
ایج اد</w>
گر د
ه ار</w>
ا تی</w>
ت ل
م خ
آم ریک
خ ور
ه نگ
پ لیس</w>
خو است</w>
ش دن</w>
ع ر
جم ه
دی ده</w>
کن ون</w>
میلی ون</w>
ن ر
نز دی
ز م</w>
طر ف</w>
گ فته</w>
با لا</w>
پر دا
گذ اش
بخ ش</w>
ت ش
د خ
پی دا</w>
ژ ه</w>
ت ش</w>
ط ه</w>
دار م</w>
مر د</w>
ه ی</w>
بر د</w>
در باره</w>
سا زی</w>
هم چنین</w>
آ ب</w>
ت غی
م ال
ای م</w>
ا دا
ج ل
خ د
ن ا</w>
ز ان</w>
تا ب</w>
آ ورد</w>
ند گان</w>
م سا
ب دون</w>
ت را
م ست
وق ت</w>
ده ند</w>
اف غ
دا م</w>
خا طر</w>
ج دید</w>
د ود</w>
ی و
ت لا
د ور
مای ه</w>
آن جا</w>
م نا
گرو ه</w>
بو دم</w>
د ن
دی ن</w>
س ف
پ ار
خواه ند</w>
گر فت
اتا ق</w>
ج ای</w>
چ را</w>
گ ه</w>
ر سی</w>
س ای
چی ز</w>
ک لی
مو ض
ک س
باش ند</w>
نی رو
ز مانی</w>
سا س</w>
ع و
ق در</w>
م ه
مان ند</w>
لی ل</w>
ه د
گذ اری</w>
س م</w>
حر ف</w>
آ سی
دیگر ی</w>
ر د</w>
ش م
فر ان
پ ذ
آق ای</w>
ف ری
مر ک
خص و
نف ر</w>
ج ن
ز و
ق در
و ع</w>
کن ار</w>
با ل
ع یت</w>
ک می
رو ز
صد ای</w>
ن ت</w>
ج وی
زی را</w>
ظ ه</w>
پ ی</w>
با ت</w>
در ست</w>
ن بود</w>
ح ی</w>
س وی</w>
ش ش</w>
ه نو
افرا د</w>
ح الی</w>
م دی
پ ا</w>
ادا مه</w>
دل ار</w>
هر ه</w>
اح ساس</w>
ش اید</w>
ت ار
ق ابل</w>
پی ش
اق تص
خود ش</w>
چ ی</w>
این جا</w>
ف ل
قر قی
هنو ز</w>
و ارد</w>
چ نان</w>
ک ام
ا کنون</w>
ج ان</w>
ت ب
حال ا</w>
ف ه</w>
ث ر</w>
طر ح</w>
ست ی</w>
سر مایه</w>
یر ه</w>
گ ی
آ غ
سا عت</w>
دا د
لی ه</w>
هر ی</w>
و زیر</w>
اع لام</w>
و ض
تر ک</w>
اه ش</w>
ت ام
س ال
ه ایش</w>
آ ر
توس عه</w>
خان م</w>
ف و
ش رو
برخ ی</w>
شن به</w>
نزدی ک</w>
نا م</w>
و ه</w>
کش ور
دار ه</w>
رو ی
ک ا
ش هر</w>
ع ا</w>
کن نده</w>
ت ای
ار و
تص می
شرو ع</w>
مو ق
پ شت</w>
با زی</w>
ق ط
م ذ
ع لا
ن مو
نگ ی</w>
کو د
آم ده</w>
ق ات</w>
م را</w>
کن ی</w>
ام ی
ر ه
خان وا
س ان</w>
م لی</w>
ما ل</w>
من ظ
گیر د</w>
ی اف
ا زه</w>
حر کت</w>
س مت</w>
ز ده</w>
ش ت
چش م</w>
کوچ ک</w>
ب بی
ب ق</w>
جه ت</w>
قب ل</w>
ک ان
بر ی</w>
تغی یر</w>
دو ست</w>
نس بت</w>
حم له</w>
ر ف</w>
ن خ
افغ ان
صح بت</w>
غ یر
ی ک
بر گز
دو باره</w>
ر ای</w>
ن ه
تلا ش</w>
ش ن</w>
م تح
کش ید</w>
سی ستم</w>
شک ل</w>
مد ت</w>
غ ذ
م بار
ری ق</w>
ع ی
اندا زه</w>
آمریک ا</w>
است ان</w>
ام ات</w>
ای شان</w>
بان ک</w>
ر ان</w>
سا خت
آ خ
ب چه</w>
تا جی
م در
م ند</w>
نم ود</w>
همی شه</w>
پ ا
گ یر</w>
افغان ستان</w>
او ل</w>
تو لی
ق ز
ن دی</w>
و نی</w>
آ یا</w>
ال مل
ب ع</w>
زی ادی</w>
می ز</w>
ن ج
ک ال
کش ته</w>
م را
پ اس
ک اهش</w>
تصمی م</w>
ع مو
لی ن</w>
و ز
کش ی
تاجی کستان</w>
ح ل</w>
خانوا ده</w>
ص ن
ص ی</w>
اطلا عات</w>
پ ر</w>
تح ت</w>
ع ق
بل ند</w>
ر فته</w>
عم ل</w>
عم لی
ن تی
آغ از</w>
اف ی</w>
تو ان</w>
خواه م</w>
دا دند</w>
سی د</w>
ب سته</w>
ط ال
گر ان</w>
ام و
توان ست</w>
ش نی
فع ال
ل م</w>
ن دارد</w>
وا ل</w>
پن ج
1 9
از ب
ری د</w>
م الی</w>
ی زه</w>
ج ب</w>
جمه ور</w>
قان ون</w>
موض وع</w>
تح قی
د ف
ش نا
آ را
اس ب</w>
ج مع
ج نگ</w>
را ه
سر ش</w>
ما ده</w>
ن ش</w>
س پس</w>
المل لی</w>
ب انی</w>
کر ی
ارت با
انت ظ
ر ش</w>
ش گاه</w>
م د</w>
چ هار</w>
بسی اری</w>
د نی
داشت ند</w>
سی اسی</w>
قرقی ز
مرک ز</w>
مس ئ
ه ان</w>
هد ف</w>
ژ و
بر و
ت ان</w>
د لیل</w>
رس انه</w>
ری ان</w>
ن داشت</w>
پای ین</w>
پذ یر
د ل</w>
طال بان</w>
هم راه</w>
ط ریق</w>
می انه</w>
و ب</w>
ح دود</w>
خو ان
دا دن</w>
ر م</w>
ز می
نیرو های</w>
ج وا
خو ش
مق امات</w>
ه فته</w>
ئ ن</w>
ب نا
بر رسی</w>
دی و
ش ار</w>
لح ظه</w>
ترو ری
خار ج</w>
د گی</w>
در صد</w>
دن بال</w>
غ یر</w>
قز اق
م ب
ک می</w>
1 0</w>
به تر</w>
زی نه</w>
چ ر
کن ان</w>
برا بر</w>
ت خ
ت یم</w>
ح ز
ز نان</w>
ست ند</w>
پو ل</w>
آ ل
تو ن</w>
ز ار</w>
سا خت</w>
ط ول</w>
ف را
اش اره</w>
ز ند</w>
ض ای</w>
ض ی</w>
غ ر
قرقیز ستان</w>
نتی جه</w>
ه ار
ح اض
خ ص</w>
ان ش</w>
انتخا ب</w>
گ و</w>
ی ع
ال ب
امنی ت</w>
مان ده</w>
پی و
یا فت</w>
ب ح
م سی
مر بو
نا گ
ی ات</w>
اقتص ادی</w>
ب ش</w>
پای ان</w>
گ شت</w>
ی اد</w>
ب ور</w>
با س</w>
با ع
ل تی</w>
مو اد</w>
یع نی</w>
ان د
او ت</w>
تا زه</w>
د ک
ظ اه
م ز
مس اله</w>
اس اس</w>
باع ث</w>
حز ب</w>
ل ف</w>
چی ز
کن تر
گ ری
گو ش</w>
آن چه</w>
آی نده</w>
دری ا
ش امل</w>
ش ب
ض ر
قدر ت</w>
م خت
و ح
ژ ی</w>
د قی
س ل
قزاق ستان</w>
ات فا
الب ته</w>
را ئ
ب گذ
گفت م</w>
با د</w>
توان ند</w>
ر ود</w>
می ت</w>
ن ار
ا ور</w>
ار ان</w>
ند ان</w>
نی از</w>
آز اد</w>
جه ان</w>
ح ق</w>
ش ور
ش ید</w>
نی م</w>
ک تاب</w>
ر ق
گ اهی</w>
آ ش
افتا د</w>
بل که</w>
س ب
عملی ات</w>
مو ف
خو است
شن ه
م غ
آ وری</w>
ت ف
تولی د</w>
ج ایی</w>
پی شنه
کشور های</w>
یاف ته</w>
اب ت</w>
افز ود</w>
تا ث
ج ام
ح مای
م هم</w>
کنتر ل</w>
امنی تی</w>
ت ور
ح و
رو ش</w>
فعال یت</w>
لا ح</w>
نظ امی</w>
ا ظ
ب ای
ج ر</w>
د هم</w>
دو لتی</w>
ش اه
هست ه</w>
ا در</w>
اس م</w>
اف ه</w>
ب م
تو ن
حاض ر</w>
خو بی</w>
س د</w>
واق عا</w>
پن ج</w>
داخ ل</w>
ر نگ</w>
ست یزه</w>
مدر سه</w>
ه ن</w>
اج ازه</w>
اص لی</w>
ب ش
بو دن</w>
جوا ب</w>
ح یه</w>
سط ح</w>
ق ف</w>
لی ت</w>
مط ال
چ ن
چ هره</w>
اج تما
جوی ان</w>
ع کس</w>
عمو می</w>
مر گ</w>
آ ید</w>
ب قه</w>
ج ا
خ یره</w>
وی ت</w>
ک لی</w>
بر اساس</w>
حمای ت</w>
خو دم</w>
ز بان</w>
با لا
بنا بر
جم ع</w>
جو ان</w>
دو م</w>
مس ل
ه زینه</w>
کام لا</w>
انتظ ار</w>
خار جی</w>
دار یم</w>
مربو ط</w>
انت ق
ح د</w>
خ ط
ی اد
ا بی</w>
ام روز</w>
ح قی
ق ل</w>
نش ست</w>
ج ان
ح قو
حقو ق</w>
دا ت</w>
س ری
ل باس</w>
مبار زه</w>
ن وی
آن که</w>
جه انی</w>
س پ
ن شده</w>
ور یه</w>
بنابر این</w>
ج ز</w>
س رو
گ ز</w>
ای ل</w>
تق ری
ط بی
کن ه</w>
گ ست
گرد د</w>
ا دی
ازب کستان</w>
اس رائ
ال ات</w>
تع داد</w>
ج نو
داشت م</w>
لا زم</w>
ن وا
0 00</w>
آسی ای</w>
ت ند</w>
ک لا
کمی ته</w>
ی ان</w>
آ ماده</w>
بن دی</w>
بی نی</w>
جم له</w>
ن و</w>
نو ع</w>
گ ل</w>
بر ق</w>
تو ی</w>
ح سا
م توجه</w>
وی ژه</w>
پاس خ</w>
پرو ژه</w>
ک ش</w>
ا ق</w>
ت ه
تقری با</w>
دی ل</w>
س اله</w>
ص له</w>
هر گز</w>
ا داره</w>
ا ف</w>
او لین</w>
هست م</w>
بح ث</w>
ج ریان</w>
ج لو
د رو
رس د</w>
روز نامه</w>
س ن</w>
م ام
واق ع</w>
پ ز
پردا خت</w>
ح ض
خو ش</w>
د های</w>
ری ت</w>
سر عت</w>
ما در
مح ص
ا ج</w>
بر ی
ن کرده</w>
ی که</w>
ا تح
خو اب</w>
د ت</w>
د ها</w>
ش م</w>
ف ن</w>
ل بخ
آمو زش</w>
اجتما عی</w>
ای ه</w>
ب له</w>
بی م
تر تی
ج و</w>
دان ش</w>
مع مو
چ گونه</w>
ام ت</w>
خ ط</w>
دک تر</w>
شب که</w>
من ت
آ دم</w>
باز ار</w>
دخ تر</w>
پ خ
ژ ان
ار ائ
انگ ی
ت با
ت س
ت م</w>
تص وی
خ بر</w>
شر ای
هنگ ام</w>
هنگ امی</w>
ک و</w>
گر م</w>
آن ان</w>
ارائ ه</w>
برگز ار</w>
بیش تری</w>
تر ک
دار ای</w>
را ب
م لا
وض عیت</w>
ار زش</w>
اندا خت</w>
ب د</w>
دریا فت</w>
ده ی</w>
زمی نه</w>
زی اد</w>
س خت</w>
ط را
ک امل</w>
ی ف</w>
ام بر</w>
تب دیل</w>
ز خ
ص اد
ار های</w>
توان م</w>
ر ان
ل ر
ل س</w>
نا حیه</w>
گوی ی</w>
1 1</w>
ا غ
ان س
ت ل</w>
داد گاه</w>
ر ف
شن اس
ع ص
ع لی</w>
فر ص
نا ک</w>
ک افی</w>
گذاش ت</w>
ان ان</w>
ب ست
ت ری
خ ورد</w>
دی دار</w>
ری ف</w>
ع لیه</w>
م ش</w>
می زان</w>
نش سته</w>
یک دیگر</w>
ان دی
ت شک
ح ه</w>
ش ک</w>
ا ثر</w>
ارتبا ط</w>
اع ضای</w>
افتا ده</w>
قی مت</w>
وز ارت</w>
پ در
آ تش</w>
آ س
بر ان</w>
حال ت</w>
د رون</w>
د ش</w>
دان ست</w>
س عی</w>
ش خص
ش ین</w>
شک ست</w>
ع ل
پر سید</w>
گوی م</w>
اص لا</w>
ام کان</w>
تاث یر</w>
ش ه
فا صله</w>
مج مو
مط م
ه ام</w>
هو ا</w>
اب د</w>
ارت ش</w>
ح دا
وی ه</w>
وی ی</w>
2 0</w>
اف ق</w>
امو ش</w>
امی دو
انتخا بات</w>
ت ان
خ ر
داخ لی</w>
دور ه</w>
ص ل
ط وری</w>
ق ل
منا بع</w>
نگ ه</w>
1 2</w>
آی ند</w>
با قی</w>
تج اری</w>
زی ر
ص ب
ع را
م ل</w>
مح ل</w>
مح لی</w>
ن گر
ام ر</w>
خد مات</w>
رو زی</w>
ف شار</w>
قان ونی</w>
نم اید</w>
پیشنه اد</w>
5 0</w>
اس لام</w>
را ف</w>
مخت لف</w>
ه ن
ا کر
ارو پا</w>
تار ی
تام ین</w>
ترتی ب</w>
ر شد</w>
ع اتی</w>
ف ج
نخ ست</w>
ال ی
بع ضی</w>
در ک</w>
صل ح</w>
فل سط
م تع
ناگ هان</w>
ه نگ</w>
پ ل
کن ندگان</w>
اس لا
اسرائ یل</w>
ج اده</w>
حقی قت</w>
دنی ا</w>
ز نده</w>
سا خته</w>
سر ی</w>
ش هر
صب ح</w>
ض ا</w>
ع الی</w>
نق ش</w>
اب ان</w>
اس ر</w>
ان یه</w>
دی دن</w>
عق ب</w>
فری اد</w>
لا ل</w>
نق ل</w>
تا ک
رسی ده</w>
رفت ار</w>
ع ب
ع ش
م دار
م ف
منظ ور</w>
وی م</w>
ک ات
بال ای</w>
بم ب</w>
ت ک
تو ر</w>
خی بر</w>
دخ تر
ظ ر</w>
ع زی
ع ه
غ ول</w>
قی ت</w>
م اه
مق ابل</w>
پ ای</w>
کر دیم</w>
ی ح</w>
آز ادی</w>
آور ده</w>
اسلا می</w>
تح ری
س ن
مل ل</w>
پ در</w>
اب ت
اح ت
اه ده</w>
ج نگ
خصو ص</w>
خصو صی</w>
رفت ن</w>
ش دم</w>
لو م</w>
ما در</w>
مذ ه
کس انی</w>
کش تی</w>
گفت ند</w>
ا پ
ب س</w>
تج ارت</w>
جمه وری</w>
جی ب</w>
دان م</w>
دو شنبه</w>
رو ند</w>
س کو
شرای ط</w>
ص ف
فر د</w>
مخ ال
مر دی</w>
مق ام</w>
مو جود</w>
گذاش ته</w>
گیر ند</w>
آخ رین</w>
اتفا ق</w>
اس ی
بو د
بی ان</w>
بی ل</w>
بی ه</w>
ج ای
جام عه</w>
حض ور</w>
خ ره</w>
در ه</w>
دی دی</w>
راب طه</w>
ع ض
غ م</w>
متح ده</w>
میلی ارد</w>
نار اح
چ هار
گ از</w>
گر د</w>
ئ ی</w>
داش تن</w>
دقی قه</w>
مح ی
مر د
هم ان
پ ش
چ ار
چ طور</w>
ک ا</w>
گر ی</w>
ی ش</w>
1 5</w>
آرا م</w>
ح ت</w>
خ دا</w>
خ نده</w>
دا و
ز نی</w>
سپ تام
سی است</w>
فرص ت</w>
م ز</w>
و ار
گرفت ن</w>
ا گه</w>
ت کان</w>
خ ن
سا بق</w>
و سی
چ ین</w>
کش اور
گ ل
آ ه</w>
د را
رو شن</w>
سری ع</w>
سپتام بر</w>
فا ع</w>
ل ب
ل ذ
م اند</w>
مج لس</w>
مش اهده</w>
نی د</w>
و ز</w>
ی ی</w>
اه میت</w>
خواه یم</w>
را دی
فر ست
منا ط
مو ن</w>
موق ع</w>
نف س</w>
ه زار</w>
و ان</w>
پیش اور</w>
کری ست
ی ین</w>
آ هسته</w>
تای ید</w>
تع یین</w>
دیگر ان</w>
مش کل</w>
هم چنان</w>
کی لو
اظ هار</w>
ای ران</w>
ایست اده</w>
تا ه</w>
تو قف</w>
ر ده</w>
رو زه</w>
س نگ</w>
علا وه</w>
مذ اکر
می ل</w>
نر خ</w>
نی از
پنج ره</w>
پی ر
کود کان</w>
آ باد</w>
ئ ل</w>
اص ل</w>
اط می
جل و</w>
خا ص</w>
دست ه</w>
ست انی</w>
ش ان
ش دت</w>
ص دا</w>
ط بق</w>
ف همی
لو له</w>
وی د</w>
پ سر</w>
چ وب</w>
بی ر</w>
خی ابان</w>
دان شگاه</w>
ده ید</w>
ز اده</w>
سای ر</w>
ش ع
ص ل</w>
طبی عی</w>
ق دم</w>
موف قیت</w>
ن ج</w>
ن ص
پی شر
ار م</w>
است را
اطمی نان</w>
ب ن</w>
ب ور
بی مار
ت بر</w>
تاک ید</w>
خو ن</w>
دف تر</w>
عرا ق</w>
عو ض</w>
فران سه</w>
ق ض
م ور
مح اف
ن ور</w>
واق عی</w>
پ ان
کو تاه</w>
تج ر
تح ص
خ طر</w>
ر ت</w>
سا زد</w>
سی م</w>
سی ه</w>
ش کی</w>
عب دا
م ک
مج بور</w>
مدی ریت</w>
مناط ق</w>
ن باید</w>
و ال
گر دید</w>
تو ض
توان یم</w>
جمع یت</w>
خ لا
رو اب
ست ین</w>
سی اه</w>
صاد رات</w>
ظ ت</w>
عه ده</w>
لبخ ند</w>
مص ری</w>
مع ر
نی روی</w>
اج رای</w>
با زی
ج ع</w>
دی د
رفت ند</w>
سو م</w>
سی ون</w>
عش ق</w>
ل ط
ل ق</w>
م بل
ند لی</w>
نمای ش</w>
ک جا</w>
ی نی</w>
آن ها</w>
اق دا
علا قه</w>
ژو ئن</w>
کس ب</w>
ا ث
اج را</w>
از دو
اع ترا
اع تما
ان سان</w>
ح س</w>
دست گیر</w>
ر ای
رس می</w>
ز شی</w>
م تر</w>
مر دان</w>
ه ست</w>
1 4</w>
ا خت
تحقی ق</w>
تص ور</w>
خ ی</w>
دا دی</w>
در د</w>
در س</w>
سای ه</w>
ست ن</w>
ل این</w>
مای ل</w>
مح مد</w>
مو س
ه وا
کل مه</w>
3 0</w>
آخ ر</w>
آن لاین</w>
ائ ی</w>
ار زی
است ان
ای ده</w>
دو ست
رواب ط</w>
س وال</w>
شو م</w>
مذه بی</w>
مش غول</w>
منت ظر</w>
ن ک
هی ات</w>
آ میز</w>
آمریک ایی</w>
ان فج
ای الات</w>
ب دست</w>
با ور</w>
بو ل</w>
ج ر
جلو گیری</w>
در خواست</w>
ده یم</w>
ز دن</w>
ش ا</w>
ص ندلی</w>
ف کر
ق صد</w>
محی ط</w>
مست قی
ن خواهد</w>
وی ل</w>
کریست ف</w>
کشی ده</w>
آور یل</w>
ا زی</w>
اخ یر</w>
ادی ه</w>
ب دهد</w>
برگز اری</w>
تشک یل</w>
خی ال</w>
د نی</w>
رس ان
رو ست
ط ل
لی م</w>
ما شین</w>
مش خص</w>
من اسب</w>
و س
چ قدر</w>
ارزی ابی</w>
ازدو اج</w>
اس ته</w>
اش تبا
ام ور</w>
خور ده</w>
دار ید</w>
زند ان</w>
سف ر</w>
ش خص</w>
ع اد
ق ادر</w>
مح کو
مش ترک</w>
مطم ئن</w>
ن تای
پ ری
ک شد</w>
گ م</w>
گوی ند</w>
اتح ادیه</w>
اح س
ال له</w>
اندا زی</w>
بع دی</w>
بیم اری</w>
ج دا</w>
ج ذ
ح ف
خ ر</w>
خو ا</w>
دان ش
در خ
دست ش</w>
رو سیه</w>
زخ می</w>
س نگ
سر اسر</w>
سی ن</w>
ف ا</w>
مد ل</w>
نتای ج</w>
نو شته</w>
ا بر
اخ تی
اغ لب</w>
ج ز
جو انان</w>
خ شو
در از</w>
ر اس
سف ید</w>
ف ش</w>
مار س</w>
مق ای
پا ک</w>
ال ت</w>
بر ده</w>
ت م
تو ص
حدا قل</w>
خشو نت</w>
د عو
ر ژی</w>
ری ب</w>
سخ نگ
م ظ
مت ف
مجمو عه</w>
مقای سه</w>
نق طه</w>
وا م</w>
پو ند</w>
کود ک</w>
گرفت ند</w>
ب گیرد</w>
بخ شی</w>
تروری سم</w>
د د</w>
د س</w>
د فاع</w>
ری است</w>
س ان
ع دم</w>
ف تی</w>
ق اع
ن فر
پرو نده</w>
ا به</w>
ال ک
ان رژی</w>
بی ست</w>
ج زی
خ را
خواه ید</w>
س ند</w>
ع تی</w>
فر ار</w>
قر ار
مدی ر</w>
نخ ستین</w>
چ ار</w>
چن دین</w>
ژان ویه</w>
19 9
ا ک</w>
اعتما د</w>
اق دام</w>
ال ان</w>
ببی نم</w>
بی له</w>
توان ید</w>
جنو ب</w>
د ش
ر است</w>
ش اه</w>
ش بیه</w>
ع ظ
ق ای
ق بیله</w>
مر ده</w>
نگ اهی</w>
آ بی</w>
ا ط</w>
ب هره</w>
ت اس
ت ک</w>
ترک من
تص ا
توان ستم</w>
ج دی</w>
د استان</w>
س ک</w>
فر و</w>
ق دی
م طرح</w>
م و</w>
مطال عه</w>
من جر</w>
ن ند</w>
ه ایشان</w>
پ سر
چر خ
ای ان</w>
بر ایش</w>
بی انیه</w>
تما می</w>
تو افق</w>
جل سه</w>
جن بش</w>
د مو
دا دم</w>
دست ور</w>
زی د</w>
سا ت</w>
سرو یس</w>
غذ ا</w>
فر آیند</w>
فرو ش</w>
ق وی</w>
مسی ر</w>
نگ ه
و لات</w>
وض ع</w>
گذ شت</w>
1 3</w>
بر می</w>
بود جه</w>
تاری خ</w>
حف ظ</w>
حم ل</w>
خ ان</w>
د تر</w>
ری زی</w>
س وریه</w>
ساخت مان</w>
ص رف</w>
ط ول
طرا حی</w>
عم ل
مت هم</w>
مش ک
مو جب</w>
پذ یر</w>
گ ش
ی ابد</w>
یر ی</w>
ام ش</w>
بزر گی</w>
به ترین</w>
تر س</w>
ج اری</w>
حسا ب</w>
خ رید</w>
ز ا</w>
سخنگ وی</w>
ظاه ر</w>
عض و</w>
ق سمت</w>
مر ح
مر زی</w>
مسئ و
نمو ده</w>
نوا حی</w>
هست یم</w>
گ انه</w>
احت مال
ام ید</w>
اک تبر</w>
ت خت</w>
ترکمن ستان</w>
ته دید</w>
توض یح</w>
ث بت</w>
خواه ی</w>
ش انه</w>
طول انی</w>
ع لت</w>
فی لم</w>
ق ا</w>
ق بول</w>
مشک لات</w>
ن گران</w>
نمای نده</w>
اح تی
اشتبا ه</w>
اط راف</w>
اقتص اد</w>
ال ب</w>
ب ند</w>
ت ض
خ بر
س ون</w>
شی ده</w>
عر ب</w>
مرح له</w>
چ و
چش مان</w>
ک دام</w>
اض افه</w>
او لیه</w>
با ب</w>
به بود</w>
ت کر
حو زه</w>
خ الی</w>
ر خ</w>
ش مال</w>
شی وه</w>
قب لا</w>
قی ه</w>
م با
م گر</w>
ن ای</w>
ن ون</w>
نش انه</w>
نی ستند</w>
گر چه</w>
ی لی</w>
2 5</w>
ا های</w>
اه ل</w>
ب اری</w>
ب ستان</w>
بی ت</w>
ت ب</w>
ح ت
خ طر
خ یر</w>
د قت</w>
س ا</w>
سی نه</w>
شخص ی</w>
ع قی
فر مان
ل ند</w>
نمو نه</w>
ک ام</w>
کر دی</w>
ار ایه</w>
انتق ال</w>
ب قیه</w>
ب لا
باش م</w>
تحری ک</w>
تع ریف</w>
تل فن</w>
خ ب</w>
دی دم</w>
سا ده</w>
شاه زاده</w>
قدی می</w>
مث ال</w>
محص ولات</w>
مص رف</w>
مو ارد</w>
مو اف
ن فت</w>
و رو
و س</w>
و ف</w>
ور ان</w>
وسی له</w>
یا بی</w>
آ شن
ال ع
اند کی</w>
بر و</w>
تا ج
ج ور</w>
خا طر
را جع</w>
س پر
ص ه</w>
ط بقه</w>
ق تل</w>
ل ای
محکو م</w>
نج ات</w>
ند گی</w>
وی ق</w>
پش تی
کو ه</w>
آز مای
ان ین</w>
ب حر
ب گویم</w>
با خود</w>
تجر به</w>
خو ان</w>
دی ر</w>
ر ح
سو ار</w>
ش دید</w>
مرا ق
مرک زی</w>
مع نی</w>
و ا</w>
کشاور زی</w>
اح ترا
احتمال ا</w>
بن ا</w>
بو س</w>
حال یکه</w>
حت ما</w>
خو اند</w>
دو ستان</w>
ر ها</w>
رادی و</w>
ره بر</w>
ز ود</w>
شور ای</w>
ل ن
متح د</w>
مع اون</w>
ن ور
ه ا
ه ش
هوا پی
وی زی
4 0</w>
آ فری
اض ی</w>
انگی ز</w>
تر کی
ح ل
ح یو
خود ت</w>
در آمد</w>
ره بران</w>
س را
صن دو
ف نی</w>
فع ال</w>
ق لب</w>
ق ول</w>
مخ در</w>
مع لوم</w>
پی چی
پیشر فت</w>
گ انی</w>
ا تو
ار شد</w>
استرا ت
اص لاح</w>
انگ ار</w>
ب لو
باش ید</w>
ت هی
تو انی</w>
تو نی</w>
جوی ی</w>
حم لات</w>
خی ص</w>
د س
را حت</w>
س ود</w>
ع می
لا ف</w>
م ای</w>
م کان</w>
مح دو
مح دود</w>
مق دار</w>
نی مه</w>
پشتی بانی</w>
کر ا
کن ش</w>
کن فران
ا دو
ای ر</w>
ای ع</w>
د ایی</w>
دس امبر</w>
سخ ن</w>
شنی ده</w>
ع جیب</w>
عبدا ل
عقی ده</w>
ف ر</w>
ف وریه</w>
فر اموش</w>
قی افه</w>
ملا قات</w>
مه اج
هست ید</w>
هو ایی</w>
و ظ
و لو
وح شت</w>
ور ی
پ ه
پی ر</w>
کلا س</w>
گ ن
اختی ار</w>
اقدا مات</w>
ایست گاه</w>
با ش</w>
باز ر
برخ ورد</w>
ت نظ
تح مل</w>
تش خیص</w>
تع جب</w>
تق اض
تل ویزی
جا دو
خ رو
خو استه</w>
د انی</w>
دمو کر
را س</w>
سکو ت</w>
شن اسی</w>
صف حه</w>
ض د</w>
ع ده</w>
قو انین</w>
لا ح
موق عیت</w>
می ر</w>
ن دارم</w>
ناراح ت</w>
ه فت</w>
ول ان</w>
وی ن</w>
چیز هایی</w>
کرا چی</w>
ی رات</w>
ب تواند</w>
ب دین</w>
بر ود</w>
ت ال
تش ر</w>
جل وی</w>
خ بری</w>
خت ند</w>
د شو
دعو ت</w>
دی گه</w>
ر غم</w>
رو ح</w>
رو م</w>
ری م</w>
صندو ق</w>
ف یت</w>
فر دا</w>
ل به</w>
مد تی</w>
مدار س</w>
مر ز</w>
مط بو
من تشر</w>
ه شت</w>
هر چه</w>
گر ه</w>
ا خی
است ق
اه دا
ب ل</w>
تحص یل</w>
تحقی قات</w>
تصوی ر</w>
تهی ه</w>
ح اف
ح کم</w>
حر فه</w>
دار ان</w>
زی ن</w>
س لاح</w>
ض رو
ظ هر</w>
عر بی</w>
عمل کرد</w>
ف هر
مب ت
مح کم</w>
مظ نون</w>
نزدی کی</w>
نمای ند</w>
نو عی</w>
نگر انی</w>
ه ایم</w>
ور ود</w>
ک ف</w>
کش ی</w>
گذ ار</w>
آ ف
اطلا عاتی</w>
افرا دی</w>
ام د</w>
بالا خره</w>
ببی ند</w>
بر گشت</w>
بگذ ار
ج د</w>
خوش حال</w>
دان ند</w>
ره بری</w>
ز ل</w>
زی ب
سا کت</w>
سر باز
شنا خته</w>
ضر به</w>
فرا هم</w>
ل غ
ل و</w>
لب نان</w>
م هر
مسئ ولان</w>
من ی</w>
موف ق</w>
ن دارند</w>
نو شت</w>
و م</w>
پار ل
ک تا
کنفران س</w>
1 8</w>
a n
i n
آسی ب</w>
اع ت
ام تی
ایست اد</w>
این تر
بای ست</w>
بی د</w>
ت ز
تح لیل</w>
ج ست
خ م</w>
ذ ه
رو ف</w>
س و</w>
س ور
شم الی</w>
صور تی</w>
ف ات</w>
م توقف</w>
مسئو لیت</w>
نگ ری
ه مو
هم اه
پ را
پز شکی</w>
ک اره</w>
گ ون</w>
گو شه</w>
آس مان</w>
احس اس
اس تا
اس تر
اسی ون</w>
اطلا ع</w>
اف ت
ان دو
ب ایست
ب دن</w>
باز گشت</w>
بر گ
ج ام</w>
ج وی</w>
جنو بی</w>
ح ا
ح اصل</w>
خت ن</w>
خد مت</w>
در مان</w>
در گیری</w>
رق ابت</w>
ری ه</w>
س ای</w>
س که</w>
سخ تی</w>
ش ار
شم ار</w>
ص اح
ف را</w>
قرقی ز</w>
ل د</w>
متف اوت</w>
مسا بقه</w>
منظ ور
ن شی
نه ایت</w>
نو امبر</w>
پای ه</w>
گفت گو</w>
200 1</w>
آ ور</w>
اس اسی</w>
افغ ان</w>
ب شود</w>
ب گوید</w>
بیمار ستان</w>
ت به</w>
ت یر
تش ویق</w>
تو جه
خا صی</w>
خواست م</w>
دست ی</w>
ر ار</w>
رو د
روی ش</w>
ز ح
ش غ
ش و</w>
ع بار
غ رو
قط ع</w>
لا س</w>
ما تی</w>
مسا فر
مستقی م</w>
مق او
نق شه</w>
وی ش</w>
کل مات</w>
کی فیت</w>
1 00</w>
آ ست
ان ت</w>
انفج ار</w>
او ل
ب دی</w>
باش یم</w>
برخ ور
بو دیم</w>
بی ا</w>
در هم</w>
دو ل</w>
دو ی
ر نج</w>
را هی</w>
ز ان
ص ادر</w>
غر بی</w>
ف انی</w>
ف ض
قای ق</w>
لی پ</w>
من اف
مو جو
نا ه</w>
نر م</w>
نظ ارت</w>
ه است</w>
پ ل</w>
پدر ش</w>
چی ست</w>
ک ور
کر ه</w>
آ ل</w>
اح تما
احتما ل</w>
ار ها</w>
افرا ط</w>
ب ده</w>
خو ا
خواست ار</w>
خود شان</w>
ده نده</w>
دو شی
ر است
س گ</w>
سا ز
شر ح</w>
ط ان</w>
عم ر</w>
م من
مال یات</w>
مسا ئل</w>
مو سی
ن زد</w>
نی ستم</w>
پرو از</w>
پو شش</w>
پیچی ده</w>
ک رو
ی ور
2 2</w>
2 8</w>
آ هن</w>
آ گاه</w>
ا ع</w>
اخی را</w>
اع مال</w>
ام ضا</w>
بحر ان</w>
بر گ</w>
بر گر
بع نوان</w>
به ش</w>
بی دار</w>
ح ذ
خا ک</w>
د چار</w>
داخ له</w>
دست گاه</w>
ده ان</w>
دوشی زه</w>
دیو ار</w>
ر ژ
ز ات</w>
شک ر</w>
ع ادی</w>
غ ال</w>
فلسط ین</w>
لذ ت</w>
مر اسم</w>
مست قل</w>
من دان</w>
می ون</w>
نمای ندگان</w>
پو ست</w>
چ ال
چش مان
گ وی</w>
گست رش</w>
1 7</w>
احترا م</w>
ار ات</w>
بی ن
تروری ستی</w>
تکر ار</w>
ث ه</w>
حل قه</w>
د انه</w>
دا ل</w>
دور ان</w>
ذ کر</w>
رس اند</w>
رو سی</w>
ز دند</w>
ز ن
زح مت</w>
زمی نی</w>
س ایت</w>
سا حل</w>
طر ف
ع امل</w>
ع بور</w>
ف صل</w>
ق لا
قاع ده</w>
ل ان
ل ان</w>
م هم
مخ فی</w>
مذاکر ات</w>
معمو لا</w>
من و</w>
مواف قت</w>
موسی قی</w>
ن ح
هر میون</w>
ورو دی</w>
چ ندان</w>
کار کنان</w>
گ ین</w>
c o
آ می
ار سال</w>
او ه</w>
ب قات</w>
بر ند</w>
برا در</w>
بز ند</w>
بش ر</w>
بو ی</w>
ت یک</w>
جمع ه</w>
خ اموش</w>
د بیر</w>
درا ل</w>
س نگی</w>
سر د</w>
سی ل</w>
ض عی
ع اش
ف درال</w>
فر ض</w>
م س</w>
مادر ش</w>
معر فی</w>
مق اله</w>
ن کرد</w>
وا کنش</w>
واق عیت</w>
پخ تون
پی اده</w>
چ پ</w>
ژ ن
گ اری</w>
آ نگاه</w>
آر امش</w>
انج من</w>
اندی شه</w>
بر سد</w>
بر م</w>
ت یره</w>
تاج یک</w>
تع ط
توجه ی</w>
ج رم</w>
ج شن</w>
جذ ب</w>
ح ص
خار جه</w>
خوان دن</w>
د اند</w>
دنی ای</w>
ذ هن</w>
س ش</w>
ش به</w>
شنا س</w>
صح نه</w>
صد ایی</w>
ف ان</w>
فهر ست</w>
لو ل</w>
مان ع</w>
مب نی</w>
من بع</w>
مناف ع</w>
ن تی</w>
نف و
پختون خوا</w>
ک یت</w>
1 6</w>
200 9</w>
e r
آست انه</w>
از سر</w>
افز و
ال ف</w>
ای مان</w>
ب خو
بد هم</w>
برو م</w>
ت بال</w>
ت خص
تار یکی</w>
تق ویت</w>
در جه</w>
ده ه</w>
رسی دن</w>
رود خانه</w>
زو دتر</w>
سر خ</w>
ش لو
ض ه</w>
عظ یم</w>
م ر</w>
مج دد</w>
مش ابه</w>
ن داشته</w>
ن شد</w>
نا ل</w>
نک ته</w>
نی ا</w>
پن هان</w>
چ ا
ک ه
کار ها</w>
گ ام</w>
گری ه</w>
گست رده</w>
ی فه</w>
آرا می</w>
اح مد</w>
ادو ارد</w>
اندا خته</w>
اهدا ف</w>
ت ار</w>
ث ابت</w>
جنگ ل</w>
ح فا
حذ ف</w>
خ برگزاری</w>
خ سته</w>
خ ه</w>
دل ش</w>
زی با</w>
سال ن</w>
شناس ایی</w>
عاد ت</w>
ف س
ق هر
مث بت</w>
محاف ظت</w>
مع ام
مقاو مت</w>
من ف
مو ا
پار یس</w>
کمی سیون</w>
گ ار</w>
گ مان</w>
گر ایی</w>
2 1</w>
2 4</w>
آ ی</w>
آزمای ش</w>
آمو زشی</w>
آور دن</w>
ا خ</w>
ار ی
ازب ک</w>
ال م</w>
ان ات</w>
انس انی</w>
ای د
ب دان</w>
با شی</w>
تما س</w>
توان ایی</w>
ج نا
خ شم</w>
خبر نگ
دان ید</w>
دست ور
دی ه</w>
را ب</w>
رژ یم</w>
س نت</w>
سا کنان</w>
سر م</w>
ش اخ
شاه د</w>
شت م</w>
صن عت</w>
صور تش</w>
ع ین</w>
عزی زم</w>
فو ق</w>
ق اب
لن دن</w>
لی سی</w>
مخال ف</w>
مسا بقات</w>
مش ار
ه انی</w>
ه ز
و اس
ور زش</w>
پ ه</w>
چ اره</w>
چن ان
کات رین</w>
کار ان</w>
گ را
ی ده</w>
ا ورد</w>
از ده</w>
اق ای</w>
الک ترو
ان تح
او ش</w>
این ک</w>
ب طور</w>
ب و</w>
با شه</w>
بر ایم</w>
بر دن</w>
بلا فاصله</w>
بو دی</w>
ت ین</w>
تاس یس</w>
تب ط</w>
تس لیم</w>
ث ار</w>
ج دول</w>
ج ور
جزی ره</w>
ح یر
خصو ص
در خت</w>
در د
را حتی</w>
س ه
سرباز ان</w>
ش ادی</w>
ش ای
شت ند</w>
ق ش
مر تبط</w>
مه می</w>
موا جه</w>
ن ز</w>
ن ژ
پ دید</w>
پی ام</w>
پی ن</w>
ک تی</w>
کال سکه</w>
گ لوله</w>
گذ ارد</w>
اخ لا
از ات</w>
انتح اری</w>
بالا تر</w>
بر داشت</w>
بر یم</w>
بست گی</w>
بل ند
ت س</w>
ت که</w>
تخ ار</w>
د ندان</w>
دا مبل
داش تی</w>
در خت
دست رسی</w>
ر ض
زو دی</w>
سب ز</w>
سخ نان</w>
ش نو
فر مان</w>
فلسط ینی</w>
فو تبال</w>
فی لیپ</w>
قی ب</w>
ل ش</w>
مت اس
مع تق
موض و
نم ایی</w>
هی جان</w>
پ ست</w>
چیز های</w>
ژ اپ
ژن را
کار گران</w>
کش ت</w>
کلی د</w>
گرو هی</w>
آ ری</w>
ئ یه</w>
اد ثه</w>
ال قاعده</w>
ای ا</w>
ب ست</w>
ب پردا
بایست ی</w>
بی ر
بی شک
ج دیدی</w>
ح ادثه</w>
ح ق
د می</w>
رفت م</w>
س هام</w>
سی ن
طر ز</w>
ق د</w>
ق ف
ل ای</w>
ما ج
مشار کت</w>
مط اب
مه ند
می دان</w>
نی وز</w>
ه ه</w>
و ان
وا بسته</w>
پخ ش</w>
پی روزی</w>
ژو ئیه</w>
کار خانه</w>
کن ت</w>
200 0</w>
6 0</w>
اتح اد</w>
اتفا قی</w>
اخ تصا
اختصا ص</w>
اد ل</w>
اف تخار</w>
الکترو نی
ب دهی</w>
برا در
بی نم</w>
بیشک ک</w>
بیم ار</w>
تروری ست</w>
تص اد
تصوی ب</w>
تع دادی</w>
تغی یرات</w>
تک یه</w>
ح اک
خ ال
خن دید</w>
دامبل دور</w>
درخت ان</w>
رو ح
ست ون</w>
سر انجام</w>
شه رو
ض من</w>
ف هم
لا ک</w>
م تی</w>
م ود</w>
مسئ ول</w>
من دی</w>
ن دیده</w>
نا شی</w>
نس خه</w>
نه اد</w>
نوی س
هم چون</w>
و جو
وظ یفه</w>
پیو سته</w>
چال ش</w>
گرد اند</w>
گو شت</w>
گیر م</w>
ی لات</w>
2 6</w>
آمو زان</w>
ا وا
ابر از</w>
اخ بار</w>
است ع
اف کار</w>
ام ده</w>
ب تی</w>
ب غ
ب نی
بر داری</w>
بی اید</w>
ث بات</w>
دری ا</w>
دل م</w>
ده ایی</w>
دو نم</w>
ذ خیره</w>
راس تی</w>
رو س</w>
زی م</w>
س ف</w>
س فی
سر زمین</w>
شنی د</w>
صن عتی</w>
غ ی</w>
غر ق</w>
فر مانده</w>
فران ک</w>
فهمی د</w>
مح ق
مه ارت</w>
ن می
ه نر
و جه</w>
و ح</w>
و سای
وا حد</w>
پاک ستانی</w>
ژ ان</w>
کش ف</w>
کوچ کی</w>
گ فتی</w>
گر گ</w>
2 9</w>
a r
آ و
الع اده</w>
ان قلا
ای ند</w>
ب گو</w>
تار یک</w>
تر جی
ج ست</w>
جو انی</w>
ح سن</w>
ح یات</w>
خو یش</w>
ز دم</w>
ز مز
ز نگ</w>
ساخت ار</w>
ش ام</w>
عر بستان</w>
غر ب</w>
ف ار
ف ضای</w>
قر مز</w>
م اهی</w>
م خا
مح ض</w>
مراق بت</w>
مغ ز</w>
نس ل</w>
نفو ذ</w>
ه ور</w>
هر چند</w>
همان طور</w>
هنگ ی</w>
وی ژ
ویژ گی</w>
چ را
چیز ها</w>
ک ابل</w>
کو ب</w>
آف تاب</w>
آق ا</w>
آم دند</w>
ا ظ</w>
اب له</w>
احساس ات</w>
ار دو
انگ شت
انگ لیسی</w>
باز رسی</w>
بری تان
ت مرکز</w>
ت کمی
تا کنون</w>
تنظ یم</w>
ج عه</w>
ج لب</w>
ح وا
خط و
دش من</w>
را ضی</w>
رق ص</w>
ری سک</w>
ز نم</w>
زمز مه</w>
ص بر</w>
ظاه را</w>
غذ ایی</w>
غیر قابل</w>
فر هنگ</w>
فو را</w>
قر ه</w>
م انه</w>
مت خص
من تق
ن ان
ن به</w>
ن بوده</w>
نص ب</w>
نگری ست</w>
پ اره</w>
پ له</w>
پار چه</w>
گذ اران</w>
یا تی</w>
o r
آ لو
ا تص
ابت دا</w>
اظ هار
اف ته</w>
اف سر</w>
امی ان</w>
انت شار</w>
اند از</w>
او قات</w>
ای ر
ب ک</w>
باز دید</w>
بر ویم</w>
برخ است</w>
ت نا
تر ه</w>
تلویزی ون</w>
تما ش
توان ستند</w>
تکمی ل</w>
ث ی</w>
ج سته</w>
خ ری
خوان ده</w>
خور دن</w>
دو ید</w>
ر اند</w>
ر دی
ر شته</w>
را م</w>
زند ان
زی ست</w>
س ل</w>
ساخت ن</w>
سخ نر
سر ان</w>
سنگ ین</w>
ضرو ری</w>
ط و
ع اق
عزی ز</w>
عص ر</w>
ف شر
فرست اده</w>
فع لی</w>
ق انه</w>
ق هو
ل یک</w>
لح اظ</w>
م ار</w>
مام ور</w>
مش تا
مط لب</w>
من ه</w>
ن اه
نظ ر
نو ش
هن ر</w>
و ت</w>
و ش</w>
و طه</w>
وس ط</w>
پو شیده</w>
ژ ن</w>
ژاپ ن</w>
کلا ه</w>
کلی سا</w>
کن ده</w>
گفت ن</w>
2 3</w>
200 8</w>
آ گ
آل مان</w>
آم دن</w>
اخت لاف</w>
اش ک</w>
اص لاح
اعترا ض</w>
امیدو ار</w>
ب گی
با غ</w>
بزر گ
تج هی
ح دی</w>
درو غ</w>
دری ایی</w>
دیو انه</w>
ز لی</w>
سر باز</w>
شر ق</w>
شم اره</w>
شی خ</w>
ص ف</w>
صاح ب</w>
عم لی</w>
عمی ق</w>
فر ه</w>
ق ا
قرار داد</w>
م ض
ما س</w>
مش ت
مش تری</w>
موس سات</w>
می ر
ن شود</w>
ن هایی</w>
ه ند</w>
هست ی</w>
هش دار</w>
وح شت
پارل مان</w>
پو لی</w>
چ س
ک ست
کشور ها</w>
کل اید</w>
گر دن</w>
19 8
c n
آ سان</w>
آ سو
آشن ا</w>
آم ار</w>
ا گرچه</w>
استرات ژی</w>
اص ول</w>
امتی از</w>
او ض
اول ویت</w>
ب خت</w>
ب دهید</w>
ب لا</w>
باز سازی</w>
بی ده</w>
ت ست</w>
تق سیم</w>
تو نم</w>
توص یف</w>
ث رو
ح ج
ح سین</w>
خ ل
خطر ناک</w>
دشو ار</w>
ر ز</w>
ز نش</w>
س لام</w>
شنی دن</w>
ص ر</w>
ضعی ف</w>
عبار ت</w>
غ ام</w>
ق اضی</w>
ل اه
ل ه
م م</w>
م ک</w>
متاس ف
مرد می</w>
مص اح
معمو لی</w>
من فی</w>
مو ج</w>
نش ین</w>
نمو دند</w>
نیرو گاه</w>
وا ک
ور ت</w>
پر س</w>
چار چوب</w>
چشمان ش</w>
ژان س</w>
کار ش</w>
کام پیو
کان ال</w>
کش نبه</w>
ی کشنبه</w>
1 9</w>
20 10</w>
m a
آ ثار</w>
آر ز
آن قدر</w>
آور ند</w>
اح م
ام ه</w>
انگ ل
اوض اع</w>
ب کار</w>
با با</w>
باش گاه</w>
بخ تی</w>
بر ان
بر دند</w>
بر ه</w>
بم اند</w>
به داشت</w>
ت کن
ترکی ب</w>
تع ه
تف اوت</w>
ج ین</w>
ح س
حال تی</w>
حفا ظت</w>
حیر ت</w>
خرو جی</w>
خو اد</w>
خواه ش</w>
دو مین</w>
دی ت</w>
دی روز</w>
رسی دند</w>
ز ای</w>
س از</w>
س قف</w>
سال م</w>
ش ویم</w>
شهرو ندان</w>
شو هر</w>
ع ط
عملی اتی</w>
غ ری
فی ق</w>
ق ش</w>
قاب لیت</w>
قب لی</w>
قر اری</w>
قر بان
قهو ه</w>
ل ایه</w>
م توسط</w>
م ع</w>
ما دام</w>
مر ی</w>
مطاب ق</w>
معمو ل</w>
ملا ح
منف جر</w>
نظ ام</w>
هم گی</w>
هو ای</w>
پذیر ی</w>
پر سی
ژنرا ل</w>
گر دان</w>
گز ار
20 11</w>
آ ک
آ گاهی</w>
آسی ا</w>
اع تق
ال عمل</w>
ام تح
انگل ستان</w>
ای ف</w>
ب ط</w>
ب م</w>
ب کشد</w>
ب گیرند</w>
بای ف</w>
بع دا</w>
بل ندی</w>
بگذ ارد</w>
ت ظاه
ت مه</w>
تب لی
توص یه</w>
جای گ
جن به</w>
ح دس</w>
ح ی
خ دا
خطو ط</w>
دان ستم</w>
دقی ق</w>
ر ع
رض ایت</w>
س وا
شن ود</w>
ع ذ
عو دی</w>
قض یه</w>
لح ن</w>
مال ک</w>
مج ازات</w>
محص ول</w>
مذاکر ه</w>
مطبو عاتی</w>
مو ل
موق عی</w>
ن کند</w>
نیاز مند</w>
ه ت</w>
هد ایت</w>
هم سر</w>
هم سرش</w>
هو م</w>
وسای ل</w>
ولو ژی</w>
پ ایی</w>
پای گاه</w>
پن به</w>
ک ث
ک ور</w>
کو چه</w>
گ مر
گ ور
گذ ار
گر دند</w>
ی و</w>
1 8
2 7</w>
200 3</w>
e n
آش کار</w>
ا دا</w>
ا ها</w>
اب ند</w>
استان دارد</w>
اش ی</w>
افز ار</w>
الی ز
ام ان</w>
امیدو ارم</w>
ان م</w>
انتق اد</w>
انگ شت</w>
اه ره</w>
او ست</w>
او ن
ب کش
تا ش
تض مین</w>
تو زی
ج س
جمع ی</w>
خصوص ا</w>
خواه ان</w>
داد ستان</w>
زیب ایی</w>
سب ب</w>
سخنر انی</w>
سو خت</w>
ش ون</w>
ش وید</w>
ص اف</w>
ص رف
صن ایع</w>
ط لا</w>
ع ج
ع لم</w>
عاش ق</w>
ف ن
فرو ش
فل ج</w>
فکر ی</w>
ق اهره</w>
قو ه</w>
ل انه</w>
لبخ ندی</w>
لح ه</w>
م تری</w>
م لت</w>
مجمو ع</w>
مح سو
مو ف</w>
مو های</w>
نا پدید</w>
ناراح تی</w>
نمای شگاه</w>
نو ار</w>
وی ر</w>
پر ده</w>
پیر مرد</w>
چهار شنبه</w>
ک ز</w>
ک مال</w>
کیلو گرم</w>
گرد ش
گرد ش</w>
یاف تن</w>
200 2</w>
a l
اتو م
ارت ین</w>
ارتبا ط
اس تی</w>
اس لحه</w>
است انی</w>
اعت بار</w>
ام سال</w>
ای ای</w>
بار ان</w>
بر جسته</w>
بر دی</w>
برخور دار</w>
بو سی
ت په</w>
ت یر</w>
تخ ریب</w>
تر ز</w>
ترجی ح</w>
تو ف</w>
توزی ع</w>
تیر اندازی</w>
حیو انات</w>
خ س
خ و</w>
خت م</w>
خود مان</w>
خور شید</w>
د ای</w>
د بیر
د رویش</w>
داشت یم</w>
در و</w>
دست گیری</w>
ر ک</w>
زند انی</w>
س لول</w>
سو ئ
ش ور</w>
شغ ل</w>
ص دا
صد ایش</w>
ط لب</w>
ع ید</w>
عر ض</w>
غیر قانونی</w>
لذ ا</w>
لی بی</w>
م ارتین</w>
مف ید</w>
مق ابله</w>
نا پذیر</w>
نظ م</w>
نمای ندگی</w>
نیاز های</w>
هز اران</w>
و نه</w>
کم بود</w>
ی ون</w>
یاد داشت</w>
ات خا
اتخا ذ</w>
ارتبا طی</w>
اض طر
الکترونی کی</w>
ام ن</w>
بخ اری</w>
بع دا
بی ک</w>
تاش کند</w>
تح ویل</w>
تر دید</w>
ج است</w>
ج نگی</w>
خو اب
د ای
د ز
دانش جویان</w>
ر س</w>
رس انی</w>
س وی
سال انه</w>
ست گی</w>
سل امت</w>
سی ر</w>
ش گفت</w>
شو هر
ع لوم</w>
عج له</w>
عو امل</w>
فر دی</w>
فر هنگی</w>
فس ور</w>
مح وطه</w>
مخال فت</w>
مطم ئ
مع ی
منتق ل</w>
مو ثر</w>
موس سه</w>
ن برد</w>
هن ری</w>
وق وع</w>
ول و</w>
پ ارت
پرو فسور</w>
ژ یک</w>
ک له</w>
کار ت</w>
گ ار
گ ان
7 0</w>
آ وی
آ ژانس</w>
ا بو
اتص ال</w>
اح ز
احز اب</w>
اضطر اری</w>
اه م</w>
اوا خر</w>
اک ثر</w>
ای ت
ب توانند</w>
با له</w>
باز داشت</w>
بر نده</w>
بریتان یا</w>
بعدا ز
بی چاره</w>
تن هایی</w>
ج ع
جان به</w>
خ ج
خ شم
خو نه</w>
دریا چه</w>
ر تبه</w>
ر ست
راه نمایی</w>
سا د</w>
ست یم</w>
سور اخ</w>
ش مش
ش کر
شک سته</w>
صرف ا</w>
ع مر
غ ذ</w>
فا ش</w>
ق الب</w>
قدر ی</w>
قط ار</w>
لی و
م سی</w>
م کان
مان ان</w>
مح اس
مس ایل</w>
معر ض</w>
مق دس</w>
مو افق</w>
ن س</w>
ند ا</w>
نظ امیان</w>
نظ رم</w>
نگ ذ
نی ک</w>
ه تل</w>
و ار</w>
وار دات</w>
چ اق</w>
کا غذ</w>
کن ونی</w>
گرفت م</w>
t i
اب زار</w>
ار تق
اش خاص</w>
اصلاح ات</w>
اعتق اد</w>
باز ارهای</w>
بد تر</w>
ت ند
تا م</w>
تح لی
تس هی
تع قیب</w>
ث انیه</w>
جایگ زین</w>
جو ان
ح کو
حدا ک
حداک ثر</w>
خو ام</w>
خو اه</w>
دن ش</w>
ری خته</w>
ز ت</w>
سا زند</w>
سو الی</w>
ش یر</w>
شع له</w>
لو ب</w>
م ایی</w>
مار یا</w>
مر تب</w>
مش کلی</w>
مشت ریان</w>
مغ ازه</w>
من زل</w>
منظ ره</w>
منظور م</w>
می تی</w>
ن باشد</w>
نا د</w>
ناگ هانی</w>
نظ یر</w>
نفر ت</w>
ه ل
ه ل</w>
و زیر
پن اه
ک وی
کری کت</w>
که نه</w>
کی ف</w>
گ شته</w>
گ ن</w>
گ ند</w>
200 7</w>
r o
t e
اب ز
اردو گاه</w>
اس کار
اسکار لت</w>
اص رار</w>
اط را
ام شب</w>
انقلا ب</w>
او تی</w>
او م
اینتر نت</w>
ب دم</w>
ب ذ
بر قراری</w>
به ت</w>
تجهی زات</w>
توان سته</w>
ج الب</w>
ج دا
جان ب</w>
جی غ</w>
خد ای</w>
خر ج</w>
دا ئ
در گیر</w>
ده ندگان</w>
دی دند</w>
ر های</w>
رف یت</w>
روی ترز</w>
ری ح</w>
ری شه</w>
س عودی</w>
سر ت</w>
سو ات</w>
شنی دم</w>
طر ی</w>
ظ رف</w>
ظ رفیت</w>
ع مه</w>
غ ل
غ ه</w>
ف ال</w>
ف وری</w>
فر ود</w>
فق ر</w>
قر ن</w>
قربان یان</w>
لاه ور</w>
م تو
مح اک
مح بت</w>
مدی ران</w>
مع نای</w>
ملاح ظه</w>
می لی</w>
ن تون</w>
ن داشتم</w>
ن داشتند</w>
ن ر</w>
ن قره</w>
ن کنید</w>
هماه نگی</w>
هو ش</w>
و ای</w>
پ رید</w>
پر ست
پو ش
چ اق
چرا غ</w>
چنان که</w>
چی نی</w>
کال ی
کشی دن</w>
کشی ش</w>
کو ف</w>
ی خ</w>
r e
ئ ه</w>
ا بوس</w>
ارتباط ات</w>
اس پان
اش ترا
ام ون</w>
اندی شید</w>
انس کی</w>
انگ یزه</w>
بار ها</w>
باز ار
بد ل</w>
بر انگی
بر قرار</w>
بز نم</w>
به ه</w>
ت بع
ت مند</w>
تا ج</w>
ترک یه</w>
تری سی</w>
جز ئ
ح ین</w>
حا وی</w>
حاف ظ</w>
حوا د
خ شک</w>
در ستی</w>
دست رس</w>
دو ازده</w>
دو تا</w>
ردی ف</w>
رو برو</w>
س قو
سط وح</w>
سقو ط</w>
ش ویی</w>
ضر ب</w>
عل می</w>
قط عه</w>
قو می</w>
لی د</w>
م اری</w>
م تص
مام وران</w>
مبت لا</w>
مت ن</w>
مث لا</w>
مسل ح</w>
مش هور</w>
مصاح به</w>
معام له</w>
منط قی</w>
ن داریم</w>
نا کی</w>
نظ رش</w>
نویس نده</w>
ه ائی</w>
ه ش</w>
وال دین</w>
پ اه
پ یک</w>
ک اش</w>
ک ت
کش تند</w>
کن ن</w>
گ زینه</w>
گر به</w>
گی ل
20 0</w>
آ ب
آ ری
آ هنگ</w>
آرا گون</w>
آغ وش</w>
آور دند</w>
ا فت</w>
استان دار
استق لال</w>
افزو ده</w>
ال ز
ان ح
اه د</w>
او لی
با ما</w>
بخ انه</w>
بران ابوس</w>
بعداز ظهر</w>
بی اور
ت دری
تا خیر</w>
تاری خی</w>
تبا دل</w>
تقاض ای</w>
ج رات</w>
ج سد</w>
جای گاه</w>
جی بی</w>
ح ات</w>
خ داو
خا کست
خاطر ه</w>
خط اب</w>
خلا صه</w>
دست یابی</w>
دف عه</w>
دو نی</w>
دوست انه</w>
دی و</w>
ر ایی</w>
ر سو
رح مان</w>
ری ش</w>
ز گی</w>
سن تی</w>
سو د
ش ری
شاخ ه</w>
عر ضه</w>
فر ی</w>
فرو شگاه</w>
ل شکر</w>
م خصوص</w>
م قی
مح بو
محاک مه</w>
محسو ب</w>
مس جد</w>
مع لم</w>
من ا</w>
مو ر</w>
ن اس
ن ک</w>
ند د</w>
نم ای</w>
نگه داری</w>
نی ت</w>
نی و
ه می</w>
هم سایه</w>
همو اره</w>
وحشت ناک</w>
پ ژو
پر سش</w>
پنج اب</w>
پی راه
پی چ
کار گر</w>
کلی سای</w>
کلی ف</w>
گذ ران
گرفت ار</w>
ی هو
یو سف</w>
5 00</w>
s t
ئ ی
ات هام</w>
ات یک</w>
اخلا قی</w>
است ث
اسرائ یلی</w>
اشترا ک</w>
اط فال</w>
اعترا ف</w>
افت د</w>
الیز ابت</w>
ام کان
امتح ان</w>
ای ید</w>
اید ز</w>
ب بین</w>
برو ند</w>
بگذار ید</w>
ت ز</w>
تحلی ل
ته دی
تو پ</w>
حال م</w>
حاک م</w>
حر فی</w>
خ لی
خا تمه</w>
خبرنگ اران</w>
خد مت
خواه ر</w>
خواه رش</w>
خود تان</w>
دار ایی</w>
دان یم</w>
داو م</w>
دختر ان</w>
در ی</w>
درخ شان</w>
دستور العمل</w>
دل اری</w>
ر از</w>
را تی</w>
را ج</w>
ران نده</w>
روز ها</w>
ز ر
سا کن</w>
ست اره</w>
سف یر</w>
ش ر</w>
ش ریف</w>
ش نگ
شک ان</w>
شی دن</w>
شی شه</w>
عبدال له</w>
عم ده</w>
غذ ای</w>
غرو ب</w>
ف در
فرو شی</w>
ق اتی</w>
قط عا</w>
م رو
م ری
م قر
م گی</w>
مج د
محدو ده</w>
مخت ل
مرا کز</w>
مش خص
مق داری</w>
من ص
مو ند</w>
موضو عات</w>
می ز
نا ز
نشی نی</w>
هماه نگ</w>
و ک
ور ک</w>
وزیر ستان</w>
پ اد
پخ تون</w>
پذیر ش</w>
پز شکان</w>
چ ای</w>
چر خ</w>
چش مش</w>
کتا بخانه</w>
کش تن</w>
کلی دی</w>
کن گره</w>
گ شو
گ ناه</w>
200 6</w>
cn n</w>
i c
l e
آز ار</w>
آل ود</w>
آمو ز</w>
ا خوان</w>
ا ذ
ائ تلا
اج رایی</w>
احت مالی</w>
احتی اج</w>
اص ط
اع تن
این ها</w>
ب دهند</w>
ب پر
ب کنم</w>
با تی</w>
بازر گانی</w>
بر ف</w>
بوسی له</w>
بین دا
ت ای</w>
ت دا
ت مایل</w>
ت کنی
تا د</w>
تن ش</w>
تور ی
تکن ولوژی</w>
ج اب
ج ک</w>
جزئ یات</w>
جن سی</w>
ح ک
حکو مت</w>
خ اله</w>
خ شن</w>
خی ل</w>
دست م</w>
ر فیق</w>
رسی دگی</w>
رو به</w>
ز م
زی کی</w>
س نج
سب ک</w>
سر هنگ</w>
ش دیم</w>
ش یر
شان س</w>
شر م</w>
شک ایت</w>
صد ها</w>
ع جیبی</w>
علا ق
غ ر</w>
فران سوی</w>
ل ام
لای حه</w>
لط فا</w>
لی ست</w>
م گ
ما تیک</w>
مت مرکز</w>
متع لق</w>
مج مع</w>
مجد دا</w>
مختل فی</w>
مر ه</w>
مش رو
مطال عات</w>
مق د
ممن و
من اس
ن داده</w>
ن ما
نف ع</w>
نه اده</w>
نو ز
و تی</w>
و دی</w>
و ق</w>
وا ح
وا شنگ
پ ایش</w>
پو ش</w>
پیشنه ادی</w>
ک ود</w>
کر دید</w>
کو ل</w>
گذاش تند</w>
گی ج</w>
a l</w>
اح مق
ار اده</w>
ار ف</w>
استا د</w>
اش تی
اض طرا
انت های</w>
اند ک</w>
اه میتی</w>
ب خاطر</w>
ب گوی
بال ش</w>
بگی رید</w>
بی نید</w>
تاس ف</w>
تج دید</w>
تر سید</w>
تر ها</w>
تصا ویر</w>
تو اف
تور های</w>
تکنی ک</w>
حا کی</w>
خو ن
د لی
د گاه</w>
دان شک
دانشک ده</w>
دختر ش</w>
در دی</w>
دو ستی</w>
دو ن
دی پل
دید گاه</w>
ذه نش</w>
رو سای</w>
زندان یان</w>
س ار
سال گی</w>
ش اد
ش با
شر ط</w>
شی ان</w>
شی ط
شی طان</w>
صح یح</w>
عص بی</w>
فت گی</w>
فر زند</w>
ق اط
ل ع
لر زه</w>
لی ا</w>
م اس
م کر
مس خره</w>
مسل مان</w>
مسل مانان</w>
مع روف</w>
مق ادی
مهم انی</w>
موجو دات</w>
موض ع</w>
ن اله</w>
ن ایی</w>
ن جی</w>
ن ما</w>
نا شناس</w>
نق اط</w>
نگ ونه</w>
نی ازی</w>
هر گونه</w>
و عده</w>
وا ض
ور زشی</w>
پ ائ
پای تخت</w>
پیش انی</w>
چ م</w>
چ ند
چا پ</w>
چار لی</w>
چهار م</w>
ک ات</w>
ک ین</w>
کوچ ولو</w>
3 5</w>
s e
t h
آفری ق
آن ا</w>
ار باب</w>
ارو پای</w>
ارو پایی</w>
اس تو
اس د</w>
اس ناد</w>
ام پرا
ان و</w>
اندا زد</w>
او باما</w>
ای تال
ب لی
ب کند</w>
بازار یابی</w>
بخ ور
بر آورد</w>
بر عهده</w>
ت نگ</w>
تبلی غ
تدا بیر</w>
تم رین</w>
تی ز</w>
ج ایش</w>
جع به</w>
ح ضر
حج م</w>
خا ور
خان گی</w>
خاور میانه</w>
خرا ب</w>
خو شی</w>
خواست ند</w>
خود داری</w>
خور دند</w>
دار و
دخ ترک</w>
ده انش</w>
دی ا</w>
رو ت</w>
روز انه</w>
ز مان
ز نج
زو م</w>
سا م</w>
ساز مان
سر زنش</w>
سر نوشت</w>
سرا غ</w>
سپر ده</w>
ش دی</w>
شخص یت</w>
شر قی</w>
شمش یر</w>
شو روی</w>
شور ش</w>
شوهر ش</w>
شک اف</w>
ض ع
ظ م</w>
ع الم</w>
ع جب</w>
ع ک
ف ش
ف ور
ف ور</w>
ف وی</w>
فدر اسیون</w>
فر ض
فر ق</w>
فرو دگاه</w>
قهر مانی</w>
لر زید</w>
لط ف</w>
لو ت</w>
م خصوصا</w>
مال فوی</w>
مبت نی</w>
مبل غ</w>
متخص ص</w>
مح تو
مح و</w>
محدو دیت</w>
مس کو</w>
مش اور
مش اور</w>
مشتا ق</w>
مط ل
مل که</w>
مو قت</w>
ن بودند</w>
نام ز
ه دیه</w>
ه راس</w>
و انی</w>
و ط
وا دار</w>
ول ایت</w>
پ ال
پارت مان</w>
پرو رش</w>
پز شک</w>
پیش ین</w>
چ نگ</w>
کال اهای</w>
کر ی</w>
کشاور زان</w>
کشی دند</w>
کن ج
گ ال
گ را</w>
گ وری
گ یت</w>
گر سنگی</w>
گردش گری</w>
200 4</w>
9 0</w>
i s</w>
i t
l e</w>
آز اد
ئ و</w>
ا چ</w>
احتی اط</w>
اخ راج</w>
استر ال
استق بال</w>
اظهار ات</w>
اف تند</w>
الک تری
ام ت
او ایل</w>
ب برد</w>
بار یک</w>
بازی کن</w>
بر ات</w>
بر ج</w>
بر س
بر ید</w>
برو ز</w>
ت شان</w>
تشک ر</w>
تعط یلات</w>
تما شا</w>
تماش ای</w>
ج بران</w>
ج بهه</w>
ج ن</w>
جست جو</w>
جلو ه</w>
ح بس</w>
حضر ت</w>
حواد ث</w>
خ رد</w>
خو ر</w>
خو ی
دا منه</w>
در ت</w>
در می</w>
دموکر اتیک</w>
دو ی</w>
دی ق</w>
دیو اره</w>
ذ ره</w>
ر ب
راست ش</w>
رست وران</w>
رو ان</w>
روست ایی</w>
ری خت</w>
ز رد</w>
سا زمانی</w>
سر گرم</w>
شنا خت</w>
شو خی</w>
ص ر
ع د</w>
غ ال
ف ایده</w>
فر از</w>
ق ین</w>
قی ف</w>
لو ف</w>
ماه ی
ماه یت</w>
مج از</w>
مح مود</w>
مراق ب</w>
مربو طه</w>
مع ل
مقادی ر</w>
مهر بان</w>
ن ع
ن کن</w>
نا بود</w>
نا دیده</w>
نگ اهش</w>
نی وی
ه ای
ه ور
هواپی ما</w>
و فا
واشنگ تن</w>
ور ش</w>
پ اش
پ ناه</w>
پذیر فته</w>
پری ده</w>
پی مان</w>
پی ه</w>
پیو ند</w>
کار مندان</w>
گر دان
200 5</w>
3 00</w>
8 0</w>
r a
آ ر</w>
آمی زی</w>
ئ ون</w>
ا برو
اتوم بیل</w>
اد موند</w>
ار ز</w>
اس ا</w>
اس کن
استرال یا</w>
اش ت
اش یه</w>
اع ت</w>
اع راب</w>
اع ز
اف س
ام تی</w>
اندو ه</w>
انگی زی</w>
ای ب</w>
ای نه</w>
ای نگونه</w>
ایتال یا</w>
ب جای</w>
ب خوان
ب ویژه</w>
بال ایی</w>
بد نش</w>
بر ت</w>
بر تا</w>
بر وی</w>
بز ودی</w>
بن شی
بی اورد</w>
بی فت
ت ئ
ت فری
ت فکر</w>
تر بیت</w>
تل فنی</w>
تو نه</w>
ج غ
ج لال</w>
جا دو</w>
جدا گانه</w>
جی می</w>
جی کوب</w>
ح اشیه</w>
ح یا
حیا ط</w>
خ تی</w>
خ ش
خال ص</w>
خداو ند</w>
خشم گین</w>
خن ثی</w>
د گان</w>
در آورد</w>
درو ازه</w>
دری ای</w>
رو حی</w>
رو شی</w>
ز باله</w>
زخ م</w>
سل ط
سو فی</w>
ش ا
شرای طی</w>
شور شیان</w>
شک م</w>
شی رین</w>
ض منا</w>
ضع ف</w>
عص بانی</w>
فض ایی</w>
فعال ان</w>
فی زیکی</w>
ق ر</w>
ل رد</w>
لح نی</w>
م تر
مام ور
متاسف م</w>
مر زه</w>
مستقی ما</w>
مع تر
مقی اس</w>
مم کنه</w>
مهند سی</w>
مو ی</w>
ن بودم</w>
ن داد</w>
نا توانی</w>
نا چار</w>
ناه ار</w>
ند ها</w>
نق ض</w>
نمای ان</w>
نی ش</w>
نیوی ورک</w>
ه ندی</w>
هی و
و زن</w>
واس ه</w>
واض ح</w>
وح شی</w>
ور ق</w>
وک یل</w>
وی ا</w>
وی ر
پ اول</w>
پ سرش</w>
پار ک</w>
پر چم</w>
پی روی</w>
ک ده</w>
کار م</w>
کار مند</w>
کم کی</w>
کو ت
کیلو متر</w>
گر دیده</w>
گمر کی</w>
گن دم</w>
ی تی</w>
ی می</w>
m o
آز مون</w>
آن دره</w>
ا داری</w>
ابت دایی</w>
اث بات</w>
اج ی</w>
اح وال</w>
احس اسی</w>
ار ز
اس رای
اس ما
استاندار دهای</w>
اشتی اق</w>
اض افی</w>
اضطرا ب</w>
افت تا
ال دین</w>
ال م
ان بار</w>
ان بو
انفج اری</w>
انگ لیس</w>
اه یم</w>
ای الت</w>
ای ست</w>
ای منی</w>
ب طری</w>
با د
با ه</w>
بال قوه</w>
بالا ترین</w>
ببی نیم</w>
بر آورده</w>
بر وید</w>
برس اند</w>
بع دها</w>
بیمار ان</w>
تا بی</w>
تا زگی</w>
تر سی
ترو ر</w>
ترو ی
تظاه رات</w>
تقاض ا</w>
تلویزی ونی</w>
تو ده</w>
تی ل
جام ع</w>
جست جوی</w>
حر کتی</w>
حق وق
خ ایر</w>
خ وری</w>
خاکست ری</w>
خلا ف</w>
د ع
در نگ</w>
دقی قا</w>
دل ایل</w>
ذ خایر</w>
ر برتا</w>
ر عه</w>
رو پیه</w>
روی داد</w>
روی کرد</w>
ز ور</w>
ز یک</w>
س الی</w>
س لی
س می</w>
سر دی</w>
ش تاب</w>
ش را
ش ف
ش گر</w>
شای سته</w>
شبا هت</w>
شناس ان</w>
شهر های</w>
شی دند</w>
ص می
طل ایی</w>
ع لف</w>
عی تی</w>
ف ساد</w>
فرا تر</w>
فرست ا
فرو دو</w>
فهم م</w>
ق ن
قر بانی</w>
ل ز</w>
ل وی</w>
ل که</w>
لا تی</w>
لغ و</w>
مادر م</w>
ماه ه</w>
مبا دا</w>
مت قاع
مج وز</w>
مدر ن</w>
مرا حل</w>
مز رعه</w>
معتق د</w>
مف هوم</w>
مو ن
نش انی</w>
نف تی</w>
نمای م</w>
نوی س</w>
نژ اد</w>
پ ز</w>
پ س
پ ش</w>
پدر م</w>
پذیر فت</w>
په لو
چ ک</w>
چ گو
ژ یکی</w>
ک از
ک اش
کار برد</w>
کامپیو تر</w>
کر بن</w>
کش تار</w>
کی تی</w>
گشو ده</w>
گو اهی</w>
گو ناگ
ی ب</w>
یو س</w>
1 0
20 12</w>
4 5</w>
آ تش
آ دمی</w>
آ ذ
ئ ید</w>
ائتلا ف</w>
احم ق</w>
ار و</w>
ارت خانه</w>
است خ
استرات ژیک</w>
اش غال</w>
اش ک
اع ی</w>
اغ ل</w>
افتا دند</w>
امت داد</w>
امیدو ار
ان کار</w>
انتق ام</w>
اندا ختن</w>
اندا م</w>
انگشت ان</w>
او ج</w>
او نا</w>
اور ده</w>
بازر س</w>
بازی کنان</w>
بان و</w>
ببی نید</w>
بد اند</w>
بد بختی</w>
بر داشته</w>
بر گرداند</w>
بع ی</w>
بو ت</w>
بو جود</w>
بپردا زد</w>
بی نه</w>
تا بستان</w>
تخص ی
تخصی ص</w>
تر ج
تص دیق</w>
تغی یری</w>
ج ری
جنا ب</w>
ح دو
حال ش</w>
حیو ان</w>
خ ش</w>
خ می
خانوا دگی</w>
خس ارت</w>
خوی ش
در سی</w>
دور دست</w>
ذ رت</w>
را ک</w>
روح انی</w>
روست ای</w>
ری ز</w>
ز نند</w>
زان و</w>
زی ت</w>
سا عتی</w>
سازمان دهی</w>
سرو ر</w>
سو دان</w>
ش لیک</w>
ش ند</w>
ش نی</w>
ش کن
شلو ار</w>
شکن جه</w>
ص لاح
ع دا
عرا قی</w>
عق اید</w>
عل امت</w>
عمو م</w>
غ زه</w>
غال با</w>
ف و</w>
ف یر
فرص تی</w>
فی ل
ق ان</w>
قر بان</w>
قض اوت</w>
قل عه</w>
ل کن</w>
لای را</w>
لی ون</w>
م زه</w>
مبار ک</w>
متص ل</w>
متع جب</w>
مدار ک</w>
مرا جعه</w>
مست قر</w>
مسل ما</w>
مص مم</w>
مع ج
می زبان</w>
ن خواهم</w>
ن ود</w>
نام زد</w>
ند های</w>
نگ فته</w>
همان ند</w>
و ات</w>
و لی
وی چ</w>
پا های</w>
پاس گاه</w>
پر ت</w>
پردا خته</w>
پنج اه</w>
پیر امون</w>
چ ک
چرخ ه</w>
چش م
چگو نگی</w>
ک ویت</w>
کا وی</w>
کر اف
کری س
کو شید</w>
گ یس</w>
گر ایان</w>
گو های</w>
یاد آوری</w>
i d</w>
i s
m e
o n</w>
آ تی</w>
آ ما
آ ه
آرز و</w>
آسو ده</w>
آل مانی</w>
ا پو
ابت کار</w>
اج اره</w>
اد ع
ار گان</w>
است د
استخ دام</w>
افرا طی</w>
ال ح
ام روزه</w>
ام ع</w>
ام یر</w>
امو شی</w>
امکان ات</w>
انت ین</w>
اه ان</w>
او نو</w>
اون جا</w>
ای را
ب تا</w>
ب س
ب گیرم</w>
باز و
بان وی</w>
برگ شته</w>
بری ده</w>
به انه</w>
ت بر
ت وری</w>
تال ار</w>
تح سین</w>
تو ه
تون ل</w>
ج اس
ج اه</w>
ج ما
جذ اب</w>
جو امع</w>
حاف ظه</w>
حر فش</w>
خ ام</w>
خ ستگی</w>
خدا حافظ</w>
خو شش</w>
دار ش</w>
دان ستند</w>
در حالیکه</w>
در ش
دلی لی</w>
دموکر اسی</w>
دو خته</w>
دوست ش</w>
دی دیم</w>
دی نی</w>
دی ک</w>
ذ ی</w>
ر نگ
ر نگی</w>
رسان ده</w>
ز ای
ز ها</w>
س کی</w>
سا بقه</w>
سا دگی</w>
سپ اه</w>
سی ب</w>
ش دیدی</w>
ش هری</w>
شع ر</w>
شن اسم</w>
شی انه</w>
ط ور
ع روسی</w>
غی ب</w>
فا جعه</w>
قض ایی</w>
قط عی</w>
قف ل</w>
قل بش</w>
قی ر</w>
ل وا
لا دن</w>
لا ق</w>
لو س</w>
م داوم</w>
م همان</w>
مان دن</w>
مان م</w>
متقاع د</w>
مج ر
مح له</w>
محبو ب</w>
مر تبه</w>
مز ایای</w>
مطال ب</w>
مع ادل</w>
ممن وع</w>
من م</w>
مو ل</w>
می تری</w>
می د</w>
ن انی</w>
ن ل</w>
نا تا
نا ق
نام ط
نام یده</w>
ند و</w>
نس بتا</w>
نفر ی</w>
نق لیه</w>
نمای ید</w>
نو م</w>
نوش تن</w>
نژ ادی</w>
نی م
و و
واح دهای</w>
وی لی
پ تان
پ دیده</w>
پ هن</w>
پار ام
پارل مانی</w>
پای دار</w>
پذیر ایی</w>
پر سن
پر ی</w>
پنج م</w>
پی غام</w>
چی ه</w>
ک تور
کار هایی</w>
کریس مس</w>
کو شش</w>
کوت اهی</w>
گ ارت</w>
ی ابند</w>
ی اری</w>
یو نی
یور و</w>
1 3
1 50</w>
1 7
4 00</w>
c h
m s</w>
آر دن</w>
آو از</w>
ا تر</w>
ا قی
ات ه
اد عا</w>
ادا ش</w>
از ای</w>
اس می</w>
اس کات
اش لی</w>
اط ی</w>
اط ین</w>
اع ط
ان وس</w>
ای ات</w>
ایست ا
این کار</w>
ب توانم</w>
بال غ</w>
بخ شید</w>
بد ترین</w>
بر سان
برا ثر</w>
برادر ش</w>
بست ن</w>
به داشتی</w>
بو ش</w>
بو ل
بی ایید</w>
بی مه</w>
تخص صی</w>
تر س
تر م</w>
ترج مه</w>
ترکی بی</w>
تز ریق</w>
تش دید</w>
تف اهم</w>
تف نگ</w>
تنظ ی
تو قیف</w>
ج را
جل سات</w>
جن س</w>
جی مز</w>
ح ساس</w>
حسا بی</w>
حو الی</w>
خ لق</w>
خط ا</w>
خو انی</w>
خوا بیده</w>
خوش حالم</w>
د ستان</w>
دا دیم</w>
در حالی</w>
درخ شید</w>
دو ز</w>
دو ش</w>
دی میتری</w>
رف ع</w>
ری نی</w>
زم ستان</w>
زی ده</w>
زیر ساخت</w>
س ام
ست ایش</w>
سین اسیون</w>
شر ف</w>
شم اری</w>
شیط انی</w>
ص و
صلاح یت</w>
طبی عت</w>
ع اط
عر ق</w>
عق ل</w>
غ ریب</w>
فر اری</w>
فرست اد</w>
فرمان دار</w>
ق ذ
ق ص
ل ری</w>
ل زوم</w>
م همان
مار ک</w>
مام ان</w>
مبا د
متف اوتی</w>
مح روم</w>
مخا ط
مر غ</w>
مر گ
مس کن</w>
مسافر ت</w>
مش اغل</w>
مطمئ نم</w>
من دانه</w>
من فج
منت ظ
مو ان
مو زه</w>
می اد</w>
ن کنم</w>
ن گرفته</w>
ناتا شا</w>
نح وی</w>
نق اشی</w>
نو ک</w>
نوا زش</w>
نی می</w>
ه ایت</w>
ه ویت</w>
هم دیگر</w>
هم زمان</w>
هو ل
هواپی ما
و نا</w>
واک سیناسیون</w>
وز ارتخانه</w>
وز رای</w>
وی ن
پ اداش</w>
پ دیدار</w>
پردا زد</w>
پناه ندگان</w>
پژو هش</w>
پی چ</w>
چ ر</w>
ک د</w>
کا خ</w>
کا غذ
کار بران</w>
کلی نتون</w>
کم تری</w>
کو زت</w>
کیلو متری</w>
گ راف</w>
گذ ر
گذار ند</w>
گذاش تم</w>
گر می</w>
گزار شی</w>
گیر نده</w>
ی ار</w>
a m
co m</w>
l o
n e
آش فته</w>
آش پز
آمی خته</w>
ئ و
اب ل
اب م</w>
اد ت</w>
اد غام</w>
ار دی</w>
ارت فاع</w>
است خرا
استخرا ج</w>
استد لال</w>
استرا حت</w>
اع ظم</w>
اف سران</w>
افس انه</w>
ال گوری
ال گوی</w>
الم پیک</w>
امیدو اری</w>
ان ا</w>
ان وا
انوا ع</w>
ای وان</w>
ب انه</w>
ب جز</w>
ب خواهد</w>
با دی</w>
بان ش</w>
بان ک
بر دارد</w>
بر داشتن</w>
بر دهای</w>
بر عکس</w>
بز نید</w>
بلند تر</w>
بلو چ
بلوچ ستان</w>
بن ای</w>
بن وی
به تری</w>
بور گ</w>
بگذ ار</w>
بی م</w>
ت دار
ت نی</w>
ت هر
تبع ی
تحری ر</w>
تحقی قاتی</w>
تخ لیه</w>
ترا ف
تصاد ف</w>
تع ادل</w>
تن فر</w>
تنظی مات</w>
تهر ان</w>
توض ی
تون س</w>
ث ا</w>
جام ه</w>
جن ایت</w>
جه اد</w>
جوا بی</w>
جور ج</w>
خ یم</w>
دا تی</w>
دار ا</w>
در آم
در آمده</w>
درو نی</w>
ده ار</w>
رق م</w>
رو شن
رو ن
رو یم</w>
روی داده</w>
ری نا</w>
س عید</w>
س هم</w>
سی گ
ش گفتی</w>
شهر ت</w>
شی اطین</w>
ص بح
ط ل</w>
ظ ی</w>
عک اس</w>
عی ب</w>
غ م
غ ن</w>
غ نی</w>
ف همی</w>
فا قد</w>
فر م</w>
فرا وان</w>
فرمان دهان</w>
فشر ده</w>
فع لا</w>
ق اب</w>
ق د
قا چاق</w>
قذ افی</w>
قن دهار</w>
ل ر</w>
ل نگ
لا بد</w>
له وین</w>
لی دی</w>
لی گ</w>
م دام</w>
ما ک
ماج را</w>
مار یوس</w>
مال یاتی</w>
مامور یت</w>
مب هم</w>
مر دا
مسل مین</w>
معتر ض
مقر رات</w>
منفج ره</w>
مو ث
مو م</w>
می را
می س</w>
نش ستند</w>
نظ ریه</w>
نفر ه</w>
نمو دن</w>
نو شی
نی ده</w>
نی س</w>
ه ف
هم راهی</w>
و الی</w>
و ج
و سو
وا گذار</w>
واق عه</w>
وط ن</w>
ول سوالی</w>
پ سری</w>
پتان سیل</w>
پر تاب</w>
پسر ک</w>
پو شان
پی کر</w>
پیو ستن</w>
چ سب
چ هل</w>
چو بی</w>
ک ای</w>
ک فش</w>
کار بر</w>
کث یف</w>
کراف رد</w>
کش وری</w>
کل ای</w>
کل به</w>
گذ ر</w>
گذاش تن</w>
ی قین</w>
یو م</w>
یو نان</w>
19 7
3 1</w>
4 4</w>
d e
s s</w>
آ شو
آس انی</w>
آل ماتی</w>
آمو خته</w>
آن را</w>
ا دار
اب تی</w>
ابز ارهای</w>
اته امات</w>
ار ض</w>
ارتق ا</w>
اس مش</w>
است خوان</w>
اش یا</w>
اعتن ا</w>
اف سر
اف کند</w>
ال د</w>
ال مسلمین</w>
الگوری تم</w>
ام وال</w>
ان تا</w>
ان شان</w>
انبو ه</w>
او ز</w>
ای من</w>
ب اند</w>
ب شر
ب صورت</w>
با بت</w>
با جور</w>
با ک
باز نشسته</w>
بان کی</w>
بانک داری</w>
بز نند</w>
بع لا
بعلا وه</w>
بی ند</w>
ت اسر</w>
ت خته</w>
تح ق
تر های</w>
تروی ج</w>
تع لق</w>
تعط یل</w>
تعه د</w>
تم ع</w>
تو نیم</w>
توه ین</w>
تی و
ج دایی</w>
جادو گر</w>
جلو تر</w>
جما عت</w>
جه نم</w>
ح یاتی</w>
حض ار</w>
حقوق ی</w>
حو مه</w>
خ طی</w>
خوان نده</w>
دار ن</w>
دخ الت</w>
در شت</w>
دف اعی</w>
دموکر ات</w>
دن بالش</w>
راست ای</w>
رو ها</w>
ز دهم</w>
ز ل
زمان یکه</w>
س فت</w>
سا عات</w>
سر تاسر</w>
سل طان</w>
سنگ ینی</w>
سو الات</w>
سپر ی</w>
ش بی</w>
ش تر</w>
ش ج
ش راب</w>
ش کار
شار ون</w>
شب انه</w>
شغ لی</w>
شو اهد</w>
شو ق</w>
شک لی</w>
شی می
ص دور</w>
ع ب</w>
ع لی
ع وا
عاق بت</w>
عق د</w>
عمی قی</w>
غ الی</w>
غیر دولتی</w>
غیر نظامی</w>
ف قیر</w>
فار غ</w>
فر ش</w>
فرض یه</w>
فرمان دهی</w>
فشر د</w>
فی لد</w>
ق ائ
ق بال</w>
قهر مان</w>
ل اری</w>
لر زان</w>
لی وان</w>
لیو شا</w>
م دا
م دال</w>
م لا</w>
مت غیر</w>
مج تمع</w>
مج له</w>
مح مو
مذ کور</w>
مز اح
مش کو
مص نوعی</w>
مع لو
مع نا</w>
مهر بانی</w>
مو تور</w>
مو هایش</w>
موجو دی</w>
مکان ی
می رم</w>
ن توانست</w>
ن داری</w>
نا تو</w>
نا صر</w>
نا گو
نام ن
نو بت</w>
نو ی</w>
نگ اران</w>
نی امده</w>
ه نه</w>
هی ت</w>
هی درو
و ص
و کار</w>
وا ج</w>
وسو سه</w>
ویلی ام</w>
پ انی</w>
پ ور</w>
پردا زش</w>
پرسن ل</w>
پرو ت
پنج شنبه</w>
په لوی</w>
پیشر فته</w>
چ نگ
چنان چه</w>
ک لا</w>
ک مر
کال ا</w>
کان ادا</w>
کش ان</w>
کش ند</w>
کلی ه</w>
کنج کاوی</w>
کود کی</w>
گ رید</w>
گذ رد</w>
گر نه</w>
گفت گوی</w>
گوناگ ون</w>
ی کن
ی ی
یاد گیری</w>
یهو دی</w>
یو نی</w>
1 6
6 00</w>
i p</w>
s h
u n
آشپز خانه</w>
ئ ین</w>
ا بر</w>
ات م</w>
اتو بوس</w>
اج تنا
اجتما ع</w>
احمق انه</w>
اخت لا
ادار ات</w>
اس اسا</w>
اس قف</w>
است قرار</w>
است ن
اسرای یل</w>
اسکات لند</w>
اصط لاح</w>
اعز ام</w>
افتتا ح</w>
افز ون</w>
ال و
ان یت</w>
انگ ین</w>
اه ایی</w>
این ست</w>
ب برند</w>
ب داری</w>
ب دهیم</w>
ب فر
با قی
با ک</w>
بان ان</w>
ببی نند</w>
بخ شد</w>
بر هنه</w>
بغ داد</w>
بور س</w>
بگذار ند</w>
بی ایند</w>
ت را</w>
ت مای
ت نه</w>
تاث یرات</w>
تحص یلی</w>
تفری ح</w>
تل قی</w>
تو ط
تواف ق
تولی د
ث مر</w>
ج ات</w>
ج ما</w>
ج وری</w>
جاب ز</w>
جز ایر</w>
جو لای</w>
ح ر</w>
ح ش</w>
ح ما
حقی قی</w>
خ ل</w>
خبرنگ ار</w>
خج الت</w>
خلی ج</w>
خود کار</w>
خور دگی</w>
د تا</w>
د که</w>
دا غ</w>
دخ تری</w>
در ها</w>
دشو اری</w>
دی ان</w>
ذ وق</w>
ذه نی</w>
ر شو
ر ضا</w>
ر م
رای ج</w>
رس ند</w>
رسان دن</w>
رع ایت</w>
رو ان
ز ا
زیب ای</w>
س عادت</w>
س فره</w>
س متی</w>
س نی</w>
ست ید</w>
سر به</w>
سر شان</w>
سر پر
سل امتی</w>
سلط نتی</w>
سو مالی</w>
سو مین</w>
سی گار</w>
ش وی</w>
ش کار</w>
شر ه</w>
شه ادت</w>
شهر ک</w>
شیمی ایی</w>
طر فی</w>
طرف داران</w>
طل بی</w>
ع ال
ع ام</w>
ع ود</w>
عاد لانه</w>
عر فات</w>
علاق مند</w>
عی سی</w>
غ یره</w>
غذ یه</w>
ف ایل</w>
فت م</w>
فر آی
فکر ش</w>
ق سم</w>
ق صه</w>
ق طر</w>
ق لم</w>
قدر ت
قز اق</w>
قل بی</w>
ل بن
ل مس</w>
ل ک</w>
لوا زم</w>
لی کن</w>
م ست</w>
متخص ص
مج بور
مج ید</w>
محاس به</w>
محق ق</w>
محی طی</w>
مخ تص
مد عی</w>
مد نی</w>
مذه ب</w>
مش ت</w>
مشاور ه</w>
مط لوب</w>
مع ذرت</w>
معام لات</w>
مق ر</w>
من عکس</w>
مه مات</w>
می انگین</w>
می انی</w>
می خ</w>
می له</w>
ن وری</w>
نا درست</w>
نا می</w>
نا پل
نامن اسب</w>
ناپل ئون</w>
نح وه</w>
نر می</w>
نو ا</w>
نو جوانان</w>
نوشی دنی</w>
نی رو</w>
نی کو
هر کس</w>
همو ار</w>
هی چ
و گرنه</w>
وا ژه</w>
واس طه</w>
وق ایع</w>
وی زلی</w>
پ ستی</w>
پاه ایش</w>
پذیر د</w>
پر سد</w>
پر نده</w>
پرا کنده</w>
پرسی دم</w>
پیچ ید</w>
ک تک</w>
ک سری</w>
ک ف
کار آفری
کار دی
کار شناسان</w>
کام یون</w>
کشی دم</w>
کن اری</w>
کو تو
کو س</w>
کی سه</w>
کی نگ</w>
گ از
گ او</w>
گ ور</w>
گیل انی</w>
ی ازده</w>
یکن وا
1 4
3 2</w>
3 3</w>
3 6</w>
5 5</w>
6 5</w>
g a
t o
t t
آ تل
آ را</w>
آشو ب</w>
آق ایان</w>
آمو ز
آگ هی</w>
ات ل</w>
اجتنا ب</w>
اد له</w>
اد های</w>
استع داد</w>
اسپان یا</w>
اع دام</w>
اعت بار
اف یت</w>
ال ح</w>
المل ل</w>
الکتری کی</w>
الی ایی</w>
ام ام</w>
ام ری</w>
ام واج</w>
ام ین</w>
ان با
ان ده</w>
ان س</w>
انتخا باتی</w>
انگشت انش</w>
او ست
او لی</w>
اک تش
اک ث
اک سپر
اک سی
اکسپر س</w>
ای تی</w>
ای فا</w>
اید ئ
اینتر نتی</w>
ب در</w>
ب ز</w>
ب سی</w>
ب شه</w>
ب شوم</w>
ب نده</w>
ب هی
ب کنی</w>
باقی مانده</w>
بر تری</w>
بر سی</w>
بر ن</w>
برخ لاف</w>
برگر دان
بز نی</w>
بست گان</w>
بو دید</w>
بی ایی</w>
تبلیغ ات</w>
تحری م</w>
تخ م</w>
تر سم</w>
تر غیب</w>
ترک من</w>
تسهی ل</w>
تسهی لات</w>
تص اب</w>
تصمی مات</w>
تلا شی</w>
تن اسب</w>
توافق نامه</w>
تی که</w>
ج رائ
جادو یی</w>
جر ج</w>
جو م</w>
خر ده</w>
خط رات</w>
خو درو</w>
خود کشی</w>
خی انت</w>
داد های</w>
دبیر ستان</w>
درد ناک</w>
ده مین</w>
ده کده</w>
دور بین</w>
ر بوده</w>
ر د
ر پ</w>
راه ش</w>
رس م</w>
رسو ایی</w>
رشو ه</w>
رفت یم</w>
رو غن</w>
ز ام
ز بانی</w>
ز ر</w>
زند گی
سا ع
ست ر</w>
سر ما</w>
سر و</w>
سری لان
سف ارت</w>
سیگ نال</w>
ش اد</w>
ش ما
ش نامه</w>
ش کو
شم ع</w>
شو را</w>
شکر م</w>
شی ار</w>
صد د</w>
طرف دار</w>
طل سم</w>
ع باس</w>
ع فو</w>
عم ارت</w>
عم ق</w>
عم و</w>
عه د</w>
غل ط</w>
ف هم</w>
فر زندان</w>
فض ل</w>
فن جان</w>
فهمی دم</w>
فو لا
ق بیل</w>
ق دمی</w>
ق ید</w>
ل گ
لی ره</w>
م به
ما ز
ما ژ</w>
مال کیت</w>
مای ع</w>
متاسف انه</w>
مج ه
مح ور</w>
محاف ظ</w>
محمو له</w>
مرا تب</w>
مس لم</w>
مش ق</w>
مص ر
معل مان</w>
معی ارهای</w>
مق صد</w>
مل ک</w>
من حص
مهاج رت</w>
مو اج
مو اردی</w>
مو اق
موضو عی</w>
می ک</w>
ن خ</w>
ن مانده</w>
ن کر
نا س</w>
نام ش</w>
نان و
نز ده</w>
نش اط</w>
نش ستن</w>
نش نیده</w>
نش ون</w>
نم از</w>
نمای یم</w>
نوی سی</w>
نی کف</w>
نیم کت</w>
هم کار
همی ن
وجو دش</w>
ور انسکی</w>
وس از</w>
وی ز</w>
پ ور
پ ورت</w>
پائ ین</w>
پان زده</w>
پر سی</w>
پر ندگان</w>
پل است
پو شید</w>
پی مایی</w>
پیراه ن</w>
چار لز</w>
چرخ اند</w>
چک مه</w>
ک ج</w>
کا بینه</w>
کا پی
کار ا</w>
کال ج</w>
کالی فر
کش م</w>
کم پین</w>
گ تی</w>
گ شتند</w>
گذ شتند</w>
گر دم</w>
ی دند</w>
ی نی
یور گیس</w>
199 0</w>
20 13</w>
4 1</w>
8 00</w>
g t</w>
in g</w>
p e
s a
w o
آ لیوشا</w>
آ نا
آر ایش</w>
آم اری</w>
ا ژ
ا کو
اب هی</w>
ابل انسکی</w>
ات ش</w>
اخلا ق</w>
اد راک</w>
ار تی</w>
ارتق ای</w>
اس باب</w>
اس نی
است ار
است ین</w>
اسما ع
اسماع یل</w>
اسنی پ</w>
اص لا
اعترا ض
اف سون</w>
افز اید</w>
اقدا می</w>
اقی انوس</w>
ال ا</w>
ال بی</w>
ال ن</w>
ال یس</w>
ام لاک</w>
ان گر</w>
اندو ه
ای ماژ</w>
این و</w>
ب استانی</w>
ب بن
ب دانم</w>
ب سا
ب فهم
با ور
باز گش
باز گشته</w>
بخ ت
بخ ورد</w>
بخت انه</w>
بد ن
بر د
بر سند</w>
بر پا</w>
بن در</w>
بو ته</w>
بو می</w>
بود که</w>
بی نیم</w>
ت ف</w>
ت لی</w>
ت مس
ت نگی</w>
تجر بی</w>
تحلیل گران</w>
تخ مین</w>
تر از</w>
تر انه</w>
تق دیر</w>
تل خی</w>
تل فات</w>
تن دی</w>
تن ف
تور م</w>
توط ئه</w>
تی و</w>
جان شین</w>
جای زه</w>
جرائ م</w>
جزی ی</w>
جزی یات</w>
جغ را
ح ک</w>
حدو دی</w>
حسا بداری</w>
خ فه</w>
خ لوت</w>
خا ور</w>
خرو ج</w>
خطر ی</w>
خو شه</w>
خور م</w>
خی الی</w>
خی ز</w>
د دی</w>
د عا</w>
د ما
د مای</w>
دا ل
داد ها</w>
دار تین</w>
دان سته</w>
دای ره</w>
در ص
دش من
دو ان</w>
دو جانبه</w>
دو خت</w>
دوی ست</w>
دک مه</w>
دی ر
ر ز
رسان دند</w>
رسی دم</w>
روست ا</w>
ری ک</w>
زای نده</w>
زی ه</w>
س لو
سال گرد</w>
سان کو</w>
سر در
سریلان کا</w>
سط حی</w>
سفی را</w>
سنج ش</w>
سو اری</w>
سو زی</w>
سو نیا</w>
سو گند</w>
ش تی</w>
ش شم</w>
ش طر
شخص ا</w>
شک اری</w>
ص خره</w>
صر فه</w>
ضر بات</w>
ط ری
طر ه</w>
عدا لت</w>
عص بان
غ لبه</w>
ف شان</w>
ف لا
ف یل</w>
فا کس</w>
فر زند
فرا وانی</w>
فروش نده</w>
ق بر
ق دیم</w>
لو ع</w>
لو ک</w>
م است</w>
م توس
ما توف</w>
مت شکرم</w>
متح مل</w>
مج رم</w>
مج سم</w>
مخال فان</w>
مش ابهی</w>
مظ نو
مع دن</w>
ممنو عیت</w>
منت هی</w>
مو نی</w>
مک عب</w>
مگ س</w>
ن دا
ن داره</w>
ن رو
نا بودی</w>
نا ت</w>
نا خ
نام ید</w>
ند گانی</w>
نر فته</w>
نظ رات</w>
نظ ری</w>
نو سازی</w>
نگه بان</w>
نی ستی</w>
ه د</w>
ه ود</w>
هست انی</w>
هل مند</w>
هو ده</w>
هی کل</w>
و زی
وح شیانه</w>
وسی ع</w>
وظ ایف</w>
ول د</w>
ول ز</w>
پا تر</w>
پردا ختند</w>
پروت کل</w>
پل کان</w>
پن جه</w>
پی روز</w>
پی کر
پیو ست</w>
پیکر بندی</w>
چ انه</w>
چ من</w>
چش مه</w>
چی ان</w>
ک جاست</w>
ک لو
ک یه</w>
ک یک</w>
کار ا
کار بردی</w>
کار گاه</w>
کر م</w>
کم پانی</w>
کن ارش</w>
کود ک
گ ا</w>
گ له</w>
گ لی</w>
گ نج
گفت ار</w>
گل ویش</w>
گیر ه</w>
ی اس
ی ای</w>
ی ز</w>
ی قه</w>
یاد ش</w>
یک پارچه</w>
3 8</w>
4 2</w>
6 6</w>
a p
o u
s i
t a
آ ئ
آ درس</w>
آ ره</w>
آ وا
آ وار
آرز وی</w>
آز وز</w>
آشن ایی</w>
آفریق ایی</w>
آلو ده</w>
آن جایی</w>
آک اد
آی نه</w>
ا کی</w>
اتا ق
اث رات</w>
اد ها</w>
اذ یت</w>
ار ن</w>
اس امی</w>
اس ش</w>
اسپان ی
اش خاصی</w>
اش ون</w>
اطرا فش</w>
اع تب
اف ری
اف ش
افغ انی</w>
ال تحریر</w>
ال کس
ان ص
ان که</w>
ان گ</w>
انتظ امی</w>
اندا ختند</w>
اه ر</w>
اپو زی
اپوزی سیون</w>
ای شی</w>
ای لی</w>
ایرا د</w>
این طور</w>
ب خواهید</w>
ب دی
ب دیم</w>
ب ک
باز بینی</w>
باز گردان
بخ ار</w>
بد لیل</w>
بدن بال</w>
بر قی</w>
برخ است
بری ج</w>
بش که</w>
بع دش</w>
به تره</w>
بهی نه</w>
بکش ند</w>
بگذار یم</w>
بگوی ید</w>
بی کاری</w>
ت غذیه</w>
ت مجید</w>
تئ اتر</w>
تحلیل گر</w>
تر سی</w>
تر ن</w>
تراف یک</w>
تق دیم</w>
تق لید</w>
تهدی دات</w>
تون ست</w>
تون ستم</w>
ثرو تمند</w>
ج فت</w>
جرا حی</w>
ح لی</w>
حر ارت</w>
خ ال</w>
خ اموشی</w>
خن ک</w>
خو دی</w>
خور اک</w>
خوش حالی</w>
خوش م</w>
دا من</w>
دار و</w>
دانش مندان</w>
در حال</w>
درص دی</w>
دری افته</w>
دف تر
دو ف</w>
دو نه</w>
دیو ارها</w>
ذ وب</w>
ر قیب</w>
رای گان</w>
رف اه</w>
رق ابتی</w>
رق ص
رو ئین</w>
رو انی</w>
رو یا</w>
رو یه</w>
روز مره</w>
ز شت</w>
ز له</w>
زی با
س حر</w>
ساز گاری</w>
سر فه</w>
سف ارش</w>
سفی دی</w>
سی است
ش ال</w>
ش تا
ش ص
ش کوه</w>
شر مس
شص ت</w>
شطر نج</w>
شم ند</w>
شور شی</w>
شی وع</w>
صاد قانه</w>
ض بط</w>
طو فان</w>
ع اد</w>
عض ویت</w>
ف دا
ف ل</w>
ف ون</w>
فر ط</w>
ق طره</w>
قدر تمند</w>
قرار دادی</w>
قش نگ</w>
ل زم</w>
ل فور</w>
ل ندی</w>
لا ب</w>
لا دی
لا ز
لام یه</w>
لبن انی</w>
لو سی</w>
م داد</w>
م زیت</w>
م هر</w>
م گ</w>
مادر بزرگ</w>
مار چ</w>
مبار زات</w>
مت ان</w>
مت شکل</w>
مح ت
محاف ظه</w>
محق قان</w>
مدی ره</w>
مر بی</w>
مرا جع</w>
مست لزم</w>
مشتا قانه</w>
مطبو عات</w>
مع لق</w>
مع ن
مع ین</w>
معترض ان</w>
معج زه</w>
معی ار</w>
مغ رو
مق الات</w>
مل انی</w>
مل ایم</w>
مل حق</w>
مناس بت</w>
مو اظ
مواف ق
موان ع</w>
مک انی</w>
مک ث</w>
مکر ر</w>
می م</w>
می وه</w>
میرا ث</w>
ن توانسته</w>
ن دارید</w>
نا خالص</w>
نا ظ
نا و
ناز ک</w>
نس بی</w>
نق د</w>
نق شی</w>
نه فته</w>
نو آوری</w>
نو به</w>
نگ ار</w>
نی ل</w>
ه او
ه جوم</w>
ه مون</w>
هست ن</w>
هم کاران</w>
هواپیما های</w>
وج دان</w>
وی روس</w>
وی ض</w>
پ ژ
پر س
پرو سه</w>
پری شان</w>
پل ک</w>
پن داشت</w>
پی د
پیر زن</w>
چ و</w>
چشمان م</w>
ک افه</w>
ک لام</w>
ک مو
کار شناس</w>
کار و</w>
کالیفر نیا</w>
کاپی تان</w>
کر نل</w>
کن اره</w>
کی ست</w>
کی نه</w>
گ وری</w>
گو شش</w>
ی ار
ی انه</w>
ی سی</w>
یا دم</w>
4 7</w>
4 8</w>
5 7</w>
5 8</w>
7 5</w>
i t</w>
l a
w i
آ صف</w>
آ نی</w>
آ پارتمان</w>
آزمای شگاه</w>
آس ایش</w>
آش فتگی</w>
آفری قا</w>
آم دم</w>
آما دگی</w>
آوار گان</w>
آوی زان</w>
آی ی</w>
ا بری
اب عاد</w>
اتا قش</w>
اج باری</w>
اج زای</w>
اج لاس</w>
اح دا
احدا ث</w>
احساس اتی</w>
اخت را
اد ب</w>
ار دو</w>
ار دیه</w>
ار ق
ار ویی</w>
ارت ک
از دهم</w>
از ش</w>
از ل</w>
اس ر
اس رار</w>
استع فا</w>
اسکن دری
اسکندری ه</w>
اش با
اشک ال</w>
اعتراض ات</w>
افتا دم</w>
ال آن</w>
ال ش
ال گوهای</w>
ام تنا
ام روزی</w>
ام یل</w>
امتنا ع</w>
امو ند</w>
امی دی</w>
ان قدر</w>
انتخا بی</w>
اه ن</w>
او س
اور اق</w>
اوم ده</w>
اک سید</w>
اکث ریت</w>
ای ز</w>
ایر لند</w>
ب استان</w>
ب ای</w>
ب توان</w>
ب خواهیم</w>
ب لی</w>
ب مان
ب نظر</w>
ب نو
ب های</w>
ب پو
ب کنید</w>
با خت</w>
با طل</w>
با کو</w>
باز ده</w>
باز وی</w>
بان وان</w>
بحر انی</w>
بر گش
برگ شتند</w>
بز ن</w>
بزر گان</w>
بست انی</w>
بست ری</w>
بش نوم</w>
به ار</w>
بپردا زند</w>
بگذ ارم</w>
بگذ رد</w>
بگوی یم</w>
بی ات</w>
بی گانه</w>
بیفت د</w>
ت انی</w>
ت طبی
ت میز</w>
ت نوع</w>
ت کلیف</w>
تا ل</w>
تبعی ض</w>
تج ار</w>
تح میل</w>
تحق ق</w>
تحقی ر</w>
تدری ج</w>
تر دیدی</w>
تض عی
تضعی ف</w>
تع ظ
تن اردیه</w>
تولی دات</w>
تی پ</w>
ثرو ت
ج استین</w>
ج انی</w>
ج ون</w>
جا ع</w>
جغرا فی
جم لات</w>
جن ایی</w>
جن ون</w>
جنا ح</w>
جنگ جویان</w>
ح شره</w>
حس ب</w>
حص ار</w>
خاطر ش</w>
خد مه</w>
خو ک</w>
خوش بختی</w>
خویش او
د شان</w>
د مشق</w>
د گر
دا لی</w>
داد گست
دادگست ری</w>
دار نده</w>
دستور ها</w>
دی شب</w>
دی وید</w>
ر مز</w>
ر ک
رادی ویی</w>
راس کل
راسکل نیکف</w>
رح م</w>
رم زی</w>
رو حیه</w>
رو شنی</w>
رو مانی</w>
ز اند</w>
ز ون</w>
زو زه</w>
س له</w>
س می
سر دبیر</w>
سر نگ
سل سله</w>
سن جی</w>
سه شنبه</w>
سو ده</w>
سو زان</w>
سو ل</w>
سوا د</w>
سی ار</w>
سی تی</w>
سیاست مدار
ش ل
ش یم</w>
شاخ ص</w>
شم است</w>
شن ا</w>
شناس د</w>
شی نی</w>
ضر ر</w>
ضعی فی</w>
ط ار</w>
ط ع
ط لوع</w>
ظ ریف</w>
ع ل</w>
ع نامه</w>
عبار تند</w>
عبدا لر
عصبان یت</w>
عل ایم</w>
عو ارض</w>
غ ش</w>
ف اسد</w>
ف زاینده</w>
فر انی</w>
فر قه</w>
فو ت</w>
ق سمتی</w>
قائ ل</w>
قب ایل</w>
قر ض</w>
قط عنامه</w>
قف سه</w>
لا غر</w>
لح ظ
م کش</w>
ماج را
مار گارت</w>
مبه وت</w>
مج اور</w>
مج روح</w>
مجه ز</w>
محاس بات</w>
محت مل</w>
محکو میت</w>
مخ فی
مر بع</w>
مر و</w>
مس دود</w>
مس کو
مسافر ان</w>
مسل ط</w>
مسی ح
مسی حی</w>
مش عل</w>
مض طر
مف اهیم</w>
مق بره</w>
مق صر</w>
من ح
منط ق</w>
مهمان خانه</w>
مو بای
مواج هه</w>
می خ
می هم
می کرو
ن باش</w>
ن دم</w>
ن هم</w>
ن کنند</w>
ن گر</w>
نا پذیری</w>
نح و</w>
نش اند</w>
نک ات</w>
نی افته</w>
نیرو مند</w>
نیرو ها</w>
ه ایمان</w>
ه روئین</w>
ها گو
هاگو ارت
هر و</w>
هی چی</w>
و سا
وض وح</w>
وی د
پ او
پ شی
پای انی</w>
پذیر ند</w>
پردا زند</w>
پی امی</w>
پی تر</w>
ک امی</w>
ک ای
ک دا
کات رینا</w>
کام لی</w>
کان ون</w>
کتا بی</w>
کل ان</w>
کو بید</w>
کور ه</w>
گ اه
گ زی
گذ راند</w>
گر ها</w>
گرو هه</w>
گمر ک</w>
گی اه</w>
ی دن</w>
یاس ین</w>
یک باره</w>
0 2</w>
199 2</w>
a c
c r
i d
p a</w>
w w
آ بی
آ د
آئ ور
آئور لی
آتل انتا</w>
آی ین</w>
ا وی
اث ری</w>
احم دی</w>
اخترا ع</w>
ادع ای</w>
ار ا</w>
ار زان</w>
ار شان</w>
ارق ام</w>
اس کار</w>
است ی
اسی سات</w>
اش ته</w>
اش عه</w>
اع لامیه</w>
اع لی</w>
اعتب اری</w>
اعط ا</w>
اف تم</w>
افزو دند</w>
اق ت</w>
اق ل</w>
ال تی</w>
ال حیات</w>
ام ارات</w>
ام لی</w>
انبا شته</w>
انح راف</w>
اه دا</w>
او ژن</w>
ای ز
ای ق</w>
ب خواهند</w>
ب ق
ب نام</w>
ب نگاه</w>
ب ها</w>
ب هم</w>
ب گم</w>
بار ید</w>
بان گ</w>
بر انگیز</w>
بر تر</w>
بر دم</w>
بر طرف</w>
بر نمی</w>
برا ق</w>
برگر دم</w>
بزرگ ش</w>
بل د</w>
بلی ط</w>
بنی اد</w>
بو سه</w>
بپر سم</w>
بکش م</w>
بی لی</w>
ت اسیسات</w>
ت ج</w>
ت دو
ت نگه</w>
تار ا</w>
تای مز</w>
تدار ک</w>
تدو ین</w>
تر ان
تر سیم</w>
ترس ناک</w>
تری س</w>
تصاد فی</w>
تض اد</w>
تظاه ر
تع ویق</w>
تعه دات</w>
تف سیر</w>
تل ف</w>
تو ست</w>
تی می</w>
ج ائی</w>
ج البی</w>
ج شنو
جری مه</w>
جشنو اره</w>
جو ا</w>
ح فره</w>
حص ول</w>
حقی ق
حو صله</w>
حک ایت</w>
خ فته</w>
خا ش</w>
خا کی</w>
خار ق</w>
خلا ص</w>
خو استی</w>
خو ف</w>
خود مخت
خور اکی</w>
خوش ایند</w>
خی ریه</w>
د فا
د ند
د وری</w>
د پارتمان</w>
دار های</w>
دار ویی</w>
دان ستن</w>
در مانی</w>
در گاه</w>
درد سر</w>
درش که</w>
دری چه</w>
دف ن</w>
دور افتاده</w>
دور تر</w>
دوست انش</w>
دی نگ</w>
ذه نم</w>
ر الف</w>
ر خت</w>
ر سه</w>
ر ن
را هرو</w>
راس توف</w>
راه پیمایی</w>
رس ما</w>
رسان ند</w>
رو بل</w>
روز اموند</w>
روی ارویی</w>
ری ز
ز اد
زر داری</w>
زو ج</w>
زو د
س لیم</w>
ساع ته</w>
سال یانه</w>
سر طان</w>
سر قت</w>
سرا زیر</w>
سه ام
سو زان
سو س</w>
سوئ یس</w>
سی صد</w>
سی مان</w>
سین ما</w>
ش اهی</w>
ش ل</w>
ش مرده</w>
ش گی</w>
شب ح</w>
شناس ید</w>
شه روند</w>
شی دی</w>
صاد راتی</w>
صور تم</w>
ض یافت</w>
ضرو رت</w>
طل بان</w>
ظ ل
ظاه ری</w>
ع ث
ع دد</w>
عذ اب</w>
عذ ر</w>
عظ یمی</w>
عم لا</w>
عی ن
عی نک</w>
غ بار</w>
ف ضا</w>
ف ق</w>
ف م</w>
ف ین</w>
فا ف</w>
فرو رفته</w>
فری ادی</w>
فل ور
فهمی ده</w>
ق الی</w>
ق ریب</w>
ق ور
قان و
قش نگی</w>
قو ت</w>
قو س</w>
ل ایل</w>
لاز مه</w>
لع نتی</w>
لی بر
لی نگ</w>
م بنای</w>
م داخله</w>
م فی
م گه</w>
ما ق</w>
مب ل</w>
مت قابل</w>
مث بتی</w>
مح سود</w>
محتو ای</w>
مخ زن</w>
مر دها</w>
مرد انی</w>
مس لح
مسافر تی</w>
مش کلا
مشخص ات</w>
مشرو ب</w>
مشکو ک</w>
مط لق</w>
مط مین</w>
مطل ع</w>
مع ادله</w>
مع اینه</w>
مع تبر</w>
مغ زش</w>
مل ای
من ت</w>
من د
من شی</w>
من عقد</w>
منا ق
مناس بی</w>
منح نی</w>
منظ م</w>
مهاج ر</w>
مهاج م</w>
مو د
مور دی</w>
موق تی</w>
مکانی زم</w>
می رد</w>
می ری</w>
می نا</w>
می همان</w>
میر ند</w>
ن ار</w>
ن جیب</w>
ن خواهند</w>
ن درت</w>
ن کردم</w>
نش ستم</w>
نص ف</w>
نم ک</w>
نو جوان</w>
نو ف</w>
نویس ندگان</w>
نگ و</w>
ه ق</w>
ها گ</w>
هر حال</w>
هر دو</w>
هم دردی</w>
هم سای
همی شگی</w>
هن دوستان</w>
هی س</w>
و به</w>
و ستن</w>
و صل</w>
ور دی</w>
ور ز
وی ران</w>
ویر ایش</w>
پا تی
پاد شاه</w>
پای داری</w>
پن هانی</w>
پی ام
پی شه</w>
پیش خدمت</w>
چ اله</w>
چ اه</w>
چ اک</w>
چ گی</w>
چرخ ید</w>
چش مانی</w>
چو ب
ک اس
کار لایل</w>
کاردی نال</w>
کل یک</w>
کوی ته</w>
کیلو وات</w>
گ ارد</w>
گ شود</w>
گر دی</w>
گرد نش</w>
گرفت یم</w>
گز اری</w>
گو شی</w>
گوی یم</w>
گیر انه</w>
ی وا
ی گانه</w>
یاد آور</w>
1 20</w>
19 6
198 0</w>
3 4</w>
3 7</w>
4 6</w>
5 4</w>
an d
an d</w>
b s</w>
f f</w>
h r
l t</w>
o n
s p
th e</w>
آ رو
آ گو
آ یم</w>
آر تور</w>
آزاد سازی</w>
آش تی</w>
آفریق ای</w>
آمریک ای</w>
آور م</w>
آوی خته</w>
ئ لی</w>
اب انی</w>
اح اط
احاط ه</w>
اختلا فات</w>
اختی ارات</w>
ار ابه</w>
ار اضی</w>
ار با
ار غ
ارتک اب</w>
از م</w>
اس امه</w>
اس بی</w>
اس میت</w>
است و</w>
اش ع
اط اعت</w>
اع تی
اع ص
اع لان</w>
اعتی اد</w>
اف رو
اق بال</w>
ال هی</w>
الکترونی ک</w>
الی ست</w>
ام ضای</w>
ان عط
انتق الی</w>
اندا ختم</w>
انس انیت</w>
اور اک
اولی ویه</w>
ای تا</w>
ای تان</w>
ای وان
ایر انی</w>
ب ارش</w>
ب بریم</w>
ب مانند</w>
ب نف
ب کار
ب کنند</w>
ب کنیم</w>
ب کو
ب گویی</w>
ب گیر</w>
با غ
باز جویی</w>
باز می</w>
باز ویش</w>
بازر گ
بازرگ انان</w>
بخ شیده</w>
بد بخت</w>
بد ش</w>
بد نه</w>
بد نی</w>
بذ ار</w>
بر ایت</w>
بر داشتم</w>
برا ون</w>
برادر ان</w>
برگش تن</w>
بس ط</w>
بو ن</w>
بگی ریم</w>
بی ابان</w>
بی اد</w>
بیاور ند</w>
ت د</w>
ت زی
ت ظاهر</w>
ت می</w>
ت نامه</w>
ت کن</w>
ت یا</w>
تا بستانی</w>
تا بع</w>
تبلی غ</w>
تج اوز</w>
تج ویز</w>
تحقی قی</w>
تر کی</w>
ترسی دم</w>
تری اک</w>
تشک یلات</w>
تص ریح</w>
تص ور
تصوی ری</w>
تطبی ق</w>
تع ارف</w>
تع لیم</w>
تع میر</w>
تف اوتی</w>
تف ص
تل ر</w>
تم دن</w>
تماش ا
تو س</w>
تو لد</w>
توان ستیم</w>
تک ذ
تکذ یب</w>
ثرو ت</w>
ج ف</w>
جا ها</w>
جر ایم</w>
جی بش</w>
ح امل</w>
ح ش
ح ماس</w>
حاک میت</w>
حر کات</w>
حسا برسی</w>
خ است</w>
خ شان</w>
خ شنود</w>
خ نج
خ ندد</w>
خا ط
خاطر نشان</w>
خت گی</w>
خد ایا</w>
خرا بی</w>
خری ده</w>
خس ارات</w>
خو ای</w>
خو نی</w>
خوا بی
خواب ش</w>
خی س</w>
د ز</w>
دا ع</w>
دائ م</w>
دائ می</w>
داشت نی</w>
دانش گاهی</w>
دبیر کل</w>
دختر انه</w>
دختر ها</w>
دری ک</w>
دست یار</w>
دنی ایی</w>
دو ام</w>
دو زی</w>
دو ل
دوی دن</w>
دیپل ماتیک</w>
ذ ا</w>
ر ل</w>
ر کود</w>
ر گ</w>
را برت</w>
رس نجی</w>
رسی دیم</w>
رفت ارش</w>
رفت ارهای</w>
رنگ ش</w>
رو ا</w>
روی دادها</w>
ری تی</w>
ز انه</w>
زل زله</w>
زنج یره</w>
س خت
س ق
س لا
س مه</w>
س پاس
سا ب
سا زنده</w>
سال خورده</w>
سای رین</w>
ست ارگان</w>
سر شار</w>
سرو ان</w>
سف ه</w>
سو اران</w>
سو استفاده</w>
سی ا</w>
سیاستمدار ان</w>
ش تش</w>
ش هو
شان ون</w>
شر کتی</w>
شری ک</w>
شع به</w>
شلو غ</w>
شهر داری</w>
ص ریح</w>
صاح بان</w>
صبح انه</w>
صف انه</w>
صف حات</w>
ض ریب</w>
ط اق</w>
طر حی</w>
ظ ن</w>
ظ و
ع ناصر</w>
عاق ل</w>
عر شه</w>
عم دتا</w>
عی نی</w>
غ ار</w>
غ اف
غ صه</w>
غرو ر</w>
غرو لند</w>
غری به</w>
غم گین</w>
ف تا
ف یس</w>
فت ن</w>
فدا کاری</w>
فر زندان
فر س
فرو کش</w>
فق دان</w>
فل ک</w>
فلسط ینی
فلسطینی ان</w>
فی صل</w>
فی و
فیر برادر</w>
ق ب</w>
قا چاق
قاط ع</w>
قرار دادهای</w>
قزاق ستانی</w>
قض ات</w>
قط عات</w>
قو م</w>
قی ام</w>
ل نگ</w>
ل ون</w>
لا اقل</w>
م سرت</w>
م شان</w>
م فت
م کن</w>
ما تریس</w>
ماج رای</w>
مان ت</w>
مان وف</w>
مباد له</w>
مبار زان</w>
مبل غی</w>
مت غیر
مت مایل</w>
متخصص ان</w>
متع ددی</w>
مج ازی</w>
مج سمه</w>
مح ترم</w>
مخ لو
مخا زن</w>
مدر ک</w>
مر تک
مر دن</w>
مرو ر</w>
مز بور</w>
مسئو لین</w>
مسا ئلی</w>
مسا جد</w>
مسلح انه</w>
مسکو نی</w>
مسی ح</w>
مش غ
مش کی</w>
مضطر ب</w>
مطبو ع</w>
مع دنی</w>
مع نوی</w>
معتق دند</w>
من حرف</w>
من ع</w>
مناق شه</w>
منحص ر</w>
منظور ش</w>
مهاج مان</w>
مهم ند</w>
مو س</w>
مو ش</w>
موبای ل</w>
موث ری</w>
مک زیک</w>
می خانه</w>
می زی</w>
می هن</w>
ن ن</w>
نا ظر</w>
ناظ ران</w>
ناق ص</w>
ند ش</w>
نرو ژ</w>
نز مه</w>
نش ریه</w>
نص ر</w>
نظ رسنجی</w>
نف سش</w>
نه ایتا</w>
نکر دنی</w>
نگر ی</w>
نی ر</w>
نی و</w>
نی کی</w>
ه اش</w>
ه ال</w>
ه ان
ه ند
ه وی
ه ک
هد ف
هد فی</w>
همی ه</w>
هنر مند</w>
هواپی مای</w>
هک تار</w>
و بن</w>
و سی</w>
و له</w>
و کلای</w>
وان سیون</w>
وس عت</w>
وسی عی</w>
وفا دار</w>
ول تا
وی کتور
ویکتور یا</w>
پ ترو
پ سند</w>
پ م
پ و</w>
پر ت
پر تو</w>
پر ستی</w>
پر سم</w>
پسر ها</w>
پوش اند</w>
پوشان ده</w>
پی انو</w>
چرخ د</w>
چسب اند</w>
ک تی
کار آیی</w>
کار انه</w>
کار بری</w>
کاز وبن</w>
کر سی</w>
کری موف</w>
کشور ش</w>
کل اس
کم کش</w>
کن وانسیون</w>
کنی ا</w>
کنی ن</w>
کو ه
گ او
گ س</w>
گذ ارم</w>
گذران ده</w>
گر دیم</w>
گر مای</w>
گر و</w>
گرو گان</w>
گش ایش</w>
گل ویم</w>
گو ئی</w>
گو دال</w>
گوی ا</w>
گی ریم</w>
ی ارد</w>
ی فی</w>
یاف تم</w>
یور ش</w>
یونی سف</w>
یک بار</w>
یکنوا خت</w>
0 000</w>
199 7</w>
2 50</w>
7 1</w>
7 6</w>
9 5</w>
a c</w>
a g
c t
f e
f p</w>
g o
i e
i r
m s
s a</w>
u r
ww w</w>
آ هی</w>
آئورلی انو</w>
آری ثا</w>
آسی ایی</w>
آش پز</w>
آل بر</w>
آن جل
آن ست</w>
آنجل س</w>
ا ا
ا تا</w>
ا تمام</w>
ا پی</w>
ات ری
اج ساد</w>
احتی اطی</w>
اخ طار</w>
اخ م</w>
ار ع</w>
اری سا</w>
از ن</w>
اس طه</w>
اس کو
اس کی</w>
است یو</w>
استث نای</w>
اص د</w>
اص ی</w>
اصلا حیه</w>
اض ع</w>
اف تی</w>
اف کارم</w>
افتا دن</w>
اقدا ماتی</w>
ال اح
ال اوس
ال جزایر</w>
ال شرق</w>
ال ف
ال یوم</w>
الکس ان
ام ا
ام ام
ام دند</w>
امپرا طور</w>
انتظ ارات</w>
انتظ ارش</w>
انج امید</w>
انعط اف</w>
انقلا بی</w>
اه الی</w>
اه یر</w>
او ات</w>
او کر
اوراک زی</w>
اون ها</w>
اکسی ژن</w>
ایت الیایی</w>
ایدئ ولوژی</w>
ایست گی</w>
ب برید</w>
ب تش</w>
ب توانیم</w>
ب خواند</w>
ب دانید</w>
ب در
ب ده
ب شنود</w>
ب شوند</w>
ب ص
ب مب
ب مبار
ب نگ
ب نی</w>
با خته</w>
با زه</w>
با غه</w>
با لی
با م</w>
با هم</w>
بار دار</w>
باز مان
باک تری</w>
بای وا</w>
ببی نی</w>
بخ شیدن</w>
بد خشان</w>
بد نم</w>
بر دار</w>
بر هم</w>
بر کنار</w>
بش م</w>
بمبار ان</w>
بن زین</w>
بنا بر</w>
بنشی ند</w>
به شت</w>
بو اسطه</w>
بو سید</w>
بو لو
بو ک</w>
بور یس</w>
بی ابد</w>
بی رو
بی لیون</w>
ت سا
ت سریع</w>
ت پش</w>
تا بل
تا بوت</w>
تا جر</w>
تاث یری</w>
تان ک</w>
تبر یک</w>
تبلیغ اتی</w>
تج زیه</w>
تخص ص</w>
تش ریح</w>
تص ورش</w>
تق ص
تق لا</w>
تق لب</w>
تل گراف</w>
تن بیه</w>
تنف س</w>
تو ام</w>
تو ج
تو م</w>
تو ماس</w>
تو یی</w>
تک ث
ج او
ج ل</w>
ج یم</w>
جادو ی</w>
جس می</w>
جغرافی ایی</w>
جم اهیر</w>
جن ب</w>
جو ع</w>
ح ری
ح ریم</w>
ح قایق</w>
ح قه</w>
ح کام</w>
حاف ظی</w>
حش رات</w>
خ امت</w>
خ ندان</w>
خا طرا
خاط رات</w>
خبر ه</w>
خدا حافظی</w>
خر مگس</w>
خطر ناکی</w>
خلی فه</w>
خوا بید</w>
خواب گاه</w>
خود رو
خود مون</w>
خور شیدی</w>
خوش بختانه</w>
د شت</w>
د لت</w>
دختر م</w>
در این</w>
در مورد</w>
در پی</w>
دست مال</w>
دشمن ان</w>
دعو ا</w>
دف ع</w>
دفا تر</w>
دفتر چه</w>
دی دنش</w>
ر بط</w>
ر جوع</w>
ر خ
ر قت</w>
ر ن</w>
ر نج
ر نزمه</w>
را ق</w>
راه برد</w>
راه بردهای</w>
راه نما</w>
رسان ید</w>
رو ک</w>
رک ورد</w>
ز اری</w>
ز بورگ</w>
ز دیم</w>
ز غال</w>
زنج یر</w>
زندگی ش</w>
زو ف</w>
س انی</w>
س غ
س نا
س همیه</w>
س ویش</w>
س ک
سا زه</w>
سر عتی</w>
سر گردان</w>
سغ د</w>
سو ت</w>
سو سی
سوی ان</w>
سی ست
سی ف</w>
ش اع
ش ایستگی</w>
ش تن</w>
ش شان</w>
ش فاف</w>
ش مرد</w>
ش یک</w>
شاد مان</w>
شان سی</w>
شاه دان</w>
شری عت</w>
شف افیت</w>
شنا ختی</w>
شنا ور</w>
شهر ها</w>
شی رینی</w>
شی ن
ص الح</w>
ص دام</w>
ص لی</w>
صح بتی</w>
صد مه</w>
ط ف</w>
ط فره</w>
ط لاق</w>
ط نا
ط وف</w>
ظ هور</w>
ع ز
ع زت</w>
ع سل</w>
ع ش</w>
عاق لانه</w>
عبدالر ح
عمو ما</w>
عوا طف</w>
غ رید</w>
غ لام</w>
غری بی</w>
ف اح
ف یه</w>
فت ح</w>
فر ار
فر ای
فر سوده</w>
فر ما</w>
فران سویان</w>
فری ب</w>
فل سفه</w>
فن دور</w>
فهر ستی</w>
فولا د</w>
ق له</w>
قان ع</w>
قانو نگذ
قدر تی</w>
قر ص</w>
قش ون</w>
قط بی</w>
قف س</w>
قور باغه</w>
ل ور</w>
لا تین</w>
لط مه</w>
لط یف</w>
لغ ت</w>
لنگ دان</w>
لو ک
لی تی</w>
لی ر</w>
م خارج</w>
م مل
م چ</w>
ما د</w>
مادر ان</w>
ماه ر</w>
ماهی گیری</w>
مبا ح
متع دد</w>
متع هد</w>
متغیر های</w>
مج ل
مح اص
مح بتی</w>
مح تا
مح ر
مدی ریتی</w>
مر بیان</w>
مرتک ب</w>
مرد انه</w>
مرد د</w>
مری ض</w>
مز ارع</w>
مسا فر</w>
مسی رهای</w>
مسی ری</w>
مسی ول</w>
مصر فی</w>
مطال بی</w>
مع طوف</w>
مع کوس</w>
معتق دم</w>
مغ زی</w>
مغرو ر</w>
مق ص
من شا</w>
من صفانه</w>
منا ک</w>
مو سی</w>
مو شک</w>
مو گ
مواظ ب</w>
موق عیتی</w>
مکان یکی</w>
می ث
ن ای
ن جوا</w>
ن دید</w>
ن رسید</w>
ن رسیده</w>
ن کردند</w>
نا خدا</w>
نا شناخته</w>
ند را</w>
نر ده</w>
نش ان
نشی من</w>
نظر بایف</w>
نف همی
نق اب</w>
نق ص</w>
نمو دار</w>
نو شت
نوز اد</w>
نوی سد</w>
نی اید</w>
ه ریت</w>
ه فتگی</w>
ه و</w>
هم بستگی</w>
همکار انش</w>
همین طور</w>
هی ل</w>
و اره</w>
و خیم</w>
و را</w>
و ها</w>
وا کس
وال انتین</w>
وال دی
وان مود</w>
واک سینه</w>
ور زد</w>
ور قه</w>
ور ها</w>
وسا ئل</w>
وق تش</w>
وق فه</w>
وق ه</w>
ولو ژیکی</w>
پ تر
پ تر</w>
پ ن</w>
پ چ</w>
پسر ان</w>
پو تین</w>
پو ست
پو ف</w>
پو ل
پی ری</w>
چ ادر</w>
چ ندی</w>
چ پش</w>
چ کار</w>
چنگ ال</w>
چهار ده</w>
ژ ی
ژ ین</w>
ک اف
ک او</w>
ک تور</w>
ک پی</w>
کا ج</w>
کاش ت</w>
کال اها</w>
کالی نز</w>
کس ل</w>
کن ایه</w>
کن دوز</w>
کو ل
کو لی</w>
کو هستانی</w>
کوتو زوف</w>
کوه ستان</w>
کوچ کش</w>
گ ا
گ امی</w>
گ انش</w>
گر ان
گر ما</w>
گرد انی</w>
گری ز</w>
گری فندور</w>
گز ار</w>
گفت ید</w>
گن اه
گو سف
گو ها</w>
گی اهان</w>
ی اب</w>
ی من</w>
ی نه</w>
ی کم</w>
یا س</w>
یاف تند</w>
یهو دیان</w>
یو ن
0 7</w>
0 8</w>
0 9</w>
1 000</w>
1 30</w>
1 40</w>
199 6</w>
2 6
4 3</w>
4 9</w>
5 1</w>
5 2</w>
5 9</w>
7 00</w>
a t
b c</w>
b o
c a</w>
cn t</w>
h r</w>
h tt
i a</w>
i l
i p
q u
s h</w>
s o
آ بر
آ تام
آ تو
آ دا
آ ستین</w>
آ پارت
آتام بایف</w>
آتو ز</w>
آذ رب
آذرب ایج
آذربایج ان</w>
آر نج</w>
آزاد انه</w>
آسو دگی</w>
آسی بی</w>
آش ام</w>
آش غال</w>
آف تابی</w>
آنا تو
آو اره</w>
آور دم</w>
آور ید</w>
آور یم</w>
ا تیو
ا در
اب لا</w>
ابرو هایش</w>
اتیو پی</w>
اج ر</w>
اح یای</w>
احترا می</w>
اخ ذ</w>
اد بی</w>
ار آمیز</w>
ار زشی</w>
ار ستان</w>
ارو س</w>
ارو ف</w>
از هر</w>
اس ازی</w>
استر داد</w>
اع ضا</w>
اع ماق</w>
اعتن ایی</w>
افغان ستانی</w>
اق امت</w>
اق لیت</w>
ال تحصیل</w>
ال حق</w>
ال هام</w>
ال کل</w>
الاوس ط</w>
ام ض
ام ور
امام علی</w>
ان در
ان ور</w>
ان وردی</w>
انت ان</w>
اند را</w>
اندی ش</w>
انگ های</w>
اه دی</w>
اه رات</w>
او م</w>
اور ان
اوم دی</w>
اوکر این</w>
اپ را
ای التی</w>
ای ام</w>
ای س
ای و
ب اس
ب ایی</w>
ب برم</w>
ب تن</w>
ب دانند</w>
ب قای
ب پیو
با تلر</w>
با خ
باز ان</w>
باز خورد</w>
بازمان دگان</w>
بازگش ایی</w>
بازی گران</w>
بخوان م</w>
بخوان ید</w>
بذ ر</w>
بر اش</w>
بر ایشان</w>
بر ترا
بر خی
بر ن
بر گه</w>
برانگی خت</w>
برترا م</w>
برسان ند</w>
بغ ل</w>
بل ایای</w>
بلا گ</w>
بنف ش</w>
به شون</w>
بی ا
بی ایم</w>
بی ب</w>
بی گناه</w>
بیمار ستانی</w>
بیندا زد</w>
ت بار</w>
ت خت
ت د
ت نیس</w>
ت کامل</w>
ت ید</w>
تا س</w>
تا کسی</w>
تا گ</w>
تاث یر
تای ی
تب سمی</w>
تح ول</w>
تحص یلات</w>
تدری س</w>
ترا بری</w>
تز ل
تس لی</w>
تسا وی</w>
تص رف</w>
تظاهر کنندگان</w>
تع امل</w>
تع ویض</w>
تعظ یم</w>
تق ویم</w>
تل خ</w>
تمس خر</w>
تو ا</w>
تو نید</w>
تواف قی</w>
توج یه</w>
تور ن
توری سم</w>
تولی دی</w>
تکث یر</w>
ج ده</w>
ج دید
ج عت</w>
ج لی
جاس وسی</w>
جان ور</w>
جای یکه</w>
جذ ا
جر دن</w>
جز ئی</w>
جن ایات</w>
جنا زه</w>
جنگ نده</w>
جه ش</w>
جو ش</w>
جو لیا</w>
جوی انی</w>
جوی د</w>
ح اجی</w>
ح امد</w>
ح ان</w>
حاض رم</w>
حسا دت</w>
حو م</w>
حوا س</w>
خ طور</w>
خ لا</w>
خ لال</w>
خ یر
خال د</w>
خت یم</w>
خج ند</w>
خر س</w>
خری داری</w>
خش خاش</w>
خص ی</w>
خو ابی</w>
خو ست</w>
خوان دند</w>
خوان ند</w>
خور دیم</w>
خون سرد</w>
خویشاو ند</w>
د از</w>
د بی</w>
د لی</w>
د نا</w>
د گیت</w>
دا ون</w>
دار ها</w>
دان تس</w>
داو طلب</w>
در بار</w>
در ست
در سته</w>
درا زی</w>
درخ تی</w>
درخ شش</w>
دست اور
دع وی</w>
دوی دند</w>
دک تر
دی س</w>
دی لی</w>
دی گ</w>
دید ای</w>
دیو اری</w>
دیپل مات</w>
ر انه</w>
ر به</w>
ر خت
ر فق
ر ق</w>
ر قی
ر ند</w>
را ش</w>
رادی واک
ران ده</w>
ران ندگان</w>
رسی م</w>
رفت اری</w>
رو باه</w>
رو یا
روز گار</w>
روشن ایی</w>
روی ی</w>
ری اض
ری زه</w>
ری ش
ریک و</w>
ز ائ
ز اس</w>
ز او
ز بانش</w>
ز دی</w>
ز مانه</w>
ز مست
ز نا
زا ویه</w>
زن نده</w>
زند گان</w>
زی ان</w>
زی ستی</w>
س انت
س بیل</w>
س فر
س فری</w>
س لی</w>
س نه</w>
س وری</w>
س کو</w>
سان تی</w>
ست ان
سخ نی</w>
سر لشکر</w>
سرپر ست</w>
سنا تور</w>
سنج اق</w>
سه ل</w>
سهام داران</w>
سو اره</w>
سو ال
سو زن</w>
سو ف</w>
سو ندرا</w>
سوا بق</w>
سوی ی
سی ری
سی نی</w>
ش انگهای</w>
ش انی</w>
ش دگان</w>
ش هره</w>
شار ک</w>
شان زده</w>
شای عات</w>
شج اعت</w>
شنی دی</w>
شهر دار</w>
شو اهدی</w>
شو ت</w>
شک افی</w>
شکار چی</w>
شی دم</w>
ص اع
ص افی</w>
ص حر
ص عود</w>
ص لاح</w>
صدا های</w>
ض ار</w>
ض ت</w>
ض د
ض منی</w>
ط نین</w>
طرف ین</w>
طری قی</w>
طع نه</w>
طور ه</w>
ع رو
ع لو
عزی مت</w>
عل ل</w>
عمر ش</w>
عمر م</w>
غ الب</w>
غ ض
غ لات</w>
غ لی
غر امت</w>
غیر ممکن</w>
ف از</w>
ف ای</w>
ف لی
ف لیپ</w>
ف وا
فا تی</w>
فت ند</w>
فر ام
فر به</w>
فر ستم</w>
فر شته</w>
فر کان
فرست د</w>
فرستا دند</w>
فرو خته</w>
فروش ندگان</w>
فری ادهای</w>
فس کی</w>
فل زی</w>
فلور نتی
فلورنتی نو</w>
فیر فاکس</w>
ق ات
ق ولی</w>
ق ویا</w>
قل مرو</w>
قی متی</w>
ل انی</w>
ل خت</w>
ل ن</w>
ل کنت</w>
لان دو</w>
لع نت</w>
لگ د</w>
لی زی</w>
لی نتون</w>
م لو
مادر ی</w>
ماس ا
مان دند</w>
مان ش</w>
مان ندی</w>
ماه واره</w>
ماک زیم</w>
مای کرو
مای کل</w>
مت ق
متح رک</w>
متو لد</w>
مح ال</w>
مح بوس</w>
مح فو
محاص ره</w>
محاف ظ
محر مانه</w>
محص ور</w>
مدی ر
مر اسمی</w>
مر حوم</w>
مرا جعت</w>
مرد مان</w>
مردا ک</w>
مزاح مت</w>
مسل سل</w>
مع اش
مع ماری</w>
مع نایی</w>
معن است</w>
مقص ود</w>
مل ت
من دتر</w>
من ز
من صرف</w>
منا ظر</w>
منص فه</w>
منص وب</w>
مهم انان</w>
مهند سان</w>
مو ع
می سر</w>
می ل
میث اق</w>
ن ایب</w>
ن ت
ن دهد</w>
ن شت</w>
ن کا</w>
ن کنی</w>
ن گفت</w>
نا آرامی</w>
نا دی</w>
نا ط
نا چیز</w>
نا کامی</w>
نام شخص</w>
نامز دهای</w>
نان و</w>
نج ار</w>
نس ب</w>
نش دند</w>
نع ره</w>
نف رین</w>
نق دی
نمای شنامه</w>
نمای شی</w>
نه ا
نه ضت</w>
نو ای</w>
نو می
نوی ن</w>
نی امد</w>
نی اورد</w>
نی زه</w>
نی نی</w>
ه شتم</w>
ه لند</w>
ها گرید</w>
هار ولد</w>
هاگوارت ز</w>
های تان</w>
هدف مند</w>
هر مای
هف تاد</w>
هم چنانکه</w>
همان گونه</w>
هو لت</w>
هواپی مایی</w>
و جد</w>
و صف</w>
و لا</w>
و ن
وا بستگی</w>
وا ح</w>
وا ک</w>
وح ش</w>
ور زید</w>
وز را</w>
وزی ران</w>
وی ت
وی دیو</w>
وی ل
پ اشی</w>
پ تو</w>
پ زی</w>
پ لی</w>
پ گ
پا پ</w>
پار ا
پارام تر</w>
پاس خ
پان صد</w>
پاو لو
پای انه</w>
پدر ت</w>
پر هی
پرست ار</w>
پرست اری</w>
پرسی ده</w>
پش تش</w>
پو ستان</w>
پو سی
پو شه</w>
پو شی</w>
پگ اتی</w>
پی اپی</w>
پی مو
پی مود</w>
پی نگ</w>
پید ایش</w>
پیش روی</w>
پیشنه ادها</w>
چ اب
چ طوری</w>
چ پ
چرخ ش</w>
چس ب</w>
چس بید</w>
چس بیده</w>
چش می</w>
چشم گیر</w>
ک است</w>
ک سر</w>
ک هن</w>
ک یم</w>
کار ایی</w>
کار های</w>
کار وان</w>
کاغذ ی</w>
کان دیدای</w>
کر دهای</w>
کر زی</w>
کر یم</w>
کس ون</w>
کش اند</w>
کش تار
کشور هایی</w>
کل اریسا</w>
کل ماتی</w>
کن سرت</w>
کو ئ
کو شیدند</w>
کو هی</w>
کی فی</w>
گ ال</w>
گ شتم</w>
گ نده</w>
گر انت</w>
گر ایش</w>
گر ده</w>
گر سنه</w>
گردش گران</w>
گرو ه
گری س</w>
گری فی
گش اد</w>
گو ل</w>
گور ستان</w>
گی لاس</w>
ی اسر</w>
ی ایی</w>
1 500</w>
199 8</w>
3 9</w>
8 1</w>
9 00</w>
c a
c e
d a</w>
d e</w>
d o
d p</w>
f o
htt p</w>
m o</w>
m p
ne w
or g</w>
s c
s u
t o</w>
t r
ti on</w>
v er
v o
آ ت
آ لا
آبی اری</w>
آتش فشان</w>
آتش ین</w>
آذ وقه</w>
آر مان</w>
آرو اره</w>
آری ا</w>
آز مو
آس مانی</w>
آسو شی
آش امی
آش کارا</w>
آشن ایان</w>
آغ از
آن توان
آنتوان ت</w>
آکاد می</w>
آگ اه
آگو ست</w>
ئ ن
ا شان</w>
ا قرار</w>
ا کند</w>
ائ و</w>
اتا قی</w>
اتو ماتیک</w>
اخت ل
اخت لال</w>
اد ان</w>
ادا ت</w>
ار تر</w>
ار جاع</w>
ار هایی</w>
ار کست
ارغ وانی</w>
از این</w>
از د
ازد ح
ازدح ام</w>
اس ارت</w>
اس تا</w>
اس کو</w>
اسر ارآمیز</w>
اسما عی
اسکن اس</w>
اش ت</w>
اشبا ح</w>
اشتبا هی</w>
اص ابت</w>
اص ولی</w>
اطلا ع
اع تصاب</w>
اف کارش</w>
افسر دگی</w>
اق ت
اق لام</w>
اق ی</w>
ال تماس</w>
ال منافع</w>
الز ام</w>
الز امی</w>
الع الم</w>
الی ز</w>
ام بریج</w>
امیدوار یم</w>
ان تصاب</w>
ان ی
ان یش</w>
ان یم</w>
انت فا
انتفا ضه</w>
اندا زند</w>
اندو ن
اه انت</w>
اه ب</w>
اه دات</w>
اوست ا</w>
اولی ور</w>
اژ دها</w>
اکر اه</w>
ای س</w>
ای میل</w>
ایج ی</w>
ایز ابلا</w>
این جاست</w>
این دی</w>
ب بخشید</w>
ب بر</w>
ب جنگ
ب دو
ب مو
ب کشید</w>
ب گ
ب گو
ب گی</w>
با خبر</w>
با ط</w>
با فی</w>
بازگردان دن</w>
بخ شند</w>
بخور ند</w>
بدی هی</w>
بر افرو
بر ایتان</w>
بر زی
برانگی خته</w>
برخ استه</w>
برو ک</w>
برو کس</w>
برگ زیده</w>
برگ شتم</w>
بز نیم</w>
بسی ار
بسی ج</w>
بشر ی</w>
بع ا</w>
بع ید</w>
بغ لان</w>
بقای ای</w>
بل اروس</w>
بلند مدت</w>
بلو ط</w>
بلو ک</w>
بلی و</w>
بمان یم</w>
بنی ادی</w>
بنی ان
بپو شم</w>
بک هام</w>
بی ابند</w>
بی انگر</w>
بی نش</w>
بی نند</w>
بی گ</w>
بیاور م</w>
ت الی</w>
ت ایی</w>
ت به
ت بی</w>
ت سو
ت له</w>
ت هو
ت هی</w>
تج ار
تجر بیات</w>
تخ لف</w>
تر میم</w>
ترتی بی</w>
تص دی</w>
تعط یلی</w>
تغی ی
تم دید</w>
تن باکو</w>
تو فان</w>
تو ل
تو لیک</w>
تور و</w>
تون ستی</w>
تی وری</w>
تیل نی</w>
ج دی
ج سی
ج نین</w>
جا به</w>
جر قه</w>
جر گه</w>
جسی کا</w>
جمع یتی</w>
جن ایت
جو اهرات</w>
جو نز</w>
جی ل</w>
جی وه</w>
ح اتی</w>
ح امیان</w>
ح بیب</w>
حز بی</w>
حس اس
حس نی</w>
حقیق تا</w>
حو اسش</w>
حی ث</w>
خ رس
خ رم</w>
خ س</w>
خ شکی</w>
خ ند</w>
خد ایان</w>
خد ماتی</w>
خدمت کاران</w>
خرا ش</w>
خصو مت</w>
خط ای</w>
خلا قیت</w>
خمی ازه</w>
خو به</w>
خوا ص</w>
خواست یم</w>
خودمخت ار</w>
خور ند</w>
خی ابانی</w>
د بلیو</w>
د خیل</w>
د ف</w>
د کان</w>
دا س</w>
دا وری</w>
داد گاهی</w>
دار سی</w>
دار وی</w>
دارو های</w>
دان ان</w>
دان کل
دانش جوی</w>
دانکل ار</w>
داو طلبان</w>
در مان
در نده</w>
در های</w>
درآم دها</w>
دز دی</w>
دست کش</w>
دش منی</w>
دل ایلی</w>
دل خوری</w>
ده اس</w>
ده ن</w>
دو ا</w>
دو ستم</w>
دو ک</w>
دی جی
دی دید</w>
دیگر ش</w>
ذ رات</w>
ذ ل</w>
ذ یل</w>
ر ب</w>
ر بع</w>
را ز
را فی</w>
رادیواک تیو</w>
ران ندگی</w>
راه روی</w>
ردی ابی</w>
رع ب</w>
رو مان
رو نده</w>
رون ق</w>
ری ا</w>
ری اضی</w>
ز اد</w>
ز انی</w>
ز بانه</w>
ز هر</w>
ز و</w>
زمست انی</w>
زو نی</w>
زی اده</w>
زی دن</w>
زیر زمینی</w>
س را</w>
س س</w>
س نا</w>
سا ب</w>
سا زش</w>
سا فت</w>
ساخت ند</w>
ساخت گی</w>
ساز گار</w>
سال ان</w>
سب د</w>
سر انه</w>
سر گرمی</w>
سلو لی</w>
سو خته</w>
سو ز</w>
سو زد</w>
سو سک</w>
سود مند</w>
سکو نت</w>
سکو ی</w>
سی اره</w>
سی اهی</w>
سی دنی</w>
سی ری</w>
ش اخ</w>
ش ایع</w>
ش د
ش ش
ش لاق</w>
ش مع
ش مندانه</w>
ش کنی</w>
ش یری</w>
شا گرد</w>
شاد مانی</w>
شتا بان</w>
شر من
شر کای</w>
شرمس اری</w>
شن ل</w>
شه ید</w>
شو نو</w>
شی ب</w>
شی نه</w>
ص ادر
ص ب</w>
ص در</w>
ص راحت</w>
ص لی
صاع قه</w>
صد ایم</w>
صلی ب</w>
صمی می</w>
ض ایتی</w>
ض م</w>
ض مانت</w>
ط بعا</w>
ط م</w>
طر فش</w>
ع ان</w>
ع ت
ع روس</w>
ع ری
ع نصر</w>
ع نک
عال یه</w>
عر صه</w>
عط ف</w>
عظ مت</w>
عل مای</w>
علا ئ
عین کش</w>
غ رش</w>
غذ اهای</w>
غری زه</w>
غی بت</w>
غیر رسمی</w>
غیر نظامیان</w>
ف ال
ف حش</w>
فا ض
فاح شه</w>
فر قی</w>
فر مای
فر مول</w>
فر ن
فرستا دن</w>
فرمان داری</w>
فروش ند</w>
فرکان س</w>
فش ارهای</w>
فلا پ</w>
فو ف</w>
فی لی
ق امت</w>
ق صر</w>
ق ع</w>
ق لی</w>
قدر تش</w>
قل بم</w>
ل بان</w>
لای دگیت</w>
لحظ ات</w>
لر زد</w>
لو ح</w>
لی کر
لی کو
لیبر ال</w>
م تا
م تن
م زد</w>
م سو
م فق
م کال
مادر ت</w>
ماسا چو
ماساچو ست</w>
مال اکند</w>
مان عی</w>
ماه انه</w>
مای ز</w>
مای لی</w>
مایکرو سافت</w>
مبا درت</w>
مت ش</w>
مت لا
مت مایز</w>
مج زا</w>
مجر مان</w>
مح کمی</w>
محفو ظ</w>
مختص ری</w>
مد نظر</w>
مدر کی</w>
مر تف
مر جع</w>
مر خصی</w>
مر غ
مر مو
مسا فت</w>
مسی ری
مش تی</w>
مش هود</w>
مش ورت</w>
مشکلا تی</w>
مصاح بت</w>
مطل بی</w>
مع ا
مع اش</w>
معج ون</w>
معلو لیت</w>
مغ ناط
مف صل</w>
مق اصد</w>
مق دم</w>
مق دور</w>
مقد ماتی</w>
مقد مه</w>
مل امت</w>
من ق
منتظ ره</w>
مهاج ران</w>
موافق تنامه</w>
مواق ع</w>
مواق عی</w>
موض عی</w>
موع ظه</w>
مول فه</w>
مک ثی</w>
می خواد</w>
می ده</w>
می زه</w>
می لان</w>
میهم انی</w>
ن ثار</w>
ن جا</w>
ن خواست</w>
ن خواهیم</w>
ن خورده</w>
ن دند</w>
ن مره</w>
ن کنیم</w>
نا توان</w>
نا خواسته</w>
نا در</w>
ناخ ن</w>
نار اضی</w>
نار ضایتی</w>
نت ایجی</w>
نز اع</w>
نش ستی</w>
نش نال</w>
نص ی
نظ می</w>
نظر تان</w>
نظر شان</w>
نقدی نگی</w>
نو از</w>
نو س</w>
نو سان</w>
نو قت</w>
نوا خت</w>
نور یس</w>
نگ اری</w>
نگر ش</w>
نگه بانان</w>
نی ترو
نی ج
نی ستیم</w>
ه ذا</w>
ه یر
هر گاه</w>
هز اره</w>
هل ندی</w>
هن ای</w>
هند سی</w>
هنر پیشه</w>
هو انوردی</w>
هو س</w>
هی ول
هیو لا</w>
و ایت</w>
و ب
و با</w>
و بلاگ</w>
و ث
و زید</w>
و لیت</w>
وا داشته</w>
وا می</w>
وا گن</w>
واکس ن</w>
وجو ه</w>
ور ای</w>
ور ین</w>
وض عیتی</w>
وفا داری</w>
وق ار</w>
وق ف</w>
وو دهاس</w>
وی ایی</w>
وی س</w>
وی نر</w>
پ خت</w>
پ سن
پ لا
پ لی
پ هنای</w>
پ کتی
پا کت</w>
پاس خی</w>
پان چه</w>
پر سه</w>
پردا زی</w>
پش تون</w>
پش تی</w>
پشی مان</w>
پلاست یک</w>
پلاست یکی</w>
پهلو ان</w>
پو زخ
پی کار</w>
پیام دهای</w>
پیراه نش</w>
چ اپ
چ ستر</w>
چ ل</w>
چ یره</w>
چاق و</w>
چر ب</w>
چشم گیری</w>
چند گانه</w>
چوب دستی</w>
چی ده</w>
ژ ول
ک انه</w>
ک اک
ک وا
ک ون</w>
کا تولیک</w>
کار آمد</w>
کار بردهای</w>
کار گردان</w>
کارآفری نی</w>
کان دی
کت بی</w>
کتور ها</w>
کر ایه</w>
کر یس</w>
کش ت
کشاور ز</w>
کل اهش</w>
کل فت</w>
کلاس یک</w>
کلی نیک</w>
کم دی</w>
کم ر</w>
کم پ</w>
کمو نیست</w>
کن تس</w>
کن فدراسیون</w>
کو هت</w>
کوی تی</w>
کی شوت</w>
گ ازی</w>
گ لا
گ می</w>
گ ه
گ یل</w>
گذران دن</w>
گر ای</w>
گرفت اری</w>
گزار ش
گفت یم</w>
گل خانه</w>
گو گل</w>
گی سو
گی نه</w>
ی ان
یو نانی</w>
0 1</w>
0 3</w>
1 15</w>
199 1</w>
199 9</w>
20 15</w>
6 9</w>
7 3</w>
8 4</w>
a fp</w>
a n</w>
am p</w>
b e</w>
c p
co r
d s</w>
e r</w>
en t
f a
g u
h e
hr is</w>
i o
i v</w>
it y</w>
j o
k e</w>
m e</w>
m t</w>
n o
or t
p m</w>
q m</w>
r c</w>
r u</w>
s p</w>
t a</w>
z a
آ نه</w>
آ ها</w>
آ هست
آ هنگی</w>
آ کنده</w>
آب جو</w>
آت شی</w>
آر ام
آر ژ
آرژ انتین</w>
آز رده</w>
آسوشی تد
آسوشیتد پرس</w>
آسی اپ
آشن ای</w>
آلو دگی</w>
آلو دی</w>
آم دی</w>
آم دید</w>
آمو خت</w>
آموز گ
آن الیز</w>
آن تونی</w>
آن ج
آن هاست</w>
آه نی</w>
آهست گی</w>
آوا زه</w>
آور دی</w>
ئن دیا</w>
ا با</w>
ا بری</w>
ا گ
اب دا</w>
اب ش</w>
اب و</w>
ابر اهیم</w>
ابری ش
ابو ت</w>
اتفا قات</w>
اث ر
اج ناس</w>
اح ت</w>
اح تی</w>
اح ضار</w>
اح یا</w>
احتی اجی</w>
اخ تص
اخ ی</w>
اختص اصی</w>
ار ث</w>
ار لاندو</w>
ار مغ
ار واح</w>
ارمغ ان</w>
ارکست ر</w>
اری تره</w>
از ت</w>
اس ان</w>
اس ک
اس کله</w>
است حکام</w>
است رو
است یک</w>
استث نایی</w>
استر لینگ</w>
استو ار</w>
اشت غال</w>
اص ر</w>
اصط بل</w>
اط لس</w>
اع داد</w>
اعص اب</w>
اعط ای</w>
اف ات</w>
افز ایشی</w>
افش اری</w>
اق صی</w>
اقتص اد
ال ازهر</w>
ال اه
ال جزیره</w>
ال سا
ال شیخ</w>
ال ط
ال ق
ال وقوع</w>
ال یا
الح ری
الحری ری</w>
السا عه</w>
الیا ف</w>
ام تش</w>
ام لات</w>
ام نی</w>
امتی ازات</w>
ان تونی</w>
ان ض
ان ق
ان ند</w>
ان گی</w>
انت ها</w>
انج امش</w>
اندو خته</w>
اندون زی</w>
انگ اری</w>
انگ شتش</w>
او مد</w>
او هوم</w>
اوا ئل</w>
اور دند</w>
اور ش
اوران یوم</w>
اورش لیم</w>
اکتش اف</w>
ای انه</w>
ایستا دم</w>
ب ب
ب بخشد</w>
ب خواهی</w>
ب را</w>
ب سازد</w>
ب سازند</w>
ب ستند</w>
ب شی</w>
ب ف
ب قی</w>
ب میرد</w>
ب گویند</w>
با تکن</w>
با دام</w>
با ع</w>
با مداد</w>
با ه
با وری</w>
باخ تری</w>
بار انی</w>
باز مانده</w>
باز پرداخت</w>
بازی ابی</w>
باش کوه</w>
بال است</w>
بالی نی</w>
بای گانی</w>
بایست د</w>
ببن دم</w>
بخ صو
بخصو ص</w>
بخو ابد</w>
بخو ر</w>
بدر فت
بر انداز</w>
بر دارم</w>
بر سم</w>
بر ملا</w>
بر می
بر نز</w>
بر ون</w>
بر چسب</w>
برادر م</w>
بران دی</w>
بری ز</w>
بفهم د</w>
بل ایا</w>
بل ایی</w>
بنوی سید</w>
بو ئندیا</w>
بو لان
بی ای</w>
بی تی</w>
بی روت</w>
بی س</w>
بی فته</w>
بی لی
بی وه</w>
بی کوف</w>
بیرو نی</w>
ت از</w>
ت ث
ت جمع</w>
ت داوم</w>
ت سل
ت ط
ت نو
ت نگ
تا بش</w>
تا بلو
تا خت</w>
تار نمای</w>
تاری خ
تان لی</w>
تبه کار</w>
تث بیت</w>
تجار ب</w>
تجهی ز</w>
تح ولات</w>
تخ ب</w>
تخ تی</w>
تدری جی</w>
تر ح
تر ش</w>
تر شان</w>
ترا س</w>
ترتی بات</w>
ترکی بات</w>
تری لیون</w>
تزل زل</w>
تش عش
تش ویش</w>
تش ک</w>
تص ح
تص فیه</w>
تصاد فا</w>
تصاد فات</w>
تصح یح</w>
تع لی
تع م
تعلی ق</w>
تغیی راتی</w>
تقاض اهای</w>
تما دی</w>
تماشا چیان</w>
تمای لی</w>
تو اب
تو ازن</w>
تو الت</w>
تو الی</w>
تو به</w>
تو لو
تو نین</w>
تو پ
تور ها</w>
توضی حات</w>
تولید کنندگان</w>
تی نی</w>
ث ان
ج دهم</w>
ج سور
ج ف
ج مال</w>
جادو گرها</w>
جذا بیت</w>
جر عه</w>
جز ایی</w>
جز و</w>
جس ارت</w>
جس مانی</w>
جف سن</w>
جن ج
جه ان
جو ز
جوان ا</w>
جوان مرد</w>
ح امی</w>
ح د
ح روف</w>
ح سرت</w>
ح یی</w>
حر ه</w>
حما قت</w>
حما م</w>
حمای تی</w>
حک مر
حی له</w>
حیو انی</w>
خ فت</w>
خاکست ر</w>
خدمت کار</w>
خصوص یات</w>
خط اهای</w>
خن دیدند</w>
خو اری</w>
خو زه</w>
خو ی</w>
خواه ر
خود شون</w>
خور ه</w>
خون ریزی</w>
خویش تن</w>
د غه</w>
د م
د مان</w>
د نده</w>
د ک</w>
دا ثا</w>
دا درسی</w>
دا م
دائ ما</w>
داد لی</w>
دارو سازی</w>
داشت ید</w>
دال له</w>
دبیر خانه</w>
در آوردن</w>
در امد</w>
در رفته</w>
در نظر</w>
درد ناکی</w>
درو نش</w>
دری ابد</w>
دز دان</w>
دست ت</w>
دست یش</w>
دع ای</w>
ده لی</w>
دو ازدهم</w>
دو ستانی</w>
دو می</w>
دو نین</w>
دون الد</w>
دی داری</w>
دی رو
دی سک</w>
دیو ار
ر طو
ر مز
ر هایی</w>
ر گر
ر گه</w>
را زو
را ض</w>
را ک
راب ط</w>
ران دند</w>
راه بردی</w>
رای زنی</w>
رب طی</w>
رح مت</w>
رس وا
رطو بت</w>
رف تی</w>
رو انه</w>
رو بروی</w>
رو میزی</w>
روح ان
روست ای
ری ات</w>
ری س</w>
ری یس</w>
ریش خند</w>
ز اید</w>
ز ایش</w>
ز دگی</w>
ز را
ز لا</w>
ز وال</w>
ز ور
زام بیا</w>
زان وی</w>
زاو ار</w>
زخ میان</w>
زن انه</w>
زنا شویی</w>
زی نی</w>
س زاوار</w>
س ست</w>
س عاد
س پر</w>
س پی
س گی</w>
سا زید</w>
ساب قا</w>
ساخت مانی</w>
ست اد</w>
ست و
ست ود</w>
ست ی
سخ او
سر ایت</w>
سر ب</w>
سر تیپ</w>
سر زمینی</w>
سر سرا</w>
سر سی
سر ما
سر ه</w>
سر چشمه</w>
سر کوب</w>
سردر گمی</w>
سرسی وم</w>
سرنگ ون</w>
سری عا</w>
سفی دش</w>
سل مان</w>
سلی قه</w>
سو ار
سو ظن</w>
سو نی</w>
سو پر
سوئ ز</w>
سویی چ</w>
سپر د</w>
سکو ل
سی ته</w>
سیری وس</w>
ش ادا
ش ام
ش اک
ش ای</w>
ش ایان</w>
ش ست</w>
ش فق
ش ق</w>
ش مار
ش وری</w>
شان زدهم</w>
شر طی</w>
شرا فت
شفق ت</w>
شلو ارش</w>
شما ها</w>
شناس ند</w>
شه امت</w>
شو ش</w>
شک ا</w>
شک ایات</w>
شک ستن</w>
شک ن</w>
شک ی
شی ش</w>
شی و
ص بری</w>
ص فوف</w>
صاد ق</w>
صح ت</w>
صف ا</w>
صور تیکه</w>
ض خیم</w>
ض می
ط اقت</w>
ط ب</w>
ط ع</w>
ط عمه</w>
ط وب</w>
طل ای</w>
طو فانی</w>
ظل مت</w>
ع اج</w>
ع بید</w>
ع ظ</w>
ع مان</w>
عبدال عزیز</w>
عدا لتی</w>
علو می</w>
عمو دی</w>
عنک بوت</w>
عوا می</w>
عی ان</w>
غ دغه</w>
غ ف
غ وطه</w>
غاف ل
غی ان</w>
ف ند</w>
ف وران</w>
ف ورد</w>
فر اموشی</w>
فر ان</w>
فرا گرفته</w>
فرس ایش</w>
فرض یات</w>
فش اری</w>
فل ز</w>
فو اره</w>
فی فی</w>
ق مار</w>
قاچاق چی</w>
قب ض</w>
قر آن</w>
قر عه</w>
قرقیز ستانی</w>
قلا ب</w>
قو ا</w>
قو ای</w>
ل بی</w>
ل قب</w>
ل م
لان ا</w>
لغ زش</w>
له جه</w>
له ستان</w>
لو بی</w>
لیکر گس</w>
م امو
م تمادی</w>
م تون</w>
م خاطره</w>
م خصوصی</w>
م غرب</w>
م لی
م مت
م هار</w>
ما بین</w>
ما دی</w>
ماس ه</w>
مال کان</w>
مام وری
مان دم</w>
مب دا</w>
مباد لات</w>
مت فکر</w>
مت نوع</w>
متوس طه</w>
مج اور
مج ذوب</w>
مجل ل</w>
مح تاج</w>
محص ل</w>
مخ مص
مختص ر</w>
مخفی انه</w>
مخلو ط</w>
مخمص ه</w>
مد ان</w>
مر ج</w>
مر طوب</w>
مرتف ع</w>
مردا ب</w>
مرگ بار</w>
مسا فتی</w>
مست ند</w>
مسیری ابی</w>
مشخص ه</w>
مشخص ی</w>
مشرو ط</w>
مص ی
مطاب قت</w>
مطال به</w>
مظنو نین</w>
مع ال
مع لول</w>
مع ینی</w>
معا دن</w>
معاش رت</w>
مغ شوش</w>
مف هو
مفق ود</w>
مفی دی</w>
مق وله</w>
ملا ل</w>
ممن ون</w>
ممنو نم</w>
من تخب</w>
من ه
منظور ت</w>
مه تاب</w>
مه لت</w>
مه مونی</w>
مهند س</w>
مو جه</w>
مور تاگ</w>
مور چه</w>
موق تا</w>
مول وی</w>
مون تانلی</w>
موگ ابه</w>
مکر را</w>
می تونی</w>
می ش</w>
می شه</w>
می لا
می مون</w>
می و
میر زا</w>
میز بانی</w>
ن از</w>
ن ایل</w>
ن بودن</w>
ن تا
ن هار</w>
ن کو</w>
نا خوش</w>
نا عادلانه</w>
نار نجی</w>
نار و</w>
ناق لا</w>
نصی حت</w>
نو شتم</w>
نو ه</w>
نوز ادان</w>
نگ ام</w>
نگر د</w>
نگه دار</w>
نی ت
نی ستید</w>
نی فتا
نی ک
نی کلای</w>
نیج ریه</w>
نیرو یی</w>
ه اش
ه ال
ه اک</w>
ه در</w>
ه ریک</w>
ه فتم</w>
ها کی</w>
هر ج</w>
هر کسی</w>
هم گان</w>
هو شمندانه</w>
هول ناک</w>
هی وا</w>
هی یت</w>
هیدرو ژن</w>
هیچ کدام</w>
و ئ
و داع</w>
و لادی
و لید</w>
و یک</w>
وا س</w>
ور نون</w>
وص لت</w>
وض عی</w>
ولتا ژ</w>
ولو ژیک</w>
وی دی
وید ئو</w>
پ افشاری</w>
پ دی</w>
پ ک</w>
پاک یزه</w>
پتر زبورگ</w>
پر ز</w>
پر ست</w>
پر شور</w>
پر ه</w>
پردا زنده</w>
پسر بچه</w>
پسر م</w>
پم پ</w>
په لو</w>
پو ستی</w>
پژ مرده</w>
پکتی کا</w>
پی ت</w>
پیش امد</w>
پیش گیرانه</w>
چ کش</w>
چاب ک</w>
چاق ی</w>
چر خی
چر چی
چرچی ل</w>
چش مم</w>
چن کو</w>
چند انی</w>
چهار دهم</w>
چو پ
ژ اور</w>
ک ال</w>
ک باب</w>
ک ما
کا بوس</w>
کار تون</w>
کار ل</w>
کارآفری نان</w>
کال یف</w>
کامپیو تری</w>
کث یری</w>
کر دنش</w>
کش نده</w>
کش ه</w>
کشت گان</w>
کشتار گاه</w>
کل م</w>
کل ک</w>
کلی دهای</w>
کمی ت</w>
کن ار
کن ارم</w>
کن ست</w>
کن سرسیوم</w>
کنج کاو</w>
که کشان</w>
کو بد</w>
کو ت</w>
کو له</w>
کو چ</w>
کو ی</w>
کور ت</w>
کوچ ول
کی فری</w>
کی نز</w>
گ الی</w>
گ ای
گ پ</w>
گ یم</w>
گذ شتن</w>
گذاش تیم</w>
گر انی</w>
گر ایانه</w>
گرا ت
گرا ف
گرا می</w>
گروه بان</w>
گریفی ث</w>
گش اده</w>
گش تی</w>
گل وی</w>
گو نی</w>
گی تس</w>
ی اران</w>
ی اه
ی ست</w>
ی ع</w>
ی کسانی</w>
یاد بود</w>
یاد داشتی</w>
یر ش</w>
0 0000</w>
0 6</w>
1 10</w>
1 70</w>
198 3</w>
198 8</w>
199 3</w>
20 14</w>
5 3</w>
6 000</w>
6 2</w>
6 3</w>
8 3</w>
8 5</w>
9 1</w>
9 4</w>
9 7</w>
b an
b r
c h</w>
c k
co n
d a
e b
e hr</w>
e t</w>
en t</w>
f c</w>
f d
h b
h iv</w>
k a
l s</w>
l u
m an
m c
n a</w>
p d
r c
s b</w>
t qm</w>
te d</w>
wo m</w>
آ جر
آ جر</w>
آ شنا
آ لات</w>
آ لیس</w>
آ مر
آ ک</w>
آ یت</w>
آر شی
آری زو
آریزو نا</w>
آز ادی
آز اری</w>
آزمای شی</w>
آسیاپ لوس</w>
آشامی دنی</w>
آل ماز
آل ن</w>
آلو می
آم بولان
آمبولان س</w>
آمو زی</w>
آموزگ اران</w>
آن جاییکه</w>
آن ژول
آنژول راس</w>
آپارت مانی</w>
آک تور</w>
آکاد میک</w>
آگ لا
آگاه انه</w>
آگلا ئه</w>
ا تو</w>
ا ح</w>
ا دار</w>
ا دین</w>
ا پی
ا ژه</w>
ا کت</w>
ائ و
ائتلا فی</w>
اب دی</w>
اب ه
ابت دای</w>
ابرو های</w>
ابری شم</w>
ابو ن</w>
ات باع</w>
ات شان</w>
ات مس
ات می</w>
اتاق ک</w>
اتمس فر</w>
اتوم بیلی</w>
اج اق</w>
اح ب</w>
اختل الات</w>
اد ای</w>
ادی ان</w>
اذ عان</w>
ار زی</w>
ار ین</w>
ارز شمند</w>
ارو م</w>
اری اب</w>
اس بش</w>
اس تاب</w>
اس ترس</w>
اس تون</w>
اس ری</w>
اس نادی</w>
اس پ
اس یر</w>
است عم
است ه
استا دان</w>
استر الیایی</w>
استن تاج</w>
استو ارت</w>
اسپانی ولی</w>
اش غالی</w>
اشت ها</w>
اشع ار</w>
اشک الی</w>
اض یان</w>
اطرا فی
اطلا عی</w>
اع ض
اعتبار ات</w>
اعتبار سنجی</w>
اف سوس</w>
اف قی</w>
افتتا حیه</w>
افری دی</w>
افسر ده</w>
اق ع</w>
ال اسلام</w>
ال اقصی</w>
ال تن</w>
ال تی
الز امات</w>
الکتری سیته</w>
الکسان در</w>
ام ریک
امتی ازی</w>
امی لی</w>
امیدوار ند</w>
ان درو</w>
ان عکاس</w>
ان فرا
ان مان</w>
انج ی</w>
اندوه ناک</w>
اندوه گین</w>
اندی جان</w>
انفرا دی</w>
او رو
او ز
او نوقت</w>
او نی</w>
اور ه</w>
اور ژانس</w>
اک بر</w>
ای دی</w>
ای عی</w>
ای ک</w>
ای یش</w>
ایر لندی</w>
ایستا دن</w>
ایستا دند</w>
این دیا</w>
اینتر نشنال</w>
ب ایت</w>
ب باز
ب بری</w>
ب بو
ب دانیم</w>
ب دو</w>
ب سا</w>
ب ستم</w>
ب شن
ب فرستد</w>
ب فهمم</w>
ب فهمی
ب مانم</w>
ب مانی</w>
ب میرم</w>
ب پذیرد</w>
ب کر</w>
ب کش</w>
ب کن</w>
ب کنه</w>
ب کوف</w>
ب گونه</w>
با ئل</w>
با ده</w>
با فت</w>
با هوش</w>
بار نگ</w>
بار ون</w>
باز ارها</w>
باز نش
باز نگری</w>
باز پس</w>
باز گردد</w>
بازی گر</w>
باش ین</w>
باغ چه</w>
باور م</w>
بخور م</w>
بد انی</w>
بر اشون</w>
بر افرا
بر سه</w>
بر شان</w>
بر پایه</w>
بر کناری</w>
بر ین</w>
برا بری</w>
برا تی</w>
برافرو خته</w>
برخاست ن</w>
برخاست ند</w>
برزی ل</w>
برسان ید</w>
بریتان یایی</w>
بزرگ تری</w>
بش دت</w>
بش ریت</w>
بفهمی م</w>
بل ای</w>
بل س</w>
بل ف
بل ور</w>
بنا ک</w>
به بودی</w>
بول ست</w>
بپردا زیم</w>
بکار گیری</w>
بی ائ
بی ارم</w>
بی داری</w>
بی ستم</w>
بی لش</w>
بی ون</w>
بیاور ید</w>
بیندا زم</w>
ت دف
ت ذکر</w>
ت سخ
ت موم</w>
ت پانچه</w>
ت کان
تا بید</w>
تا زی</w>
تاج ران</w>
تاریخ چه</w>
تان یا</w>
تای لند</w>
تب سم</w>
تبا د
تباد لات</w>
تج سم</w>
تدار کات</w>
تدف ین</w>
تر مز</w>
ترح م</w>
ترسی ده</w>
تس کی</w>
تس کین</w>
تسخ یر</w>
تش نه</w>
تص احب</w>
تص وری</w>
تصا وی
تصاوی ری</w>
تصور ات</w>
تصوی رهای</w>
تع املات</w>
تع داد
تع دیل</w>
تف نگ
تق لیل</w>
تقص یر</w>
تم ری
تمس خر
تند روی</w>
ته اج
تهدی دها</w>
تهو ع</w>
تو قع</w>
تو مور</w>
تواب ع</w>
توان ستی</w>
تور سون</w>
توری ست</w>
توضی حاتی</w>
توضی حی</w>
تون ن</w>
تک انی</w>
تی غه</w>
ث ال
ث باتی</w>
ث یت</w>
ثروت مندان</w>
ثروت مندی</w>
ج انش</w>
ج بر
ج ت</w>
ج سم</w>
ج یک</w>
جا ج</w>
جاب جایی</w>
جادو گری</w>
جان شینی</w>
جل د</w>
جمه وری
جوی ا</w>
جی ده</w>
ح ائ
ح اص
ح ریق</w>
ح طی</w>
ح ول</w>
ح یف</w>
حاض ران</w>
حاک مان</w>
حدو دا</w>
حساس یت</w>
حض ورش</w>
حق ش</w>
حل بی</w>
حم انه</w>
حم لاتی</w>
حی ثیت</w>
حی در</w>
خ راب
خ زانه</w>
خ شنو
خ شک
خ لو
خا ئ
خا تمی</w>
خا ص
خاطرا تی</w>
خد متی</w>
خرس ندی</w>
خشم ش</w>
خط اک</w>
خل نگ</w>
خنج ر</w>
خو ار
خواب م</w>
خود روها</w>
خود گردان</w>
خودرو های</w>
خور دم</w>
خوش ایندی</w>
خوش بخت</w>
د ایر</w>
د زد</w>
د غدغه</w>
د می
د کل</w>
دا دهایی</w>
دا لو
دانش گاه
در آورده</w>
در بر
در ز</w>
درآم دی</w>
درو نم</w>
دست انش</w>
دستاور دهای</w>
دعو تش</w>
دل خور</w>
دل وا
دمو ر</w>
دن باله</w>
دن ت</w>
ده انه</w>
دو بار</w>
دوست ت</w>
دون ستم</w>
دی ابت</w>
دی ار</w>
دی دارش</w>
دی دارهای</w>
دی ش</w>
دی ف</w>
دی نام
دی چ</w>
دی کتا
دیو انگی</w>
دیو م</w>
دیپل م
دیپلم اسی</w>
ذ ب</w>
ذ کر
ر آکتور</w>
ر ام
ر انی</w>
ر بانی</w>
ر دای</w>
ر ستم</w>
ر غ
ر لی</w>
ر مان</w>
ر نجی</w>
رئ ی
رئ ی</w>
را ح
را شور
را کد</w>
رازو میخ
رازومیخ ین</w>
راشور ث</w>
راه نمای</w>
رح می</w>
رخت خواب</w>
رفت نش</w>
رو اج</w>
رو اژه</w>
رو ب</w>
رو ید</w>
روحان یون</w>
روست اهای</w>
روستای یان</w>
ری ار</w>
ری ختند</w>
ری زد</w>
ری نه</w>
ری و
ری گان</w>
ریاض یات</w>
ز ایمان</w>
ز ره</w>
ز نید</w>
زاد گان</w>
زم بیل</w>
زن بور</w>
زند گانی</w>
زو مات</w>
زود گذر</w>
زی تی</w>
زی نت</w>
زیب است</w>
س امان</w>
س حر
س در</w>
س م
س نار
س نس
س نو
س هولت</w>
س کر</w>
س کن
سا تی</w>
سا حره</w>
سا قه</w>
ساخت ارهای</w>
ساخت اری</w>
ساخت م</w>
ساز ها</w>
سان س</w>
سانت ری
سب زی
سر اسری</w>
سر ای</w>
سر درد</w>
سر دش</w>
سر گیری</w>
سرنگ ونی</w>
سرو کار</w>
سرپر ستی</w>
سری ال</w>
سری عی</w>
سط ل</w>
سف ورد</w>
سنگ فرش</w>
سو ا</w>
سو تی</w>
سو زش</w>
سو ق</w>
سو ل
سو لا
سو می</w>
سو پ</w>
سوا حل</w>
سوال اتی</w>
سولا کو</w>
سی ت</w>
سی زدهم</w>
سی لاب</w>
سی لو
سی لی</w>
سی مانی</w>
سی مای</w>
سی و
سی گاری</w>
ش ات
ش ال
ش دید
ش شی</w>
ش مایل</w>
ش گاهی</w>
ش گر
شار ل</w>
شاه ان</w>
شای عه</w>
شت ان</w>
شج اع
شر ت</w>
شر ی</w>
شرا کت</w>
شش صد</w>
شنا ختم</w>
شنو م</w>
شه ریار</w>
شو که</w>
شور اهای</w>
شک ستگی</w>
شک فته</w>
شکو فه</w>
شی روانی</w>
شی عیان</w>
شی می</w>
شین هوا</w>
ص عودی</w>
ص نو
ص وتی</w>
ص وم</w>
ص ی
صح را</w>
صدا ئی</w>
صدا ها</w>
صمی میت</w>
صور تح
ضر بان</w>
ضمی مه</w>
ط غیان</w>
ط فل
ط فل</w>
ط فی</w>
ط ی
ط یف</w>
طرا وت</w>
طفل کی</w>
طو طی</w>
طور یکه</w>
ظ را
ظ هر
ع ارف</w>
ع اری</w>
ع ازم</w>
ع انه</w>
ع ایق</w>
ع با
ع سکر</w>
ع فو
ع لتی</w>
ع ن
ع هد
ع واق
ع وام</w>
عاد ل</w>
عاش قانه</w>
عاش قش</w>
عاط فی</w>
عبدا لح
عث مان</w>
عرو سک</w>
عری ض</w>
عل نی</w>
علی ف</w>
عمل کردهای</w>
عمی قا</w>
غ ارت</w>
غ ایب</w>
غ زنی</w>
غض ب</w>
غل تید</w>
ف اریاب</w>
ف تو
ف شار
ف ظه</w>
ف ند
ف وق
فاض لاب</w>
فت ش</w>
فر آوری</w>
فر امو
فر دای</w>
فر عی</w>
فر مینا</w>
فرآی ندهای</w>
فرای ندهای</w>
فرزند انش</w>
فرزندان شان</w>
فرو رفت</w>
فرو شد</w>
فرو پاشی</w>
فری بنده</w>
فض اهای</w>
فق یری</w>
فل زات</w>
فل گ</w>
فولا دی</w>
فکر م</w>
فی زیک</w>
فی ف</w>
ق اتل</w>
ق اه</w>
ق بائل</w>
ق بر</w>
ق را</w>
ق رون</w>
قاط ر</w>
قاط عانه</w>
قبر س</w>
قدر دانی</w>
قدر ها</w>
قر اره</w>
قرقی زی</w>
قط رات</w>
قل م
قی ل</w>
قی نا</w>
ل بانش</w>
ل شکر
ل ود</w>
ل ور
ل وید</w>
لا به</w>
لا و</w>
لادی زلا</w>
لام پ</w>
لب اسی</w>
لح اف</w>
لذ تی</w>
لنگ ان</w>
لو پز</w>
لو پین</w>
لی ز</w>
لی مو
لی نک</w>
م بالغ</w>
م تنفر</w>
م دار</w>
م دل
م دی</w>
م زار</w>
م مان
م هی
م کم
ما تش</w>
ما دا
ما شینی</w>
ما ها</w>
مار سی</w>
مار شال</w>
مار کی</w>
مال یه</w>
مان ست</w>
مان ی
ماهی انه</w>
مای ش</w>
مای وس</w>
متع ارف</w>
متع اق
متق اضیان</w>
متو الی</w>
مج ارستان</w>
مج اه
مجاور ت</w>
مجبور ش</w>
مح توی</w>
مح فظه</w>
محتا ط</w>
محتو ا</w>
محتو یات</w>
محدو دی</w>
مخا براتی</w>
مخاط ب</w>
مخفی گاه</w>
مد خل</w>
مد فون</w>
مدا ف
مدی ون</w>
مذاکر اتی</w>
مر ت
مر زها</w>
مرک ب</w>
مری ضی</w>
مزاح م</w>
مس ن</w>
مسئ له</w>
مسا حت</w>
مسا ع
مسافر ی</w>
مست غرق</w>
مست ن
مست ی</w>
مستن دات</w>
مسیح یان</w>
مسیح یت</w>
مش ترکی</w>
مش ی</w>
مص ال
مص طفی</w>
مصی بت</w>
مض اع
مض حک</w>
مطال عاتی</w>
مطمئ نا</w>
مظنو نان</w>
مع افیت</w>
مع اهده</w>
مع ت
مع تاد</w>
مع صوم</w>
مع طل</w>
مف اد</w>
مفت خر</w>
مفهو می</w>
مق طع</w>
مق ید</w>
مقاو م</w>
مقد سی</w>
مل خ</w>
مل زم</w>
مل زومات</w>
ملای مت</w>
مم کنست</w>
ممان عت</w>
ممت از</w>
من بعی</w>
من دانی</w>
من فرد</w>
من وی</w>
منا بعی</w>
منص ور</w>
منظ ر</w>
منه دم</w>
مهند سین</w>
مو ت</w>
مو تور
مو عد</w>
مو لانا</w>
موان عی</w>
موث ر
مود بانه</w>
مور دش</w>
مور ی
مکم ل</w>
مگ اوات</w>
می ا</w>
می خو
می ریم</w>
می شم</w>
می نی</w>
می کنه</w>
می گی</w>
میلا دی</w>
ن اف
ن بو
ن توانستم</w>
ن توانستند</w>
ن خواهید</w>
ن دادم</w>
ن دی
ن رو</w>
ن سا
ن شوند</w>
ن عم
ن نگر
ن ها</w>
ن هر</w>
ن کردی</w>
نا خود
نا خوشایند</w>
نا دین</w>
نا قوس</w>
نا کافی</w>
نار نج
نارنج ک</w>
نام ر
نام رئی</w>
نام مکن</w>
نام و
نامز دی</w>
نامط لوب</w>
ناگو ار</w>
ند ل</w>
ند که</w>
نر د
نس ک</w>
نشی ند</w>
نظ ارتی</w>
نع ل</w>
نف سی</w>
نف ی</w>
نق اش</w>
نم و</w>
نما د</w>
نما ها</w>
نمای ندگانی</w>
نو جوانی</w>
نوا زندگان</w>
نور ستان</w>
نوش ند</w>
نوش هره</w>
نوشت ار</w>
نوی سه</w>
نوی ل</w>
نگ ارش</w>
نگ فتم</w>
نگه بانی</w>
نی ستن</w>
نی ه</w>
ه ات</w>
ه ام
ه شی</w>
ه فت
ه لیکو
ه ول</w>
ه ک</w>
ها بیت</w>
ها شان</w>
هر اسی</w>
هرمای ونی</w>
هش تاد</w>
هم جنس</w>
هم راه
هم سرم</w>
هم ند</w>
هم همه</w>
هم چو</w>
هم گرا</w>
همسای گان</w>
هنو زم</w>
هوا داران</w>
هواپیما ها</w>
هور ن</w>
هیر تن</w>
و در</w>
و ست</w>
و ستی</w>
و غ
و نی
و گو</w>
وا ه</w>
وار داتی</w>
وار ی
واری انس</w>
وجو دم</w>
ور م</w>
ور های</w>
ول دمور</w>
ول گرد</w>
ولادی میر</w>
ولی عهد</w>
وین تر</w>
پ اس</w>
پ تیا</w>
پ ختن</w>
پ ستان</w>
پ شته</w>
پ لاس</w>
پ ویایی</w>
پ کن</w>
پا چه</w>
پاد شاهی</w>
پار س</w>
پارام ترهای</w>
پاسخ گویی</w>
پای شان</w>
پای م</w>
پای ینی</w>
پدر بزرگش</w>
پر خطر</w>
پر د</w>
پر نس</w>
پردا زیم</w>
پرس شی</w>
پرو ازی</w>
پرو فایل</w>
پری دم</w>
پسن دید</w>
په نا
پهلو انی</w>
پو سته</w>
پو شیدن</w>
پو لش</w>
پو ندی</w>
پوزخ ند</w>
پژو هشی</w>
پی کار
پیر مردی</w>
پیش انیش</w>
پیش برد</w>
پیش تاز</w>
پیش گام</w>
چ ال</w>
چ ل
چ مدان</w>
چر بی</w>
چر می</w>
چرا غی</w>
ژ ئو</w>
ژ ور
ژاپ نی</w>
ژو لی
ک اتی</w>
ک اه
ک اهن</w>
ک او
ک بر</w>
ک بیر</w>
ک تان</w>
ک د
ک دوم</w>
ک ز
ک ستانی</w>
ک سی
ک لت</w>
ک مین</w>
کا بر</w>
کات الیز
کار د</w>
کار ه
کار ولی
کار کرد</w>
کار گردان
کارگردان ان</w>
کاس ه</w>
کال ری</w>
کال ن</w>
کان زاس</w>
کر ام</w>
کر انه</w>
کر دها</w>
کر زای</w>
کری چر</w>
کش ش</w>
کشور شان</w>
کل ار
کل نل</w>
کلی سا
کمر ش</w>
کن دن</w>
کن دی</w>
کنتر لی</w>
کو بی</w>
کو زه</w>
کو شیده</w>
کو فته</w>
کو لو
کو په</w>
کو ک</w>
کوتو له</w>
کودک انی</w>
گ اس</w>
گ ریان</w>
گ م
گ مانم</w>
گ نج</w>
گ چ</w>
گاز های</w>
گال ری</w>
گان یا</w>
گذ رواژه</w>
گذار ید</w>
گذر گاه</w>
گر ند</w>
گر گی</w>
گر گینه</w>
گرات سیا</w>
گرد های</w>
گری ختند</w>
گزار شگر</w>
گست اخی</w>
گفت گوهای</w>
گه گاه</w>
گو ت</w>
گو ش
گو شم</w>
گو لد</w>
گوری و</w>
گیر ندگان</w>
ی ارو</w>
ی ازدهم</w>
ی حیی</w>
ی قینا</w>
ی ل
یاد گاری</w>
یان کی</w>
یو ا</w>
یوا ش</w>
یوا شکی</w>
یی تس</w>
0 5</w>
1 28</w>
1 60</w>
197 9</w>
198 7</w>
199 4</w>
20 17</w>
3 50</w>
5 6</w>
6 4</w>
6 8</w>
7 4</w>
7 9</w>
8 02</w>
8 9</w>
9 2</w>
9 3</w>
9 9</w>
a r</w>
a s</w>
ag e
am e</w>
ap p
ar e</w>
b bc</w>
b i</w>
c o</w>
d c</w>
d i
d is
e l
f id</w>
g a</w>
g e</w>
g st
h o
i c</w>
i ff</w>
i n</w>
in t</w>
k z</w>
l a</w>
m a</w>
m ar
m c</w>
m in
m w
ma c</w>
ma x</w>
me s</w>
mo s</w>
n f
p a
p o
p r</w>
p ro
r fid</w>
s i</w>
s on</w>
t e</w>
t er
ti on
to t</w>
u c
v e
v e</w>
w e
wi max</w>
y p
آ بادی</w>
آ ت</w>
آ جو
آ رد</w>
آ لی
آ م</w>
آ پری
آب شار</w>
آر استه</w>
آر ای</w>
آر زو
آر کا
آرا گور
آرام شی</w>
آراگور ن</w>
آرشی و</w>
آش غالی</w>
آش پزی</w>
آغاز گر</w>
آف رین</w>
آق ایف</w>
آل کس
آن تو
آن جاست</w>
آناتو ل</w>
آور دیم</w>
آپری ل</w>
آگ اتا</w>
آی ید</w>
آی یم</w>
آی ینه</w>
ا دم</w>
ا ض</w>
ا وی</w>
ا گر
ائ یان</w>
ائ یکه</w>
اب ق</w>
اب لش</w>
اب له
اب ن</w>
اب هت</w>
ابت کار
ابت کاری</w>
ابر وی</w>
ابریش می</w>
ابز اری</w>
ابو ال
ات ان</w>
ات کا</w>
اتاق م</w>
اتص الات</w>
اتفا قا</w>
اتوم بیلش</w>
اث اث
اث نی</w>
اج زا</w>
اج ل</w>
اح مد
اح کام</w>
احمق ی</w>
اد ایی</w>
اد ش</w>
ار ام</w>
ار انی</w>
ار نگ</w>
ار گان
ار یا</w>
ار یک</w>
اربا بش</w>
ارز ش
ارو ق</w>
از بین</w>
اس بق</w>
اس ط</w>
اس ق
اس لام
اس لو
اس پی
اس کان</w>
اس ید</w>
است حق
است خر</w>
است ریت</w>
است ف
است یل</w>
استا دیوم</w>
استان بول</w>
استان دار</w>
استان داری</w>
استث نا</w>
استر ای
استه زا</w>
اسرای یلی</w>
اسق فی</w>
اسپانی ایی</w>
اسی موف</w>
اش ارات</w>
اش ق</w>
اص ولا</w>
اص یل</w>
اصلا حی</w>
اصلاح اتی</w>
اطلاع یه</w>
اظهار اتی</w>
اظهار نظر</w>
اعت دال</w>
اعتما دی</w>
اعز امی</w>
اف ر</w>
افتا دیم</w>
افری قا</w>
افز ارهای</w>
افزو دن</w>
افش ای</w>
ال اخبار</w>
ال ت
ال تز
ال رحمان</w>
ال س
ال ش</w>
ال ص
ال فی</w>
ال وار</w>
ال کس</w>
ال یه</w>
الاح رار</w>
الاه رام</w>
التی ام</w>
الش باب</w>
الی سم</w>
ام دا
ام داد</w>
ام رار</w>
ام وز
امتح انات</w>
امدا در
امور خارجه</w>
امپرا توری</w>
امی ده</w>
ان حصار</w>
ان ز
ان زو
ان شا</w>
ان صاف</w>
ان ط
ان های</w>
ان وو
ان یکه</w>
انبو هی</w>
انج امد</w>
انح لال</w>
اندا زیم</w>
اندی شد</w>
اندی شیدن</w>
انس جام</w>
انس ون</w>
انص ار</w>
انط با
انطبا ق</w>
انوو ستی</w>
اه رم</w>
اه ری</w>
او ا</w>
او اسط</w>
او تان
او تی
او چ</w>
اوتان بایوا</w>
اور ی
اپ را</w>
اپ ک</w>
اکتش افات</w>
اکو سیستم</w>
ای ری</w>
ای رینا</w>
ای مون</w>
ایس یک</w>
ایست د</w>
این طوری</w>
این م</w>
این چ</w>
ب بر
ب بند</w>
ب تر
ب تونم</w>
ب تونیم</w>
ب خواب</w>
ب خواهم</w>
ب دا
ب دونم</w>
ب شان</w>
ب شمار</w>
ب طه</w>
ب میرند</w>
ب ندان</w>
ب ندهای</w>
ب نوشند</w>
ب هر</w>
ب هرحال</w>
ب وی
ب پ
ب کی</w>
ب گذاری</w>
ب گری
ب گیر
با تلا
با ح</w>
با قیف</w>
با لی</w>
با لین</w>
باتلا ق</w>
بار ندگی</w>
بار و</w>
باز تاب</w>
باز دارنده</w>
باز دید
باز م</w>
باز گرداند</w>
باز گشتم</w>
بازو های</w>
بازو هایش</w>
بازگش تی</w>
بازی افت</w>
بالا پوش</w>
بان انه</w>
بان دهای</w>
بان وف</w>
بان ویی</w>
بح بو
بحبو حه</w>
بخ ندی</w>
بخو ابم</w>
بخو اد</w>
بخو ام</w>
بخو ایم</w>
بخوان ند</w>
بخور یم</w>
بد بخ
بد بختانه</w>
بر آمد</w>
بر ایان</w>
بر ایمان</w>
بر این</w>
بر دارند</w>
بر دیم</w>
بر سیم</w>
بر ش</w>
بر قص
بر لین</w>
بر که</w>
بر گرد</w>
بر گردد</w>
برخور داری</w>
برسان م</w>
برگر دیم</w>
برگردان دن</w>
بز کشی</w>
بزرگ راه</w>
بزرگ سالان</w>
بسا زیم</w>
بش قاب</w>
بش یر</w>
بص ری</w>
بع ض</w>
بفر مای
بق چه</w>
بل غ
بل نا
بل ژیک</w>
بلف است</w>
بلنا پ</w>
بم و</w>
بمان ید</w>
بمب گذاری</w>
بن ایی</w>
بن ت</w>
بن دا
بن دم</w>
بن گرد</w>
بنابر ین</w>
بنشی نید</w>
بنوی سد</w>
بنگ لا
بنگلا دش</w>
بنی اد
به ادار</w>
به اری</w>
بو ستون</w>
بو نر</w>
بور ن</w>
بپر سد</w>
بپر سی</w>
بپیو ندد</w>
بگذ ران
بگذ راند</w>
بگو ئید</w>
بی امو
بی اور</w>
بی دند</w>
بی شه</w>
بی شینه</w>
بی لور</w>
بی نگ</w>
بی ولوژیکی</w>
بیائ ید</w>
بیلی ارد</w>
بین نده</w>
ت ت</w>
ت جم
ت دبیر</w>
ت سی</w>
ت شی
ت ق</w>
ت لو
ت منا</w>
ت پی
ت کالیف</w>
تا دی
تا شی
تا می</w>
تا ک</w>
تابل و</w>
تابلو های</w>
تاک تیک</w>
تبر ئه</w>
تبع یت</w>
تح رک</w>
تح میلی</w>
تح کیم</w>
تخت ش</w>
تر دد</w>
تر دی
ترا شه</w>
ترا قی</w>
ترا ل</w>
ترجی حات</w>
ترسی دند</w>
ترو س</w>
تری بیون</w>
تز ارهای</w>
تس ون</w>
تسل ط</w>
تش بیه</w>
تشی یع</w>
تصمی ماتی</w>
تصمی می</w>
تط ابق</w>
تع بیر</w>
تعداد شان</w>
تعم ق</w>
تعه دی</w>
تف ویض</w>
تف کیک</w>
تفص یل</w>
تفص یلی</w>
تق دم</w>
تل فاتی</w>
تلا فی</w>
تلا قی</w>
تمای لات</w>
تن درو</w>
تن زل</w>
تن م</w>
تند تر</w>
تند روها</w>
تنو مند</w>
ته ب</w>
ته دیدی</w>
تو ب</w>
تو ف
تو ک
توان ستید</w>
توان مند
توان مند</w>
تورن منت</w>
توری ستی</w>
تکر اری</w>
تی ار</w>
تی بینگ</w>
تی ری
تی ماس</w>
تی مور</w>
تی ه</w>
تیر انی</w>
تیر ک</w>
ث ارش</w>
ج اش
ج امی</w>
ج بر</w>
ج د
ج رئ
ج راحت</w>
ج رو
ج م</w>
ج مج
ج میل</w>
ج نی</w>
ج یا</w>
ج یر
ج یر</w>
جا ذ
جا وید</w>
جاذ به</w>
جاس پر</w>
جان بی</w>
جان وری</w>
جدید ترین</w>
جرئ ت</w>
جست جویی</w>
جسور انه</w>
جغ د</w>
جلی قه</w>
جم د</w>
جن سیت</w>
جه نمی</w>
جو ایز</w>
جو لان</w>
جور جیا</w>
جور هایی</w>
جوز ف</w>
جوی ای</w>
جی ش</w>
جی نی</w>
ح ام
ح باب</w>
ح ج</w>
ح ریف</w>
ح سد</w>
ح شیش</w>
ح کمی</w>
حاص له</w>
حر مت</w>
حف اری</w>
حفا ظ
حفاظ تی</w>
حقی ر</w>
حو است</w>
حواد ثی</w>
حک مت</w>
حکمر انی</w>
حیر ان</w>
خ ار</w>
خ رسند</w>
خ زید</w>
خ زیده</w>
خ م
خاص یت</w>
خاطر م</w>
خداو ندا</w>
خدمت کاری</w>
خر ناس</w>
خر چنگ</w>
خرا شی</w>
خش می</w>
خشک سالی</w>
خطو طی</w>
خل قی</w>
خلا ق</w>
خلا قانه</w>
خم پاره</w>
خمی ده</w>
خو ار</w>
خو یی</w>
خوا جه</w>
خوابی دن</w>
خوان ندگان</w>
خواه انه</w>
خواه رم</w>
خود خواهی</w>
خود روی</w>
خوش گل</w>
خون سردی</w>
خی الم</w>
خی ز
خی مه</w>
د استانی</w>
د برای</w>
د بی
د ترین</w>
د خت</w>
د روی</w>
د سازی</w>
د فع
د ما</w>
د من</w>
د ژ
د کننده</w>
د کی</w>
دا های</w>
دا ول</w>
دار ندگان</w>
دار وساز</w>
دان ستیم</w>
دان لود</w>
دان یل</w>
در بار
در بر</w>
در خواستی</w>
در خور</w>
در صد
در صدد</w>
در صورت</w>
در صورتی</w>
در گذشت</w>
درخ شیدند</w>
درو اقع</w>
دری افتم</w>
دری افتند</w>
دری غ</w>
دست شان</w>
دست ون</w>
دست کاری</w>
دست گیره</w>
دشو ارتر</w>
دف تری</w>
دل الان</w>
دل بستگی</w>
دل داری</w>
دل سوزی</w>
دما غه</w>
دمو ازل</w>
دن بال
دند انه</w>
دنی است</w>
ده انم</w>
ده انی</w>
دو خواهر</w>
دو رو
دو س</w>
دو فار
دو قل
دو نا</w>
دو نده</w>
دو وینتر</w>
دو گانه</w>
دور انی</w>
دوست انم</w>
دوفار ژ</w>
دگر گون</w>
دگر گونی</w>
دی تی</w>
دی که</w>
دیجی تال</w>
دید نی</w>
دید گاهی</w>
دیرو قت</w>
دیو ان</w>
ذ ر
ر اند
ر بودند</w>
ر حمانه</w>
ر دگی</w>
ر زا</w>
ر شدی</w>
ر فه</w>
ر فی
ر فی</w>
ر مض
را بر
را به</w>
را حل</w>
را دار</w>
را زی</w>
را می</w>
را هم</w>
را ول</w>
را چستر</w>
را کتورها</w>
راب ز</w>
رادی وی</w>
راه کارهای</w>
رای ان</w>
رای حه</w>
رای س</w>
رب ایی</w>
رس ان</w>
رسوا ئی</w>
رغ بت</w>
رق می</w>
رمض ان</w>
رن جیده</w>
رنگ ارنگ</w>
ره ائی</w>
ره نمو
رو ال</w>
رو بان</w>
رو ده</w>
رو گو
روان شناسی</w>
روز نه</w>
روز هایی</w>
روست اها</w>
روی ای</w>
روی ایی</w>
رگر سیون</w>
ری انووستی</w>
ری س
ری فی</w>
ری ل</w>
ری نگ</w>
ری ی</w>
ز اهد</w>
ز دایی</w>
ز دهمین</w>
ز رین</w>
ز شگر</w>
ز نی
زن انی</w>
زی اد
زی دم</w>
زی دند</w>
زی مبا
زیبا ترین</w>
زیر بند</w>
زیر دریایی</w>
زیر ک</w>
زیر کانه</w>
زیر کی</w>
س امو
س ث</w>
س ده</w>
س دیم</w>
س عی
س ما</w>
س نین</w>
س پیر</w>
س گو
سا حلی</w>
سا عاتی</w>
سا ق</w>
سا می</w>
سار ا</w>
سان ات</w>
سانتری فیو
سانتریفیو ژ</w>
سای ز</w>
سبزی جات</w>
ست رو
سخ نانی</w>
سخاو ت
سخنگ و</w>
سر بازی</w>
سر دار</w>
سر سرای</w>
سر ود</w>
سر ک</w>
سر کار</w>
سر گرد</w>
سر گردانی</w>
سرا غش</w>
سردر گم</w>
سف ار
سق ط</w>
سل طه</w>
سلی مان</w>
سن گر</w>
سنو بال</w>
سو زاند</w>
سو نامی</w>
سوزان دند</w>
سپ ار</w>
سپاس گزاری</w>
سکو تی</w>
سگو ندو</w>
سی اتل</w>
سی ان</w>
سی اه
سی اهان</w>
سی ر
سی رک</w>
سی زده</w>
سی مون</w>
سی نا</w>
سی و</w>
سی کلت</w>
سین ر</w>
ش ات</w>
ش بهه</w>
ش ترها</w>
ش جاع</w>
ش دی
ش ست
ش یره</w>
شا گردان</w>
شادا بی</w>
شاع ر</w>
شال وم</w>
شخص یتی</w>
شدید تر</w>
شرا فت</w>
شع ار</w>
شع ف</w>
شنا ختن</w>
شنو ی</w>
شنی دند</w>
شه دا</w>
شه ود</w>
شهرو ندی</w>
شهو ت</w>
شو نده</w>
شو ک</w>
شک سپیر</w>
شی اری</w>
شی عه</w>
شی فته</w>
شی ما</w>
شی ون</w>
شی کا
شیر جه</w>
ص بر
ص دی
صادر کنندگان</w>
صح ب
صح ن</w>
صد ق</w>
صف ر</w>
صن عت
صنو بر</w>
ض خامت</w>
ط اهر</w>
ط بل</w>
ط لب
ط وم</w>
طبی ب</w>
طر زی</w>
طر فه</w>
طری قه</w>
طنا ب</w>
ظرا فت</w>
ظهر ها</w>
ظو اهر</w>
ع اج
ع املی</w>
ع امی</w>
ع د
ع دی</w>
ع ریان</w>
ع طر</w>
ع قب
ع نا
ع نان</w>
ع نو
عاط ف</w>
عاط فه</w>
عبا دت</w>
عض وی</w>
عط ا</w>
عل امتی</w>
عل نا</w>
علائ م</w>
علاق گی</w>
عم دی</w>
عمل کردی</w>
عهد نامه</w>
عواق ب</w>
عی بی</w>
غ ان</w>
غ انه</w>
غ ره</w>
غ وغ
غف لت</w>
غل ظت</w>
ف اروق</w>
ف انوس</w>
ف ایی</w>
ف زونی</w>
ف لو
ف مان</w>
ف ک
ف یا</w>
فا ج</w>
فت د</w>
فر ح</w>
فر دی
فر ز
فر سنگ</w>
فر غانه</w>
فران سوا</w>
فرن اند</w>
فرو خت</w>
فع ان</w>
فع ل</w>
فعال ی
فعال یتی</w>
فلی نت</w>
فهمی دند</w>
فوق انی</w>
فی ول</w>
ق اری</w>
ق اشق</w>
ق بو
ق حطی</w>
ق ضا</w>
ق هر</w>
ق و</w>
ق وا
قانونگذ اران</w>
قای قر
قدرت مند
قدرت مندی</w>
قر ضه</w>
قش ر</w>
قط ب</w>
قلم روی</w>
قهر مانان</w>
قی اس</w>
ل ث</w>
ل زو
ل نی</w>
ل هستانی</w>
لحظ اتی</w>
لر زاند</w>
لم ب</w>
لن گر</w>
لو ئی</w>
لو ح
لوک اس</w>
لی بیایی</w>
لی دیا</w>
لی سانس</w>
لی ش</w>
م اید</w>
م تناسب</w>
م تی
م خوف</w>
م داو
م دوف</w>
م ریم</w>
م زیتی</w>
م فا
م فرما</w>
م لیت</w>
م مه</w>
م چ
م چاله</w>
م کی
ما دموازل</w>
مال ی
مان د
مان دیم</w>
ماک سیم</w>
مای ک</w>
مباح ث
مبار ز</w>
مت اهل</w>
مت خل
مت داول</w>
مت روک</w>
مت نی</w>
مت همان</w>
متاس ف</w>
متح دان</w>
متح یر</w>
متخصص ین</w>
متص دی</w>
متع ادل</w>
متلا شی</w>
مج از
مج ال
مج ال</w>
مج انی</w>
مج لات</w>
مح اوره</w>
مح جو
مح سن</w>
محاف ل</w>
محسو س</w>
محص و
محق قین</w>
مخاط بان</w>
مخت ل</w>
مدا فعان</w>
مداف ع</w>
مدی ترانه</w>
مدیر عامل</w>
مذ اهب</w>
مر خص</w>
مر دستون</w>
مرا د</w>
مرد گان</w>
مرمو ز</w>
مس عود</w>
مس موم</w>
مسا وی</w>
مساع دت</w>
مست حق</w>
مست خد
مست عد</w>
مستقی می</w>
مسی رش</w>
مسی رها</w>
مسی ولیت</w>
مش رف</w>
مش قت</w>
مش ور
مش ون</w>
مشت مل</w>
مشغ له</w>
مشور تی</w>
مشکو کی</w>
مص الح</w>
مص و
مصال حه</w>
مض مون</w>
مضاع ف</w>
مط ب</w>
مع اصر</w>
مع اف</w>
مع ده</w>
مع دود</w>
مع شو
معال جه</w>
معتر ض</w>
معر که</w>
معن ایش</w>
مغ ز
مغ زم</w>
مغ لوب</w>
مغناط یسی</w>
مف صلی</w>
مق ابلش</w>
مل تهب</w>
مل موس</w>
مل کی</w>
ملاح ظ
ملت فت</w>
ممل و</w>
ممنو عه</w>
من جمد</w>
من شور</w>
من و
منا قصه</w>
مناط قی</w>
منتظ رش</w>
منتق دان</w>
منحص را</w>
منط بق</w>
مه تابی</w>
مهم ل</w>
مو ا</w>
مو اضع</w>
مو توری</w>
مو ذی</w>
مو زها</w>
مو زون</w>
مو زیک</w>
مو لف</w>
مو من
مو نده</w>
مو ها</w>
مو کول</w>
موجو داتی</w>
مود ب</w>
مور ت</w>
موس س</w>
مک ین</w>
مکال مات</w>
مکانی سم</w>
می تونم</w>
می تونه</w>
می دل</w>
می را</w>
می نگ
می کابر</w>
می کنن</w>
می گم</w>
میخ کوب</w>
میهم انان</w>
ن ال
ن انش</w>
ن بات</w>
ن باشند</w>
ن باشه</w>
ن برده</w>
ن داشتن</w>
ن داشتیم</w>
ن دیدم</w>
ن رسد</w>
ن رفت</w>
ن سیم</w>
ن غ
ن ف</w>
ن مرده</w>
ن پذیر
ن چ</w>
ن چر</w>
ن کردیم</w>
ن کشیده</w>
نا امید</w>
نا امیدی</w>
نا تا</w>
نا تمام</w>
نا دان</w>
نا درستی</w>
نا دیا</w>
نا شناسی</w>
نا کام</w>
نا که</w>
نا گفته</w>
ناخود آگاه</w>
نام ریی</w>
نام علومی</w>
نام ند</w>
نامز دها</w>
نامط بو
ناگو اری</w>
ناگو نی</w>
نخ یر</w>
ند ان
نرد بان</w>
نز ند</w>
نز وئ
نسا جی</w>
نش انگر</w>
نش دنی</w>
نش ستیم</w>
نشی نم</w>
نص یب</w>
نظ اره</w>
نظ رت</w>
نعم ت</w>
نف سم</w>
نفو ذ
نم اند</w>
ننگر هار</w>
نها دند</w>
نو سانات</w>
نو شیدن</w>
نو وستی</w>
نوا دا</w>
نوز دهم</w>
نوی چ</w>
نگ اشته</w>
نگ اه
نگ ی
نگ یر
نگ ین</w>
نگذ اشته</w>
نگری ستند</w>
نگری سته</w>
نی افت</w>
نی ام
نی اورده</w>
نی ش
نی وم</w>
نیاز مندی</w>
نیاز ها</w>
نیت رات</w>
نیترو ژن</w>
نیفتا ده</w>
ه اب</w>
ه ادی</w>
ه اند</w>
ه جدهم</w>
ه جی</w>
ه دوی
ه رات</w>
ه وری</w>
هاو س</w>
هد فش</w>
هر اسان</w>
هر تز</w>
هر چی</w>
هر کدام</w>
هف دهم</w>
هلیکو پتر</w>
هم ایش</w>
هم راهش</w>
هم سو</w>
هم گانی</w>
همسای گی</w>
هنر مندان</w>
هنر مندانی</w>
هو شیار</w>
هول مز</w>
هوی دا</w>
هی اتی</w>
هی اه
هی جانی</w>
هی زم</w>
هی لاری</w>
هیو لا
هیچ وقت</w>
و انگ
و خامت</w>
و صله</w>
و ند</w>
و نزوئ
و هم</w>
و ود</w>
و گاس</w>
وا ژ
وا گذاری</w>
واق عیتی</w>
وال ا</w>
والدی نش</w>
وث یقه</w>
وح شتی</w>
وحشت زده</w>
وحشت ناکی</w>
ور ده</w>
ور شکست</w>
ور نس</w>
ورز شگاه</w>
وز نه</w>
وزی ری</w>
وس طی</w>
وسای لی</w>
وق ایعی</w>
وق تیکه</w>
وی ران
وی سکی</w>
وی نت</w>
وی ک
وی کت</w>
وی ید</w>
پ ات
پ اری</w>
پ ت</w>
پ طر
پا ها</w>
پار و</w>
پار چگی</w>
پاش ید</w>
پان زدهم</w>
پاه ایم</w>
پاولو نا</w>
پدر بزرگ</w>
پذ ی
پر ایس</w>
پر تو
پر داز</w>
پر زی
پرس شنامه</w>
پرست ش</w>
پرسی دند</w>
پرو انه</w>
پرو رد
پرو یز</w>
پری دند</w>
پری شانی</w>
پسر انه</w>
پسر های</w>
پن دارند</w>
پن داری</w>
پن داشتی</w>
پن دی</w>
پهلو انان</w>
پو شم</w>
پو چ</w>
پور ه</w>
پوش انی</w>
پوش اک</w>
پوش ند</w>
پژ واک</w>
پی مان
پی کره</w>
پی کی</w>
پیش خوان</w>
پیش کار</w>
پیشر و</w>
پیچی دگی</w>
پیکار جویان</w>
چ ارد</w>
چ اک
چ روک</w>
چ ف</w>
چ گالی</w>
چا پی</w>
چاق وی</w>
چر ت</w>
چر خان
چسب د</w>
چش مک</w>
چن ار</w>
چپ م</w>
ژ اک
ژ ر
ژ نو</w>
ژولی ده</w>
ک استی</w>
ک انی</w>
ک اه</w>
ک بود</w>
ک در</w>
ک سیون</w>
ک فه</w>
ک مان
ک وین</w>
ک ید</w>
کا بین</w>
کات الیست</w>
کار بر
کار تر</w>
کار خونه</w>
کار شان</w>
کار و
کار کرده</w>
کار گزار</w>
کارا ته</w>
کاره نین</w>
کارولی نای</w>
کام رون</w>
کامپیو ترهای</w>
کان ادایی</w>
کت لین</w>
کدا مشان</w>
کدا میک</w>
کر اب</w>
کر اوچ</w>
کر جی</w>
کرو ات</w>
کری ز</w>
کریست ین</w>
کش ان
کش تزارهای</w>
کشور مان</w>
کل امش</w>
کل اه
کلی پ</w>
کم د</w>
کمر بند</w>
کمی اب</w>
کن ر</w>
کن ندگانی</w>
کنار جاده</w>
کنفران سی</w>
کو بیده</w>
کو شد</w>
کو ششی</w>
کو شند</w>
کو فی</w>
کو هه</w>
کود تا</w>
کول تر</w>
کوچول وی</w>
کوی ی
کویی دیچ</w>
کی سی</w>
کی ل
کی لو</w>
کی و
کی و</w>
گ اهش</w>
گ ت</w>
گ دایی</w>
گ رابز</w>
گ رین</w>
گ ش</w>
گ لف</w>
گ لو
گ نگ</w>
گال با
گان دا</w>
گذ را</w>
گذر انی</w>
گذران دند</w>
گر ایید</w>
گر ج
گر دانند</w>
گر فتی</w>
گر ک</w>
گرا د</w>
گرا فی</w>
گرا م</w>
گراف یکی</w>
گرد نم</w>
گرد هم</w>
گرفت گی</w>
گری بان</w>
گری م</w>
گز اف</w>
گزارش گران</w>
گزی نش</w>
گست اخ</w>
گفت گوها</w>
گفت گویی</w>
گل اسکو</w>
گناه کار</w>
گو زن</w>
گو شتی</w>
گو ناگونی</w>
گو هایی</w>
گور نو</w>
گوناگ ال</w>
گی نی</w>
گیر ان</w>
ی ال</w>
ی انی</w>
ی تیم</w>
ی شان</w>
یاد ت</w>
یر ان</w>
یو ف</w>
یک ایک</w>
یک سال</w>
یک پارچگی</w>
0 4</w>
1 25</w>
10 6</w>
13 8
16 3</w>
18 00</w>
18 0</w>
19 40</w>
19 70</w>
2 40</w>
4 50</w>
5 00000</w>
5 50</w>
7 50</w>
7 7</w>
7 8</w>
8 8</w>
9 6</w>
9 8</w>
a b
a tion</w>
al l</w>
an g</w>
and sh
andsh ort
andshort n
andshortn ame</w>
ar ch
br andshortname</w>
c al
c be</w>
c p</w>
c w
ch ar
d c
d r</w>
d u</w>
e c</w>
e m</w>
e s</w>
f or
g dp</w>
g is</w>
gst r</w>
h a
h a</w>
i r</w>
is o</w>
k e
l i
le ss</w>
m and
m er
m i
m or
m v</w>
ma n</w>
ms gstr</w>
n a
n i</w>
new s</w>
o f</w>
o p
p la
pd f</w>
pe c
r i
r ic
re less</w>
ro m</w>
ro n</w>
s e</w>
s is</w>
s k
s pec
s t</w>
st er
t h</w>
t p</w>
t ro
t v</w>
t w
te k</w>
te r</w>
v i
w t</w>
w to</w>
wi reless</w>
آ ئی
آ بروی</w>
آ خ</w>
آ دام</w>
آ لی</w>
آ ند</w>
آ نی
آ هان</w>
آ پ
آئی نه</w>
آبر اه</w>
آتش بار</w>
آتل انت
آخ رش</w>
آدا ب</w>
آرا ل</w>
آری ل</w>
آز ار
آزار دهنده</w>
آس ا</w>
آس انس
آس بان</w>
آفری نش</w>
آل م
آل پاتی
آلماز بیک</w>
آلومی نیوم</w>
آلپاتی چ</w>
آمر انه</w>
آمو ختن</w>
آمی زش</w>
آن تن</w>
آن تون</w>
آن سوی</w>
آن موقع</w>
آن هم</w>
آنا پاولونا</w>
آناتو لی</w>
آنتو نیو</w>
آه نین</w>
آوی و</w>
آک سفورد</w>
ئ ت</w>
ئ ق</w>
ئو الات</w>
ا تی
ا خا
ا دره</w>
ا گو
اا اا
اب دا
اب داع</w>
اب طه</w>
اب لی</w>
اب هام</w>
ابتکار ات</w>
ابر اه
ابر ه</w>
ابر و</w>
ابرو انش</w>
ابله انه</w>
ات ریش</w>
اتفا قاتی</w>
اث نا</w>
اج ات</w>
اج بار</w>
اج داد</w>
اج راست</w>
اج مالی</w>
احترا ق</w>
احتمال ات</w>
احتی اجات</w>
اخ وری</w>
اخا ذی</w>
اختلا ط</w>
اختی اری</w>
اد بیات</w>
اد ف</w>
اد لات</w>
ادی نه</w>
ار الله</w>
ار تع
ار ج</w>
ار خوری</w>
ار دنی</w>
ار زه</w>
ار ضا</w>
ار ع
ار من
ار نش
ار گ</w>
ار ید</w>
ار یم</w>
ار یه</w>
ارت شی</w>
اردو ی</w>
ارمن ستان</w>
ارنش او</w>
از دهمین</w>
اس لای
اس نو
اس هال</w>
اس پری
است خوانی</w>
است شما
است ناد</w>
است یر
استار باک</w>
استاندار دها</w>
استث نا
استرو و</w>
استشما م</w>
استق امت</w>
استن طاق</w>
اسی ده</w>
اسی دی</w>
اسی مه</w>
اش راف</w>
اش نی</w>
اشبا ع</w>
اطرا فم</w>
اطرافی انش</w>
اعترا ضی</w>
اعتق ادی</w>
اعض ایش</w>
اغ راق</w>
اف تراقی</w>
اف تن</w>
اف شا</w>
اف شان</w>
اف ول</w>
اف کنده</w>
افت را</w>
اق امه</w>
اق وام</w>
اقت ضا</w>
اقی ان
ال اتحاد</w>
ال اجرا</w>
ال اسد</w>
ال تحصیلی</w>
ال ج
ال ر
ال شر
ال عملی</w>
ال قا</w>
ال ل
ال ماس</w>
ال و</w>
ال وسط</w>
ال گو</w>
التز ام</w>
الو ف
ام دادی</w>
ام نه</w>
ام وری</w>
ام یک</w>
اما کوچولو</w>
امتی ار</w>
امض اها</w>
امو زان</w>
اموز ند</w>
امپرا تور</w>
امپرا طوری</w>
امی ج</w>
امیدوار انه</w>
ان باری</w>
ان تری</w>
ان تو
ان تی</w>
ان ه
ان وف</w>
ان وی</w>
انبا شت</w>
انتظ اری</w>
انج امیده</w>
انح ط
انحط اط</w>
اند رو
اندا زم</w>
اندا زها</w>
اندا مش</w>
اندی شیدم</w>
انز ج
انص راف</w>
انض باط</w>
انگی خت</w>
اه ت</w>
اه دای</w>
اه نی</w>
اهدا فی</w>
او نم</w>
او گ
اوتی سم</w>
اور ان</w>
اور بی
اور م</w>
اور یک</w>
اوربی نو</w>
اول گا</w>
اوی زان</w>
اپ ه</w>
اپرا تور</w>
اک ش</w>
اک مل</w>
اکتش افی</w>
ای اتی</w>
ای ران
ای ستم</w>
ای شون</w>
ای فای</w>
ای فه</w>
ای نده</w>
ای وف</w>
ای کس</w>
ایت ز</w>
ایز ابل</w>
ایست اد
این حال</w>
ایوان ویچ</w>
ب ئ
ب تا
ب توانی</w>
ب تون</w>
ب تونه</w>
ب تونی</w>
ب تکن</w>
ب خ</w>
ب دید</w>
ب زه</w>
ب ستی</w>
ب سر</w>
ب سوی</w>
ب شید</w>
ب فرد</w>
ب لیت</w>
ب ند
ب ندها</w>
ب هم
ب ویی</w>
ب پذی
ب پرس</w>
ب گ</w>
ب گردیم</w>
ب گیری</w>
ب گین</w>
با با
با بانوف</w>
با بی</w>
با فته</w>
با کس</w>
با کیت</w>
باد بان</w>
بار اک</w>
بار ترین</w>
بار وت</w>
بار وری</w>
باز اری</w>
باز دهی</w>
باز رسان</w>
باز ش</w>
باز وان</w>
باز گردند</w>
بازنش ستگی</w>
بازگردان ده</w>
باش ن</w>
بال غی</w>
بال گرد</w>
بالا تری</w>
بان فو
بان که</w>
باه اشون</w>
بب ندد</w>
ببن دند</w>
ببو سد</w>
بح رینی</w>
بخ رد</w>
بخ شو
بخ ندد</w>
بخ یر</w>
بخو ابند</w>
بخو ای</w>
بخور ید</w>
بد نشان</w>
بدرفت اری</w>
بذ ارم</w>
بر آمده</w>
بر آوردن</w>
بر آید</w>
بر روی</w>
بر طبق</w>
بر نج</w>
بر ندها</w>
بر ها</w>
بر هان</w>
بر کت</w>
بر گرفته</w>
برافرا شته</w>
برانگی ختن</w>
برخور دارند</w>
برخی زم</w>
برقص م</w>
برو کسل</w>
برگر دند</w>
برگردان دم</w>
برگردان ده</w>
بری دن</w>
بزر گم</w>
بس ک
بسا ط</w>
بست گانش</w>
بسک تبال</w>
بسیار خوب</w>
بش نو
بش وی</w>
بشر دوستانه</w>
بشنو ند</w>
بعداز ظهرها</w>
بف همه</w>
بفر ما
بفرما ئید</w>
بفرمای ید</w>
بفهم ند</w>
بل عی
بل ورین</w>
بل ژیکی</w>
بل ک</w>
بلند ترین</w>
بلند ش</w>
بلو غ</w>
بلو چ</w>
بن درت</w>
بنا در</w>
بنشی نند</w>
بنی ان</w>
به اره</w>
به رام</w>
بو ج</w>
بو دش</w>
بو ف</w>
بو م</w>
بوسی دند</w>
بول در</w>
بولو ار</w>
بکش اند</w>
بکو شد</w>
بگ من</w>
بگذ ریم</w>
بی ابم</w>
بی ام</w>
بی اموزند</w>
بی زار</w>
بی ست
بی ف
بی مناک</w>
بی نو
بی و
بی چار
بی کر
بیامو زد</w>
بیاور یم</w>
بیست مین</w>
بیفت ند</w>
بیندا زند</w>
بیندا زید</w>
ت اری</w>
ت بی
ت ح</w>
ت خی
ت روی</w>
ت زار</w>
ت فت
ت فر
ت مان</w>
ت مرک
ت های</w>
ت پ</w>
ت کلم</w>
تا بد</w>
تا بعی</w>
تا به</w>
تا بو
تا کستان</w>
تا گون</w>
تابل وی</w>
تادی ب</w>
تاشی ف</w>
تام اس</w>
تام سون</w>
تان زان
تان یس</w>
تانزان یا</w>
تای ر</w>
تایی دیه</w>
تبا ه</w>
تبا هی</w>
تج ارتی</w>
تحلی لی</w>
تخ ری
تخ فیف</w>
تخ میر</w>
تخری بی</w>
تر است</w>
تر ان</w>
تر سو</w>
تر قی</w>
تر می
تر کستان</w>
ترا کم</w>
ترا کنش</w>
تراف یکی</w>
تران سف
ترانسف ور
ترمی نال</w>
تری ل</w>
تس ویه</w>
تش می</w>
تش وی
تص د</w>
تص م</w>
تع ارض</w>
تع ج
تع رفه</w>
تع ص
تع می
تع میر
تغی یر
تف لیس</w>
تق ارن</w>
تل ف
تل فی
تل فیق</w>
تلف ظ</w>
تمسخر آمیز</w>
تن هائی</w>
تن ور</w>
تنف سی</w>
ته ویه</w>
تهاج م</w>
تو ش</w>
تو فانی</w>
تو ل</w>
تو هم</w>
تو گو</w>
تو ی
توان ائی</w>
توان مندی</w>
توانمند سازی</w>
توجه ش</w>
توری کس</w>
توف ها</w>
تول دش</w>
تولید است</w>
تون ستیم</w>
توپ خانه</w>
تک اوران</w>
تک مه</w>
تکر یم</w>
تکن و
تی ست</w>
تی غ</w>
تی ن
تی ور
تی کی</w>
تیل ور</w>
ث ابتی</w>
ث ریا</w>
ج ارو</w>
ج اش</w>
ج ایشان</w>
ج بات</w>
ج رسی</w>
ج رنگ</w>
ج ری</w>
ج ریت</w>
ج فت
ج لی</w>
ج می
ج کسون</w>
ج گر
جا بر</w>
جاب جا</w>
جاس ازی</w>
جام د</w>
جاو دان</w>
جای ز</w>
جای گاهی</w>
جایگ زینی</w>
جد اسازی</w>
جر الد</w>
جر می</w>
جری انات</w>
جست جو
جغ دی</w>
جل دی</w>
جل ویش</w>
جمج مه</w>
جمهوری خواهان</w>
جنایت کار</w>
جنج الی</w>
جنگ لی</w>
جنگ وی</w>
جنگ ید</w>
جه ات</w>
جه د</w>
جه ید</w>
جهان یان</w>
جو اهر</w>
جو شید</w>
جو ل</w>
جو نم</w>
جو هر</w>
جوان انی</w>
جوان مردانه</w>
جوی انه</w>
جی نه</w>
ح اج
ح دیده</w>
ح راج</w>
ح رام</w>
ح لال</w>
ح یا</w>
حائ ز</w>
حال ات</w>
حال شان</w>
حد قه</w>
حر ارتی</w>
حر فت</w>
حفا ظ</w>
حق انی</w>
حقیق تی</w>
حک یم</w>
حکو متی</w>
خ است
خ امه</w>
خ انج
خ میر</w>
خار طوم</w>
خار و
خاطر ی</w>
خان دان</w>
خان وار</w>
خان وف</w>
خت ش</w>
خج لت</w>
خراب کاری</w>
خری دار</w>
خری دم</w>
خش مناک</w>
خشنو دی</w>
خص لت</w>
خصوص یت</w>
خل بان</w>
خل ع</w>
خلا فت</w>
خلو ص</w>
خن دم</w>
خو ایم</w>
خو بیه</w>
خو شت</w>
خو فی</w>
خو نش</w>
خو نین</w>
خوار بار</w>
خواست گاری</w>
خواست ید</w>
خوان دم</w>
خوان م</w>
خوان یم</w>
خود شو</w>
خودمخت اری</w>
خور دی</w>
خی اط</w>
د است
د ایم</w>
د تان</w>
د تی</w>
د سی
د لا
د مورت</w>
د مکر
دا ب</w>
دا ش</w>
دا غی</w>
دا لان</w>
دا وی
داش تنش</w>
دالو خوف</w>
دام پینگ</w>
دان شمند</w>
دان مارک</w>
دانش جو
دانشگاه یان</w>
داو طلب
داوطلب انه</w>
دای می</w>
دختر های</w>
در آن</w>
در ام
در برابر</w>
در ج</w>
در خصوص</w>
در مانده</w>
در میان</w>
در ن</w>
در نهایت</w>
در کنار</w>
در کی</w>
درا ز
درا ف
درخ شانی</w>
درش تی</w>
درمان گاه</w>
دری افتی</w>
دریا ها</w>
دز دیده</w>
دست انی</w>
دست شویی</w>
دست وری</w>
دل باخته</w>
دل ن</w>
دل هره</w>
دل گرم</w>
ده ایش</w>
ده نگام</w>
دو ئ
دو ئل</w>
دو ازدهمین</w>
دو بر
دو برابر</w>
دو دک
دو دی</w>
دو را</w>
دو ز
دو شان</w>
دو می
دو نیم</w>
دو چرخه</w>
دودک ش</w>
دور و</w>
دور گه</w>
دون ست</w>
دوی دم</w>
دوی ده</w>
دک ترها</w>
دکتر مید</w>
دی ری</w>
دی مو
دی ویس</w>
دید گانش</w>
دیر تر</w>
دیمو ناتا</w>
دینام یکی</w>
دیو ونه</w>
ذ ات</w>
ذ اتی</w>
ذ غال</w>
ذکر ش</w>
ر ایت</w>
ر خش</w>
ر ذ
ر ذل</w>
ر زد</w>
ر زی
ر شت</w>
ر شید</w>
ر فا
ر می</w>
ر نک</w>
ر نی</w>
را بی</w>
را جر</w>
را ض
را هی
را ول
را کت</w>
را کی</w>
رائ ت</w>
راس توفها</w>
راس خ</w>
راست ار</w>
ران دن</w>
راه ب</w>
راه روها</w>
راه زن</w>
راول پندی</w>
رای انه</w>
رح مانوف</w>
رخ نه</w>
رس اله</w>
رس میت</w>
رس ون</w>
رض ایت
رع نا</w>
رف اهی</w>
رف ح</w>
رفت ارشان</w>
رقص یدند</w>
رقی بان</w>
ره سپار</w>
رو ایی</w>
رو بی</w>
رو تور</w>
رو سری</w>
رو شنا
رو منی</w>
رو می</w>
رو میت</w>
رو های</w>
رو کش</w>
رو گان</w>
رو یت</w>
روان دا</w>
روح انیت</w>
روح ش</w>
روست ائیان</w>
روشنا ئی</w>
رون ال
رون الد</w>
روگو ژین</w>
روی دادی</w>
رویا ها</w>
رویا های</w>
ری اض</w>
ری تم</w>
ری زان</w>
ری زش</w>
ری شی</w>
ری لی</w>
ری چارد</w>
ریک ات</w>
ز ابل</w>
ز اتی</w>
ز ایی</w>
ز دار</w>
ز ع
ز نه</w>
ز نیم</w>
ز ورق</w>
زاد گاه</w>
زرا عی</w>
زمان بندی</w>
زن بور
زو بین</w>
زو دهنگام</w>
زی ستن</w>
زیاد تر</w>
زیبا ئی</w>
زیبا تر</w>
زیر زمین</w>
س ئ
س ئوالات</w>
س ار</w>
س اری</w>
س بز
س خته</w>
س دها</w>
س میر</w>
س ندی</w>
س ور</w>
س کان</w>
سا ختی</w>
سا زم</w>
سا و
سار کو
سارکو زی</w>
سام انتا</w>
سان ت</w>
سان تی
سان حه</w>
سب کی</w>
ست د</w>
ست م
ست هی</w>
ست و</w>
سخ نانش</w>
سر اسیمه</w>
سر حد</w>
سر خ
سر ش
سر شماری</w>
سر مان</w>
سر مای</w>
سر مقاله</w>
سر نشین</w>
سر نوش
سر ها</w>
سر کشی</w>
سر گذشت</w>
سرا ج</w>
سرباز ها</w>
سرش اری</w>
سعاد تی</w>
سف الی</w>
سل انه</w>
سل فسکی</w>
سل و</w>
سلط نت</w>
سمی نار</w>
سن ترال</w>
سنار ی
سناری وی</w>
سو ان</w>
سو ختگی</w>
سو زنی</w>
سو پر</w>
سوئ د</w>
سوا دی</w>
سود آور</w>
سود آوری</w>
سور تمه</w>
سوسی الیست</w>
سپ ارد</w>
سک ته</w>
سکن دری</w>
سکول ار</w>
سی ارات</w>
سی استی</w>
سی خ</w>
سی م
سی نا
سی وس</w>
سی کل</w>
سیست می</w>
ش الی</w>
ش ایر</w>
ش تا</w>
ش دنش</w>
ش فیق</w>
ش هد
ش یا</w>
شات ور
شاتور نود</w>
شاد مانه</w>
شار لوت</w>
شاع ران</w>
شاه راه</w>
شاک ر</w>
شت افتند</w>
شت گان</w>
شتا فت</w>
شجاع انه</w>
شدی دا</w>
شر ارت</w>
شر می</w>
شرافت مند</w>
شرمس ار</w>
شرمن ده</w>
شرمن دگی</w>
شع ب</w>
شع بات</w>
شف اهی</w>
شنا ختند</w>
شنا ختیم</w>
شنو نده</w>
شنو ندگان</w>
شهد ای</w>
شهر ستان</w>
شو ل
شک افت</w>
شک افته</w>
شک لات</w>
شکر ی</w>
شکی بایی</w>
شی ئی</w>
شی لات</w>
شی گری</w>
شیو هی</w>
شیکا گو</w>
ص ابون</w>
ص فت</w>
ص فی</w>
ص لح
ص هیو
ص وت</w>
صبر انه</w>
صح بتش</w>
صحر ای</w>
صد درصد</w>
صدا قت</w>
صدی قی</w>
صمی م</w>
صمی مانه</w>
صو فی</w>
صی قل</w>
ض ابطه</w>
ض یا</w>
ط اق
ط انه</w>
ط ایفه</w>
ط بع</w>
ط بقات</w>
ط ق</w>
ط وی
ط ین</w>
طال ب</w>
طبی ع
طبیع تا</w>
طرا بلس</w>
طع م</w>
طی به</w>
ظ فر</w>
ظو اهری</w>
ع ادات</w>
ع ار</w>
ع ام
ع بد
ع بدل</w>
ع جز</w>
ع ددی</w>
ع زم</w>
ع لیا</w>
ع م</w>
ع کسی</w>
عاج ز</w>
عبدالرح یم</w>
عذ ر
عر ف</w>
عش قی</w>
عض لانی</w>
عط ا
عط سه</w>
عظ ی
عق اب</w>
عق لش</w>
علا ج</w>
علی زو
عم دا</w>
عمر ان</w>
عمر ه</w>
عمو یش</w>
عنا وین</w>
عو املی</w>
عک اسی</w>
عی ار</w>
عین کی</w>
غ امی</w>
غ باری</w>
غ بطه</w>
غ ت</w>
غاف ل</w>
غافل گیر</w>
غذ اخوری</w>
غذ ی</w>
غر غر</w>
غر فه</w>
غرو رش</w>
غری و</w>
غلی ظی</w>
ف اس
ف صلی</w>
ف قره</w>
ف ول
ف ک</w>
فا تح
فا تح</w>
فا زی</w>
فار س</w>
فر دریک</w>
فر ستند</w>
فر شتگان</w>
فر مانی</w>
فرآی ندها</w>
فرآی ندی</w>
فرا غ</w>
فرا ورده</w>
فرا گیر</w>
فرامو شش</w>
فران س</w>
فران سی
فرای ندها</w>
فردی چنکو</w>
فرز ندی</w>
فری م</w>
فس خ</w>
فش نگ</w>
فق را</w>
فل ش</w>
فل ور</w>
فهم د</w>
فهمی دی</w>
فو کو
فوا د</w>
فوا صل</w>
فوکو شیما</w>
فک اهی</w>
فکر ان</w>
فی تی</w>
فیل می</w>
فیو دور</w>
ق اسم</w>
ق ال
ق تی</w>
ق دس</w>
ق دی</w>
ق رائت</w>
ق رو
ق سا
ق طری</w>
ق لو
ق لی
ق مار
ق ند</w>
ق ه
ق ورت</w>
ق وری</w>
قا در
قاع دتا</w>
قانونگذ اری</w>
قاچاق چیان</w>
قای قی</w>
قایقر انی</w>
قب طی</w>
قب له</w>
قد ح</w>
قدرت مندتر</w>
قدرتمند ترین</w>
قدی ر</w>
قر قره</w>
قر ی</w>
قز ل</w>
قل مرو
قوا عد</w>
ل ئو
ل استیک</w>
ل جن</w>
ل ق
ل ویی</w>
ل گن</w>
لا بی</w>
لا قی</w>
لا ورنس</w>
لا که
لاکه ارت</w>
لای ق</w>
لب اس
لب اسش</w>
لب م</w>
لح ت</w>
لح نش</w>
لر زانی</w>
لر زش</w>
لر زیدم</w>
لط ی
لط یفه</w>
لو ژین</w>
لی اری</w>
لی اقت</w>
لی توانی</w>
لی نو
لی وا</w>
لی ونی</w>
لی کا</w>
لینو کس</w>
م ئن</w>
م اسیموف</w>
م بانی</w>
م بدل</w>
م بر
م خوفی</w>
م غذی</w>
م لیس</w>
م نیر</w>
م وری</w>
م کن
م که</w>
م گین</w>
ما تم</w>
ما دلن</w>
ما شی
ما ع</w>
ما کار
ماجرا جویی</w>
ماجرا های</w>
مار ان</w>
مار جاه</w>
مار ها</w>
مار ی
ماز اد</w>
ماز ارین</w>
مال اریا</w>
مامور ین</w>
ماموری تی</w>
ماهی چه</w>
مب و</w>
مباح ثه</w>
مباحث ات</w>
مت انت</w>
مت ذکر</w>
مت ضمن</w>
مت کبر</w>
مت کی</w>
متص دیان</w>
متعاق ب</w>
متوس ل</w>
مث الی</w>
مج ادله</w>
مج رد</w>
مج ی
مجاه دین</w>
مجبور یم</w>
مح تشمی</w>
مح رم</w>
مح رومیت</w>
مح فل</w>
مح لول</w>
مح مد
مح مدا
مح مدوف</w>
محبو بیت</w>
محتا طانه</w>
محصو لاتی</w>
محق ر</w>
مخ رب</w>
مخ ملی</w>
مخت ص</w>
مد د
مد د</w>
مر بعی</w>
مر دند</w>
مر سی</w>
مر کل</w>
مرا تبی</w>
مرا کش</w>
مرت با</w>
مرد ک</w>
مرگ بارترین</w>
مرگ ش</w>
مز ایده</w>
مز خ
مسئو لیتی</w>
مست حکم</w>
مست ط
مست عمره</w>
مست مر</w>
مست مری</w>
مستخد مین</w>
مش اهدات</w>
مش مول</w>
مش وق</w>
مشاور ان</w>
مشغ ول
مص ادف</w>
مص اف</w>
مص باح</w>
مص لحت</w>
مصو نیت</w>
مطمئ نی</w>
مطمئ نید</w>
مع ادلات</w>
مع اهدات</w>
مع او
مع جو
مع رف</w>
مع رو
مع صو
مع قول</w>
مع قولی</w>
مع مار</w>
مع ماران</w>
معترض ین</w>
معلو مه</w>
مغ ایر</w>
مفا صل</w>
مفت یات</w>
مق تول</w>
مقد مات</w>
مل اله</w>
مل کند</w>
مل کو
ملا قاتی</w>
ملاحظ ات</w>
ممل کت</w>
من دند</w>
من سو
من ش</w>
منا ت</w>
منا ظ
منت شره</w>
منف عت</w>
منق ار</w>
مه دی</w>
مهر آمیز</w>
مو ار</w>
مو از
مو ازی</w>
مو جبات</w>
مو جی</w>
مو سوم</w>
مو سوی</w>
مو شکی</w>
مو نا</w>
مو نه</w>
مو نی
مو ه
مو هایم</w>
مو همند</w>
موتور سیکلت</w>
مور د
موری تانی</w>
موف قی
مومن ان</w>
مک تب</w>
می بین
می توان</w>
می تک
می دم</w>
می دن</w>
می شن</w>
می شیم</w>
می لر</w>
می منه</w>
می نه</w>
می نگ</w>
می کش
میلی ار
میو مد</w>
ن ارد</w>
ن بایستی</w>
ن بودیم</w>
ن بورگ</w>
ن تونستم</w>
ن ثارش</w>
ن خواهی</w>
ن شه</w>
ن طور</w>
ن ل
ن نگ</w>
ن همین</w>
ن هی</w>
ن کر</w>
ن کردن</w>
نا آرام</w>
نا تالی</w>
نا تی
نا تی</w>
نا جور</w>
نا دری</w>
نا شیانه</w>
نا ص
نا ظم</w>
نا چیزی</w>
نار دو</w>
ناس ا</w>
ناس زا</w>
ناس یون
نام علوم</w>
نام گذاری</w>
نام ی
نام یدند</w>
نامط لوبی</w>
نامط مئن</w>
ناه موار</w>
ناو گان</w>
ناگ زیر</w>
نج اری</w>
نج وا
نخ ل</w>
ند انی</w>
ند هم</w>
نز اکت</w>
نز ن</w>
نس کی</w>
نش ر</w>
نش نا
نش وید</w>
نشی نند</w>
نص رت</w>
نظ افت</w>
نظ یری</w>
نف عی</w>
نفو ذی</w>
نق شش</w>
نم ناک</w>
نمای شگاهی</w>
نمو دیم</w>
نمی خوام</w>
نه ادینه</w>
نه صد</w>
نو ده</w>
نو زده</w>
نو شید</w>
نو هی</w>
نوا خته</w>
نور سلطان</w>
نومی دی</w>
نک اتی</w>
نگ ارانی</w>
نگ تن</w>
نگ تون</w>
نگ شته</w>
نگ ل</w>
نگذ اشت</w>
نگه ش</w>
نگیر ند</w>
نی ات</w>
نی افتند</w>
نی تی</w>
نی سم</w>
نی شتر</w>
نی ف</w>
نی ندا
نی کلا</w>
نیرو هایی</w>
نیرو گیری</w>
نیو م
نیو مد</w>
نیکو کار</w>
ه ات
ه اد</w>
ه اری</w>
ه انگ
ه اک
ه یم</w>
هاش می</w>
هال یو
هالیو ود</w>
های بری</w>
هدوی گ</w>
هر روز</w>
هر زه</w>
هر م</w>
هش تصد</w>
هش دار
هف ده</w>
هم ا</w>
هم تای</w>
هم خوانی</w>
هم سن</w>
هم ش</w>
هم چین</w>
همکار ی
همکاری های</w>
همی نه</w>
هنر های</w>
هو شمند</w>
هو شی</w>
هی جان
هی ندلی</w>
هی و</w>
هی کلی</w>
هیچ یک</w>
و ارو
و اسی
و افر</w>
و انت</w>
و اه
و این</w>
و بعد</w>
و تاب</w>
و ج</w>
و جو</w>
و خش</w>
و زی</w>
و ست
و سلفسکی</w>
و عظ</w>
و می
و پ</w>
وا جد</w>
وا دارد</w>
وا دور</w>
وا کر</w>
واح دها</w>
وار سی</w>
واس ط</w>
وال ا
وال تر</w>
وال دینی</w>
وانگ هی</w>
وب سایت</w>
وجو دی</w>
ور انداز</w>
ور انی</w>
ور ز</w>
ور س</w>
ور شان</w>
ور لد</w>
ور یت</w>
وص ول</w>
وص یت</w>
وق احت</w>
ول ایات</w>
ول ایتی</w>
ول دمورت</w>
ول ف</w>
ونزوئ لا</w>
وی ان</w>
وی تامین</w>
وی راستار</w>
وی زگی</w>
وی لفور</w>
وی ند</w>
وی کتور</w>
ویت نام</w>
ویدی ویی</w>
ویر انی</w>
ویر جی
وین دوز</w>
پ ارت</w>
پ انت
پ تی</w>
پ ست
پ شتم</w>
پ شم</w>
پ وری
پ کینگ</w>
پا برهنه</w>
پا داش
پا چگی</w>
پا ژ</w>
پاتی ل</w>
پاد شاهان</w>
پار تی</w>
پار گی</w>
پاس بان</w>
پاس داران</w>
پاش یده</w>
پان ل</w>
پای بند</w>
پای یز</w>
پدر و</w>
پذیر تر</w>
پر اند</w>
پر ای</w>
پر خوری</w>
پر ش</w>
پردا ختن</w>
پردا زشگر</w>
پرزی دنت</w>
پرسی دن</w>
پرو از
پرو ری</w>
پرو م</w>
پس ماند</w>
پس ند
پس ندی</w>
پش می</w>
پشی مانی</w>
پم پاژ</w>
پن تاگون</w>
پناه نده</w>
پناه ندگی</w>
پنج مین</w>
پهنا ور</w>
پو شان</w>
پو شیدند</w>
پو لو
پوست ش</w>
پوسی ده</w>
پژو هش
پی رو</w>
پی شک
پی چی</w>
پی کری</w>
پیر امو
پیش ا
پیش گویی</w>
پیش گی</w>
پیو ستگی</w>
چ اشنی</w>
چ ت</w>
چ رم</w>
چ فت</w>
چ ن</w>
چ نینی</w>
چا درها</w>
چا پار
چس بان
چهار مین</w>
چو بین</w>
چو دری</w>
چوب دستیش</w>
چک ید</w>
ژ اک</w>
ژان دارم</w>
ژنرا تورهای</w>
ژور نال</w>
ک است
ک اشی</w>
ک انت
ک اوش</w>
ک ویر</w>
ک پ
کا تولی
کا ک</w>
کار خانج
کار لو</w>
کار گذاش
کار گری</w>
کاربر دهایی</w>
کارگذاش تنی</w>
کاغذ های</w>
کال ای</w>
کام بوج</w>
کان اپه</w>
کان یو
کاندی داهای</w>
کت مان</w>
کر ات</w>
کر است</w>
کر اوات</w>
کر د
کر دستان</w>
کر دین</w>
کر کره</w>
کرو گر</w>
کس الت</w>
کس ان</w>
کش میر</w>
کشی شان</w>
کل انتری</w>
کل اهی</w>
کل ای
کل ند</w>
کلا می</w>
کلی دها</w>
کم و</w>
کما بیش</w>
کمی نه</w>
کن ج</w>
کن دو
کن دو</w>
کن دگی</w>
کن شی</w>
کن ندگی</w>
کن گو</w>
کو ئی
کو ارت
کو دن</w>
کو شیدم</w>
کو لی
کو ن
کو پ</w>
کود تای</w>
کود کان
کودک انه</w>
کور مال</w>
کوچ اماکوچولو</w>
کوچ یک</w>
کی از</w>
کی انی</w>
کی نگ
کی پ</w>
کیل من</w>
گ امیج</w>
گ سی
گ مانی</w>
گ نوم</w>
گ واه</w>
گ یو
گار انگ</w>
گار و</w>
گالبا توریکس</w>
گاو ها</w>
گذ اره</w>
گذ شت
گذ شتم</w>
گذار یم</w>
گر انه</w>
گرج ستان</w>
گرد آوری</w>
گرد باد</w>
گرفت ید</w>
گرو هش</w>
گری خته</w>
گری ستن</w>
گز ند</w>
گش ایی</w>
گل دان</w>
گل زنی</w>
گل و</w>
گل گون</w>
گم راه</w>
گن اهی</w>
گن جینه</w>
گنج انده</w>
گو اری</w>
گو ه</w>
گوسف ندان</w>
گوی ید</w>
گی تار</w>
گی ش</w>
گی ملی</w>
گیر ت</w>
گیسو انش</w>
ی لت</w>
ی له</w>
ی منی</w>
ی ول
ی کراست</w>
ی کیاز</w>
یا بیم</w>
یار انه</w>
یار ای</w>
یاف تی</w>
یاف تیم</w>
یاه و</w>
یر ت</w>
یر م</w>
یل دا</w>
یو س
یو نس</w>
یور تمه</w>
یون جه</w>
یک ا</w>
یکنوا ختی</w>
0 01</w>
1 16</w>
10 4</w>
10 7</w>
14 001</w>
16 1</w>
17 5</w>
18 15</w>
18 5</w>
19 0</w>
19 47</w>
19 58</w>
19 60</w>
196 2</w>
196 7</w>
197 5</w>
198 2</w>
198 9</w>
2 11</w>
2 35</w>
2 500</w>
20 16</w>
20 6</w>
26 4</w>
3 03</w>
3 20</w>
3 60</w>
3 69</w>
5 000</w>
5 07</w>
6 7</w>
7 2</w>
a a
a de</w>
a h
a iff</w>
a k
a t</w>
a wo
al ity</w>
al th</w>
an g
app le</w>
ar t
arch dis
archdis pla
awo o</w>
b a</w>
b ar
b ar</w>
b j
b m</w>
b pm</w>
b pr</w>
b ro
b s
b u
ban ha</w>
bo t</w>
c ap
c e</w>
c i
c k</w>
co m
co mp
com mand
command n</w>
cr i
cr m</w>
ct t</w>
ct ur
cw b</w>
d i</w>
d na</w>
de awoo</w>
de l
e e</w>
e m
e p
e p</w>
e ta</w>
en ti
er a</w>
f i
f ic
f p
f r
f rom</w>
f u
fe t</w>
fo r</w>
fp ga</w>
g n</w>
g r
g s</w>
go p</w>
h ar
hb v</w>
he alth</w>
i g
i i</w>
i se
ic c</w>
ie ee</w>
in e</w>
in te
is r</w>
ise archdispla
it u</w>
jo bs</w>
l an
l i</w>
l ip</w>
le d</w>
m b</w>
m ent</w>
m f
m isr</w>
m n
mo n
n i
n m</w>
n ta</w>
ne t</w>
new s
nf mt</w>
o g
p ac
p er
p h</w>
p pm</w>
p s</w>
qu ality</w>
qu e</w>
r a</w>
r i</w>
r ms</w>
r u
r un
s c</w>
s cor
s d</w>
s n
se al</w>
se tt
sh ar
so f
sp c</w>
st ra
t ra
ta b</w>
te s</w>
ti o</w>
tion s</w>
u isearchdispla
u m</w>
u st
un d</w>
v a</w>
w a
wo t</w>
x y
آ با
آ بقه</w>
آ تا
آ د</w>
آ دا</w>
آ س</w>
آ سای
آ سم</w>
آ سه</w>
آ لت</w>
آ ند
آ نگ
آ هار</w>
آ هنگ
آ و</w>
آ کی</w>
آ یه</w>
آبی جان</w>
آتلانت یک</w>
آجر های</w>
آجو دان</w>
آخ ری</w>
آخ ه</w>
آد زی</w>
آدا مس</w>
آر ای
آر میده</w>
آر ن</w>
آر چی</w>
آرز ویش</w>
آرزو های</w>
آرکا دیو</w>
آز بستی</w>
آزمو ده</w>
آس ای</w>
آسی اب</w>
آغ ا
آل بانی</w>
آل زای
آلا باما</w>
آلزای مر</w>
آلو دش</w>
آلکس اندرا</w>
آم ارها</w>
آموز گار</w>
آن ان
آن توان</w>
آن ش</w>
آن م</w>
آن چنان</w>
آن ژ</w>
آنج ائیکه</w>
آنج لا</w>
آه ک</w>
آو ار</w>
آوا ز
آور دید</w>
آک سی
آکسی نیا</w>
آی فون</w>
ئ یم</w>
ئی تر</w>
ا تیل
ا خانه</w>
ا دهایی</w>
ا غذیه</w>
ا چ
ا ژ</w>
ائ ل</w>
ائو وین</w>
اب دیت</w>
ابت لا</w>
ابر ها</w>
ابر هایی</w>
ابر یل</w>
ابز ارها</w>
ابز ارهایی</w>
ابل هی</w>
ابو ظ
ابوال عی
ابوالعی ون</w>
ابوظ بی</w>
ات لاف</w>
ات لنی</w>
اتا قه</w>
اتری س</w>
اتری شی</w>
اتری نبورگ</w>
اتیل ن</w>
اث ت</w>
اثاث ه</w>
اج ان</w>
اج ت</w>
اجتما عات</w>
اح راز</w>
اح سان</w>
احتمال ش</w>
اخ باری</w>
اخ ه</w>
اخ یر
اخلا قی
اخی ز</w>
اد مای</w>
اد ور
ادع اها</w>
ادی شو</w>
اذ هان</w>
ار ج
ار سالی</w>
ار سط
ار ق</w>
ار می</w>
ار یت</w>
ارت ف
ارتع اش</w>
ارتف اع
اردو گاهی</w>
ارز وی</w>
ارسط و</w>
ارع اب</w>
ارو اره</w>
ارو پ
ارو ک</w>
ارگان ی
اری ای</w>
اری مش</w>
از سرگیری</w>
از شان</w>
از شون</w>
از وز</w>
ازب کستانی</w>
اس اس
اس به</w>
اس تر</w>
اس تری</w>
اس رای</w>
اس طوره</w>
اس ل</w>
اس لو</w>
اس مر
اس مول
اس ه</w>
اس وف</w>
اس پن
اس کای</w>
اس کن</w>
اس کورت</w>
اس کیت</w>
است ب
است خدا
است خر
است فان</w>
است فراغ</w>
است ماع</w>
است مداد</w>
است مر
است یکی</w>
استا دانه</w>
استا دی</w>
استار ترها</w>
استار ک</w>
استحق اق</w>
استخدا می</w>
استرات ژیکی</w>
استرای در</w>
استع دادها</w>
استع فای</w>
استع مال</w>
استعم اری</w>
استمر ار</w>
استن باط</w>
استو دیو</w>
استی ص
استیر فور
استیرفور ث</w>
استیص ال</w>
اسلا گ</w>
اسلو ونی</w>
اسماعی لوف</w>
اسمر دی
اسمردی اک
اسمردیاک ف</w>
اسمول نسک</w>
اسکات لندی</w>
اسکو ایر</w>
اسکو ی</w>
اش رار</w>
اش رافی</w>
اش رف</w>
اش رق</w>
اش فق</w>
اش کش</w>
اش گ</w>
اشت های</w>
اشتبا ه
اص غر</w>
اص م</w>
اصط کاک</w>
اضطرا بی</w>
اط اق</w>
اطرا ق</w>
اطلا ق</w>
اظ هر</w>
اع اده</w>
اع تص
اع م</w>
اع و
اع یان</w>
اعت نا
اعص ابم</w>
اعو جاج</w>
اغ ما
اف ری</w>
اف سری</w>
اف ش</w>
اف ع
اف ل</w>
اف لا
افرا دمان</w>
افرا ط
افری ق
افس ار</w>
افلا ط
افلاط ون</w>
اق امت
اق امتش</w>
اق ایان</w>
اقامت گاه</w>
اقتصاد دانان</w>
ال اس
ال ایمون</w>
ال تحص
ال ته
ال جهاد</w>
ال ذکر</w>
ال سعید</w>
ال سیر</w>
ال ظواهری</w>
ال فا
ال لیبی</w>
ال مصری</w>
ال مقدس</w>
ال مقدور</w>
ال ن
ال نصر</w>
ال گو
الاح مر</w>
التحص ی
التحصی لان</w>
الح اق</w>
الح مایه</w>
الط اف</w>
الع دلی</w>
الف با</w>
الق دس</w>
الو ده</w>
الوف د</w>
الکتری ک</w>
الکسان دریا</w>
الی بال</w>
الی ور</w>
الی ویا</w>
ام انت</w>
ام اک
ام راض</w>
ام یر
امدادر سانی</w>
امکان اتی</w>
ان اتی</w>
ان بار
ان ح</w>
ان حص
ان دن</w>
ان گاه</w>
ان گیر
انت خ
انتق ادات</w>
انج لیکا</w>
انج یل</w>
انح را
انحرا فات</w>
انحص اری</w>
اندا می</w>
اندر ز</w>
اندی شی</w>
انزج ار</w>
انزو ای</w>
انس انه</w>
انس انیم</w>
انس داد</w>
انص ارالله</w>
انض با
انضبا طی</w>
انفج ارها</w>
انفج ارهای</w>
انه دام</w>
انگ ارو</w>
انگ شتر</w>
انگ شتم</w>
انگ یر</w>
انگشت انم</w>
انگیر ای</w>
انی میشن</w>
اه ایش</w>
اه می
اه می</w>
او برایان</w>
او تون
او زات</w>
او نی
او ولو
او پن</w>
او کلاه
او گاندا</w>
اوتون بایوا</w>
اور دم</w>
اور سو
اور نگی</w>
اور گال</w>
اورسو لا</w>
اوز گن</w>
اوست ر
اوستر لی
اوسترلی تس</w>
اول شان</w>
اوم دیم</w>
اوولو شن</w>
اوی غ
اپ ل</w>
اپ کینز</w>
اپرا تورها</w>
اژ ی
اژی هاد</w>
اک س</w>
اک وادور</w>
ای ایی</w>
ای دار</w>
ای لیوشا</w>
ای می</w>
ای و</w>
ای ونی</w>
ای ژ
ای ی
ای یم</w>
ای یه</w>
ایدئ ولوژیک</w>
ایر بریج</w>
ایر ماتوف</w>
ایرا دی</w>
ایران یان</w>
ایستاد گی</w>
این ا</w>
این ان</w>
این چی</w>
اینتر سرویس</w>
ایوان ونا</w>
ایژ یا</w>
ب ارد</w>
ب انتان</w>
ب بخش</w>
ب تدریج</w>
ب تسی</w>
ب توف</w>
ب دا</w>
ب دارد</w>
ب دونه</w>
ب شناسید</w>
ب طوریکه</w>
ب فروشند</w>
ب فهمی</w>
ب قا</w>
ب منظور</w>
ب نشاند</w>
ب همراه</w>
ب وری</w>
ب پذیرند</w>
ب پرسید</w>
ب پوشاند</w>
ب چ
ب چرخد</w>
ب چگی</w>
ب گردد</w>
ب گردید</w>
ب گه</w>
ب گیره</w>
بئ اتریس</w>
با ئ
با ئی</w>
با تجربه</w>
با تری</w>
با توجه</w>
با جه</w>
با ختند</w>
با ط
با ف
با ف</w>
با قیت</w>
با کره</w>
با کوی</w>
با کیف</w>
با گ
باد باد
بادباد ک</w>
بار ا</w>
بار بارا</w>
بار ت</w>
بار سلو
بار کش</w>
بار گذاری</w>
بار گیری</w>
بار ی
بار یکی</w>
بارسلو نا</w>
باز داشتی</w>
باز نمی</w>
باز و</w>
باز پرس</w>
باز گردانند</w>
باز گردانی</w>
باز گو</w>
بازدید کنندگان</w>
بازو انش</w>
بازی گری</w>
باس کرو
باسکرو یل</w>
باش کوهی</w>
بال کن</w>
بان با</w>
بان م</w>
بان ی
باور ند</w>
باور نکردنی</w>
باک سر</w>
بای د
بای ع</w>
بایست ند</w>
بباز ند</w>
ببن دیم</w>
ببی نن</w>
بجنگ م</w>
بجنگ یم</w>
بخ تیار</w>
بخ رم</w>
بخ ش
بخ شای
بخ وری</w>
بخو اه</w>
بد بین</w>
بد بینی</w>
بد رون</w>
بد نامی</w>
بد گمانی</w>
بد گویی</w>
بدا ف
بداف زار</w>
بدرفت ار</w>
بده کار</w>
بدو نیم</w>
بر آم
بر آوردی</w>
بر استی</w>
بر امون</w>
بر اند</w>
بر جای</w>
بر دها</w>
بر نخ
بر وز
بر پایی</w>
بر گی</w>
بر یه</w>
برانگی زد</w>
برخور دها</w>
برخی زد</w>
برن گردد</w>
برو شور
بروز رسانی</w>
برگ زید</w>
برگر دانیم</w>
برگر دی</w>
بری زند</w>
بریتان یای</w>
بز ر</w>
بز نن</w>
بز نه</w>
بز ور</w>
بزرگ ت</w>
بزرگ سالی</w>
بش مار
بش مرد</w>
بشن ویم</w>
بص یرت</w>
بع الی</w>
بع دتر</w>
بع له</w>
بع مل</w>
بع ه
بع یت</w>
بعه ده</w>
بغ لش</w>
بغ ه</w>
بفهم اند</w>
بل ر</w>
بل رزد</w>
بل عید</w>
بلعی ده</w>
بلغ ارستان</w>
بلند پایه</w>
بلو ز</w>
بلو س</w>
بلو طی</w>
بم بی</w>
بمب ئی</w>
بمو نه</w>
بن درگاه</w>
بن دیم</w>
بنا پارت</w>
بنشی نم</w>
بنو شد</w>
بنو شه</w>
بنو شید</w>
بنوی سم</w>
بنوی سه</w>
بنی ادین</w>
بنیاد کار</w>
بنیان گذار</w>
بنیان گذاری</w>
به بو
به تون</w>
به مون</w>
بهم ن</w>
بو تو</w>
بو تی</w>
بو دو</w>
بو زو</w>
بو سی</w>
بو ط</w>
بو لات</w>
بو میان</w>
بو ن
بو ه</w>
بپذی ریم</w>
بپردا زید</w>
بپو شد</w>
بپیو ندند</w>
بکو بم</w>
بگذ رم</w>
بگذ ره</w>
بگری زد</w>
بگیر ن</w>
بی ابانی</w>
بی افتد</w>
بی افز
بی انات</w>
بی اندازد</w>
بی انی</w>
بی دن</w>
بی ز
بی س
بی وتی</w>
بی گان
بیا بیم</w>
بیا وری</w>
بیفت م</w>
بین انه</w>
بین ایی</w>
بین دی
بیندا زیم</w>
بیکر ان</w>
بیگان گان</w>
ت اره</w>
ت امل</w>
ت اه
ت بری</w>
ت خیل</w>
ت رون</w>
ت ریکو</w>
ت شن
ت شکل</w>
ت میر</w>
ت نیده</w>
ت هم
ت کا
ت گز
ت یری</w>
تئ ا
تئ و
تا ئید</w>
تا بیس</w>
تا ثر</w>
تا ختند</w>
تا ش</w>
تا ق</w>
تا وان</w>
تا ون</w>
تا وی</w>
تا پ</w>
تا کی</w>
تاثیر گذار</w>
تاجی کستانی</w>
تان کا
تان کس</w>
تان یاهو</w>
تانکا دو</w>
تاک تیکی</w>
تای لر</w>
تب دی
تبع ید</w>
تج اوزات</w>
تج دید
تج لیل</w>
تج مع
تح تانی</w>
تح ریف</w>
تح ریکات</w>
تح وی
تح یر</w>
تخ طی</w>
تر ام
تر امو
تر انس</w>
تر ای
تر سد</w>
تر سند</w>
تر مو
تر ند</w>
تر و</w>
تر که</w>
ترا ز
ترا شیده</w>
ترا وش</w>
ترا ژ
ترانسفور ما
تراژ دی</w>
ترو ریکو</w>
ترو ن
ترون جه
ترونجه یم</w>
تروی چ</w>
تری بون</w>
تز ئین</w>
تز های</w>
تزی ی
تزی ینی</w>
تزیی نات</w>
تس مه</w>
تش ری
تشعش ع</w>
تصوی ر
تض ر</w>
تظاه راتی</w>
تع ار
تع اونی</w>
تع ش</w>
تع صب</w>
تع میم</w>
تعج بی</w>
تعظ یمی</w>
تعمی رات</w>
تعمیر گاه</w>
تف اهمی</w>
تفت یش</w>
تفری حی</w>
تفنگ ش</w>
تق ات</w>
تق لبی</w>
تق وا</w>
تق وی
تق وی</w>
تقری ب</w>
تل ایان</w>
تل فن
تل ند</w>
تل و</w>
تلا شند</w>
تلا طم</w>
تم اسی</w>
تم هی
تماشا گران</w>
تمری نات</w>
تن باکوی</w>
تن دیس</w>
تن س</w>
تن فری</w>
تن ک</w>
تن گری</w>
تنا ق
تناق ض</w>
تند تند</w>
تند نویسی</w>
ته دید
تهدی داتی</w>
تهدی دش</w>
تهدی دهای</w>
تهم ت</w>
تو ئیتر</w>
تو اضع</w>
تو بوزو</w>
تو تون</w>
تو جی
تو شین</w>
تو فیق</w>
تو قی
تو نیا</w>
تو همی</w>
تو پولو
تو کو
تو یه</w>
توان ش</w>
توجی هی</w>
تور ان</w>
تور ناک</w>
توس ن</w>
توص ی
توص یفی</w>
تون سی</w>
تون لی</w>
توه مات</w>
تپی د</w>
تک افل</w>
تکان ش</w>
تکر ار
تکن ولوژیکی</w>
تکنو استارترها</w>
تگز اس</w>
تی زی</w>
تی س</w>
تی مار</w>
تی مش</w>
تی نگ</w>
تیر گی</w>
تیری ون</w>
تیل ر</w>
تیو پ</w>
ثان ویه</w>
ثان یا</w>
ج اد</w>
ج از</w>
ج افری</w>
ج اهایی</w>
ج اوز</w>
ج ایم</w>
ج تور</w>
ج دای</w>
ج دیت</w>
ج ریب</w>
ج علی</w>
ج فتی</w>
ج می</w>
ج گر</w>
جاش و</w>
جان دار</w>
جان سون</w>
جان و
جان وران</w>
جدا ئی</w>
جدی دش</w>
جز ات</w>
جز ایری</w>
جز ر</w>
جس ما</w>
جستجو گر</w>
جل گه</w>
جن بان</w>
جن سیتی</w>
جنا بعالی</w>
جنایت کاران</w>
جنج ال</w>
جنگ یده</w>
جه انگیر</w>
جه ه</w>
جو انم</w>
جو دی</w>
جو شی</w>
جو لین</w>
جوا بم</w>
جوان ک</w>
جور اب</w>
جور ایی</w>
جوی بار</w>
جوی ده</w>
جی انگ</w>
جی هان</w>
جی و</w>
ح تم</w>
ح جاج</w>
ح جب</w>
ح رو
ح زن</w>
ح سو
ح سوس</w>
ح سی</w>
ح ص</w>
ح مید</w>
ح نایی</w>
ح نج
ح وض
ح ینی</w>
حاض رین</w>
حج اب</w>
حج از</w>
حج می</w>
حر ص</w>
حر ف
حر فم</w>
حر م</w>
حری ری</w>
حری ص</w>
حض ورشان</w>
حفا ظی</w>
حق ارت</w>
حقوق شان</w>
حم زه</w>
حنج ره</w>
حو اسم</w>
حی طه</w>
حیر تی</w>
خ آنم</w>
خ ا</w>
خ امنه</w>
خ بی
خ روش</w>
خ زه</w>
خ زیدن</w>
خ فیفی</w>
خ لیل</w>
خ ین</w>
خا دم</w>
خا زن</w>
خا صه</w>
خا کریز</w>
خار جی
خارو غ</w>
خاطرا تش</w>
خال صی</w>
خال ق</w>
خان مان</w>
خان می</w>
خان وم</w>
خان یات</w>
خبر م</w>
خت نه</w>
خج ل</w>
خد ای
خدمت ش</w>
خر جی</w>
خر ما</w>
خر گوش</w>
خرا شیده</w>
خرو س</w>
خری دند</w>
خص مانه</w>
خص ه</w>
خط اطی</w>
خط ایی</w>
خل بانان</w>
خلا صی</w>
خمی س</w>
خن دیدن</w>
خن دیده</w>
خنج ری</w>
خو ابه</w>
خو اران</w>
خو ارو
خو ت</w>
خو شم
خو کی</w>
خوان ان</w>
خوان دیم</w>
خواه د
خواهر زاده</w>
خود بینی</w>
خود تو</w>
خود دار</w>
خود را</w>
خود مانی</w>
خود نمایی</w>
خودرو سازی</w>
خور ان</w>
خور دنی</w>
خوش بخ
خوش شان</w>
خوشم زه</w>
خون دم</w>
خویشاو ندان</w>
خی ار</w>
خی الش</w>
خی رات</w>
خی رین</w>
خی زی</w>
خی له</w>
د آنش</w>
د ئون</w>
د اس
د است</w>
د استان
د اسیون</w>
د اید</w>
د خانیات</w>
د را</w>
د روی
د قایقی</w>
د مش</w>
د مل</w>
د نگی</w>
دا بی</w>
دا دستانی</w>
دا دید</w>
دا عش</w>
دا غ
دا ق</w>
دا منی</w>
دا مه</w>
دا ود</w>
دا ور</w>
دا ک</w>
داد خواهی</w>
داد ش</w>
دار است</w>
دار نکو</w>
دارو خانه</w>
دارو ها</w>
داست انش</w>
دان ستی</w>
دان ورس</w>
دانش جو</w>
دانش جویانی</w>
داو ود</w>
دای ما</w>
دخ مه</w>
دختر خاله</w>
در آمدند</w>
در آید</w>
در بان</w>
در جات</w>
در حقیقت</w>
در دست</w>
در سون</w>
در صورتیکه</w>
در طی</w>
در عوض</w>
در مقابل</w>
در نمی</w>
در گرفتن</w>
درا وا
درا ور
درا ورد</w>
دربار یان</w>
دربر گیرنده</w>
درست کار</w>
درو غ
دری د</w>
دری نگ</w>
دری گای
دریگای لف</w>
دز دیدن</w>
دست انم</w>
دست اورد</w>
دست خط</w>
دست گاهی</w>
دسی سه</w>
دش نه</w>
دشمن انشان</w>
دفع ات</w>
دقی قی</w>
دل الت</w>
دل انه</w>
دل تان</w>
دل تنگی</w>
دل ر
دل شان</w>
دل فی</w>
دل مراد</w>
دل نشین</w>
دلا ور</w>
دلوا پ
دلوا پس</w>
دلواپ سی</w>
دم پایی</w>
دما غی</w>
دن دو
دند انش</w>
دنی وی</w>
ده ات</w>
ده اتی</w>
ده قان</w>
دو انی</w>
دو بدل</w>
دو دل</w>
دو ده</w>
دو سالانه</w>
دو ش
دو شاخه</w>
دو چندان</w>
دو کس</w>
دوئ رسون</w>
دور ها</w>
دوز خ</w>
دوقل و</w>
دون ن</w>
دک ا</w>
دی ا
دی تابیس</w>
دی دار
دی زنی</w>
دی وی</w>
دی ک
دی کا
دی گوری</w>
دیجی تالی</w>
دید مش</w>
دید نم</w>
دیر پای</w>
دیوار کوب</w>
دیک ته</w>
دیکتا توری</w>
ذ وال
ذ ول</w>
ذ یان</w>
ذر ع</w>
ذوال فق
ذوالفق ار</w>
ر ار
ر الله</w>
ر امان</w>
ر ج
ر خس
ر دوبدل</w>
ر دی</w>
ر زی</w>
ر سوم</w>
ر قب
ر لند</w>
ر نس
ر هایش</w>
ر ژه</w>
ر گ
را بت</w>
را بین</w>
را در
را عظ
را فا
را کم</w>
رائ و</w>
رائ ی</w>
رابر تس</w>
راح یل</w>
راز اک</w>
راس تا</w>
راست ین</w>
راعظ م</w>
رافا ئل</w>
ران شان</w>
راند مان</w>
راه شان</w>
راه کار</w>
راهی ابی</w>
راک تورهای</w>
رح یم</w>
رد ایش</w>
رز الی</w>
رز رو</w>
رز می</w>
رزی نگل</w>
رسان دم</w>
رسان یده</w>
رست اخیز</w>
رسو ل</w>
رسو نه</w>
رسی دید</w>
رض وان</w>
رع د</w>
رفا قت</w>
رفت ید</w>
رفق ا</w>
رفق ای</w>
رق اص
رقص ید</w>
رقی ق</w>
رنگ ین</w>
ره برشان</w>
ره گذر</w>
رهنمو ن</w>
رو ایت</w>
رو بلی</w>
رو تختی</w>
رو رو</w>
رو زش</w>
رو زی
رو س
رو سا</w>
رو ست</w>
رو ل</w>
رو پرت</w>
رو پوش</w>
رو یس</w>
رواب ط
روز افزون</w>
روز ت</w>
روز مندانه</w>
روشن فکران</w>
رومان ونا</w>
روی دادهایی</w>
روی شان</w>
روی کردهای</w>
روی کردی</w>
روی یده</w>
ری ال</w>
ری دینگ</w>
ری و</w>
ریاض ت</w>
ریز وی</w>
ریس مان</w>
ریک ش</w>
ز ارها</w>
ز اسیون</w>
ز انگارو</w>
ز بانان</w>
ز ترین</w>
ز رینه</w>
ز شتی</w>
ز عه</w>
ز لف</w>
ز مره</w>
ز کی</w>
زام بورگ</w>
زام بی</w>
زر د
زر ق</w>
زن ک</w>
زنج یر
زند گیم</w>
زو ایای</w>
زود پز</w>
زی انی</w>
زی ایوف</w>
زی تون</w>
زی را
زی ری</w>
زی ست
زیر بخش</w>
زیر بنایی</w>
زیمبا بوه</w>
س اریای</w>
س امه</w>
س این
س عدی</w>
س عود</w>
س فته</w>
س فرش</w>
س لب</w>
س مان
س مبل
س مبل</w>
س متش</w>
س من
س موم</w>
س نگر
س ویی</w>
س کان
س کنه</w>
س گان</w>
سا تن</w>
سا خوانی</w>
سا زندگان</w>
سا زیم</w>
سا ق
سا کن
ساخت ار
ساخت یم</w>
سار یا</w>
سار یف</w>
ساع تش</w>
سال ار</w>
سال اری</w>
سال مندان</w>
سال نی</w>
سال یان</w>
سام انی</w>
سان دن</w>
سای بانی</w>
سب بی</w>
سب زه</w>
ست ول</w>
ست وه</w>
ست یک</w>
سترو مو</w>
سخ ی</w>
سخت گیرانه</w>
سخت گیری</w>
سخنر ان</w>
سر آمد</w>
سر امیک</w>
سر ایدار</w>
سر بی</w>
سر تا
سر حال</w>
سر دبی
سر دتر</w>
سر ریز</w>
سر زده</w>
سر زنده</w>
سر فراز</w>
سر ندی</w>
سر پا</w>
سر گشاده</w>
سر گی
سرا ف
سرباز خانه</w>
سرنوش تی</w>
سرو دن</w>
سرو رم</w>
سری س</w>
سف ال</w>
سف یران</w>
سفار شی</w>
سفی د
سل ان</w>
سل سیوس</w>
سمبل یک</w>
سن ای</w>
سن ج</w>
سنگ ال</w>
سنگ دلی</w>
سنگ ریزه</w>
سه امی</w>
سه می</w>
سه یم</w>
سو ارش</w>
سو الن</w>
سو انح</w>
سو ای</w>
سو بسی
سو دانی</w>
سو دای</w>
سو دی</w>
سو زند</w>
سو لفور</w>
سو لو
سو گواری</w>
سوئ دی</w>
سوئ یسی</w>
سوار کاری</w>
سود مندی</w>
سوسی ال</w>
سول فی
سوی دریگایلف</w>
سپ اس</w>
سپاس گزار</w>
سپی ده</w>
سکو پ</w>
سی ال</w>
سی د
سی لور</w>
سی موف</w>
سی می</w>
سی نمای</w>
سی نی
سیاه پوستان</w>
سیست ماتیک</w>
ش اتل</w>
ش الوده</w>
ش امه</w>
ش امیل</w>
ش بان</w>
ش بش</w>
ش تره</w>
ش ریکش</w>
ش فا</w>
ش میل</w>
ش گری</w>
شاخ ک</w>
شار لا
شار می
شار ژ</w>
شارمی لا</w>
شاه انه</w>
شاه دانه</w>
شاه کار</w>
شبا ه
شباه تی</w>
شد تی</w>
شر ان</w>
شر مگین</w>
شر کا</w>
شرافت مندانه</w>
شست شوی</w>
شع اع</w>
شع بان</w>
شف افی</w>
شل بی</w>
شلو اری</w>
شلو ان</w>
شمار شی</w>
شمع دان</w>
شمع ی</w>
شن ای</w>
شن وید</w>
شنا گر</w>
شناس انه</w>
شناس ه</w>
شنو دا</w>
شه اب</w>
شه باز</w>
شهر تی</w>
شهر هایی</w>
شو الیه</w>
شو مینه</w>
شو کت</w>
شوهر م</w>
شک ستم</w>
شکر ش</w>
شکو فایی</w>
شی بی</w>
شی فتگی</w>
شی لنگ</w>
شی پور</w>
شیر زاد</w>
شین کوف</w>
ص ار</w>
ص دیق</w>
ص رافی</w>
ص ند
صاح بش</w>
صب ور
صبح گاهی</w>
صبور انه</w>
صحب تشان</w>
صحر ایی</w>
صد ایشان</w>
صد راعظم</w>
صدا ش</w>
صر ع</w>
صف ای</w>
صن عا</w>
صند لیش</w>
صنعت گران</w>
صهیو نیست</w>
صورتح سا
صورتح ساب</w>
ض اح</w>
ض امن</w>
ض خی
ض ل</w>
ض یافتی</w>
ضر بت</w>
ضر بتی</w>
ضر رهای</w>
ضرو ریات</w>
ط ارق</w>
ط بابت</w>
ط بایع</w>
ط فلک</w>
ط لا
ط مط
ط مه</w>
ط نز</w>
طاق تش</w>
طال بانی</w>
طر ق</w>
طر ها</w>
طرا حان</w>
طرف دار
طنا بی</w>
طوی له</w>
ظ ال
ظ الم</w>
ظ رفی</w>
ظ ریفی</w>
ظ ف</w>
ع اصم</w>
ع امه</w>
ع ایدی</w>
ع بد</w>
ع تی
ع جول</w>
ع دل</w>
ع زا</w>
ع شان</w>
ع قر
ع مری</w>
ع ون</w>
عاش قت</w>
عاط ل</w>
عال مه</w>
عال یر
عالیر تبه</w>
عب اسی</w>
عب ور
عبار ات</w>
عبدا لو
عبدالرح مانوف</w>
عث مان
عد نان</w>
عذ ابی</w>
عذر خواهی</w>
عر فان</w>
عزی زان</w>
عش ق
عص مت</w>
عط ش</w>
عطا خانوف</w>
عفو نت</w>
عق به</w>
عق لان
عق لانی</w>
عقلان یت</w>
عقی ل</w>
عل ایق</w>
عل وی</w>
علیزو دا</w>
عم د</w>
عن ایت</w>
عنو ان
غ از</w>
غ ازی</w>
غ ده</w>
غ ریزی</w>
غ زل</w>
غ لاف</w>
غ نای</w>
غذ اییش</w>
غرو ری</w>
غلی ظ</w>
غم گینی</w>
غوغ ا</w>
غیر ت</w>
غیر طبیعی</w>
غیر مستقیم</w>
غیر منتظره</w>
ف امیل</w>
ف امیلی</w>
ف انتین</w>
ف او
ف توا</w>
ف جی
ف دا</w>
ف دای</w>
ف راه</w>
ف ص
ف طر</w>
ف قه</w>
ف متوس
ف ورت</w>
فا ئق</w>
فا جین</w>
فا طمه</w>
فا ق</w>
فا ک
فار امیر</w>
فاک تورهای</w>
فت ان</w>
فتا ح</w>
فج ایع</w>
فدر ستون</w>
فر ج</w>
فر خ</w>
فر شی</w>
فر ضی</w>
فر ماید</w>
فر نس</w>
فرا خ</w>
فرا خوان</w>
فرا غت</w>
فرا ک</w>
فرا گیری</w>
فرام درن</w>
فرانسی سکو</w>
فرزند تان</w>
فرزندان مان</w>
فرس خ</w>
فرستا دم</w>
فرستا دیم</w>
فرمان رو
فرمای ید</w>
فرو شان</w>
فرو غ</w>
فرو م</w>
فری ت</w>
فری د</w>
فش ارد</w>
فشار هایی</w>
فض یلت</w>
فعال انه</w>
فعالی تشان</w>
فل فل</w>
فل وری
فل که</w>
فلا کت</w>
فمتوس ل
فهمی دکه</w>
فهمی دید</w>
فهمی دیم</w>
فو اید</w>
فو تی</w>
فو شلوان</w>
فو نی</w>
فور م</w>
فور یت</w>
فکر انه</w>
فکر ت</w>
فکر شو</w>
فی ات</w>
فی ض</w>
فی لی</w>
فیل چ</w>
فیلی پین</w>
ق ال</w>
ق البی</w>
ق ایل</w>
ق ایم</w>
ق به</w>
ق ریشی</w>
ق سمی</w>
ق صد
ق نا
ق هه</w>
قائ م</w>
قاب ش</w>
قاب لی</w>
قات لان</w>
قاط عی</w>
قب ضه</w>
قبر ستان</w>
قبو لی</w>
قد غن</w>
قد ما</w>
قد مت</w>
قر م
قرقیز ها</w>
قرم زی</w>
قرو چه</w>
قسا وت</w>
قش نگ
قط اری</w>
قط عیت</w>
قل بت</w>
قل مداد</w>
قل نبه</w>
قل ند
قلمرو های</w>
قلند روف</w>
قمار خانه</w>
قنا عت</w>
قه قهه</w>
قو اره</w>
قو تی</w>
قو ز</w>
قو ش</w>
قو طی</w>
قی اسی</w>
قی قه</w>
قی وم</w>
قی چی</w>
ل ار
ل ار</w>
ل استیکی</w>
ل اله</w>
ل انگ
ل ایی</w>
ل بریز</w>
ل سی</w>
ل نگر
ل نی
ل ورک</w>
ل وی
ل وین</w>
ل کی</w>
ل گو
لا تینی</w>
لاه ود</w>
لباس شویی</w>
لبن ان
لذ ی
لذی ذ</w>
لر ز</w>
لر زیدن</w>
لر کان</w>
لزو می</w>
لشکر های</w>
لط فی</w>
لط یفی</w>
لغ تی</w>
لغ وی</w>
لنگر گاه</w>
لو ئ
لو ئی
لو ای</w>
لو حه</w>
لو نا</w>
لو ویک</w>
لو کس</w>
لو کو
لو گر</w>
لوح انه</w>
لوک زامبورگ</w>
لگو لاس</w>
لی لا</w>
لی ندا</w>
لی نچ</w>
لی و</w>
لی ور
لیو ناردو</w>
لیور پول</w>
م ارش</w>
م اف
م اما</w>
م با</w>
م برم</w>
م بنا</w>
م بین</w>
م دادی</w>
م ده
م دو
م دول
م دول</w>
م رات</w>
م غ</w>
م ف</w>
م فرو
م لیتی</w>
م هره</w>
م هری</w>
م کات
ما د
ما دی
ما دیان</w>
ما می</w>
ما ورای</w>
ما کس</w>
ما کو</w>
ما گ
مادا می</w>
مادر انه</w>
مادر تان</w>
مادر شان</w>
مار تینی</w>
مار فا</w>
مار و</w>
مار چی</w>
مار گار
ماس ک</w>
مال زی</w>
مال کی</w>
مامو گرافی</w>
مان بیک</w>
مان یه</w>
مای لم</w>
مای لید</w>
مای و</w>
مای وس
مایوس انه</w>
مب تلایان</w>
مب ذول</w>
مبا ش</w>
مبت ذل</w>
مت جاوز</w>
مت دهای</w>
مت راکم</w>
مت فکرانه</w>
مت قاطع</w>
مت مول</w>
مت نا
مت ناظر</w>
مت ناق
مت نوعی</w>
متا ثر</w>
متح دی</w>
متخل خل</w>
متر صد</w>
متر قبه</w>
متر و</w>
متع فن</w>
متق ارن</w>
متن فرم</w>
متناق ض</w>
متو حش</w>
مث لث</w>
مج رای</w>
مج ریان</w>
مج وز
مجاز اتی</w>
مجال س</w>
مجبور م</w>
مجر مین</w>
مجه ول</w>
مح تاج
مح تضر</w>
مح رز</w>
مح رک</w>
مح ک
مح ک</w>
مح ی</w>
محاس باتی</w>
محافظ ان</w>
محافظ ین</w>
محجو ب</w>
محص ولی</w>
محق قی</w>
محمدا ف</w>
محک مه</w>
مخا برات</w>
مخاط رات</w>
مخلو ق</w>
مدار ات</w>
مدار کی</w>
مداو مت</w>
مدر نیزه</w>
مدل سازی</w>
مدی نه</w>
مر تعش</w>
مر دان
مر دود</w>
مر ز
مر ض</w>
مر مت</w>
مر مر</w>
مرا عات</w>
مرا قب
مرد مش</w>
مردا بی</w>
مرو اری
مز ا</w>
مز اج</w>
مز ایا</w>
مز خر
مزخ رف</w>
مس رو
مس ط
مس مو
مس ک</w>
مسافر انی</w>
مسافر خانه</w>
مست شار</w>
مست عار</w>
مست عم
مست غلات</w>
مستط یلی</w>
مسو ول</w>
مسی و</w>
مش ام</w>
مش تر
مش تقات</w>
مش رق</w>
مشرو ع</w>
مص ادره</w>
مص داق</w>
مص وبه</w>
مط رو
مط لوبی</w>
مط مینا</w>
مطل قا</w>
مظ هر</w>
مع ابد</w>
مع ابر</w>
مع ایب</w>
مع بد</w>
مع تبر
مع تصم</w>
مع دودی</w>
مع ذب</w>
مع ما</w>
مع نا
مع وج</w>
معام لاتی</w>
معت دل</w>
معجو نش</w>
معرو فی</w>
معشو قه</w>
معل می</w>
معنا دار</w>
معی ارها</w>
مغناط یس</w>
مف تی</w>
مف سر</w>
مف سران</w>
مفی دتر</w>
مق ارن</w>
مق ت
مق صو
مق ن
مق ی</w>
مقر ر</w>
مقر ری</w>
مقن نه</w>
مقی م</w>
مل قب</w>
ملا تونین</w>
ملا ط
ملو ان</w>
ملکو تی</w>
من الان</w>
من جمله</w>
من درس</w>
من زله</w>
من س
من عطف</w>
من قلب</w>
من وال</w>
من چستر</w>
من کر</w>
من گ
من گ</w>
منا زعه</w>
مناظ ره</w>
مناف ذ</w>
منتظ رم</w>
منز لت</w>
منز وی</w>
منسو جات</w>
منص ب</w>
منظ وری</w>
منظور تان</w>
منف ذ</w>
مهر بانانه</w>
مهمان دار</w>
مهی ب</w>
مو ازات</w>
مو تورهای</w>
مو شی</w>
مو ظف</w>
مو قری</w>
مو هوم</w>
مو ک
مو ک</w>
مو یش</w>
مواج هند</w>
مواز نه</w>
مواظ بش</w>
موافق م</w>
موجو دیت</w>
مور خ</w>
مور گان</w>
مور یس</w>
موس سان</w>
موس می</w>
موق ر</w>
موق عی
مول کول</w>
مول کولی</w>
مون تروی</w>
موگ ادیشو</w>
مچ ش</w>
مک توب</w>
مک زی
مک زیکی</w>
مکال مه</w>
مکان یک</w>
مکی نتا
مکینتا ش</w>
می ادین</w>
می ارم</w>
می امد</w>
می ان
می انجی</w>
می دونین</w>
می شناس
می شونو</w>
می شی
می شی</w>
می لش</w>
می ن
می گو
میبین متان</w>
میتک ا</w>
میخو این</w>
میر ز
میز نه</w>
مینگ ورا</w>
ن اری</w>
ن انه</w>
ن ایت</w>
ن ب</w>
ن باشید</w>
ن بیل</w>
ن بینم</w>
ن تانیاهو</w>
ن توانم</w>
ن توانند</w>
ن دادند</w>
ن در
ن ده
ن دهند</w>
ن دهید</w>
ن دیدیم</w>
ن دیم</w>
ن رفتم</w>
ن ساخت</w>
ن ست
ن سی</w>
ن شوم</w>
ن شی</w>
ن طق</w>
ن مت</w>
ن پذیرفته</w>
ن پرس</w>
ن پوشیده</w>
ن گرفت</w>
نا ئ
نا باوری</w>
نا بغه</w>
نا بلوس</w>
نا ت
نا حق</w>
نا خالصی</w>
نا خوانده</w>
نا شران</w>
نا شنو
نا وال</w>
نا پاک</w>
نا پسند</w>
نار ساخوانی</w>
ناز نین</w>
ناز کی</w>
ناس از
ناس ز
ناف ذ</w>
نال ید</w>
نام حسوس</w>
نام یم</w>
نامر بوط</w>
نامز دهایی</w>
نامطبو عی</w>
نامو فق</w>
نان سی</w>
نان یان</w>
نانو لوله</w>
ناه ارخوری</w>
ناو دان</w>
ناو شکن</w>
نتی کی</w>
نج اتش</w>
نج م</w>
نخ ورد</w>
نخ ی</w>
ند شان</w>
ند می</w>
ندا مت</w>
نر ود</w>
نز برگ</w>
نز دم</w>
نز له</w>
نس ون</w>
نس کو</w>
نش ات</w>
نش دن</w>
نش نید</w>
نش و</w>
نشان دهنده</w>
نص رالله</w>
نص فه</w>
نص یر</w>
نظ امی
نظ را
نظ رها</w>
نظر های</w>
نع یم</w>
نغ مه</w>
نف ورد</w>
نف یس</w>
نفهمی د</w>
نفهمی ده</w>
نق اشان</w>
نق اطی</w>
نق در</w>
نق دی</w>
نق صی</w>
نق ی</w>
نم رات</w>
نما ئی</w>
نما های</w>
نمای شگر</w>
نمی دونین</w>
نه ادی</w>
نه ان</w>
نه د</w>
نو ارهای</w>
نو بیل</w>
نو ت</w>
نو روز</w>
نو سترومو</w>
نو شتند</w>
نو شیدند</w>
نو مید</w>
نو کر
نوا ختن</w>
نوا زنده</w>
نوا زی</w>
نور انی</w>
نور مان</w>
نوز ادی</w>
نومی دانه</w>
نوی ز</w>
نوی سان</w>
نوی سند</w>
نوی سیم</w>
نپذیر فتن</w>
نژ اده</w>
نگ ان</w>
نگ اهم</w>
نگ فتی</w>
نگ لی</w>
نگ ون</w>
نگ ویید</w>
نگذ ار</w>
نگذ شت</w>
نگر انم</w>
نگری ستن</w>
نگی رید</w>
نی ابد</w>
نی اوردند</w>
نی اک
نی جر</w>
نی شکر</w>
نی فتد</w>
نی نا</w>
نی وس</w>
نی کلای
نی کی
نیاز مندند</w>
نیاز وف</w>
نیرو هایش</w>
نیندا خته</w>
نیو جرسی</w>
نیک ویی</w>
نیکلای ونا</w>
نیکو کاری</w>
ه ارت</w>
ه اشون</w>
ه اله</w>
ه انا</w>
ه اپکینز</w>
ه ایتز</w>
ه تک</w>
ه ذیان</w>
ه ریس</w>
ه شیار</w>
ه شیاری</w>
ه لو
ه پ
هار ا</w>
هار لی</w>
هار وارد</w>
هانگ و</w>
هاو ارد</w>
هاگوارت س</w>
هر بار</w>
هر دوی</w>
هرمای نی</w>
هفت صد</w>
هل ن</w>
هم سر
هم سری</w>
هم مون</w>
هم پوشانی</w>
هم کاری</w>
هم گام</w>
همان جا</w>
همراه ان</w>
همو نطور</w>
همو نی</w>
همین جا</w>
هن دو
هو را</w>
هو مه</w>
هو پ</w>
هوا زی</w>
هوا شناسی</w>
هور تنس</w>
هول ناکی</w>
هپ تان</w>
هی ئت</w>
هی ج</w>
هی ل
هی نی</w>
هی چگونه</w>
هیجان ات</w>
هیول ای</w>
هیول ایی</w>
و الیبال</w>
و انه</w>
و بی</w>
و جهه</w>
و جوی</w>
و خم</w>
و در
و زش</w>
و شش</w>
و فق</w>
و لت</w>
و موف</w>
و می</w>
و ندی</w>
و نو</w>
و ک</w>
و کال
وا جب</w>
وا دارش</w>
وا ز
وا کی</w>
وار دان</w>
وار ده</w>
وار نکا</w>
وار ها</w>
واشنگ تون</w>
واق عی
واق ف</w>
وال ت</w>
وال س</w>
والدی نشان</w>
وجو د
وح شتش</w>
وح شیگری</w>
ور اثت</w>
ور دان</w>
ور زند</w>
ور شکستگی</w>
ور ن</w>
ور هایی</w>
ورز شکاری</w>
ورو نا</w>
وز انی</w>
وز نم</w>
وز نی</w>
وس واس</w>
وط نی</w>
وظ ای
وفا دار
وق تا</w>
ول ش</w>
ول ع</w>
ولتا ژ
ون کو
ونکو ور</w>
وو درینگ</w>
وی سریس</w>
وی و</w>
وی گ</w>
وید ئ
ویدی وی</w>
ویر انه</w>
ویران گر</w>
ویرجی نیا</w>
ویزی ت</w>
پ اد</w>
پ ان</w>
پ اور
پ ترویچ</w>
پ تری
پ شه</w>
پ ف</w>
پ لیدی</w>
پ ند</w>
پ نی
پ نی</w>
پ ویا</w>
پا بر
پا دو</w>
پا پا</w>
پاداش ی</w>
پار سال</w>
پار سی</w>
پارا چنار</w>
پارام تر
پاش ا</w>
پاش ند</w>
پاش نه</w>
پال ایش</w>
پال تو</w>
پان سیون</w>
پانت الایمون</w>
پاه ام</w>
پای بندی</w>
پای ید</w>
پدر ان</w>
پدر انه</w>
پدر بزرگم</w>
پدر شان</w>
پدر ی</w>
پذیر ای</w>
پذیر فت
پذیر م</w>
پر تره</w>
پر تق
پر دیس</w>
پر رنگ</w>
پر سند</w>
پر شکوه</w>
پر ل</w>
پر م</w>
پر موی</w>
پر و</w>
پر چین</w>
پر کینز</w>
پرت غالی</w>
پرتو ه</w>
پرهی ز
پرهی ز</w>
پرو ا</w>
پرو ازه</w>
پرو ان</w>
پرو راند</w>
پرو رده</w>
پرو پی
پرورد گار</w>
پروپی لن</w>
پری دن</w>
پری روز</w>
پس مان
پش مال
پشتی بان</w>
پطر زبورگ</w>
پلا گه</w>
پن تر</w>
پن دارم</w>
پن داشتند</w>
په نه</w>
پو ت</w>
پو تروریکو</w>
پو زش</w>
پو زه</w>
پو زیت</w>
پو س</w>
پو ستم</w>
پو شد</w>
پو لی
پوست شان</w>
پوسی دگی</w>
پوش شی</w>
پژوهش گران</w>
پی امد</w>
پی تی</w>
پی شی</w>
پی شینه</w>
پی غامی</w>
پی ف</w>
پی نه</w>
پیام دها</w>
پید است</w>
پیراه نی</w>
پیش گامی</w>
پیشا پیش</w>
پیشر فتی</w>
پیشنه ادش</w>
پیمو دند</w>
پیو ستند</w>
پیو ندد</w>
پیو ندند</w>
پیو ندها</w>
پیو ندهای</w>
پیچ ک</w>
چ ا</w>
چ اروف</w>
چ ان</w>
چ اوز</w>
چ ای
چ تر</w>
چ نگی</w>
چ ور
چ پی</w>
چال شی</w>
چاپ لوسی</w>
چاپار خانه</w>
چر خی</w>
چر نوبیل</w>
چر کین</w>
چرا گاه</w>
چرخ دار</w>
چرخ شی</w>
چرخی دم</w>
چشم شان</w>
چن ته</w>
چن کا</w>
چهار صد</w>
چهار گانه</w>
چو ن
چو ک</w>
چوپ ان</w>
چی دمان</w>
چی دن</w>
چی نوی</w>
چی کار</w>
چیز ا</w>
ژ رف</w>
ژ س</w>
ژ ست</w>
ژ نتیکی</w>
ژ یو</w>
ژاک لین</w>
ژر ژ</w>
ژن تیک</w>
ژنرا تورها</w>
ژو ماتوف</w>
ک ابان</w>
ک ابلی</w>
ک استه</w>
ک بد</w>
ک تری</w>
ک ج
ک جی</w>
ک ذ
ک فت</w>
ک فر</w>
ک پک</w>
ک یا</w>
ک یس</w>
کا در</w>
کا زی
کا پ</w>
کا پر
کات الو
کار تان</w>
کار می</w>
کار ن</w>
کار ناوال</w>
کار گیر</w>
کار گیری</w>
کار ی
کارخانج ات</w>
کاس تا</w>
کاش ته</w>
کاف ر</w>
کاف یست</w>
کام ه</w>
کان ا</w>
کان تین
کان ر</w>
کانت ار</w>
کانیو ز</w>
کاو اندیش</w>
کاک ا</w>
کتا بش</w>
کث رت</w>
کد بانوی</w>
کر دهایی</w>
کر ز</w>
کر نش</w>
کر ک</w>
کر یا</w>
کرو اسی</w>
کرو بی</w>
کریست ال</w>
کس ار</w>
کش انده</w>
کش اکش</w>
کش تم</w>
کش مکش</w>
کش و
کش وها</w>
کش یک</w>
کشی شی</w>
کف ار</w>
کف ایت</w>
کل ش</w>
کل فتی</w>
کل نجار</w>
کل ون</w>
کل کسیون</w>
کلا شینکوف</w>
کلا غ</w>
کلا فه</w>
کلار ک</w>
کلو پ</w>
کلی د
کلی ری</w>
کلی شه</w>
کلی ن</w>
کلیسا های</w>
کم بو
کم کت</w>
کما کان</w>
کمو نیسم</w>
کمی ساریا</w>
کمی ساریای</w>
کن ارشان</w>
کن ام</w>
کن دتر</w>
کن س</w>
کن کور</w>
کن گ</w>
کو ا</w>
کو فت</w>
کو لا</w>
کو لوف</w>
کو لین</w>
کو نار</w>
کو هن
کو پر</w>
کوا جتور</w>
کود تایی</w>
کودک تان</w>
کودکان شان</w>
کور پوری
کولو نی
کی ش</w>
کی فر</w>
کی لی</w>
کیلو گرمی</w>
گ ابریل</w>
گ ابل</w>
گ اش</w>
گ ایف</w>
گ راس</w>
گ راه</w>
گ زیده</w>
گ شت
گ لوب</w>
گ مانه</w>
گا وی</w>
گار دین</w>
گاز ها</w>
گاز پروم</w>
گذ ران</w>
گذ ری</w>
گذ ریم</w>
گذار دن</w>
گذر نامه</w>
گذران دیم</w>
گر دو
گر دو</w>
گر ما
گر مه</w>
گر های</w>
گرا ها</w>
گرد شی</w>
گرد ها</w>
گرو چنکا</w>
گری زند</w>
گری فند
گری نویچ</w>
گزی نی</w>
گست اخانه</w>
گست ره</w>
گش ادی</w>
گل برگ</w>
گل دوزی</w>
گل ن</w>
گن اهان</w>
گن جی</w>
گن ر</w>
گو ته</w>
گو جه</w>
گو س</w>
گو ششان</w>
گو هر</w>
گور نی</w>
گوسف ندی</w>
گوش زد</w>
گی اهی</w>
گی جی</w>
گی نانه</w>
گیسو ان</w>
گیل برت</w>
گیل دروی</w>
ی ابم</w>
ی تش</w>
ی دکی</w>
ی ق</w>
ی نا</w>
ی نش</w>
ی کس
یاد ته</w>
یاد شان</w>
یاد گیرنده</w>
یار یم</w>
یاه وها</w>
ینی اک</w>
یو تا</w>
یو نانیان</w>
یو نسکو</w>
یونی فرم</w>
یک ات
یک اترینبورگ</w>
یک جا</w>
یک سره</w>
یی لاق</w>
1 13</w>
1 14</w>
1 17</w>
1 18</w>
1 19</w>
1 22</w>
1 45</w>
1 52</w>
1 550</w>
1 58</w>
10 3</w>
10 5</w>
10 9</w>
13 000</w>
13 2</w>
13 3</w>
13 6</w>
13 80</w>
138 2</w>
138 6</w>
14 6</w>
14 7</w>
17 3</w>
17 76</w>
18 14</w>
18 2</w>
18 4</w>
19 15</w>
19 49</w>
19 50</w>
19 65</w>
19 66</w>
19 8</w>
196 4</w>
197 1</w>
197 3</w>
197 6</w>
197 7</w>
198 1</w>
198 5</w>
198 6</w>
199 5</w>
2 17</w>
2 20</w>
2 22</w>
2 25</w>
2 27</w>
2 44</w>
2 45</w>
2 48</w>
2 54</w>
2 57</w>
2 60</w>
200 00</w>
26 2</w>
3 11</w>
3 28</w>
3 80</w>
3 97</w>
4 12</w>
4 20</w>
4 58</w>
4 7
4 70</w>
5 71</w>
6 1</w>
6 50</w>
6 80</w>
6 97</w>
8 000</w>
8 05</w>
8 60</w>
8 7</w>
a ch
a d
a d</w>
a f</w>
a u
ac k</w>
ac o</w>
ach e</w>
age d</w>
ak ip
akip re
akipre ss</w>
al a
al e
al l
al lo
an k</w>
ap ache</w>
ar d</w>
ar j</w>
art y</w>
at m</w>
au th
b al
b e
b en
b i
b ic</w>
b in
b le</w>
b or
b ou
b r</w>
b ra
b t
ban que</w>
bj p</w>
bou tro
boutro ss</w>
br u
bru e
brue ck
bs cri
bscri be</w>
c arty</w>
c c
c d
c ia</w>
c in
c pa</w>
c r</w>
c s</w>
c t</w>
c ur
c v
ca tion</w>
ce s
ce s</w>
cin to
cinto sh</w>
ck ing</w>
cn t
cnt s</w>
co le</w>
cor r</w>
cp p</w>
cp s</w>
cr sp</w>
ctur e</w>
cv from</w>
d ent
d er
d ou
d r
dc m</w>
de p
del brueck
e d</w>
e du</w>
e g
e le
e o
e qu
e t
e v
e w</w>
e x
eg yp
el l
ele ct
en d
en g
er e</w>
er p</w>
er s</w>
f ar
f bi</w>
f da</w>
f g
f i</w>
f it
f lip</w>
f lo
f und</w>
f w</w>
fa p</w>
fe r</w>
fic a</w>
flo p</w>
g lo
g ls</w>
g ra
g re
g ro
g t
g tek</w>
g y</w>
ga du</w>
ga t
ga z
go og
goog le</w>
gt k</w>
gu i</w>
h d
h er
h l
h l</w>
h n
h n</w>
h o</w>
h ou
h p
h y
hb sa
hbsa g</w>
ho me</w>
hou se</w>
hr m</w>
i a
i as</w>
i b
i fica</w>
i j
i m
i ma
i me
i o</w>
i stra
ic gn</w>
ic s</w>
ic t</w>
id s</w>
ie s</w>
il l
im f</w>
in gs</w>
in ter
inte l</w>
io s</w>
ip d</w>
ir a</w>
it ch</w>
it or
it u
j ac</w>
j u
k b</w>
k g</w>
k ing</w>
k le
k m</w>
k uc
ka z</w>
ke k</w>
kuc s
kucs mar
kucsmar sk
kucsmarsk i</w>
l in
l ing</w>
l k
l ra</w>
la ve</w>
le ga
le r</w>
lo ck</w>
lo g</w>
lo gy</w>
lo s</w>
m bo
m en
m l</w>
m m</w>
m ms</w>
m u
m ur
ma cintosh</w>
ma s
ma th
mc carty</w>
mc m</w>
me d
me ta
mf a</w>
mi x</w>
mo d</w>
mo n</w>
mp le</w>
ms ds</w>
mw cnt</w>
mw cnts</w>
n dp</w>
n mos</w>
n on
n p
n t
ne tw
netw or
networ k</w>
news kaz</w>
nf l</w>
o d</w>
o em</w>
o j
o mn
o o
o r</w>
on l
or e</w>
ort s</w>
ou r</w>
ou rc
ou s</w>
ourc e</w>
p b
p da</w>
p e</w>
p g
p km</w>
p lan
p mo</w>
p r
p ra
p va</w>
pac ifica</w>
pe er</w>
per spec
perspec ti
perspecti ve</w>
pr sa</w>
r o</w>
r r</w>
r t
r t</w>
rc f</w>
re cvfrom</w>
re mo
re n</w>
re s
res ource</w>
ric k</w>
ro n
run commandn</w>
s am
s an
s co
s for</w>
s ip</w>
s lave</w>
s mes</w>
s ms</w>
s mt</w>
s n</w>
s o</w>
s w
s wot</w>
sa bic</w>
sa id</w>
sa p</w>
sc m</w>
scor e</w>
se m</w>
se n</w>
sh ip</w>
sh ore</w>
si a</w>
si c</w>
si mple</w>
si o</w>
sn r</w>
so x</w>
spec int</w>
st a</w>
st on</w>
st ru
su bscribe</w>
t cr</w>
t d
t f
t m</w>
t u
t ur
ta ble</w>
ta r</w>
th eb
th is</w>
to o
tr un
tra sh</w>
trun king</w>
u bi
u n</w>
u v</w>
uisearchdispla y
v mc</w>
vo ip</w>
w ang</w>
w ho
w i</w>
w in
w or
w s</w>
xy ls</w>
z h
za jac</w>
μ m</w>
آ برو
آ بل</w>
آ بله</w>
آ به</w>
آ تا</w>
آ تی
آ تیه</w>
آ تیو
آ ث
آ دمای</w>
آ روم</w>
آ ز</w>
آ سف
آ شی
آ شیانه</w>
آ ف</w>
آ فاق</w>
آ فو
آ فی
آ ق</w>
آ لیست</w>
آ لیو
آ مین</w>
آ نوقت</w>
آ هن
آ کری
آ کور
آئورلی انوی</w>
آب دار</w>
آب زی</w>
آب گون</w>
آتا ژ
آتاژ ورت</w>
آتی رائو</w>
آتیو پین</w>
آث اری</w>
آجر ها</w>
آجو دانی</w>
آخ ره
آخره فته</w>
آد م
آد میز
آدمیز اد</w>
آذ ر</w>
آذ رخش</w>
آر ت
آر ت</w>
آر م</w>
آر می
آر نام
آر نانو</w>
آر ک</w>
آرای شگری</w>
آرمی چر</w>
آرنام یس</w>
آز ارش</w>
آز ردگی</w>
آز ور</w>
آز کابان</w>
آزادی خواهی</w>
آزمو دن</w>
آس ان
آسانس ورهایی</w>
آسای شگاه</w>
آست لی</w>
آسف الت</w>
آسی انت</w>
آسی ایی
آسی ه</w>
آش فت</w>
آش ور</w>
آشامی دن</w>
آشنا ئی</w>
آشنا تر</w>
آشنا ه</w>
آشپز باشی</w>
آغ ازی</w>
آغ ل</w>
آف یس</w>
آفری نان</w>
آق است</w>
آل ای</w>
آل بوم</w>
آل رژی</w>
آل کز
آلم آتی</w>
آلم از</w>
آلومی نیو
آلومینیو می</w>
آلکس اندرو
آلکساندرو ونا</w>
آلیو شای</w>
آم پول</w>
آما د</w>
آما زون</w>
آمریک ائی</w>
آمو ختند</w>
آمو زد</w>
آمو زند</w>
آمو زنده</w>
آموز آن</w>
آموز شگاه</w>
آمی خت</w>
آمی زند</w>
آن انی</w>
آن تی
آن جمله</w>
آن درس</w>
آن زای</w>
آن سانی</w>
آن طور</w>
آن فلو
آن فول
آن ند</w>
آن ه
آن هائی</w>
آن کارا</w>
آنان را</w>
آنفلو آنزای</w>
آنفول ان
آه ارو
آه و</w>
آهن گر</w>
آو ای</w>
آو دو
آو نگ</w>
آودو تیا</w>
آوی خت</w>
آوی ز</w>
آپارت مانش</w>
آک توب</w>
آک توبه</w>
آک ون</w>
آکری دون</w>
آکور دئون</w>
آی ال
آی دا</w>
آی لند</w>
آی منم</w>
آی گل</w>
ئ د</w>
ئ ز</w>
ئ س</w>
ئ ط</w>
ئ ورو
ئ وس</w>
ئ وم</w>
ئ یل</w>
ئورو با</w>
ئی ترز</w>
ئی لونا</w>
ئی نگ</w>
ا بی
ا بید</w>
ا تن</w>
ا تور</w>
ا تون</w>
ا ث</w>
ا دیگر</w>
ا ص</w>
ا ویل</w>
ا پای</w>
ا پرای</w>
ا کردند</w>
ا گ</w>
ا گز
ا گو</w>
ا گوی</w>
ائ ب</w>
ائ ص</w>
ائو مر</w>
اب ایت</w>
اب تش</w>
اب نده</w>
اب ور
ابدا عات</w>
ابر ای
ابر ون</w>
ابراه ی
ابراه یمی</w>
ابراهی موف</w>
ابرای موف</w>
ابرو ان</w>
ابریش مین</w>
ابز ار
ابه امات</w>
ابه امی</w>
ابو بکر</w>
ات ت</w>
ات رین</w>
ات کای</w>
ات ید</w>
اتا ل</w>
اتاق کی</w>
اتح ادی</w>
اتص الی</w>
اته ام
اتو بوسی</w>
اتو یا</w>
اتی نوس</w>
اث را
اث راتی</w>
اث نای</w>
اث نایی</w>
اثاث یه</w>
اثر بخش</w>
اثر گذار</w>
اج رات</w>
اج ره</w>
اج ش</w>
اج مل</w>
اج نه</w>
اج ی
اح ی
احت ضار</w>
احس اسم</w>
احساس اتم</w>
احم دالله</w>
احم دوا</w>
احمد زی</w>
احمق ند</w>
احی انا</w>
اخ تاک
اخ ترک</w>
اخ ذ
اخ را
اخ ری</w>
اخ ط
اخ می</w>
اخ یرش</w>
اخت لاس</w>
اختاک ور</w>
اختلا فی</w>
اختی ارش</w>
اختی ارشان</w>
اخرا جی</w>
اخلاقی ات</w>
اخی موف</w>
اخیر با</w>
اد بانه</w>
اد روس</w>
اد ری
اد ریس</w>
اد زی
اد می</w>
اد کنان</w>
ادا تی</w>
ادزی چ</w>
ادع ایی</w>
ادو ار</w>
ادو اردو</w>
ادو ک</w>
ادور اد</w>
ادی ن
ار الاسد</w>
ار انه</w>
ار اگو
ار تور</w>
ار زو
ار سلان</w>
ار سکی</w>
ار شدی</w>
ار لین</w>
ار منی</w>
ار ند</w>
ار نی</w>
ار کان</w>
ار یش</w>
اربا بم</w>
ارت دوکس</w>
ارت رین</w>
ارت شب
ارت میس</w>
ارت گاه</w>
ارت گران</w>
ارتباط اتی</w>
ارتشب د</w>
ارتفاع ات</w>
ارز انی</w>
ارز گان</w>
ارزش مند
ارزو های</w>
ارو تی</w>
ارو زا</w>
ارو سا</w>
ارو شن</w>
اروپ ائی</w>
ارگانی سم</w>
اری سم</w>
اری نگ
اری کسون</w>
ارینگ اروسا</w>
از آن</w>
از اد
از ان</w>
از بر</w>
از جمله</w>
از خود
از خی
از دست</w>
از طریق</w>
از لی</w>
از مای
از همه</w>
از وف</w>
ازب کی</w>
ازخود راضی</w>
ازدو اجش</w>
ازدو اجی</w>
اس اتید</w>
اس ار</w>
اس بات</w>
اس تونی</w>
اس را
اس شان</w>
اس ف
اس ف</w>
اس فند</w>
اس قرار</w>
اس ل
اس لی
اس مشان</w>
اس مم</w>
اس و
اس ون</w>
اس ونی</w>
اس پر
اس پرو
اس پری</w>
اس ک</w>
اس کات</w>
اس کر
اس کی
اس یا</w>
اس یران</w>
اس یری</w>
اس یو
اساس نامه</w>
است اف
است ای</w>
است حضار</w>
است حفاظی</w>
است خوان
است ری
است ط
است غ
است قل
است م</w>
است نش
است نفورد</w>
است پ</w>
است پان
استا ت</w>
استا زی</w>
استا کر</w>
استان لی</w>
استان ی
استانی سلا
استب دادی</w>
استث مار</w>
استثنا های</w>
استحق اقی</w>
استخر های</w>
استد عا</w>
استرا ق</w>
استرا و</w>
استرای ور</w>
استرو ژن</w>
استط اعت</w>
استع دادهای</w>
استف هام</w>
استق بال
استقل ال
استقلال شان</w>
استن لی</w>
استنش اق</w>
استو انه</w>
استو ایی</w>
استو ک</w>
استی ضاح</w>
استی نش</w>
اسر ع</w>
اسلام گرا</w>
اسلام گرایان</w>
اسلای تری
اسلای ترین</w>
اسلایتری نی</w>
اسلو واکی</w>
اسماعی لی</w>
اسماعی لیه</w>
اسنو دی</w>
اسنو ف
اسنوف ایر</w>
اسپ ات</w>
اسپانی اییه</w>
اسپر پس
اسپرپس کا</w>
اسپن سر</w>
اسک یس</w>
اسی اب</w>
اسی نی</w>
اش ات</w>
اش ام</w>
اش بی
اش را
اش رفی</w>
اش ن</w>
اش پز
اش پزی</w>
اش کال
اش کی</w>
اش یایی</w>
اشبی لیه</w>
اشت این
اشت هایش</w>
اشت هایی</w>
اشتاین ر</w>
اشتباه اتش</w>
اشترا کی</w>
اشتی اقی</w>
اشع ارش</w>
اشع اری</w>
اشپز خونه</w>
اشک بار</w>
اشکال ات</w>
اص ر
اص ف
اصلاح گرا</w>
اط ع</w>
اط فا</w>
اطرا فشان</w>
اطرا فمان</w>
اطرافی ان</w>
اظهار نامه</w>
اع ظ
اع قاب</w>
اع ه</w>
اعتب ارش</w>
اعتص ابی</w>
اعتما دترین</w>
اعتنا ئی</w>
اغ تش
اغ ه</w>
اغ وشش</w>
اغتش اش</w>
اغما ض</w>
اف تض
اف تیم</w>
اف ر
اف رینی</w>
اف سان</w>
اف سن
اف سونی</w>
اف عی</w>
اف کاری</w>
اف کندن</w>
اف کنش</w>
اف یه</w>
افت خار
افتا دگی</w>
افتخار ات</w>
افتض اح</w>
افرا دش</w>
افریق ای</w>
افز اری</w>
افزو دنی</w>
افسن طین</w>
افش انی</w>
افع ان
افعان ستان</w>
اق ام</w>
اق سا
اق لا</w>
اق لیم</w>
اق م</w>
اق ه</w>
اق و
اقت باس</w>
اقت دار</w>
اقتصاد دان</w>
اقدا ماتش</w>
اقسا ط</w>
اقیان وسی
اقیانوسی ه</w>
ال ئوروبا</w>
ال ا
ال اتی</w>
ال اجل</w>
ال استیک</w>
ال ال
ال ان
ال اک
ال بخاری</w>
ال بیه</w>
ال تش</w>
ال تور
ال جزایری</w>
ال حم
ال حی
ال خو
ال دو
ال ز</w>
ال زح
ال شری
ال شریف</w>
ال طریق</w>
ال عربی</w>
ال فیصل</w>
ال ما
ال مار</w>
ال مطلوب</w>
ال مع
ال مق
ال نص
ال نهضت</w>
ال نو
ال هه</w>
ال هیات</w>
ال وزانی</w>
ال وی
ال پور</w>
ال ک</w>
ال کالن</w>
ال کردی</w>
ال گا</w>
ال گوها</w>
ال یاتی</w>
ال یاس</w>
ال یف</w>
ال ین</w>
الاح رام</w>
الال ام
الالام پور</w>
الب ویز</w>
الته اب</w>
التور قو
التورقو مان</w>
الج ثه</w>
الز بی
الزبی تا</w>
الزح مه</w>
الش را</w>
الش زلی</w>
الشر ع</w>
الشر فه</w>
الشری عه</w>
الط افی</w>
الط وا
الطوا ج
الطواج یری</w>
الع ا
الع ین</w>
الف بای</w>
الفا طم</w>
الق ایی</w>
الم پیکی</w>
المع ارف</w>
المق داد</w>
النص ره</w>
النو بریه</w>
الک بی
الک ترون</w>
الکبی سی</w>
الکترو دی</w>
الکس اندرا</w>
الگو برداری</w>
الی زار</w>
الی ست
الی ستی</w>
ام اره</w>
ام اری</w>
ام ازوف</w>
ام امان</w>
ام ان
ام انیم</w>
ام ای</w>
ام بری</w>
ام جد</w>
ام دی</w>
ام شان</w>
ام لا</w>
ام نامه</w>
ام ند</w>
ام ندی</w>
ام پر
ام کانی</w>
ام یری</w>
امان دا</w>
اماک ن</w>
امتح انش</w>
امتح انی</w>
امتی از
امدادر س
امدادرس انان</w>
امنی تشان</w>
امو ف</w>
امو نا</w>
امور ات</w>
امکان ش</w>
امکان پذیر</w>
امی انه</w>
امی دش</w>
امی زد</w>
امی زی</w>
امیدوار کننده</w>
ان ان
ان باردار</w>
ان بارها</w>
ان بان</w>
ان در</w>
ان دره</w>
ان دی</w>
ان ریکو</w>
ان سی</w>
ان ش
ان شده</w>
ان شع
ان عام</w>
ان فعال</w>
ان وار</w>
ان وردان</w>
ان وری</w>
ان کریز</w>
ان کو
ان گونه</w>
ان یا</w>
انبار های</w>
انت شار
انت ف
انت هایی</w>
انت چین</w>
انتشار ات</w>
انتظ ارشان</w>
انتظ ارمی</w>
انتف اعی</w>
انتق الات</w>
انج اها</w>
انج لس</w>
انح رافی</w>
اند ایی</w>
اندا زید</w>
اندرو نا</w>
اندوه ناکی</w>
اندی شیده</w>
اندی شیم</w>
انزو ا</w>
انس را</w>
انس کاپ</w>
انق ضای</w>
انقلا بات</w>
انگ اشته</w>
انگ لند</w>
انگ لی
انگ ور</w>
انگی زد</w>
اه دایی</w>
اه رام</w>
اه لی</w>
اه مال</w>
اه نگ</w>
اهدا فشان</w>
اهدا کننده</w>
اهدا کنندگان</w>
او ته</w>
او را</w>
او صاف</w>
او ف</w>
او قات
او لا
او لیت</w>
او مد
او نج
او نقدر</w>
او نیل</w>
او هام</w>
او ور</w>
او پک</w>
او کلا</w>
اوا تی</w>
اور اد</w>
اور ال</w>
اور دی</w>
اور فت</w>
اور لاندو</w>
اور لی</w>
اور ید</w>
اوری نت</w>
اوس مو
اولی ا</w>
اولی ویا</w>
اولی چف</w>
اوم دم</w>
اوم دن</w>
اونی نگ</w>
اپ انتچین</w>
اپ ن</w>
اپ ور</w>
اپرا تورهای</w>
اچ نا</w>
اژ دهای</w>
اک اری</w>
اک تف
اک ر</w>
اک سفورد</w>
اک سپ
اک و</w>
اکتف ا</w>
اکث را</w>
اکو لو
اکو مو</w>
اگ اهم</w>
ای ب
ای تر
ای ثار</w>
ای دش</w>
ای زو
ای سا
ای شگاه</w>
ای ص</w>
ای قه</w>
ای له</w>
ای لیا</w>
ای مانی</w>
ای مز</w>
ای میلی</w>
ای ند
ای نی</w>
ای هود</w>
ای وب</w>
ای گ
ای گور</w>
ایت الی
ایت لی</w>
اید تان</w>
ایدئ ولوژیکی</w>
ایرا دهای</w>
ایس سکو</w>
ایست اروشن</w>
این تر</w>
این تل</w>
این جا
این جانب</w>
این جای
این جوری</w>
این دوس</w>
این صورت</w>
این فری
این قدر</w>
این چنین</w>
اینتر نیوز</w>
اینفری وس</w>
ایو مینگ</w>
ایوان ز</w>
ایگ ناتی</w>
ب آبا
ب است</w>
ب اسی
ب اندازه</w>
ب با
ب بخشی</w>
ب به</w>
ب ترسم</w>
ب تنی</w>
ب ث</w>
ب جائی</w>
ب جنب</w>
ب جه</w>
ب جهد</w>
ب جوید</w>
ب ح</w>
ب حال</w>
ب حرکت</w>
ب خاطر
ب خوابید</w>
ب خوان</w>
ب خوبی</w>
ب دارم</w>
ب دان
ب درد</w>
ب دونی</w>
ب دوید</w>
ب دیل</w>
ب سان</w>
ب سختی</w>
ب سرعت</w>
ب سم</w>
ب سنت</w>
ب سنج
ب سون</w>
ب سپارد</w>
ب شار</w>
ب شد</w>
ب شم
ب شناسند</w>
ب صورتی</w>
ب ض
ب ط
ب طرز</w>
ب طول</w>
ب فرست
ب فرو
ب فروش</w>
ب فروشد</w>
ب قتل</w>
ب قر
ب لال</w>
ب مان</w>
ب می</w>
ب میزان</w>
ب ندد</w>
ب ندش</w>
ب نش
ب نشین</w>
ب نماید</w>
ب نگ</w>
ب هایی</w>
ب ورد</w>
ب پذیرم</w>
ب پر</w>
ب پوش</w>
ب پوشان
ب پوشند</w>
ب پی
ب چرخ
ب چسب
ب چی
ب کشی</w>
ب گان</w>
ب گرداند</w>
ب گردم</w>
ب گردی</w>
ب گفتن</w>
ب گنج
با اعتماد</w>
با بایی</w>
با بمب</w>
با ترا</w>
با تیر
با ج
با ج</w>
با دا
با در</w>
با شی
با طری</w>
با عی</w>
با فت
با لید</w>
با مزه</w>
با ورت</w>
با ورش</w>
با پ
با کل
با گرا
بابا جان</w>
باج گیری</w>
باد بانی</w>
باد بزن</w>
بار انداز</w>
بار تال
بار ز</w>
بار زانی</w>
بار نت</w>
بار و
بار کشی</w>
بار یکه</w>
بارتال ومی
بارتالومی و</w>
باز آموزی</w>
باز دارد</w>
باز شدن</w>
باز شماری</w>
باز شو</w>
باز ها</w>
باز ویم</w>
باز پرسی</w>
باز گردیم</w>
باز گشتند</w>
بازر گان</w>
بازنش ست
بازنشست گان</w>
بازو ها</w>
بازو هایشان</w>
بازو هایم</w>
بازگردان دند</w>
بازی افته</w>
بازی ها</w>
بازی چه</w>
بازی کنی</w>
باش ر</w>
باش گاهی</w>
باشی دکه</w>
باغ بان</w>
باغ بانی</w>
باف ندگی</w>
بافت نی</w>
بال تی
بال تیمور</w>
بال د</w>
بال دیف</w>
بال شی</w>
بال ص
بال غه</w>
بال ماس
بال کان</w>
بال گردهای</w>
بال گری</w>
بالتی ستان</w>
بالماس که</w>
بانفو ذ
بانفو ذ</w>
باپ تیست</w>
باکل ز</w>
باگ بو</w>
باگرا تی
باگراتی ون</w>
بای دن</w>
بای ستم</w>
بای و
بای وف</w>
بایست ید</w>
بایو وا</w>
بباز د</w>
ببی نمت</w>
ببی نه</w>
ببی نیش</w>
بتا زد</w>
بتر سند</w>
بح ث
بح ثی</w>
بح ساب</w>
بح ش</w>
بخ ار
بخ ر</w>
بخ رید</w>
بخ شش</w>
بخشای شگر</w>
بخشو دگی</w>
بخو نه</w>
بخور ن</w>
بد بینانه</w>
بد ت</w>
بد تری</w>
بد جنسی</w>
بد خواه</w>
بد زدند</w>
بد عن
بد نیا</w>
بد ود</w>
بد گمان</w>
بدبخ تش</w>
بدبخ تم</w>
بدر ود</w>
بدعن ق</w>
بده ی
بدهی دش</w>
بدو زم</w>
بدی نس
بدینس ان</w>
بذ له</w>
بر آنها</w>
بر آور
بر احتی</w>
بر اد
بر از
بر ام</w>
بر املی</w>
بر اه</w>
بر اونینگ</w>
بر بیاید</w>
بر خواهد</w>
بر داریم</w>
بر داشتند</w>
بر داشتی</w>
بر دش
بر دن
بر دنش</w>
بر دگی</w>
بر س</w>
بر سان</w>
بر شمرد</w>
بر ضد</w>
بر فی</w>
بر قع</w>
بر ل</w>
بر لن</w>
بر مبنای</w>
بر من</w>
بر مه</w>
بر ندا</w>
بر نداشت</w>
بر ندی</w>
بر نگشته</w>
بر نی</w>
بر های</w>
بر ک</w>
بر کات</w>
بر گردید</w>
بر گیرنده</w>
بر یت</w>
برآم دگی</w>
برا برشان</w>
برا زی
برادر ت</w>
برازی لیا</w>
برانگی زان
برانگی زی</w>
برخاست م</w>
برخور دهای</w>
برخور دی</w>
برد باری</w>
برد فیلد</w>
برد لی</w>
برزی لی</w>
برس انی</w>
برمی دارد</w>
برنخ است</w>
برو توس</w>
برو دتی</w>
برو ن
برو نو</w>
برو ژ
برو کرات</w>
بروژ ون</w>
برگ شت
برگ ن</w>
برگ یل</w>
برگر دانید</w>
برگر دن</w>
برگر ده</w>
برگردان دند</w>
برگز ار
برگش تی</w>
بری تی</w>
بری دگی</w>
بری زد</w>
بری زم</w>
بری ستول</w>
بری گی
بریگی دز</w>
بز داید</w>
بز دل</w>
بز ندان</w>
بز و
بزرگ تان</w>
بزرگ داشت</w>
بزرگ شان</w>
بس نده</w>
بسا زم</w>
بسا ط
بست نی</w>
بسنج د</w>
بش ارالاسد</w>
بش اشی</w>
بش تا
بش قابش</w>
بش ور</w>
بش وید</w>
بش ویند</w>
بش یم</w>
بش ین</w>
بشمار یم</w>
بشن و</w>
بع ات</w>
بع ث</w>
بع د
بع داز</w>
بع ضا</w>
بغ ض</w>
بغ ضی</w>
بف همو
بفر ستم</w>
بفر ستند</w>
بفهمو نم</w>
بق اع</w>
بل اهت</w>
بل خ</w>
بل ده</w>
بل عد</w>
بل و</w>
بل ور
بل وری</w>
بل کز
بلا تری
بلا د</w>
بلاتری کس</w>
بلند ای</w>
بلند قد</w>
بلند گو</w>
بلو ند</w>
بلکز تی
بلکزتی بل</w>
بمب گذار</w>
بمو نم</w>
بمو نید</w>
بن دند</w>
بن دو
بن دی
بن رز</w>
بن و</w>
بن وا
بن چ</w>
بن گرند</w>
بنا به</w>
بنا ت</w>
بنا های</w>
بندا زه</w>
بندو باری</w>
بنش ن</w>
بنف شه</w>
بنو شم</w>
بنوا زد</w>
بنگ له</w>
بنی ه</w>
بنیاد گرا</w>
بنیان گذاران</w>
به ادر</w>
به سازی</w>
به شتی</w>
بهبو دهایی</w>
بو ئی</w>
بو ئینگ</w>
بو بات</w>
بو تا</w>
بو تروس</w>
بو تن</w>
بو جو
بو را</w>
بو رو
بو زی
بو سان</w>
بو سنی</w>
بو فه</w>
بو ق</w>
بو قل
بو لیت</w>
بو نا
بو نه</w>
بو ک
بوجو د
بوجود آمده</w>
بود ندکه</w>
بور دو
بور سیه</w>
بور ش</w>
بور لی</w>
بور ک</w>
بور گو
بوردو فسکی</w>
بورو میر</w>
بوسی دن</w>
بوقل مون</w>
بولو نیا</w>
بون دارنکو</w>
بوی یدن</w>
بپ اید</w>
بپ زیم</w>
بپردا زم</w>
بچ گانه</w>
بچسب م</w>
بک اهد</w>
بک اهیم</w>
بکار ید</w>
بکش انند</w>
بکو شم</w>
بگ ید</w>
بگذ رند</w>
بگذ رو
بگذران ند</w>
بگذرو نه</w>
بگری زند</w>
بگی نز</w>
بی ائی</w>
بی ابون</w>
بی اتی</w>
بی اره</w>
بی اری</w>
بی افتند</w>
بی افته</w>
بی انجامد</w>
بی اندازم</w>
بی اندازیم</w>
بی اندیشد</w>
بی این</w>
بی اییم</w>
بی تس</w>
بی تل
بی جا</w>
بی ح</w>
بی خ</w>
بی خودی</w>
بی خون</w>
بی دم</w>
بی رحمی</w>
بی ری</w>
بی زاری</w>
بی ضی</w>
بی فتی</w>
بی لب
بی می</w>
بی نا</w>
بی ند
بی نسون</w>
بی نشان</w>
بی نم
بی نگلی</w>
بی نی
بی وا</w>
بی چ</w>
بی کر</w>
بی گری</w>
بیا بید</w>
بیافز ایید</w>
بیتل ز</w>
بیر ق</w>
بیر منگ
بیرمنگ هام</w>
بیرو نش</w>
بیش تر
بیف کنید</w>
بیفت یم</w>
بیم ارش</w>
بیمار گونه</w>
بین مت</w>
بین ندگان</w>
بیند از</w>
بیندی شد</w>
بینو ایان</w>
بینو ایی</w>
بیچار گان</w>
بیچار گی</w>
ت البویز</w>
ت بیک</w>
ت تیس</w>
ت تیک</w>
ت داخل</w>
ت رید</w>
ت ضر
ت ظ
ت غیر</w>
ت فا
ت فرقه</w>
ت قر
ت لی
ت ما</w>
ت مام
ت مجی
ت مرد</w>
ت مل
ت میر
ت میز
ت میزی</w>
ت نی
ت ها</w>
ت پ
ت کالی
ت کلی
تئ ین</w>
تئا ترهای</w>
تا ئو</w>
تا بعیت</w>
تا بنا
تا بناک</w>
تا تن
تا حدی</w>
تا خیره</w>
تا دو
تا زا</w>
تا زان</w>
تا شو</w>
تا فت</w>
تا کی
تابو شر</w>
تاتن هام</w>
تاثیر ش</w>
تاثیر گذاری</w>
تاج دار</w>
تاج یکی</w>
تار ک</w>
تار ین</w>
تاس یم</w>
تال اس</w>
تال یا</w>
تام ارا</w>
تان کر</w>
تاک سین</w>
تای ا</w>
تای وان</w>
تای پ</w>
تایی د
تایی دی</w>
تب انی</w>
تب ص
تبدی لات</w>
تبص ره</w>
تبع ات</w>
تبع ه</w>
تبعی دی</w>
تبی ین</w>
تج س
تجدید نظر</w>
تجس سی</w>
تجم ل</w>
تجم لی</w>
تجمع ی</w>
تجهی زاتی</w>
تح ن</w>
تح ولی</w>
تحص ن</w>
تحص یل
تحق یر
تحق یرش</w>
تحوی لش</w>
تخ سیر</w>
تخ فیفی</w>
تخت خوابم</w>
تدا عی</w>
تر بن</w>
تر بیتی</w>
تر سش</w>
تر سک</w>
تر شی</w>
تر شیده</w>
تر عه</w>
تر ف
تر می</w>
تر نتی
تر نس</w>
تر ود</w>
تر کان
تر گ</w>
ترا زی</w>
ترا ش</w>
ترا شد</w>
ترا و</w>
ترا پ</w>
ترا پی
ترا کتور</w>
تراز نامه</w>
ترامو بل</w>
تران زیت</w>
تران زیست
تران چ</w>
ترانزیست ور</w>
ترانسفورما تور</w>
تراپی ست</w>
ترتی وس</w>
تردی دها</w>
تردی دهایی</w>
ترس ناکه</w>
ترس ناکی</w>
ترنتی ف</w>
ترو ا</w>
ترو یت</w>
تری لر</w>
تری نگ</w>
تری و</w>
تری پولی</w>
تز ئی
تز برگن</w>
تز ری
تز ویر</w>
تز کیه</w>
تزل زلی</w>
تزی ین</w>
تس لی
تس ک</w>
تسل ای</w>
تسلی حات</w>
تسو انگیرای</w>
تش ابه</w>
تش ریف</w>
تش نگی</w>
تش ون</w>
تشعش عات</w>
تشعش عش</w>
تشن ج</w>
تشوی قش</w>
تص نیف</w>
تصمی مم</w>
تصوی رش</w>
تصویر برداری</w>
تض مینی</w>
تض یی
تضر ع</w>
تضیی ع</w>
تطبی قی</w>
تع الی</w>
تع اون</w>
تع بیه</w>
تع ریفی</w>
تع زیر</w>
تع ل</w>
تع هد
تعار یف</w>
تعص بی</w>
تعط ی
تعطی لا
تعه داتی</w>
تغی رات</w>
تف حص</w>
تف سیری</w>
تف کر
تفری د</w>
تفنگ داران</w>
تق ر</w>
تق وای</w>
تقاض ائی</w>
تقوی تی</w>
تل الو</w>
تل ای</w>
تل س</w>
تل قی
تلا ششان</w>
تلا شم</w>
تلفن چی</w>
تلفی قی</w>
تلفی نگر</w>
تلو تلو
تلوتلو خوران</w>
تم اما</w>
تم رینی</w>
تماش اش</w>
تماش ایش</w>
تمای زی</w>
تمرک زم</w>
تمسخر آمیزی</w>
تمل ق</w>
تمهی دات</w>
تن اسبات</w>
تن تاوی</w>
تن در</w>
تن ر</w>
تن هان
تن ویر</w>
تنا قضات</w>
تند خو</w>
تنظ یمی</w>
تنگ دستی</w>
تنگ نا</w>
ته است</w>
تهاج می</w>
تهی ی
تهیی ج</w>
تو استم</w>
تو دا</w>
تو دل</w>
تو رو
تو زی</w>
تو ق</w>
تو له</w>
تو نس
تو هینی</w>
تو ک</w>
تو کار</w>
تو کیو</w>
تو گل</w>
تو یوتا</w>
تو یی
توجه شان</w>
تور ن</w>
تور ین</w>
تور یک
تورن تو</w>
توری نگ</w>
توس ل</w>
توصی فات</w>
توقی فی</w>
تولو ژی</w>
تولی و</w>
تولید کننده</w>
تون سته</w>
تون و</w>
تونس م</w>
توپ چی</w>
توپولو ژی</w>
توک توگل</w>
تپ نده</w>
تپی دن</w>
تک وین</w>
تک ین</w>
تکا پو</w>
تکالی فش</w>
تکر ارهای</w>
تکن ولوژیک</w>
تی اره</w>
تی ان</w>
تی ت</w>
تی راه</w>
تی ز
تی زش</w>
تی ش</w>
تی شن</w>
تی شه</w>
تی ف</w>
تی ما
تی مبا</w>
تی مر</w>
تی نکا</w>
تی وب</w>
تی کا</w>
تی ین</w>
تیر ل</w>
تیری لیون</w>
تیل ک</w>
تیور ه</w>
تیور یکی</w>
ث ام</w>
ث بتش</w>
ث ر
ث قیل</w>
ث نا</w>
ثال ث</w>
ثر پا</w>
ج اب</w>
ج اتی</w>
ج اجت</w>
ج ار
ج ارو
ج البیه</w>
ج اه
ج بل</w>
ج داره</w>
ج دال</w>
ج دل</w>
ج رید</w>
ج زم</w>
ج س</w>
ج عده</w>
ج فر
ج مایل</w>
ج مش
ج میله</w>
ج نان</w>
ج ند</w>
ج نی
ج هی
ج یره</w>
جا بی</w>
جا کوب</w>
جادو گر
جادوگر هایی</w>
جاس وس</w>
جام ائ
جام ش</w>
جان انه</w>
جان م</w>
جان ورانی</w>
جان وف</w>
جان پور</w>
جاو دانه</w>
جای ر</w>
جبر ئیل</w>
جبر انی</w>
جدا لا
جدا لی</w>
جدالا ق
جدالاق صی</w>
جدی دا</w>
جدید تر</w>
جذ به</w>
جذا بیتی</w>
جر آور</w>
جر بزه</w>
جر به</w>
جر ثقیل</w>
جرا ح</w>
جرا حات</w>
جری انی</w>
جزئ یاتی</w>
جس دش</w>
جس دی</w>
جست گی</w>
جسور تر</w>
جع ان</w>
جع فری</w>
جع ل</w>
جغرا فی</w>
جغرافی ای</w>
جفت گیری</w>
جل ساتی</w>
جل نگ</w>
جل ویی</w>
جلو زی</w>
جلو شو</w>
جما عتی</w>
جمهوری خواه</w>
جن ایاتی</w>
جن بانی</w>
جن بشی</w>
جن دالله</w>
جنا ت</w>
جنگ د</w>
جنگ ند</w>
جنگ یدن</w>
جنگ یدند</w>
جه ادی</w>
جه ی</w>
جو ار</w>
جو انه</w>
جو دیک</w>
جو شکاری</w>
جو لی</w>
جو ناه</w>
جو ون</w>
جو گ
جوا ب
جوا بش</w>
جوان مردی</w>
جور جوی</w>
جور دی</w>
جوز جان</w>
جوگ ندمی</w>
جوی دن</w>
جوی ند</w>
جی اکومو</w>
جی ما</w>
جی ن
جی نگ</w>
جی و
جین دیک</w>
جیو نیوز</w>
ح ا</w>
ح اد</w>
ح اره</w>
ح ایل</w>
ح بوبات</w>
ح ث</w>
ح جر</w>
ح دفا
ح دی
ح را
ح روم</w>
ح زم</w>
ح زین</w>
ح سود</w>
ح فه</w>
ح قی</w>
ح لا
ح لب</w>
ح نا</w>
ح نیف</w>
ح وران</w>
ح کم
ح کی
حاج ب</w>
حاض ر
حال تان</w>
حام ل
حام له</w>
حامل گی</w>
حت می</w>
حج یم</w>
حدا قلی</w>
حدا کث
حداکث ر
حدفا صل</w>
حدی ث</w>
حذ فی</w>
حر کاتی</w>
حرو مز
حرومز اده</w>
حز بش</w>
حس اسی</w>
حس نوف</w>
حسا بش</w>
حص یر
حص یری</w>
حصیر هایی</w>
حض وری</w>
حف ر</w>
حق شان</w>
حقی قه</w>
حل زون</w>
حم تی</w>
حم ص</w>
حو اله</w>
حو هی</w>
حوا شی</w>
حوض چه</w>
خ ارش</w>
خ اری</w>
خ اش
خ انی</w>
خ ایید</w>
خ برنامه</w>
خ تی
خ جسته</w>
خ دم</w>
خ ز</w>
خ زر</w>
خ زنده</w>
خ زیدند</w>
خ سران</w>
خ فاش</w>
خ فتن</w>
خ فیف</w>
خ مره</w>
خ مشی</w>
خ ندی</w>
خ چال</w>
خ یری</w>
خا ئن</w>
خا ئیلونا</w>
خا عی</w>
خا کس
خائ ر</w>
خائ نین</w>
خائ یل</w>
خار اند</w>
خارجی ان</w>
خاست گاه</w>
خاطر تان</w>
خال یه</w>
خان وارها</w>
خانوا د
خاکس پاری</w>
خبرنگ اری</w>
خبی ث</w>
خت لون</w>
خت مش</w>
خت نی</w>
خد است</w>
خد ایی</w>
خد شه</w>
خد عه</w>
خر بزه</w>
خر د
خر دی</w>
خر من</w>
خر گوشی</w>
خرا زی</w>
خرا فه</w>
خرس ندم</w>
خری داران</w>
خری دن</w>
خری دیم</w>
خش منا
خش نی</w>
خشم گینی</w>
خشنو نت</w>
خص ائص</w>
خص ایص</w>
خص ی
خصی صه</w>
خط به</w>
خط راتی</w>
خط یب</w>
خطر می</w>
خطر نا
خل سه</w>
خل قت</w>
خل ل</w>
خل نگ
خلنگ زارها</w>
خلو تی</w>
خمی نی</w>
خو اصی</w>
خو اید</w>
خو این</w>
خو بش</w>
خو بم</w>
خو دست
خو شتان</w>
خو ل
خو ل</w>
خو نا</w>
خو نده</w>
خو ک
خواب انده</w>
خواب گاه
خوابی دم</w>
خوابی دند</w>
خوارو بار
خواست ن</w>
خوان دگی</w>
خواه ران</w>
خواه رت</w>
خواهر تان</w>
خواهر هایش</w>
خود تون</w>
خود رویی</w>
خود پرداز</w>
خود پسندی</w>
خود کامه</w>
خور جین</w>
خور دنش</w>
خور دید</w>
خور ید</w>
خوش امد</w>
خوش گلی</w>
خوشبخ تند</w>
خول ماتوف</w>
خوی شان</w>
خی اطی</w>
خی ال
خی الات</w>
خی تا</w>
خیر الله</w>
د آنه</w>
د ب</w>
د بستان</w>
د بستانی</w>
د تون</w>
د خول</w>
د زده</w>
د زی</w>
د سر</w>
د سو
د سون</w>
د غ</w>
د قایق</w>
د لاک</w>
د مان
د مایی</w>
د هم
د ژ</w>
د کان
د کلیف</w>
د کنندگان</w>
د گ
د گری</w>
د گیر</w>
دا بایف</w>
دا تا</w>
دا تشان</w>
دا تف</w>
دا توم</w>
دا دیار</w>
دا لاس</w>
دا ما
دا می
دا وران</w>
دا وین
دا پور</w>
دا گو
داخ تی</w>
داد خواست</w>
داد خواستی</w>
دار ال
دار دکه</w>
دار فور</w>
دار ین</w>
دال نا</w>
دامبل دور
دان ته</w>
دان شی</w>
دان شیار</w>
دان ل</w>
دان مارکی</w>
دانشجو ست</w>
دانشجو ها</w>
داو ت</w>
داو رون</w>
داو س</w>
داو طلبی</w>
داوی دکا</w>
داوین چی</w>
دای انا</w>
دای چی</w>
دای گان</w>
دبی ران</w>
دخ ل</w>
دختر خوانده</w>
دختر ه</w>
دختر هایم</w>
در آوردم</w>
در آوردند</w>
در ب</w>
در بازی</w>
در برخی</w>
در بسته</w>
در به</w>
در حدود</w>
در دت</w>
در دش</w>
در ده</w>
در سش</w>
در سن</w>
در ش</w>
در شرایط</w>
در صحبت</w>
در صدا
در طول</w>
در عین</w>
در فروش
در م</w>
در مرو</w>
در نظر
در هر
در هر</w>
در همان</w>
در همه</w>
در همین</w>
در ود</w>
در پیش</w>
در چنین</w>
در کار
در کل</w>
در گاهی</w>
درآم دش</w>
درا دامه</w>
درا کو</w>
دراف تاد</w>
دراف زایش</w>
درام اتیک</w>
دراوا خر</w>
دراور دن</w>
دربر دارنده</w>
درخ شد</w>
درخ شند</w>
درخ شیدن</w>
درد سر
درست ش</w>
درش تش</w>
درصدا ف
درصداف زایش</w>
درفروش گاه
درفروشگاه تان</w>
درمان دگی</w>
درو از</w>
درو س</w>
درو گو</w>
دروغ گو</w>
دروی دا</w>
دری ائی</w>
دری ابم</w>
دری دا</w>
دری سکو
دری غ
دری فت</w>
دریا بید</w>
دریا های</w>
دریسکو ل</w>
دریغ ا</w>
دز دکی</w>
دز دگیر</w>
دز دیدم</w>
دست بندهای</w>
دست مالی</w>
دست ی
دست یاران</w>
دستور اتی</w>
دستور العملی</w>
دش نام</w>
دع ا
دعو ای</w>
دف ترم</w>
دفتر ش</w>
دل ار
دل تا</w>
دل تای</w>
دل س</w>
دل سرد</w>
دل فیا</w>
دل فین</w>
دل ق
دل مان</w>
دل نشینی</w>
دل نواز</w>
دل وی</w>
دل پسند</w>
دلر با</w>
دلق ک</w>
دلی ر</w>
دم غ</w>
دما غم</w>
دمکر ات</w>
دمکر اتیک</w>
دن ب</w>
دن بش</w>
دن ته</w>
دن ج</w>
دن جی</w>
دن چیان</w>
دنبال شان</w>
دنی ائی</w>
ده ام</w>
ده ری</w>
ده زار</w>
ده شت
ده لیز</w>
ده ندو</w>
ده و</w>
دهم تان</w>
دو ال
دو اند</w>
دو بعدی</w>
دو ت</w>
دو تای</w>
دو تایی</w>
دو توبوزو</w>
دو جین</w>
دو ختم</w>
دو ختند</w>
دو دو</w>
دو روز</w>
دو لا</w>
دو لی</w>
دو مان</w>
دو مرتبه</w>
دو مشون</w>
دو ندگان</w>
دو نفره</w>
دو نی
دو نیا</w>
دو ه
دو های</w>
دو گان
دو یی</w>
دوبر ویه</w>
دوبر یک
دوبریک اسار</w>
دور بان</w>
دور ت</w>
دور تا</w>
دور ست</w>
دور ستو
دور ش</w>
دور نمای</w>
دورو بر</w>
دوست انتان</w>
دوست انشان</w>
دوست انمان</w>
دوست تان</w>
دوست داران</w>
دوش س</w>
دومی نیک</w>
دون ستی</w>
دوه الد</w>
دوگان گی</w>
دوی چ</w>
دوی چه</w>
دژ خیم</w>
دکتر ای</w>
دی اله</w>
دی دش</w>
دی دگی</w>
دی را</w>
دی رم</w>
دی ره</w>
دی رین</w>
دی س
دی مش</w>
دی نا</w>
دی نار</w>
دی نر</w>
دی نوا</w>
دی نگ
دی پ
دی گری
دید نشان</w>
دید که</w>
دیر باز</w>
دیرو زش</w>
دیس موند</w>
دینام یک</w>
دیو ف</w>
دیپ لم</w>
دیکتا تورهای</w>
دیگری را</w>
ذ اتا</w>
ذ اش
ذ بح</w>
ذ خائر</w>
ذ ر</w>
ذ ور</w>
ذ یانه</w>
ذر جان</w>
ذه نت</w>
ذه نیت</w>
ر استه</w>
ر اسی</w>
ر الی</w>
ر امین</w>
ر بات</w>
ر بای
ر بودن</w>
ر تی</w>
ر ج</w>
ر زه</w>
ر زو
ر ست</w>
ر شاد
ر شتا</w>
ر شک</w>
ر شگاه</w>
ر فران
ر مان
ر مه</w>
ر ندل</w>
ر گار</w>
رئ وف</w>
رئ یش</w>
رئی سه</w>
را تب</w>
را تر
را تون</w>
را تکان</w>
را ثبت</w>
را جانپور</w>
را جهت</w>
را د</w>
را در</w>
را دکلیف</w>
را دی</w>
را زش</w>
را ط</w>
را غ
را فال
را همان</w>
را وا</w>
را کتی</w>
را کنترل</w>
رابر تسون</w>
رادی ون</w>
رادی کال</w>
راست گو</w>
راست ینیاک</w>
راض یه</w>
راغ ب</w>
رافال ویچ</w>
رام حکم</w>
ران می</w>
ران ند</w>
راه بات</w>
راه بان</w>
راه به</w>
راه روهای</w>
راه زنان</w>
راه نمائی</w>
رای شگر</w>
رای لی</w>
رج ال</w>
رح یمی</w>
رخ داد</w>
رخ دادی</w>
رخت خوابش</w>
رخس ار</w>
رد ایشان</w>
رد گیری</w>
ردی فی</w>
رذ الت</w>
رز بری</w>
رز من
رزمن دگان</w>
رس ا</w>
رس ن</w>
رسان ا</w>
رسو ا</w>
رسو ب</w>
رسو خ</w>
رسوا کننده</w>
رشاد ت</w>
رض ایی</w>
رضایت بخش</w>
رضایت مندی</w>
رف ای</w>
رفت ارها</w>
رفت نم</w>
رفران دوم</w>
رفق ایش</w>
رفی قش</w>
رق با</w>
رق صی</w>
رقاص ان</w>
رقب ای</w>
رقص ند</w>
رم ق</w>
رمان تیک</w>
رمز گذاری</w>
رن کینگ</w>
رنج بران</w>
رنج ش</w>
رنج شی</w>
رنس انس</w>
ره ن</w>
رو ئی</w>
رو ئیترز</w>
رو انش</w>
رو باز</w>
رو برت</w>
رو تاری</w>
رو تین</w>
رو حت</w>
رو ر
رو من</w>
رو منو</w>
رو نویسی</w>
رو نی</w>
رو گون</w>
رواب طی</w>
روابط شان</w>
روان شناختی</w>
روان شناس</w>
روان شناسان</w>
روح ان</w>
روز به</w>
روز رسانی</w>
روز های</w>
روز گاری</w>
روس پی</w>
روست ائی</w>
روشن فکری</w>
رومان ویچ</w>
رون دهایی</w>
رونال دو</w>
روی هم</w>
روی چ</w>
رژ ی
رژ یمی</w>
رژی مت</w>
رگ بار</w>
ری اکاری</w>
ری تا</w>
ری ج</w>
ری حان</w>
ری حی</w>
ری ختن</w>
ری ختگی</w>
ری دی</w>
ری زو
ری ست</w>
ری شتان</w>
ری شش</w>
ری فش</w>
ری مش
ری ور</w>
ری ورز</w>
ری پر</w>
ری چار
ری چل</w>
ری گی</w>
ریز نقش</w>
ریزو سفر</w>
ریمش ا</w>
ریچار دسون</w>
ز اخ
ز اغه</w>
ز الی</w>
ز انش</w>
ز اک</w>
ز باد</w>
ز بانتان</w>
ز بانم</w>
ز بون</w>
ز بین</w>
ز تر</w>
ز جر</w>
ز جرآور</w>
ز حمتی</w>
ز دن
ز دنش</w>
ز ده
ز دوده</w>
ز دگان</w>
ز رز</w>
ز رنگ</w>
ز ری
ز ز</w>
ز شش</w>
ز ق</w>
ز لال</w>
ز منی</w>
ز نت</w>
ز نگ
ز نگی</w>
ز ه
ز هد</w>
ز هر
ز ویچ</w>
ز ک</w>
ز کا</w>
ز کات</w>
ز کریا</w>
ز گان</w>
زائ د</w>
زائ ر</w>
زائ یده</w>
زام یو
زامیو تف</w>
زان و
زان وها</w>
زان ویش</w>
زخ مش</w>
زر نگی</w>
زر گری</w>
زرا عت</w>
زع ال</w>
زل زل</w>
زل ف
زلف انش</w>
زمان ش</w>
زمی چ</w>
زن انشان</w>
زن دم</w>
زن ن</w>
زنا شو
زناشو ئی</w>
زنبور ها</w>
زندان بان</w>
زندگی شان</w>
زنی اک</w>
زنی ط</w>
زهر آلود</w>
زو ایا</w>
زو سیموف</w>
زو ما</w>
زو هر</w>
زو یک</w>
زور مند</w>
زور گویی</w>
زی ا</w>
زی ارت</w>
زی ارتگاه</w>
زی ایی</w>
زی بنرز</w>
زی تویی
زی رورو</w>
زی رین</w>
زی ش</w>
زی ف</w>
زی لند</w>
زی نتی</w>
زی گ</w>
زی گز
زیب اسازی</w>
زیر جلی</w>
زیر دست</w>
زیر ساختی</w>
زیر ست</w>
زیمبا وه</w>
س انجی</w>
س اید</w>
س ایم</w>
س بح
س بی</w>
س جاد</w>
س دا</w>
س دریک</w>
س روی</w>
س رید</w>
س زار</w>
س طرها</w>
س عد</w>
س عو
س فی</w>
س قل
س لم</w>
س ماج
س مار</w>
س مت
س مر
س مع</w>
س من</w>
س نش</w>
س هره</w>
س هم
س هوا</w>
س هی</w>
س هیل</w>
س پار
س پو
س پین</w>
س چ</w>
س کنی</w>
سا ئو
سا جد</w>
سا زان</w>
سا زندگی</w>
سا زو
سا عد</w>
سا وی
سا ک</w>
سا کاش
سا کنین</w>
ساب قش</w>
ساب قی</w>
ساخت ارها</w>
ساختار شکنی</w>
سار ق</w>
ساز و</w>
سازمان ش</w>
ساق دوش</w>
سال ت</w>
سال جاری</w>
سال داتف</w>
سال سا</w>
سال مندی</w>
سال هاست</w>
سال یف</w>
سال یم</w>
سال یو
سام انه</w>
سام با</w>
سامو ئل</w>
سان تا</w>
سان دویچ</w>
سانت اروزا</w>
سانتی متر</w>
ساو ترن</w>
ساکاش وی
ساکاشوی لی</w>
ساکن انش</w>
سای بان</w>
سب دی</w>
سب زی</w>
ست ار</w>
ست رگ</w>
ست ری</w>
ست ش</w>
ست ونی</w>
ست یز</w>
ستان به</w>
ستی وال</w>
سحر گاه</w>
سخ ره</w>
سخ نش</w>
سخاو تمند</w>
سخاوت مندانه</w>
سخاوت مندی</w>
سخت گیر</w>
سر آغاز</w>
سر بازرس</w>
سر بسته</w>
سر بلند</w>
سر تی</w>
سر حدی</w>
سر خوردن</w>
سر خورده</w>
سر خی</w>
سر داب</w>
سر دت</w>
سر در</w>
سر رسید</w>
سر سخت
سر سخت</w>
سر شناسی</w>
سر صفحه</w>
سر ع
سر قتی</w>
سر مست</w>
سر مستی</w>
سر مشق</w>
سر نخ</w>
سر نگ</w>
سر نیزه</w>
سر هی</w>
سر پناه</w>
سر پوش</w>
سر کش</w>
سر کوبی</w>
سر گ
سرا زیری</w>
سرا شیبی</w>
سرا غی</w>
سرا پای</w>
سراف کندگی</w>
سرباز گیری</w>
سرتا پا</w>
سرخ ک</w>
سردبی ری</w>
سرع تش</w>
سرما زده</w>
سرو رهای</w>
سرو سازی</w>
سرو صدا</w>
سرپر ستان</w>
سرگ ئی</w>
سرگی جه</w>
سری ع
سری و
سریو ژ
سریوژ ا</w>
سعی ده</w>
سف یه</w>
سفار شات</w>
سفر شان</w>
سفی لد</w>
سفید پوستان</w>
سق راط</w>
سق فش</w>
سق فی</w>
سقل مه</w>
سل امه</w>
سل ست</w>
سل فی</w>
سلا وی</w>
سلط انوف</w>
سلو لز</w>
سلی مانیه</w>
سلی موف</w>
سم فونی</w>
سماج ت</w>
سمر قند</w>
سمن در</w>
سمی ناری</w>
سن تز</w>
سن دیکا
سن س</w>
سن ن</w>
سن ک
سنس ور</w>
سنک رون</w>
سنگ اپور</w>
سنگ تودا</w>
سنگر ها</w>
سه راب</w>
سهام دار</w>
سو آت</w>
سو ئی</w>
سو ارها</w>
سو ختن</w>
سو ختند</w>
سو دگی</w>
سو زه</w>
سو زو
سو سمار</w>
سو لی
سو نز</w>
سو نم</w>
سو نیر</w>
سو پاپ</w>
سو ک
سو کار</w>
سوئ ف</w>
سوار شدن</w>
سوبسی د</w>
سود بخش</w>
سور مر</w>
سور های</w>
سوزان ند</w>
سول فور
سولفی داسیون</w>
سوپر ماتریس</w>
سوپر مار
سوپرمار کت</w>
سوی سی</w>
سوی شان</w>
سوی ون
سوی چ</w>
سپو ژ
سپی د</w>
سک ایا</w>
سک ویی</w>
سکو پی</w>
سکول اریسم</w>
سی احتی</w>
سی ام</w>
سی اچ</w>
سی تل</w>
سی ده</w>
سی دو
سی را
سی ز
سی زدهمین</w>
سی س</w>
سی لابی</w>
سی لن
سی لی
سی ما</w>
سی مف
سی نای</w>
سی ند</w>
سی ندی</w>
سی نمایی</w>
سی نو</w>
سی نگ</w>
سی ونی</w>
سی پ
سی گار
سیست ما
سیلو ان</w>
سیلو انا</w>
سیلو انیا</w>
سیم پل
سیمف امش</w>
سین رام</w>
سین ماها</w>
سین هی</w>
سینا پس</w>
سینی ور</w>
سیو الات</w>
سیو نر
سیگ ارش</w>
ش آن</w>
ش اغل</w>
ش اقه</w>
ش امی</w>
ش بیخون</w>
ش تری</w>
ش خم</w>
ش دگی</w>
ش ستن</w>
ش سته</w>
ش عل
ش ف</w>
ش قه</w>
ش قیقه</w>
ش ماتیک</w>
ش مردم</w>
ش مه</w>
ش کنان</w>
ش کند</w>
ش کنم</w>
ش کنند</w>
ش کننده</w>
ش گفت
شا خصه</w>
شادا ب</w>
شارلا تان</w>
شام پ
شام گاه</w>
شامپ این</w>
شان سیه</w>
شان گ</w>
شاه دش</w>
شاه دی</w>
شاک یان</w>
شای انی</w>
شای عاتی</w>
شت مین</w>
شج ره</w>
شخص ه</w>
شر بت</w>
شر شر</w>
شر های</w>
شر ود</w>
شر ک</w>
شر کت
شرا بی</w>
شرا ع</w>
شرمس ارم</w>
شری پوف</w>
شش مین</w>
شع ارهای</w>
شع ور</w>
شعل ان</w>
شغ له</w>
شف افش</w>
شل خته</w>
شل نگ</w>
شل پ</w>
شلو غی</w>
شم ارد</w>
شم ارش</w>
شم س</w>
شم ش</w>
شما طه</w>
شمش یر
شمش یرش</w>
شن ر</w>
شناس انده</w>
شناس مش</w>
شناس یم</w>
شنو ند</w>
شنی ه</w>
شه زاد</w>
شهر رسید</w>
شهر شان</w>
شهر می</w>
شهو انی</w>
شهو دی</w>
شو ا</w>
شو خ</w>
شو ده</w>
شو قی</w>
شو م
شو می</w>
شو نش</w>
شو نی</w>
شو چنکو</w>
شور اها</w>
شور ت</w>
شوهر ت</w>
شک ایاتی</w>
شک ست
شک فت</w>
شک له</w>
شک لک</w>
شک لیک</w>
شکار پور</w>
شکار چی
شکر انه</w>
شکو فا</w>
شگر انه</w>
شگر فی</w>
شی ادی</w>
شی لی</w>
شی نو
شی یی</w>
شیر بر</w>
شیر علی</w>
شیر ها</w>
شیر و</w>
شیط نت</w>
شیط ون</w>
شینو اری</w>
شیو ایی</w>
ص انه</w>
ص خر</w>
ص دات</w>
ص ریحی</w>
ص عب</w>
ص فوت</w>
ص ور</w>
ص یل</w>
صادر کننده</w>
صح ی
صحی حی</w>
صد است</w>
صد ف</w>
صد فی</w>
صد قه</w>
صد مات</w>
صدا هائی</w>
صدا هایی</w>
صر ب</w>
صر بستان</w>
صرف نظر</w>
صف ات</w>
صلح ی</w>
صندو ق
صندو قی</w>
صنعت گر</w>
صو مع
صور تت</w>
صور تشان</w>
صومع ه</w>
ض ات</w>
ض اد</w>
ض جه</w>
ض خانه</w>
ض دیت</w>
ض ل
ض یا
ضخی می</w>
ضد تروریستی</w>
ضد جرم</w>
ضر ایب</w>
ضر باتی</w>
ضر ری</w>
ط بخ</w>
ط بعی</w>
ط ت</w>
ط فو
ط مان
ط ولی</w>
ط ویل</w>
ط پانچه</w>
ط یون</w>
طبی عت
طبیعت تو</w>
طر از</w>
طر ح
طر حش</w>
طر د</w>
طر های</w>
طرف انه</w>
طرف تر</w>
طرف داری</w>
طفو لیت</w>
طل ایش</w>
طل بد</w>
طل بیده</w>
طمان ینه</w>
طمط راق</w>
طور ند</w>
طور که</w>
ظ ار</w>
ظ روف</w>
ظ ش</w>
ظ فر
ظ لم</w>
ظ نین</w>
ظ هری</w>
ظ هور
ظال مانه</w>
ظاه رش</w>
ظل مات</w>
ع اده</w>
ع اریت</w>
ع امیانه</w>
ع اید</w>
ع باد
ع بری</w>
ع بوس</w>
ع جیبش</w>
ع داوت</w>
ع ر</w>
ع ز</w>
ع فن</w>
ع فیفی</w>
ع لام</w>
ع نص
ع کس
ع یا
عاد تی</w>
عال می</w>
عام لان</w>
عام لیت</w>
عب دی</w>
عب ورش</w>
عبد ور
عبدا لن
عبدال رئوف</w>
عبدال سلام</w>
عبدال غنی</w>
عبدال فتاح</w>
عبدال قدیر</w>
عبدال واحد</w>
عبدالو هاب</w>
عبدور اخیموف</w>
عتی قه</w>
عث مانوف</w>
عذ را</w>
عر فا</w>
عرو سکی</w>
عز اداری</w>
عزی زه</w>
عشق م</w>
عص ا</w>
عص ایش</w>
عص ب</w>
عص رانه</w>
عض ب</w>
عض له</w>
عظی موف</w>
عفو نی</w>
عق لت</w>
عق لم</w>
عق ولی</w>
عقب تر</w>
عقب ش</w>
عقر به</w>
عل امات</w>
عل تش</w>
علا وی</w>
علائ می</w>
علاق من
علاق مندی</w>
علاقمن دیم</w>
علو فه</w>
علی وا</w>
عم ار</w>
عم روف</w>
عمر انی</w>
عمر ت</w>
عمو زاده</w>
عمو های</w>
عمو ی</w>
عمو یم</w>
عنص ری</w>
عنو انی</w>
عو اید</w>
عی دی</w>
عیا ض</w>
غ ات</w>
غ ارتگران</w>
غ اص
غ دیر</w>
غ را</w>
غ رابت</w>
غ رم</w>
غ ری</w>
غ زالی</w>
غ زلی</w>
غ شان</w>
غ شای</w>
غ شی</w>
غ صب</w>
غ فور</w>
غ ل</w>
غ لت</w>
غ له</w>
غ مناک</w>
غ می</w>
غ نا</w>
غ نایی</w>
غ نوده</w>
غ ور</w>
غ ولی</w>
غافل گیرانه</w>
غذ ایش</w>
غر بال</w>
غر بالگری</w>
غر ببه</w>
غر غر
غرغر کنان</w>
غری قی</w>
غض بناک</w>
غل طی</w>
غلی ان</w>
غی اب</w>
غی بتش</w>
غی را
غی ور</w>
غیر حرفه</w>
غیر سنتی</w>
غیر عادی</w>
غیر فعال</w>
غیر قطری</w>
غیر مترقبه</w>
غیر مجاز</w>
غیر محتمل</w>
غیر مسلح</w>
غیر مسلمان</w>
ف ام</w>
ف اموری</w>
ف ای
ف ایق</w>
ف تاد</w>
ف دار
ف در</w>
ف رین</w>
ف ستیوال</w>
ف صاح
ف لات</w>
ف لوت</w>
ف لیت</w>
ف هوم</w>
ف هیم</w>
ف کا</w>
ف یر</w>
فا ئی</w>
فا خر</w>
فا ذ</w>
فا کتور
فا کتورها</w>
فاتح انه</w>
فار سی</w>
فاس دی</w>
فال ز</w>
فاو وریت</w>
فت نه</w>
فت یله</w>
فتو ای</w>
فجی عی</w>
فدا کارانه</w>
فر ایندی</w>
فر جام</w>
فر جامی</w>
فر زندم</w>
فر سای</w>
فر ست</w>
فر سخی</w>
فر سودگی</w>
فر ضا</w>
فر قش</w>
فر مت</w>
فر مو
فر مول
فر می</w>
فر ن</w>
فر نان
فر نگی</w>
فر هنگ
فر گانه</w>
فر گشتی</w>
فر گو
فرا خوانده</w>
فرار یان</w>
فرار یت</w>
فرام الیاتی</w>
فران کف
فران کی</w>
فران ید</w>
فرانکف ورت</w>
فرزند خواندگی</w>
فرزند ش</w>
فرزندان م</w>
فرمان داران</w>
فرمانرو ای</w>
فرمای ان</w>
فرمای ش</w>
فرن چ</w>
فرنان دا</w>
فرو ختم</w>
فرو ختن</w>
فرو ختند</w>
فرو خورده</w>
فرو ریخته</w>
فرو زان</w>
فرو می</w>
فرو ند</w>
فرگو سن</w>
فری ادهایی</w>
فری ادکنان</w>
فری فته</w>
فش ارش</w>
فش ارم</w>
فشر دند</w>
فص ول</w>
فض اپی
فض ایل</w>
فض ول</w>
فع الی</w>
فعال سازی</w>
فعالی تش</w>
فل ان
فل ان</w>
فل سفی</w>
فل مینگ</w>
فل وی
فل کس</w>
فلا ش</w>
فلور ین</w>
فلوری دا</w>
فلی کس</w>
فن آوری</w>
فهمی دن</w>
فو می
فو ندا</w>
فور دز</w>
فور دهام</w>
فور س</w>
فور مت</w>
فومی چ</w>
فکر شان</w>
فکر می</w>
فکر ها</w>
فکر های</w>
فی اچنا</w>
فی زی
فی فا</w>
فی قی</w>
فی لا
فی نال</w>
فی چ</w>
فیل تر</w>
فیل ترینگ</w>
فیل م
فیلا دلفیا</w>
فیلم برداری</w>
فیلی پس</w>
ق اد
ق اصد</w>
ق اصر</w>
ق انی</w>
ق اونو</w>
ق بی</w>
ق را
ق شان</w>
ق شونی</w>
ق ق
ق ق</w>
ق ناد</w>
ق ندی</w>
قائ د</w>
قاب له</w>
قادر ند</w>
قانو نم
قب طیون</w>
قبر ها</w>
قبر های</w>
قد متی</w>
قدر تم</w>
قدرت من
قدی س</w>
قر ارش</w>
قر ق</w>
قرار دادهایی</w>
قرار می</w>
قرار گاه</w>
قربان قلی</w>
قربان ی
قش نگه</w>
قشنگ ند</w>
قص ابی</w>
قص ان</w>
قص دی</w>
قصد شان</w>
قط ارها</w>
قط ارهای</w>
قط اع</w>
قف سی</w>
قق نوس</w>
قل قل
قل می</w>
قلقل ک</w>
قلو ه</w>
قن اری</w>
قهر مان
قهرمان انه</w>
قهو هی</w>
قو ایش</w>
قو ب</w>
قو زک</w>
قو میت</w>
قو میتی</w>
قی دانی</w>
قی دی</w>
قی صار</w>
قی متش</w>
ل آنه</w>
ل ئون</w>
ل ارو</w>
ل ایت</w>
ل این
ل تون</w>
ل تونی</w>
ل ث
ل ج</w>
ل جاجت</w>
ل دها</w>
ل شان</w>
ل ص</w>
ل له</w>
ل مان</w>
ل مسی</w>
ل مو</w>
ل نت</w>
ل ند
ل وری</w>
ل ویس</w>
ل ویش</w>
ل پر
لئو نارد</w>
لا تر</w>
لا توف</w>
لا ج</w>
لا جرم</w>
لا جوردی</w>
لا خ</w>
لا فورس</w>
لا ورو
لا ک
لا کت</w>
لا کش</w>
لا گ</w>
لام سه</w>
لان گ</w>
لانگ اروتی</w>
لاه ه</w>
لاه وتی</w>
لاورو شکا</w>
لب اسم</w>
لب انتان</w>
لب ن</w>
لب نی</w>
لبخ ندش</w>
لر زشی</w>
لر زم</w>
لزو ما</w>
لشکر گاه</w>
لع ل</w>
لغ ات</w>
لغ ز</w>
لغ زاند</w>
لغ زنده</w>
لق مه</w>
لن تا</w>
له له</w>
لو با</w>
لو بیا</w>
لو توس</w>
لو تی</w>
لو فور</w>
لو ل
لو مان</w>
لو ور</w>
لو کو</w>
لو گو</w>
لوئ یس</w>
لوا کی</w>
لور ن</w>
لوکو مو
لوکومو تیو</w>
لگ د
لی تلفینگر</w>
لی ری</w>
لی ز
لی زر</w>
لی ستی</w>
لی نا</w>
لی وس</w>
لی وی
لی چ</w>
لیبر الیسم</w>
لیمو یی</w>
لیو ک</w>
لیوی نگ</w>
م امی
م این</w>
م باشر</w>
م بالغه</w>
م بالغی</w>
م بان</w>
م بری</w>
م تاث
م تال</w>
م تو</w>
م تیو</w>
م داخ
م داری</w>
م رین</w>
م فت</w>
م فرط</w>
م قره</w>
م لاح</w>
م لول</w>
م مد
م میزی</w>
م نی
م همی
م ژه</w>
م کاری</w>
م کاوی</w>
م کر</w>
م کشو
م کمی
م کنت</w>
م گفت</w>
ما توا</w>
ما درید</w>
ما زن</w>
ما ش</w>
ما شته</w>
ما شن</w>
ما قبل</w>
ما ورا</w>
ما چو</w>
ما چی</w>
ما ک</w>
ما گل</w>
ماجرا ها</w>
ماد لین</w>
مادا گ
ماداگ اسکار</w>
مادر های</w>
مار تی</w>
مار سکی</w>
مار شالی</w>
مار مول
مار کوس</w>
مار یان</w>
مار یو</w>
مارگار تا</w>
ماشی نو</w>
ماف وق</w>
مال ا</w>
مال ای</w>
مال ت</w>
مال کین</w>
مال یر</w>
مالی دم</w>
مام ون</w>
مان دنی</w>
مان دی</w>
مان سون</w>
مان ندش</w>
مان ور</w>
مان ورها</w>
مان گی
مان ید</w>
ماند لا</w>
مانگی ست
مانی تور</w>
مانی تورینگ</w>
ماه وت</w>
ماهی گیران</w>
ماک ائو</w>
ماکار ونی</w>
مب ایف</w>
مب حث</w>
مب لی</w>
مباد لاتی</w>
مبار زاتی</w>
مبار زی</w>
مبت دی</w>
مبر هن</w>
مبل غان</w>
مبل مان</w>
مبه می</w>
مت ال
مت بسم</w>
مت جاو
مت دین</w>
مت رو
مت زلزل</w>
مت ضاد</w>
مت ع</w>
مت فرق</w>
مت قاضی</w>
مت قبل</w>
مت لاک</w>
مت م
مت ین</w>
متا داده</w>
متاس فی</w>
متح قق</w>
متخل فان</w>
متر سک</w>
متر قی</w>
متع ال</w>
متع امد</w>
متع امل</w>
متعاق با</w>
متف اوته</w>
متقاع دش</w>
متلا طم</w>
متن فرش</w>
متنا وب</w>
متو ازن</w>
متو اضع</w>
متی ل</w>
مث ابه</w>
مث انه</w>
مث له</w>
مج اب</w>
مج ان</w>
مج اهد</w>
مج د</w>
مج ری</w>
مج زای</w>
مج عد</w>
مج وزی</w>
مجال ست</w>
مجاه دان</w>
مجبور ند</w>
مجر دی</w>
مجل سی</w>
مح راب</w>
مح مدی</w>
مح نت</w>
مح ورها</w>
مح ول</w>
محتاج م</w>
محدو دکننده</w>
محدو دیتی</w>
محسو سی</w>
محمد علی</w>
محمو دی</w>
مخ رو
مخ لص</w>
مخ لوع</w>
مخ مل</w>
مخاط بین</w>
مخال فتی</w>
مخال فند</w>
مخال فین</w>
مخت ار</w>
مختص ات</w>
مد انی</w>
مد ح</w>
مد ع
مد لی</w>
مدا لی</w>
مدار ج</w>
مدد کار</w>
مدد کاران</w>
مدر ج</w>
مدر سان</w>
مدر نی
مدل ل</w>
مدو دوف</w>
مدول ار</w>
مدی ا</w>
مدیر کل</w>
مر ان</w>
مر بعات</w>
مر بیگری</w>
مر تا</w>
مر دانش</w>
مر دهایی</w>
مر دیکه</w>
مر زبان</w>
مر زبانی</w>
مر س</w>
مر غی</w>
مر فه</w>
مر لین</w>
مر مری</w>
مر مرین</w>
مر ود</w>
مرا جعان</w>
مرد نامرئی</w>
مردان گی</w>
مرغ ابی</w>
مرغ ان</w>
مرغ وب</w>
مرمو زی</w>
مرو ری</w>
مرواری دی</w>
مرک بات</w>
مرگ باری</w>
مرگ ت</w>
مری دان</w>
مری ضخانه</w>
مز اجی</w>
مز ایایی</w>
مزخر فی</w>
مس آبقه</w>
مس ایلی</w>
مس ببین</w>
مس جدالاقصی</w>
مس جدی</w>
مس خر</w>
مس لول</w>
مس واک</w>
مس ون</w>
مس کنت</w>
مسا فرین</w>
مسا وات</w>
مست اج
مست حقش</w>
مست خدم</w>
مست ه
مست ور</w>
مسته جن</w>
مسط ح</w>
مسل ک</w>
[...]
